#version: 0.2
ä ¸
ï ¼
ã Ģ
ä º
ç ļ
çļ Ħ
ï¼ Į
å ħ
ä »
æ ľ
å ®
å ı
ãĢ Ĥ
ãĢ ģ
äº º
å Ī
å Ĭ
å į
ç Ķ
æ Ŀ
å Ľ
å Ĳ
æ ³
ä ½
ç »
æ Ī
å º
å ¤
æ³ ķ
è ¡
è ¿
è ®
å Ĵ
è ¯
å ľ
åĴ Į
ç ¬
è ´
ä ¼
ç¬ ¬
æ ĸ
ä» ¥
æ Ķ
å ½
è §
è¡ Į
å® ļ
æ °
è Ģ
æľ ī
æ ī
æĿ ¡
å Ĩ
é Ļ
ä¸ Ģ
åį ģ
ä ¹
åĽ ½
ç Ľ
æ Ĭ
æ° ĳ
åº Ķ
ä ¿
é ĩ
èĢ ħ
å ¾
å ¯
é Ģ
å ¹
æ ĺ
å ĳ
å½ ĵ
æĪ ĸ
è§ Ħ
æ Ĺ
åħ ³
æ ł
ç ®
ä ¾
å ĩ
ç Ĳ
ä¼ ļ
é Ĺ
åĬ ¡
çĶ ¨
æ ķ
çĲ Ĩ
å Į
æĪĸ èĢħ
å ·
åı ¯
åľ ¨
ä¸ ļ
ä¸ į
åºĶ å½ĵ
ç º
å ¼
æ ŀ
æĶ ¿
è µ
ç® ¡
ç ī
äº ĭ
åħ ¶
äºº æ°ĳ
å Ń
çĶ Ł
å ¸
æ İ
æ į
å °
ç Ń
ä¸ º
ç ½
è§Ħ å®ļ
æľ º
æ Į
ä¿ Ŀ
å¯ ¹
ï¼ Ľ
åĳ ĺ
ç §
ä¸ Ń
å ±
åħ ¬
é ĥ
¦ ģ
å· ¥
ä½ ľ
ç «
äº Į
æ Ń
åĲ Ī
äº §
æĺ ¯
åľ °
æ Ģ
éĥ ¨
è ¦ģ
ï¼ ī
ï¼ Ī
æ ı
æĿ ĥ
é ¢
ä¸ ī
ä¸ Ĭ
åı¯ ä»¥
å® ¶
ä» ĸ
è ĥ
è´ £
è ĩ
æĸ ¹
æ ĭ
ç» ı
å¤ Ħ
æľ ¬
ï¼ ļ
åı ĳ
éĹ ¨
å ĵ
æĪ Ĳ
åĩ º
æ µ
åĪ ¶
æı Ĳ
èĥ ½
çŃ ī
æį ®
åħ ¨
ä¸ ĭ
ä¸ ª
æ ¬
åĬ ¨
æ ĥ
éĻ ¢
çī ©
å Ł
è® ¾
éĥ¨ éĹ¨
æĹ ¶
äº Ķ
ç İ
æ ²
æ Ł
åĲ Į
è ģ
å¹ ¶
ä¸ »
æ ±
è¿ Ľ
ä¾ Ŀ
å İ
ä» »
å ģ
èĩ ª
è¯ ģ
åĽ½ å®¶
æī Ģ
å® ī
æĸ ½
ç®¡ çĲĨ
ç ħ
ç ¨
è ¾
çĶ ±
åĽ Ľ
å® ŀ
å¾ ĭ
çº §
å¾ Ĺ
æŀ Ħ
å »
åı Ĭ
çħ §
èµ Ħ
æĥ ħ
æľ Ł
åħ¶ ä»ĸ
åĵ ģ
åĪ Ĩ
é Ŀ
å ¦
æľī åħ³
ç Ļ
å¤ §
ä½ ĵ
å» º
éĢ ļ
çĽ ĳ
é ĺ
å¹ ´
æ ´
åŃ ¦
å §
ä½ į
åĪ ©
éĩ į
ç ¤
æĬ ¤
èģ Į
äº İ
è¯ ·
æ³ķ å¾ĭ
è¡Į æĶ¿
åį ķ
é ģ
è Ĥ
æ¬ ¾
è¡ ¨
å Ģ
æł ¹
åº ľ
è® ®
ä» £
æĶ¿ åºľ
æ Ħ
æł¹ æį®
ä» ¶
ç» Ħ
äºº åĳĺ
é ľ
åı ĸ
åĮ º
å ¥
æľº æŀĦ
åħ ±
è Ī
å ¢
ä½ ¿
è¿ ĩ
åħ Ń
å·¥ ä½ľ
ä»¥ ä¸Ĭ
æ ¡
éĩ ĳ
äº Ĩ
é ¡
æĪ ĳ
å¦ Ĥ
ä¸ İ
å ¿
æľ ª
æ ¸
åĨ ħ
ç ĸ
è ½
æŁ ¥
è¿ Ŀ
ç« ł
çĽ ¸
å§ Ķ
å ī
äº ¤
æĸ ĩ
å¤ ĸ
åı Ĺ
è¿Ľ è¡Į
åĨ ³
å®ī åħ¨
æĶ ¶
å¼ Ģ
è °
æ± Ĥ
ä¿ ¡
ç¬¬ äºĮ
éľ Ģ
æĺ İ
è Ĳ
åįķ ä½į
ç¤ ¾
æĢ §
ä¾Ŀ æ³ķ
ç« ĭ
åĲ ĳ
åĩ Ĩ
æ¡ Ī
ä¾ Ľ
æĬ ¥
ç» ĩ
äººæ°ĳ æĶ¿åºľ
çĻ ¾
ç»Ħ ç»ĩ
éĻ ©
æ ģ
ç ¡
ç Ŀ
æł ĩ
ç Ł
ä¸ ĥ
æľº åħ³
æ ¯
åĬ ł
è ¢
è´£ ä»»
æī ¿
ç¨ ĭ
ç½ ª
æ £
æĮ ī
ç½ ļ
åĲ İ
ç Ĭ
è¢ «
åĳ Ĭ
ä¹ ĭ
å¢ ĥ
åĮ ĸ
è¡Į ä¸º
ãĢ ĭ
ãĢ Ĭ
åĪ °
æŀ ľ
æĹ ¥
åĽ ł
ä»¥ ä¸ĭ
é ļ
è¿ Ļ
èĲ ¥
åı ¸
æ´ »
æĬ Ģ
éĺ ²
è§ £
åĽ½ åĬ¡
å± ķ
æľ¬ æ³ķ
æ£ Ģ
åĽ½åĬ¡ éĻ¢
åħ ·
ç¬¬ ä¸ī
è® ¡
åĬ Ľ
æĦ ı
æ² »
æķ °
æİ ¥
ç¡ ®
åħ «
è´ ¢
ç§ į
ä»£ è¡¨
ä¸» ç®¡
éľĢ è¦ģ
æıĲ ä¾Ľ
ç» Ļ
å§Ķ åĳĺ
æĮ ģ
å® ¡
å° Ĩ
éĩ ĩ
ç¬¬ ä¸Ģ
çİ °
ä½¿ çĶ¨
æķ Ļ
é Ķ
æĮī çħ§
çī ¹
é Ľ
äº Ī
ç¤¾ ä¼ļ
åŁ º
æľ į
åĪ ĳ
è £
è¿ Ĳ
è° ĥ
å ķ
é «
ä¿Ŀ æĬ¤
å¸ ¸
é« ĺ
æµ ·
åı į
é £
èĤ ²
åĨ µ
å§Ķåĳĺ ä¼ļ
æŃ £
åħ¬ åı¸
æ° ´
è Ĭ
çĿ £
ä» ¬
å® ³
ç¬¬ åįģ
æľ ¯
éĻ Ĳ
åĨ ľ
æ ¶
æĶ ¯
ä¹ Ŀ
éĹ ´
åī į
çĽ Ĭ
æģ ¯
è¯ ¥
ä¼ ģ
åĬ ©
è¯ ī
åħ ĥ
åķ Ĩ
éĿ ¢
çĽĳ çĿ£
æ³ķ éĻ¢
æ Ľ
çĶ ³
ä¼ģ ä¸ļ
é¡ ¹
ç ©
éĩ ı
æī §
çĬ ¯
åħ ¥
å° ı
å¸ Ĥ
è´ ¹
æ Ļ
è į
åº ¦
åį ı
èµ ·
å¤ ĩ
ç ³
çĶŁ äº§
æĿ ¥
åİ Ł
åŃ Ĳ
æĶ ¹
éĢ ł
æĥħ åĨµ
æ Ĥ
å¼ ı
é ķ
ä» İ
åľ º
çĶ µ
åĲ į
æĬĢ æľ¯
ä¸ª äºº
è´ Ł
ä¸į å¾Ĺ
ç¬¬ åĽĽ
ä¿¡ æģ¯
æĮ ĩ
è´ ¨
ç»ı èĲ¥
ä¹ ¦
åĲ Ħ
çĽ ´
æľį åĬ¡
èĬ Ĥ
éĹ ®
ç ¼
çİ ¯
ï¼ Ł
æĽ ´
æĭ ħ
çŁ ¥
ç³ »
ä¸»ç®¡ éĥ¨éĹ¨
ä¸ ĵ
è§Ħå®ļ çļĦ
åĮ ħ
ä¹ ī
æİ ª
æ´» åĬ¨
ç ľ
åŁ Ł
é¢ ĺ
åĪ Ĵ
åĪ Ĺ
å¼ º
ç ł
æİª æĸ½
åĬ ŀ
çĶ³ è¯·
æ º
ç» ĵ
ç ±
ç ķ
éĻ ¤
æķĻ èĤ²
è® °
è ¶
åĨ Ľ
é ª
æį Ł
æĹ ł
æŃ ¢
éĢ Ĥ
çº ¦
æķ Ī
çĽ ®
äºº çļĦ
ç¬¬ äºĶ
ç¬¬äºĮ åįģ
åģ ¿
æº Ĳ
çļĦ è§Ħå®ļ
â Ģ
ç® Ĺ
åį İ
åĲĪ åĲĮ
åĮ »
åİ ¿
å¤§ ä¼ļ
é¢ Ħ
æ ®
é ħ
æĸ °
éķ ¿
éĿ ŀ
éĢ ī
äººæ°ĳ æ³ķéĻ¢
åĢ º
éĶ Ģ
ä¸ ĩ
å¤ ļ
éĩĩ åıĸ
å»º è®¾
ä¾Ŀ çħ§
çĽ¸ åħ³
åĪ «
è´¢ äº§
å Ŀ
ç Ĥ
ç¨ İ
ä¸ ¥
åĪ Ļ
ç ¥
ä¿Ŀ éĻ©
å¯ ¼
ç Ĺ
ç Ħ
è¦ģ æ±Ĥ
äº Ľ
å¥ ½
è¿Ŀ åıį
åĨ³ å®ļ
èĢ Į
çĬ¯ ç½ª
ä½ Ĩ
é¢ Ŀ
åľ° æĸ¹
ä¸Ń åįİ
å½ ¢
å¯ Ł
ä¸ĩ åħĥ
çİ¯ å¢ĥ
ä½ ł
Ġ t
æŃ ¤
ç§ ĳ
åıĳ å±ķ
æī ¹
å¤ į
è® ¤
å¦Ĥ æŀľ
å¤Ħ çĲĨ
ç¬¬ä¸ī åįģ
æł ¼
æī§ è¡Į
çĦ ¶
æī ĺ
åĴĮ åĽ½
éĽ Ĩ
å½ ±
éģ ĵ
ä»£è¡¨ å¤§ä¼ļ
é ¦
å¤ ±
çĹ ħ
åİ¿ çº§
éĹ® é¢ĺ
ç¬¬ åħŃ
è Į
è ī
äººæ°ĳ åħ±
ä¸Ģ ä¸ª
æľ Ģ
ç» Ł
ä¸Ńåįİ äººæ°ĳåħ±
ä¸Ńåįİäººæ°ĳåħ± åĴĮåĽ½
åº ı
è¿Ŀ æ³ķ
ä» ĺ
éĢļ è¿ĩ
æ² ¡
æĬ ķ
è´Ł è´£
ä»¥ åıĬ
ç± »
è´ §
åľ Ł
ä» ·
äººæ°ĳ ä»£è¡¨å¤§ä¼ļ
ä» ¤
å± ¥
æĶ ¾
åį ±
å®ŀ æĸ½
è ·
æĤ ¨
ä¸ĥ æĿ¡
æ³ķ è§Ħ
è£ ģ
ä¹ Ł
å±¥ è¡Į
i n
å¹ ³
åħ« æĿ¡
åŃ ĺ
éļ ľ
æĺ ĵ
æĸ Ļ
è® ¸
ä¹Ŀ æĿ¡
ä¼ ł
é¢ Ĩ
ä¸Ģ æĿ¡
åİ¿çº§ ä»¥ä¸Ĭ
å¿ ħ
åı ĺ
æĿ ĳ
çĸ Ĺ
å¤Ħ ç½ļ
åı Ĥ
åģ ¥
èĮ ĥ
Ġ a
ç½ ®
åĬ ³
æ¬ ¡
ç¬ ¦
æŁ ĵ
åı £
ç¬¬åĽĽ åįģ
è½ ¬
åĪ ¤
å½ĵ äºĭ
äºĮ æĿ¡
è¿ ĺ
åħ »
è º
æľ Ī
ä½ ķ
ä¸ī æĿ¡
çĽĳçĿ£ ç®¡çĲĨ
æĢ »
é£ Ł
è® ¼
h e
è¯ī è®¼
èº «
åĽĽ æĿ¡
å ĸ
è¾ ĵ
èĪ ¹
åĪ¶ å®ļ
è®¾ æĸ½
æī¿ æĭħ
ç½ļ æ¬¾
æł ¸
åĪ ¸
ä¸¥ éĩį
æµ ģ
çĤ ¹
æķ ħ
ç ¦
æĸ¹ å¼ı
é ĵ
äºĶ æĿ¡
æµ İ
æ »
ç¬¬ä¸Ģ çĻ¾
ç ´
ä¸ĭ åĪĹ
çĽ´ æİ¥
åħŃ æĿ¡
å± ŀ
éª Į
åħ¨ åĽ½
Ġ åĽ½å®¶
åĬ³ åĬ¨
æ± ¡
æłĩ åĩĨ
ç¬¦ åĲĪ
ç»ı æµİ
æİ ¨
èµ Ķ
åı¯ èĥ½
æĢ ģ
æī¹ åĩĨ
ç© ¶
ç¬¬äºĶ åįģ
æĿ¡ ä»¶
è¯ Ħ
ä¼ļ è®®
å½ĵäºĭ äºº
æĿĥ åĪ©
æľīåħ³ éĥ¨éĹ¨
æĪ ·
æ³ ¨
ç»Ļ äºĪ
ä¿ ®
æĪĳ ä»¬
æ¶ Ī
æİ §
éħ į
å Ļ
åĵ į
å° ±
èĤ ¡
åŁº éĩĳ
çĻ »
èµĶ åģ¿
è® ©
ä¿Ŀ éļľ
ç½ ĳ
åĴĮ åħ¶ä»ĸ
è¯ģ åĪ¸
r e
åº Ń
è´£ ä»¤
éĢł æĪĲ
ç ģ
æıĲ åĩº
ä¸ ¾
æµ ĭ
åħ Ī
æİ Ĵ
ä¹ī åĬ¡
é Ĥ
å½ ¹
è¯· æ±Ĥ
å½± åĵį
ä» ½
åĽ ŀ
å¸¸ åĬ¡
èį ¯
ç Ī
è§Ħ åĪĴ
è Ń
çĻ» è®°
åį «
èģĮ è´£
å¸¸åĬ¡ å§Ķåĳĺä¼ļ
å¥ ³
äº§ åĵģ
å®ļ çļĦ
èŃ ¦
æķ ĳ
o n
åĮ» çĸĹ
è Ļ
æķ ´
å Ķ
åıĬ æĹ¶
å± ħ
å® Į
æĬ¥ åĳĬ
è®¸ åı¯
ç¥ ¨
ä¸Ń åĽ½
ç¬¬ ä¸ĥ
æľī æĿĥ
æĻ º
ç ¾
æī ĭ
æ Ĵ
å¸ Ī
å»º ç«ĭ
è´ Ń
åĻ ¨
å· ²
å¸ ĥ
Ġ Ġ
åıĳ çĶŁ
èµĦ æºĲ
å° ĳ
å ŀ
åĪ© çĶ¨
åħ¬ åħ±
æ²¡ æľī
çº ³
å½ ķ
éĻ ħ
ç» Ń
èĪ ª
ç© º
æ¸ ħ
åį« çĶŁ
é£ İ
å¸ ®
åľŁ åľ°
èĩª æ²»
ä¾ ĭ
è¯ Ĩ
å¯ Ĩ
æĭ ¬
åĬł å¼º
åħ· ä½ĵ
ä¾ µ
ä¼ ĺ
åıĬ åħ¶
é ©
ç¬¬åħŃ åįģ
è¿Ĳ è¾ĵ
æ° Ķ
æĿĥ çĽĬ
è½ ¦
å¼Ģ å±ķ
åº ·
èģĮ ä¸ļ
æ¡Ī ä»¶
æ±¡ æŁĵ
å £
äº¤ éĢļ
æĻº èĥ½
åĮħ æĭ¬
å ©
åĲ ¦
è£ ħ
çī¹ åĪ«
ä½ľ åĩº
çľ ģ
e r
è¿ °
åĸ Ħ
ç ²
å® ¹
åĽ ´
æĶ¯ æĮģ
è¾ ĸ
ç¨ĭ åºı
ä¹ĭ ä¸Ģ
ç» ´
å¹ ¿
åį ĸ
è¾ ¾
åĪ¶ åº¦
åĽł æŃ¤
åħ¨åĽ½ äººæ°ĳä»£è¡¨å¤§ä¼ļ
æ£Ģ æŁ¥
çł Ķ
ä¹ ł
è§ ģ
æ ·
è¿ ½
2 0
åĬ ±
å¿ ĥ
å· ±
ä»İ äºĭ
ç¦ »
æł ¡
æĹ¶ éĹ´
èģ Ķ
åħ į
ä¹ Ī
ç ĭ
èĩ ´
èĩª å·±
åĶ ®
æīĢ å¾Ĺ
éĢĤ çĶ¨
æľŁ å¾
æĥħ èĬĤ
åģ¥ åº·
è ĭ
çĶŁ æĢģ
ç¤ º
è· ¯
åĢº åĬ¡
å® ¢
éĢ Ģ
è¡ĮæĶ¿ åĮº
åģ ľ
âĢ Ŀ
âĢ ľ
æĥħ å½¢
åĪĳ äºĭ
Ĵ åĪĳ
å¼ ķ
èĢ ĥ
æľŁå¾ ĴåĪĳ
å® ĥ
ç ĥ
äº «
ç§ °
è°ĥ æŁ¥
çº§ äººæ°ĳæĶ¿åºľ
å ĭ
åĩ ı
e n
èĥ½ åĬĽ
æķ° æį®
è İ
å© ļ
æ£Ģ å¯Ł
å¸® åĬ©
è¯ ´
è´¨ éĩı
çĸ «
ä» ²
å ²
è®¾ ç«ĭ
æ¶ ī
æĶ¯ ä»ĺ
Ġt he
çŃ ¾
ä¸ĩåħĥ ä»¥ä¸ĭ
ä»² è£ģ
æĪĸèĢħ åħ¶ä»ĸ
æĪĲ å¹´
æĦ Ł
åħ¬ å®ī
ç ¦ģ
åħ³ ç³»
æĬķ èµĦ
æľŁ éĻĲ
èĪ ¶
Ġ s
æĢ ¥
èĪ¹ èĪ¶
çĶŁ æ´»
æĸĩ åĮĸ
å¤ ©
å¾ ģ
æĺ¯ åĲ¦
è¡ ¥
åĪ Ľ
éĩį è¦ģ
åĨľ ä¸ļ
a t
åĲĪ æ³ķ
åĽ ¢
è¿Ŀåıį æľ¬æ³ķ
äº¤ æĺĵ
äºĪ ä»¥
è¯ Ń
åŃ Ĺ
ç¡® å®ļ
æ¸ ¯
æıĲ é«ĺ
æĪ ¿
çĸ ¾
æ» ¡
éĩį å¤§
ç¬¬ åħ«
æ¯ ı
æ¯ Ķ
èĮĥ åĽ´
è§ Ĩ
èī ²
è ĳ
ä¹ °
ç§ĳ åŃ¦
åĨľ æĿĳ
åįı è®®
æĿ Ĳ
æįŁ å¤±
é¡ »
ä¸ĵ ä¸ļ
è®¾ å¤ĩ
æľª æĪĲå¹´
å§Ķ æīĺ
æľī æľŁå¾ĴåĪĳ
éĥ ½
æľīåħ³ è§Ħå®ļ
å® Ī
åĬŀ çĲĨ
é Ĵ
éĢ ģ
èį ī
æĹ¥ èµ·
é ¼
çķ Ļ
åħ· æľī
æ¸ ¸
éĵ ¶
æĶ¹ æŃ£
ä¸ļ åĬ¡
äºº å·¥
åħ³ äºİ
åĢ ¼
ä½ ı
èĩª çĦ¶
åľ°æĸ¹ äººæ°ĳæĶ¿åºľ
åį± éĻ©
è¡ĮæĶ¿ æ³ķè§Ħ
æŀĦ æĪĲ
æĥ ³
éĺ Ł
æ°ĳ äºĭ
å® ĺ
åīį æ¬¾
ä»» ä½ķ
éĵ¶ è¡Į
æĹ ħ
å°ı æĺİ
åį ³
ç ª
åŁ İ
åĪ© çĽĬ
ä½Ĩ æĺ¯
äºĭ æķħ
ä¸Ń çļĦ
ç§ Ł
åŃ¦ æł¡
é£Ł åĵģ
åı ¦
æŁ Ĳ
i s
æįŁ å®³
è ±
æĭ Ĵ
ç¬¬ä¸ĥ åįģ
é¡¹ çĽ®
åħ± åĲĮ
èİ ·
ä¸ ¤
è´¹ çĶ¨
o r
æŃ ¥
è ŀ
æĹ ı
ç¼ ´
ç§ »
åıĸ å¾Ĺ
çĬ ¶
çł ´
åıĳ çİ°
åĨħ å®¹
äºĭ é¡¹
æĸ¹ éĿ¢
è® º
ä¼ Ļ
æŀ Ĺ
çº¦ å®ļ
åĢº æĿĥ
å¼Ģ åıĳ
ç ¢
ä¸Ģ äºĽ
åºĶå½ĵ æĮīçħ§
é¼ ĵ
a n
æİ¥ åıĹ
å¸Ĥ åľº
æİ§ åĪ¶
çłĶ ç©¶
åĲĮ æĹ¶
èŀ į
éĶĢ åĶ®
çļĦ ç½ļæ¬¾
åŁ ¹
åĬ¨ çī©
è¶ ħ
äº ī
è§ Ĥ
ä¸ĩåħĥ ä»¥ä¸Ĭ
æĸ Ń
è®¡ ç®Ĺ
ç¼ ĸ
éĢļ çŁ¥
ä¸ Ķ
äºĮ åįģ
é¼ĵ åĬ±
åŃ¦ ä¹ł
ç»´ æĬ¤
å¢ ŀ
ä¿ ĥ
æĺ¯ æĮĩ
e s
çŃ ĸ
åħ¬å®ī æľºåħ³
æĪĲ åĳĺ
ä»ĸ äºº
åİ¿çº§ä»¥ä¸Ĭ äººæ°ĳæĶ¿åºľ
äººå·¥ æĻºèĥ½
éĿŀ æ³ķ
è¯ģ æį®
å¿ħ é¡»
å®ŀ è¡Į
æ ļ
èĢ ģ
é »
ä¸ ľ
å¹¶ å¤Ħ
ä¹ ¡
æĦı è§ģ
åŀ ĭ
åĴĮ ä¸ªäºº
å»º è®®
ç» Ī
è® ¢
å·² ç»ı
è® Ń
å¿ħ è¦ģ
å± Ĭ
è´§ çī©
ä¼ °
å·¥ ç¨ĭ
å¸ ¦
ä¸į åĲĮ
è¿ĩ ç¨ĭ
æīĢ æľī
éĻ Ħ
ç» §
å®¶ åºŃ
å·¥ä½ľ äººåĳĺ
çĿ Ģ
åºĶ çĶ¨
éģ µ
éģ Ĺ
çĽ¸ åºĶ
è¿Ŀæ³ķ æīĢå¾Ĺ
æ® µ
è¯ģ æĺİ
åıĤ åĬł
ä¼ ¤
è¶ ³
çļĦ è¡Įä¸º
åĨ į
æĭ ĺ
åĲĪ ä½ľ
åħ¨åĽ½äººæ°ĳä»£è¡¨å¤§ä¼ļ å¸¸åĬ¡å§Ķåĳĺä¼ļ
Ġ c
åľº æīĢ
éĽ ¶
æĬ ¼
é£İ éĻ©
èĩ ³
è¯Ħ ä¼°
è®¡ åĪĴ
åĲĪ ä¼Ļ
åģ ĩ
ç¦ģ æŃ¢
0 0
å Ĥ
èį¯ åĵģ
æ® ĭ
ç» ľ
è ¨
èĩªæ²» åĮº
åį ĥ
ç¾ İ
æ ĵ
åħ¬ æ°ĳ
ç½ĳ ç»ľ
åº Ł
å® £
ç§ ģ
äºĭ ä¸ļ
æ°ĳ æĹı
çİ ĩ
ä¹ĭ æĹ¥èµ·
åĲĪ çĲĨ
è¿Ļ ä¸ª
ç¬¬ ä¹Ŀ
ä¼ Ĺ
äº Ĵ
ç»ıèĲ¥ èĢħ
æĪ ĺ
è¯ ¢
çŃ Ķ
æľŁ éĹ´
ä»» åĬ¡
ä¸¥éĩį çļĦ
äº§ çĶŁ
å¥½ çļĦ
ç¬¬äºĮ çĻ¾
æł ·
åį± å®³
åİ¿çº§ä»¥ä¸Ĭ åľ°æĸ¹äººæ°ĳæĶ¿åºľ
é ¥
æ¯ Ĵ
ä»ĸ ä»¬
åģ ļ
å¤ Ł
ï¼Ľ ï¼Ī
æĸ¹ æ³ķ
è°ĥ è§£
çº ¿
å¹´ ä»¥ä¸ĭ
åºĶ æĢ¥
æĴ ¤
ä¿Ŀ è¯ģ
a l
çĶµ åŃĲ
* *
å Ħ
å®¡ æŁ¥
ä¸į èĥ½
é¢Ĩ åŁŁ
æĿĲ æĸĻ
ä½ İ
çĶ± åĽ½åĬ¡éĻ¢
è¡ĮæĶ¿ éĥ¨éĹ¨
æľī ä¸ĭåĪĹ
é¦ Ļ
å¯¹ äºİ
è¨ Ģ
å¤Ħ åĪĨ
åĨĽ äºĭ
çī¹åĪ« è¡ĮæĶ¿åĮº
è¿Ļ äºĽ
åħ ¸
çĽ´ è¾ĸ
é¢Ħ éĺ²
åĦ ¿
æ ¤
æľī æķĪ
è± ¡
çĽ´è¾ĸ å¸Ĥ
Ġ p
æ ħ
èģĮ åĬ¡
åºĶ è¯¥
ä½ľ ä¸º
çļĦ äºº
å¾ Ī
è®¤ ä¸º
ç² ¾
Ġ åĪĻ
æĸĩ ä»¶
å¹´ä»¥ä¸ĭ æľīæľŁå¾ĴåĪĳ
äºĶ åįģ
ä¿ĥ è¿Ľ
ä¸» è¦ģ
çĭ ¬
i t
æ£Ģå¯Ł éĻ¢
æĭ ©
æī¿ åĮħ
é Ł
çĶ¨ äºİ
éĥ¨ åĪĨ
å±ŀ äºİ
èĩªå·± çļĦ
ä¾ ¿
ä»£ çĲĨ
çķ Į
çĬ¯ç½ª çļĦ
å¦Ĥ ä½ķ
åľ° åĮº
éĻĲ åĪ¶
å¤ĸ åĽ½
åı ª
åĬ Ł
è¯ ķ
åĿ ı
ç´ ł
çª ģ
ç¥ ŀ
æĻ ®
åı °
å®ŀ éĻħ
æĺ¯ ä¸Ģ
åĨ Ļ
äººæ°ĳ æ£Ģå¯ŁéĻ¢
çŁ ¿
æ¯ į
åıĤ ä¸İ
è¿Ŀåıįæľ¬æ³ķ è§Ħå®ļ
æ³ķ å®ļ
è¾ ĥ
éģ ¿
èµĦ éĩĳ
è¿½ ç©¶
çļĦ æĥħåĨµ
è§£ åĨ³
ä¸ī åįģ
æ² ³
å±ħ æ°ĳ
çŃ ĳ
èĤ¡ ä¸ľ
ç¬¬åħ« åįģ
éĢī æĭ©
éĽĨ ä½ĵ
Ġ o
äºº åºĶå½ĵ
éļ Ĳ
Ġ f
è½ »
åŃĺ åľ¨
åĲĪæ³ķ æĿĥçĽĬ
éĤ £
in g
åĢ Ļ
ä» Ģ
åı Į
ä¾ĭ å¦Ĥ
ä¹ĭä¸Ģ çļĦ
ç» Ŀ
åİŁ åĪĻ
Ġ =
è´£ä»» äººåĳĺ
éŁ ³
äºĭ ä»¶
æı ´
åĤ ¨
è½ ½
ç³» ç»Ł
ç¡® ä¿Ŀ
åķĨ ä¸ļ
åĨĽ äºº
Ġ b
èĪª ç©º
æ ¼
çĽĳ æĬ¤
ç»ĵ æŀľ
ä»Ģ ä¹Ī
æĿĥ çļĦ
åĳ ½
å¾ ħ
åİ »
åĲĮ æĦı
ä¾Ŀçħ§ æľ¬æ³ķ
é¦ ĸ
åĬŀ æ³ķ
ä¸ĩåħĥä»¥ä¸ĭ çļĦç½ļæ¬¾
éĩ Į
åħ¬ å¼Ģ
ä¸» ä¹ī
èĥ½ å¤Ł
çľ ĭ
o u
åĨ Į
æīĢ åľ¨
Ġ w
éĺ² æ²»
åŁº æľ¬
æ³ķå¾ĭ è§Ħå®ļ
æ ¨
æŀ ģ
ä¹ĭ éĹ´
éĩĳ èŀį
æī £
è½¬ è®©
ç» ¼
éĢī ä¸¾
å¼º åĪ¶
æ°ĳ æ³ķ
ç§ ĺ
åħ ħ
åĲĦ çº§äººæ°ĳæĶ¿åºľ
åİ Ĩ
çĽĳçĿ£ç®¡çĲĨ æľºæŀĦ
äºº æĪĸèĢħ
åĪĳäºĭ è´£ä»»
è¶ħ è¿ĩ
éģµ å®Ī
èĥ½ æºĲ
ç§ ¯
ä¹¦ éĿ¢
ç¢ į
a r
çĽ´æİ¥ è´£ä»»äººåĳĺ
æľªæĪĲå¹´ äºº
å «
åĽ ¾
Ġ 1
åºĶå½ĵ åľ¨
çĪ ¶
çĽĳ æµĭ
éļ ¾
æ¶Ī è´¹
æĸ¹ æ¡Ī
åį ł
çĶ¨ æĪ·
æĥħèĬĤ ä¸¥éĩįçļĦ
æĭĴ ç»Ŀ
å»º çŃĳ
çº ¢
çī© åĵģ
æ²¡ æĶ¶
æĤ £
l e
èµĦ æĸĻ
æ®ĭ çĸ¾
æľª ç»ı
åı¯ä»¥ åĲĳ
ç ¯
ç§ĳ æĬĢ
i on
åŁ¹ è®Ń
æıĲ èµ·
é¦ Ĩ
ç Į
çŁ¥ è¯Ĩ
æ°ĳæ³ķ åħ¸
çļĦ åħ¶ä»ĸ
å¯¼ èĩ´
æĸĩ ç«ł
çī© çļĦ
åĢ į
æ¤ į
çļĦ æ³ķå¾ĭ
èµ ł
åĲ ¬
è¯ Ŀ
çľ Ł
æĮģ æľī
åįı åĬ©
åĪ¤ åĨ³
åĮĸ åŃ¦
æ¬¡ ä¼ļè®®
ä¸Ģ åįģ
å®Į æĪĲ
æĬ µ
çĲ ĥ
ä¸ ´
éĶ Ļ
ç¦» å©ļ
åıĮ æĸ¹
äºĭ å®ŀ
å« Į
æ¨ ¡
è¿ ĳ
å¾ĭ å¸Ī
å½¢ å¼ı
åºĶå½ĵ ä¾Ŀæ³ķ
æĹ¥ åĨħ
èµĶåģ¿ è´£ä»»
æ Ĳ
é¦Ļ æ¸¯
è¡Į ä¸ļ
å¸ Ń
ä¾Ŀ æį®
åĮº åŁŁ
æİ Ī
æ³¨ åĨĮ
è®° å½ķ
åĽ Ń
çĽĳ å¯Ł
Ġ åĽ½åĬ¡éĻ¢
åºĶå½ĵ åıĬæĹ¶
èģĮ å·¥
å¼ ł
çļĦ ä¸»ç®¡
å®ŀ çİ°
æ£Ģ éªĮ
é¢Ĩ å¯¼
åĽ½ éĻħ
å¤Ħ ç½®
æĿ İ
Ġ m
ä¹ Ĳ
Ġ in
å¹ ²
ç®¡çĲĨ éĥ¨éĹ¨
äººåĳĺ åĴĮåħ¶ä»ĸ
åĳ ¨
éģ ĩ
æ¶ī åıĬ
è¡Į ä½¿
çļĦ åĨ³å®ļ
æĴ¤ éĶĢ
i c
åįķä½į åĴĮä¸ªäºº
è§£ éĻ¤
æī į
çĸ ĳ
æĮĩ å¯¼
éĿŀ å¸¸
Ġ d
ä¸Ģ æĸ¹
åı¸ æ³ķ
èĻ ļ
æµ· äºĭ
æ°ĳ çĶ¨
ä¸Ń å¤
èİ· å¾Ĺ
æŃ »
å¹´ ä»¥ä¸Ĭ
çĶŁæĢģ çİ¯å¢ĥ
ç»Ħ æĪĲ
Ġa n
çĶŁäº§ ç»ıèĲ¥
åĩı å°ĳ
éļ ı
ä¸º äºĨ
å¦ ĩ
åıĹ åĪ°
è ı
åĵ ª
ä¼ļ åĲĮ
çĽ´æİ¥ è´Łè´£
éĤ ®
çº³ ç¨İ
è¡Įä¸º çļĦ
ä¸Ńå¤ ®
çĶŁ çī©
åķĨ åĵģ
æĹł æ³ķ
çĪ ±
èµĦ æł¼
æŀ Ĳ
å¤Ħ äºĶ
æ ¹
Ġ \
æį Ĳ
åģľ æŃ¢
è¯ ¯
è®¸åı¯ è¯ģ
åħ¬ å¸ĥ
å¿ Ĺ
éĻ¤ å¤ĸ
äº ²
çĽ´æİ¥è´Łè´£ çļĦä¸»ç®¡
åı ·
è¾ ¹
æĸĩ çī©
è´¢ æĶ¿
çļĦ æĿĥåĪ©
æĢ Ŀ
åĿ ļ
è®¾ è®¡
çĶµ å½±
äººåĳĺåĴĮåħ¶ä»ĸ çĽ´æİ¥è´£ä»»äººåĳĺ
æĦ ¿
å£ °
å ¨
çº ł
å·¥ åħ·
ä¿Ŀ æĮģ
è¯ į
åĽ½å®¶ æľīåħ³è§Ħå®ļ
æµģ åŁŁ
èģĮ æĿĥ
å±Ĭ åħ¨åĽ½äººæ°ĳä»£è¡¨å¤§ä¼ļå¸¸åĬ¡å§Ķåĳĺä¼ļ
é¢Ħ ç®Ĺ
ä»· æł¼
åĪĨ æŀĲ
åŃ¦ çĶŁ
è§Ħ èĮĥ
è¯´ æĺİ
è¿½ç©¶ åĪĳäºĭè´£ä»»
ç§ĺ å¯Ĩ
æľº åĪ¶
çĪ¶ æ¯į
åĲ Ĺ
çģ ¾
æ· ±
å¯¹ åħ¶
è¿ĩç¨ĭ ä¸Ń
e d
å§ ĭ
åħ¬åı¸ çļĦ
åıĺ æĽ´
äº« æľī
æĮ ¥
çº§ äººæ°ĳä»£è¡¨å¤§ä¼ļ
æĺİ ç¡®
Ġo f
æ ¢
åĮĸåŃ¦ åĵģ
æľŁ è´§
è¢« åĳĬ
æĶ¿ çŃĸ
æµ· åħ³
çĶ¨ äºº
ç´ ¢
è´£ä»¤ æĶ¹æŃ£
å¦ĩ å¥³
1 0
ç® Ģ
ä¹Ł åı¯ä»¥
æķĳ åĬ©
æĭ į
æ¶Īè´¹ èĢħ
è´ ¦
ä¿® æĶ¹
èĻ ĳ
ç¾ ¤
æ ĳ
è¶ Ĭ
åĲį ç§°
æŀĦæĪĲ çĬ¯ç½ªçļĦ
ç»Ł ä¸Ģ
çĽ¸åºĶ çļĦ
ä¼ļ è®¡
ä»· åĢ¼
çĽ´æİ¥è´Łè´£çļĦä¸»ç®¡ äººåĳĺåĴĮåħ¶ä»ĸçĽ´æİ¥è´£ä»»äººåĳĺ
èī ¯
ç²¾ ç¥ŀ
åĽ½ éĺ²
å®īåħ¨ çĶŁäº§
è£ģ å®ļ
éĢ Ķ
ç¬¬ä¹Ŀ åįģ
æ³ķ äºº
èĮĥåĽ´ åĨħ
å½ Ĵ
åĽ½å®¶ å®īåħ¨
äºĨ è§£
å¿ «
å°± ä¸ļ
çĶ¨äºº åįķä½į
çł´ åĿı
è¡ĮæĶ¿ æľºåħ³
æ´ ĭ
£ äºĭ
è¯ģ ä¹¦
åŁİ å¸Ĥ
äº ¡
ä¾Ŀæ³ķ ç»ĻäºĪ
åĨľ æ°ĳ
ä¼ł æŁĵ
å£ «
è°ĥ æķ´
èģĮä¸ļ çĹħ
é» Ħ
åĢºæĿĥ äºº
æī¿ è¿Ĳ
åĴĮ ç¤¾ä¼ļ
æ ¾
åĪĨ éħį
å¤ĩ æ¡Ī
é ī
åĽł ä¸º
éī ´
éĩ Ĭ
åĬ³åĬ¨ èĢħ
æĭĺ å½¹
å½ĵ åľ°
en t
æ´ ¾
è¡ĮæĶ¿ ä¸»ç®¡éĥ¨éĹ¨
å®¡ åĪ¤
æĿĳ æ°ĳ
æĹħ æ¸¸
åŃĲ å¥³
éª Ĺ
æĿ¡ä»¶ çļĦ
æħ Ī
o m
å®ī æİĴ
æľĢ é«ĺ
å¼ Ĥ
å° Ħ
çĽ® æłĩ
åĿ ĩ
å¤į è®®
ç¯ ĩ
Ġ è¿Ŀåıįæľ¬æ³ķè§Ħå®ļ
éķ ĩ
çĽ® çļĦ
çĸ¾ çĹħ
èĳ £äºĭ
æħĪ åĸĦ
æĻ ¯
ä¼łæŁĵ çĹħ
åĽ º
æĭ Ľ
åī ¯
å®¡ çĲĨ
äºĭ åĬ¡
åįı åķĨ
æį ¢
å± Ĥ
èĳ Ĺ
ç» Ĩ
åĪĨ ç±»
å¿ħè¦ģ çļĦ
a s
å¤Ħ ä¸ī
Ġt o
åı¦ æľī
æ´»åĬ¨ çļĦ
åıĳ å¸ĥ
åı ¥
èµ· è¯ī
è¿ ŀ
åĮº çļĦ
çĽĳçĿ£ æ£ĢæŁ¥
æ³¨ æĦı
äºº åľ¨
è®¾ ç½®
è¿Ŀæ³ķ è¡Įä¸º
ç»¼ åĲĪ
åį ĩ
äºº ç±»
åĩº èµĦ
æ® Ĭ
è´Ń ä¹°
å¤ ´
å» ¶
äºī è®®
åĩº åı£
è¯Ń è¨Ģ
çī¹ æ®Ĭ
çĽ´è¾ĸå¸Ĥ äººæ°ĳæĶ¿åºľ
èĢĥ èĻĳ
ç»Ī æŃ¢
é¦Ļæ¸¯ çī¹åĪ«è¡ĮæĶ¿åĮº
ç¡ Ģ
åŁº ç¡Ģ
åĲ «
æ± ĩ
- -
èĲ ½
Ġ æľ¬æ³ķ
éĩ İ
å®ļ æľŁ
èº« ä»½
æľīä¸ĭåĪĹ æĥħå½¢
æĭį åįĸ
åĿļ æĮģ
æī ĵ
çĶŁ æĪĲ
å·¥ä½ľ çļĦ
å¤ «
ä¸ ĸ
åħ· å¤ĩ
ç¼ĸ åĪ¶
èĪ ¬
æĸĩ æľ¬
å®£ ä¼ł
å® ª
åįı è°ĥ
è¡ĮæĶ¿åĮº åŁŁ
å ĥ
èµĦ äº§
ä¼ĺ åħĪ
å° ½
æ¾ ³
å®¡ è®¡
åģ¥ åħ¨
åĬŁ èĥ½
çł ģ
æĮīçħ§ è§Ħå®ļ
äºº åı¯ä»¥
ç¤¾ä¼ļ ä¿ĿéĻ©
ç ı
ç«ł ç¨ĭ
æķ° é¢Ŀ
åı ²
å¹¶ ä¸Ķ
ä¿¡ æīĺ
è¾ ©
èĬ ±
ä¸į ç¬¦åĲĪ
çº ·
ç« Ļ
ä½ĵ ç³»
æłĩ çļĦ
çĬ¶ åĨµ
éĻ į
åĢ Ł
æİ ¢
æ¯ ģ
å¤Ħç½ļ éĩĳ
é ¤
æľīåħ³ çļĦ
å¢ĥ åĨħ
å¹³ åı°
æİĴ æĶ¾
æĴ Ń
çªģ åıĳ
æ¾³ éĹ¨
æľº åĻ¨
ä¸ĵ éĹ¨
æĺ ¾
ç®¡ è¾ĸ
éĩį çĤ¹
æī ¾
å± ±
æµ· æ´ĭ
æŃ¤ å¤ĸ
å¹¿ åĳĬ
èįī åİŁ
Ġ n
ç»ıæµİ ç»Ħç»ĩ
ç»§ ç»Ń
æ°ĳçĶ¨ èĪªç©º
å®ª æ³ķ
ç®¡ åĪ¶
ä» ĭ
åĥ ı
æ² ¹
ç½ª çļĦ
çĽĳçĿ£ç®¡çĲĨ éĥ¨éĹ¨
æ®ĭçĸ¾ äºº
æĭħ ä¿Ŀ
æµ· ä¸Ĭ
çº¦ å®ļçļĦ
ä¸ª æľĪ
` `
è Ħ
å± Ģ
å¦ »
æı ı
ä¾Ŀæ³ķ è¿½ç©¶åĪĳäºĭè´£ä»»
å¢ĥ å¤ĸ
çŁ¥ éģĵ
è¯ Ĭ
é¤ Ĳ
èī º
çºł çº·
æ¸ Ķ
ä¸Ģ èĪ¬
æ³ķå¾ĭ è´£ä»»
åıĹ çĲĨ
æī§ æ³ķ
ç»§ æī¿
è´¢ åĬ¡
æĽ´ åĬł
æĵ ħ
æ°´ å¹³
åĲ Ĭ
ç» ĥ
åį±éĻ© åĮĸåŃ¦åĵģ
åĩ ł
åĽĽ åįģ
è Ĺ
æįŁå¤± çļĦ
A I
è¿Ļ ç§į
ç¬¬äºĮ ç«ł
éĻĲ æľŁ
Ġ åľ¨
Ġ |
åĽ½ æľī
åĳ ³
åºĶå½ĵ åĲĳ
æķħ æĦı
Ġ 2
èĩª çĶ±
åĪĳ æ³ķ
åľ° çļĦ
ç¬¬ä¸ī ç«ł
å®ĥ ä»¬
çĥ Ń
å·¥ ä¼ļ
ç¬¬åĽĽ ç«ł
ç§ĳåŃ¦ æĬĢæľ¯
Ġ å¯¹
Ġ is
æķ £
çº ª
éĢĢ å½¹
å° ģ
åħ ī
åĲĬ éĶĢ
ä¸ªäºº ä¿¡æģ¯
åĪĽ æĸ°
äºº èº«
æī ¶
æ¸ ¡
Ġ e
éĩĩ çĶ¨
æīĭ ç»Ń
a c
åı¯ä»¥ å¸®åĬ©
æĬµ æĬ¼
éĴ ±
Ġan d
åĩº çİ°
æľª æĿ¥
ç«ĭ åį³
åĩĨ ç¡®
åİŁ åĽł
éī´ å®ļ
ç¬¬ä¸Ģ ç«ł
ä»½ é¢Ŀ
å¥ ĸ
æĤ¨ çļĦ
åĽ °
æĹ¥ ç¬¬åįģ
è¯īè®¼ æ³ķ
å¾ ·
åĪĨ ä¹ĭ
ä½ĵ èĤ²
é¥ ®
ç ¿
ç¬¬äºĶ ç«ł
ä» į
è´ ¸
é© ¶
ä¸¤ ä¸ª
© åºı
ç§ ©åºı
æŃ ¦
æĶ¶ åĪ°
èı ľ
çĲĨ çĶ±
å¼ ĥ
ç« ŀ
åħŃ åįģ
æĽ´ å¥½
åħ¶ ä¸Ń
éľ ²
1 9
åĭ Ł
ä½ľ ä¸ļ
æľ¬ è¡ĮæĶ¿åĮºåŁŁ
çĽĳæĬ¤ äºº
Ġ æĢ»
éĩĳ é¢Ŀ
ä¸ĩåħĥä»¥ä¸ĭ ç½ļæ¬¾
æĺ Ł
åºĶå½ĵ å°Ĩ
èŃ¦ å¯Ł
éĩİ çĶŁ
æľīä¸ĭåĪĹæĥħå½¢ ä¹ĭä¸ĢçļĦ
æĵħ èĩª
æĬ Ĺ
æķ° éĩı
èĹ ı
r o
çļĦ äººåĳĺ
ç®¡çĲĨ äºº
ç®¡çĲĨ æľºæŀĦ
Ġ -
çķ ¥
çķ ľ
è¡¥ åģ¿
è´¸ æĺĵ
çİ¯å¢ĥ ä¿ĿæĬ¤
èŃ¦ åĳĬ
Ġ éĻĦ
ä½ł çļĦ
æİ¨ å¹¿
èĭ Ĺ
æļ ´
å¯ »
éĢ Ł
åĪ¶ ä½ľ
ç»Ļ åĩº
çī¹ å®ļ
éĩĩåıĸ æİªæĸ½
å¢ŀ åĬł
åĬ ¿
è®¤ å®ļ
ç´ §
è¡ Ķ
å° Ĭ
u m
å¤§ çļĦ
ä¸» ä½ĵ
åĲ ¸
ä¸ĵ åĪ©
åºŁ çī©
ç§¯ æŀģ
æľº åĬ¨
æĺ¯ ä¸Ģä¸ª
çī¹ ç§į
è¯Ħ ä»·
æįĲ èµł
éĶ ®
åĩº å¢ĥ
å®¢ æĪ·
çŃ ¹
æ² Ļ
æ²» å®ī
åĬłå¼º å¯¹
åĵª äºĽ
çģ «
ä¾µ çĬ¯
å«Į çĸĳ
çļĦ åħ·ä½ĵ
æ¡ £
åĸ ľ
ä»¥ å¤ĸ
ç¬¬åħŃ ç«ł
æıĲèµ· è¯īè®¼
æ£Ģ çĸ«
ç¬¬ä¸Ģ åįĥ
èĻļ åģĩ
åĲİ æŀľ
çİ¯ ä¿Ŀ
éĵ ģ
äºº ä»¬
æĿĥ äºº
æĽ´å¥½ åľ°
e t
èģ ĺ
åĨľä¸ļ åĨľæĿĳ
å¤« å¦»
ä¸» å¸Ń
åħ¬ åĬ¡
ç»ĵ åĲĪ
éģ¿ åħį
åı ĭ
åĪ ĩ
è´ ·
è´Łè´£ äºº
æŃ» äº¡
åħ¬ åĳĬ
æłĩ å¿Ĺ
ç¼´ çº³
æıı è¿°
ä¼ ª
éĩĩ è´Ń
åĲĪ æł¼
éĢĤ å½ĵ
çł´ äº§
åİĨ åı²
è ª
æ¬ ¢
æľīåħ³ æ³ķå¾ĭ
æĶ¶ åħ¥
çī¹ç§į è®¾å¤ĩ
äº¤ ä»ĺ
ä¾µ å®³
å² ģ
æĥħåĨµ ä¸ĭ
æį ķ
åıĳ è¡Į
æ± Ł
ç¤¾ åĮº
æģ ¢
æıĲ äº¤
æ¤į çī©
è§ Ĵ
çī© è´¨
æģ¢ å¤į
i l
è´Ł æľī
åĲĦ ç§į
ç± į
æĸ° çļĦ
å®Į åĸĦ
æľºåĬ¨ è½¦
å¤ĸ äº¤
æĭħ ä»»
ä¸¥ æł¼
æ¶Ī éĺ²
æļ Ĥ
æ¸ ©
åĽ¢ ä½ĵ
æĭĺ çķĻ
éĩİçĶŁ åĬ¨çī©
ä½ľ çĶ¨
o t
åħ ĭ
åºĶå½ĵ æł¹æį®
åħ¬ çĽĬ
å¥ ¹
æģ Ĳ
æķ° åŃĹ
æĶ¹ åıĺ
èº« ä½ĵ
å¼ķ æ¸¡
éĤ£ ä¹Ī
s t
ä¼ ĳ
äº§ ä¸ļ
èĢģ å¹´
Ġ $
ä¸Ĭ çļĦ
éľ ĩ
æĶ¶ éĽĨ
éľĢ æ±Ĥ
Ġ re
äº« åıĹ
éĢļ å¸¸
æ´ Ĺ
æ¼ Ķ
åĽ½å®¶ æľºåħ³
ç»Ł è®¡
å¨ ģ
Ġ h
å° ļ
åı¯ä»¥ éĢļè¿ĩ
è§ ī
éļľ ç¢į
é£Łåĵģ å®īåħ¨
çļĦ åİŁåĪĻ
å± ĭ
åĨľ äº§åĵģ
i m
æľ Ľ
åºĶå½ĵ å¯¹
äºĭä¸ļ åįķä½į
Ġ æł¹æį®
çģ Ń
è¿ Ķ
æĬ ļ
éħ ¬
æ²» çĲĨ
æ²» çĸĹ
åĢºåĬ¡ äºº
åħ ´
äººåĳĺ çļĦ
å¼Ģ å§ĭ
æĪĸèĢħ ä¸ªäºº
å¹ ¼
æĬĢ èĥ½
èģĶ ç³»
éĩĳèŀį æľºæŀĦ
Ġ (
åı¯ä»¥ åľ¨
ç ĩ
Ġ **
èĤ¡ ä»½
ä»£çĲĨ äºº
ä¿Ŀ å¯Ĩ
ç« ¥
éĺ »
é ¾
ä» ħ
æĪĲ ç«ĭ
å¾Ĺ åĪ°
è¡ĮæĶ¿ å¤įè®®
æī¿æĭħ èµĶåģ¿è´£ä»»
äºĨ ä¸Ģ
åįĥ åħĥ
é ¸
åı ¬
åı¯ä»¥ æł¹æį®
çĶ± äºİ
æĮĩ å®ļ
ç¼ º
¨ è¯¢
åĴ ¨è¯¢
ä¸Ĭ è¿°
ç¬¬ä¸ĢçĻ¾ éĽ¶
çĶ ²
é© »
åīįæ¬¾ è§Ħå®ļ
å¾ ª
åħ« åįģ
ç¬¬ä¸ĢçĻ¾ ä¸Ģåįģ
æķĳ æı´
æī¿è¿Ĳ äºº
ä¿® å¤į
å¾ģ æĶ¶
èģĶ åĲĪ
çľŁ å®ŀ
æķĪ çİĩ
çĸ« èĭĹ
æ²¡æĶ¶ è¿Ŀæ³ķæīĢå¾Ĺ
é«ĺ çº§
åķĨ æłĩ
éĴ Ī
Ġ 3
åį °
ä¸Ĭ å¸Ĥ
è½¬ ç§»
çĶ³è¯· äºº
èģĮè´£ çļĦ
èĭ ±
æĪ¿ å±ĭ
åķĨä¸ļ éĵ¶è¡Į
è¡¨ çİ°
ä½¿çĶ¨ çļĦ
æĶ¾ å°Ħ
æİ¨ åĬ¨
æĤ£ èĢħ
å¯¹ æĸ¹
åħ¬ ä¼Ĺ
åĳĬ çŁ¥
æ¸¯ åı£
ä¸Ģ çĻ¾
æŃ Į
æıĲä¾Ľ çļĦ
ç¬ Ķ
è§Ħ åĪĻ
è®¢ ç«ĭ
çŃī æĸ¹éĿ¢
æĹ¥ æľŁ
ç¬¬ä¸Ģ æ¬¾
åĲĪåĲĮ çļĦ
æĸ½ è¡Į
é»Ħ æ²³
å¾ Ģ
éĢ ¾
ä¼ª éĢł
i v
å¤ ª
åįķä½į çļĦ
éĺ² æŃ¢
çŃ¾ è®¢
æĽ´ å¤ļ
å ¡
çĽĳ äºĭ
ä¹Ŀ åįģ
æĪĲ æŀľ
å¿ µ
ä¹ĭéĹ´ çļĦ
Ġ +
åħ³ éĶ®
å¯¹ çĽ´æİ¥è´Łè´£çļĦä¸»ç®¡äººåĳĺåĴĮåħ¶ä»ĸçĽ´æİ¥è´£ä»»äººåĳĺ
ä»ĸ çļĦ
åĢį ä»¥ä¸ĭ
åĽł ç´ł
çº³ åħ¥
çĶ ·
åºĶ å¯¹
éĩįè¦ģ çļĦ
Ġ l
Ġ åİ¿çº§ä»¥ä¸Ĭäººæ°ĳæĶ¿åºľ
åįģ äºĶ
æīĢ ç§°
è´¢ çī©
æįŁå®³ çļĦ
æ¡£ æ¡Ī
åº ĵ
æĸ½ å·¥
éħį åĲĪ
ä¸¾ æĬ¥
ĠĠ ĠĠ
é» ĳ
æľī éĻĲ
ä½ľ åĵģ
è§Ħå®ļçļĦ åħ¶ä»ĸ
æĹł æķĪ
> ï¼ļ
éģĹ äº§
æĵ į
æĬ ¢
å¹³ çŃī
æ¸ħ ç®Ĺ
ä¸ĸ çķĮ
ç§Ł äºº
ä¸į äºĪ
åķĨ åĬ¡
æī§ ä¸ļ
ä»¥åıĬ åħ¶ä»ĸ
å¾ħ éģĩ
å·¥ ä¸ļ
ä¸Ĭ çº§
çİ ©
åľ°æĸ¹ åĲĦçº§äººæ°ĳæĶ¿åºľ
æ¾³éĹ¨ çī¹åĪ«è¡ĮæĶ¿åĮº
è¯ Ī
åĳĺ å·¥
æıĲ åıĸ
æ£Ģ æµĭ
è¯ģåĪ¸ çĽĳçĿ£ç®¡çĲĨæľºæŀĦ
åĲĪä¼Ļ ä¼ģä¸ļ
çĽĳ ç®¡
ä¸ĥ åįģ
æŃ£ å½ĵ
é¢Ħ å¤ĩ
å»ºç«ĭ åģ¥åħ¨
i d
å® ľ
ä¿Ŀ ç®¡
åĪĨ åĪ«
èĲ¥ ä¸ļ
æĭĴ ä¸į
ä¸įåĲĮ çļĦ
åĲĪä½ľ ç¤¾
Ġ "
å¯¹ å¤ĸ
æŃ£ ç¡®
åĮ»çĸĹ æľºæŀĦ
çļĦæĥħåĨµ ä¸ĭ
æı´ åĬ©
æīĢåľ¨ åľ°
ä¸į æĸŃ
è¿Ľ åı£
èĥ ģ
èĩª åĬ¨
è¾ Ĩ
çİ° ä»£
å¾ ®
åĦ¿ ç«¥
1 2
çļĦ è¦ģæ±Ĥ
æī ©
æ ¿
çĶ¨ åľ°
çĲĨ è§£
å§ »
è¡¨ ç¤º
æŃ£ å¸¸
çĮ ®
æľī åħ¶ä»ĸ
éĽĨä½ĵ ç»ıæµİç»Ħç»ĩ
éĢ¾ æľŁ
åĬ¨ äº§
ä»¥ä¸ĭ æĺ¯
çĬ¯ç½ª å«Įçĸĳ
ç¬¬ä¸ĥ ç«ł
Ġ T
æľ ¨
ä¸į è¶³
ç¨ ³
éĢĤ åºĶ
éĽĨ ä¸Ń
åı¯èĥ½ ä¼ļ
çļĦ è´¢äº§
è¡ĮæĶ¿ å¤Ħç½ļ
æĢ§ åĴĮ
é«ĺ çŃī
éĢģ è¾¾
å¯¹ è±¡
æĢ§ çļĦ
ç¨İ åĬ¡
æĮģæľī äºº
èµ °
èĥ Į
éģĵ è·¯
å±ħ ä½ı
éŁ³ ä¹Ĳ
e c
åºĶå½ĵ ç¬¦åĲĪ
è¿Ľ åħ¥
éģ Ń
ç»ĵ ç®Ĺ
åıĺ åĮĸ
åĽŀ çŃĶ
å©ļ å§»
çŁ Ń
ä»İ èĢĮ
é© ¾
çĩ ĥ
Ġ æ³ķå¾ĭè´£ä»»
æĪ ı
åĲĦ çº§
æľĢ åĲİ
ä¿® æŃ£
æ²»å®ī ç®¡çĲĨ
æģĲ æĢ
è¯ »
èį Ĳ
ç»Ł çŃ¹
åĽ¢ éĺŁ
æģĲæĢ ĸ
æĶ¿ æ²»
ä¹° åįĸ
éĶĻ è¯¯
çļĦ å®īåħ¨
æĿ¡ æ¬¾
éĩį æĸ°
æĬ¥ éħ¬
ä¿ĿéĻ© äºº
ç² ®
æľŁéĻĲ åĨħ
è¡ĮæĶ¿æ³ķè§Ħ çļĦè§Ħå®ļ
åŁİ ä¹¡
å®¡ æī¹
çĶ³ æĬ¥
åĲĦ èĩª
ï¼ ģ
è§£ éĩĬ
èĢĥ æł¸
æĪ Ĵ
æŀ ª
æīĭ æ®µ
ç«ŀ äºī
ç¤¾ä¼ļ ä¸»ä¹ī
è¿Ĳ è¡Į
Ġt h
æĪĳä»¬ çļĦ
çļĦ åıĳå±ķ
æĶ¶ è´Ń
å·¥ èµĦ
çŃī æĸ¹å¼ı
è¡¨ åĨ³
åĲĳ äººæ°ĳæ³ķéĻ¢
ç¬¬åįģ åħ«æĿ¡
æļ´ åĬĽ
æĶ¾å°Ħ æĢ§
t h
çĭ¬ ç«ĭ
çī ĩ
æĥ ł
æ´ ª
é¦ĸ åħĪ
å¹¼ åĦ¿
åı Ī
éĢ Ĳ
åİ ĭ
çŁ ³
äº¤ æµģ
æķĪ åĬĽ
æİ¨ è¿Ľ
åĮ»çĸĹ åį«çĶŁ
å»ºè®¾ é¡¹çĽ®
çŃĶ æ¡Ī
ä¾ ¦
åľ° çĤ¹
ç»ı è´¹
çĻ ½
è° ¢
ç¬¬ä¸ī çĻ¾
è¯Ĩ åĪ«
æĻ® éĢļ
Ġ y
æ» ¥
è¾¾ åĪ°
åį ¡
çĽ ĸ
å· ®
åħ¬ è·¯
ä¸Ĭ ä¸Ģ
åĨ³ è®®
æľįåĬ¡ çļĦ
è®¸ å¤ļ
èª ī
ä¸Ģ å®ļ
åĨľæ°ĳ ä¸ĵä¸ļ
èĭ ¥
ä¾¿ åĪ©
æ¸Ķ ä¸ļ
çļĦ éĹ®é¢ĺ
çİ ĭ
éĿ Ĵ
ç»ĻäºĪ èŃ¦åĳĬ
ä¾µ æĿĥ
é¢Ħå¤ĩ å½¹
åı ¤
éĹ Ń
æ´ ģ
è´£ä»¤ éĻĲæľŁ
å² ¸
éĢĢå½¹ åĨĽäºº
åį Ĺ
çĶ¨ éĢĶ
å¤Ħ åįģ
20 0
20 1
çŃ¾ åĲį
åĪ¶ éĢł
åī Ĥ
ä¾Ŀçħ§ æ³ķå¾ĭ
æľīä¸ĭåĪĹ è¡Įä¸º
åĸľ æ¬¢
å¯ Į
ç¡® è®¤
åĲĪä¼Ļ äºº
çĶµåŃĲ åķĨåĬ¡
ç¬¬åįģ ä¸ĥæĿ¡
ç¬¬åįģ åħŃæĿ¡
åľŁåľ° æī¿åĮħ
åĪĽ éĢł
ç´§ æĢ¥
ç¬¬ä¸ī æĿ¡
æ¸¸ æĪı
è¢«åĳĬ äºº
éĵģ è·¯
å ª
è¯ģ ä»¶
åħ¥ å¢ĥ
æī£ æĬ¼
é©¾ é©¶
åĨľæ°ĳä¸ĵä¸ļ åĲĪä½ľç¤¾
è¯ ¦
æĢ İ
åħ¨ éĥ¨
éĺ ħ
ç¬¬åįģ åĽĽæĿ¡
çĦ¶ åĲİ
å®¡ è®®
ç¬¬äºĮåįģ æĿ¡
å¤ļ ç§į
èģĶ ç½ĳ
ä½ Ļ
éĢ ĥ
æŃ£ åľ¨
ä¸´ æĹ¶
éĻ Ĩ
æĬ Ĭ
æĪĲ ä¸º
åĨħ çļĦ
æĦı è¯Ĩ
çİ° åľº
ç¬¬åįģ æĿ¡
æķħ äºĭ
çĭ Ĺ
åįı ä¼ļ
ä¸ŃåĽ½ äººæ°ĳ
Ġ S
å® ¤
ç¦ ½
t e
ä¸Ģ ç§į
ç®¡çĲĨ äººåĳĺ
ç¬¬åįģ ä¹ĿæĿ¡
ç¬¬åįģ äºĮæĿ¡
çĶ¨ çļĦ
å¹¶ å¤Ħç½ļéĩĳ
å¹´ åº¦
åī ²
ç¬¬åĽĽ æĿ¡
çĪ Ĩ
çĥ Ł
åĮºçļĦ å¸Ĥ
Ġ A
è®¾ åĮºçļĦå¸Ĥ
çĻ¾ åĪĨä¹ĭ
ç¦ ı
è½¦ è¾Ĩ
æĺ¯ä¸Ģ ç§į
è´· æ¬¾
èĢģå¹´ äºº
æľ¬ çº§äººæ°ĳä»£è¡¨å¤§ä¼ļ
ç¬¬åįģ äºĶæĿ¡
æ³ Ľ
è® ¨
çī Ī
ç¬¬äºĮåįģ äºĮæĿ¡
åħ» èĢģ
ä¸Ģ ç¯ĩ
èĩª è¡Į
éĺ ³
åıĹ æīĺ
åŁº äºİ
ä¼ł ç»Ł
c e
o l
è ¥
ç½ ²
æĭ Ĩ
ç¬¬ä¸ī äºº
ç¼ ĵ
æ¹ ¿
ç¬¬äºĮåįģ ä¸ĢæĿ¡
è¾ĵ åħ¥
ĠåĽ½å®¶ é¼ĵåĬ±
ç¥¨ æį®
è¯Ĭ æĸŃ
å¥ĸ åĬ±
ĥ åľ
æĮ ª
èĪ ŀ
ç¬¬åįģ ä¸ĢæĿ¡
çĽ¸åħ³ çļĦ
ä¼ļåĲĮ åĽ½åĬ¡éĻ¢
çļĦ æĺ¯
çĶŁ åĳ½
æĹ¶ åĢĻ
çħ ¤
è´¢äº§ çļĦ
çĦ¶ èĢĮ
åŀ ĥåľ
at ion
åīįæ¬¾ è§Ħå®ļçļĦ
å°Ĭ éĩį
åª Ĵ
åŀĥåľ ¾
æī °
æīĢ éľĢ
ä¾Ľ åºĶ
å² Ĺ
åĽ° éļ¾
è¯¦ ç»Ĩ
åĴĮ æĶ¯æĮģ
ä¼ ¼
å¸ ģ
åİ Ĥ
æľºæŀĦ çļĦ
ç¬¬åįģ ä¸īæĿ¡
æĬķ åħ¥
åŁºéĩĳ ä»½é¢Ŀ
20 2
å¼ķ å¯¼
æ¯Ķ ä¾ĭ
é¾ Ħ
åĩ »
æĢ§ è´¨
åŁº å±Ĥ
æĮĩ æĮ¥
æĹħ å®¢
ç¬¬ ä¹ĿæĿ¡
åĩ Ń
åŃ ©
åľ° éľĩ
ç¬¬äºĶ æĿ¡
ä¸Ģ æ¬¡
åĪĨ åŃĲ
æĮīçħ§ åĽ½å®¶æľīåħ³è§Ħå®ļ
æ±¡æŁĵ éĺ²æ²»
åħ³äºİ ä¿®æĶ¹
æĵį ä½ľ
éĻ Ī
ä½¿çĶ¨ æĿĥ
é£ ŀ
ä½ı æīĢ
èĩªçĦ¶ èµĦæºĲ
ä¾Ŀæ³ķç»ĻäºĪ å¤ĦåĪĨ
u r
ç»ı è¿ĩ
ç¬¬äºĮ æĿ¡
æĬ¥ åĽ½åĬ¡éĻ¢
å£ ¤
çĬ¯ç½ªå«Įçĸĳ äºº
è¥ ¿
ç¬¬åħŃ æĿ¡
æİ¨ èįĲ
ä¾¦ æŁ¥
ç¬¬ ä¸ĥæĿ¡
èģ ļ
éĢĤ åĲĪ
ç¬¬äºĮåįģ ä¸ĥæĿ¡
ç¬¬äºĮåįģ åħ«æĿ¡
ç¬¬äºĮåįģ ä¹ĿæĿ¡
åĬ³åĬ¨ åĲĪåĲĮ
è¾¾ æĪĲ
æ¯ı ä¸ª
å¸¦ æĿ¥
äº² å±ŀ
çļĦ å½±åĵį
æĿ¡ çº¦
æĪĸèĢħ æĭĺå½¹
åħ¨ ä½ĵ
å®īåħ¨ çļĦ
å°Ĩ åħ¶
æ® ĸ
æŀĹ ä¸ļ
åĪ Ŀ
ä¸į åı¯
åĽ½å®¶ è§Ħå®ļ
å®ī ç½®
å§ ĵ
æĮģ ç»Ń
å· ¨
ç»ĵ æŀĦ
å¤Ħä¸ī å¹´ä»¥ä¸ĭæľīæľŁå¾ĴåĪĳ
åı¥ åŃĲ
è¡ Ģ
æł ĳ
å¸ Į
ç»Ħç»ĩ çļĦ
æ¢ °
ç²® é£Ł
ç» ĺ
ç¬¬ åħ«æĿ¡
è¡Įä¸º äºº
ç± ³
ç¬¬äºĮåįģ åħŃæĿ¡
ç¿ »
o w
Ġ C
ä¸į æĺ¯
çī Į
æĶ¶ çĽĬ
æµ· åŁŁ
ç¬¬ä¸ĢçĻ¾ äºĮåįģ
éĵ¶è¡Į ä¸ļ
åĢį ä»¥ä¸Ĭ
çķľ ç¦½
i g
è ħ
èµ ģ
åıĬ åħ¶ä»ĸ
ç¡® å®ļçļĦ
æķĻ å¸Ī
åľŁ å£¤
ç§Ł èµģ
æĲ ľ
èĢ ķ
æĭ Ł
åıĳ æĮ¥
æĥħ æĦŁ
éĺ² æĬ¤
åĨĽ éĺŁ
ç¬¬äºĮåįģ ä¸īæĿ¡
æłĩåĩĨ çļĦ
æ· »
çªģåıĳ äºĭä»¶
æĪĳ çļĦ
åĩĨ å¤ĩ
æİ¥ åĪ°
è®¡ç®Ĺ æľº
èµĦ æľ¬
çī¹ çĤ¹
åŁ¹ åħ»
åĤ¨ åŃĺ
æ¬¡ä¼ļè®® éĢļè¿ĩ
ç» ¿
åºĶå½ĵ éģµå®Ī
ç¬¬ä¸īåįģ æĿ¡
å¹¿ æ³Ľ
èİ· åıĸ
åĨĽäºĭ å§Ķåĳĺä¼ļ
ä¸Ńå¤® åĨĽäºĭå§Ķåĳĺä¼ļ
éģŃ åıĹ
å ł
åħ¬ å¹³
åĲĳ ç¤¾ä¼ļ
u t
Ġ I
æ³ Ħ
æ³ķ å®ĺ
ä¸» é¢ĺ
ç¬¬äºĮåįģ äºĶæĿ¡
æ±¡æŁĵ çī©
é»Ħæ²³ æµģåŁŁ
çĶ± åİ¿çº§ä»¥ä¸Ĭäººæ°ĳæĶ¿åºľ
ä»ĺ æ¬¾
è´£ä»¤ åģľæŃ¢
ä»ĸä»¬ çļĦ
éĤ® æĶ¿
æĿĳæ°ĳ å§Ķåĳĺä¼ļ
è¾© æĬ¤
Ġ g
çĽ Ĺ
åı¯ä»¥ éĩĩåıĸ
åĽ½å®¶ ç§ĺå¯Ĩ
ç¬¬ä¸Ģ æĿ¡
ä¸ĵ çĶ¨
è®¾æĸ½ çļĦ
åħ µ
åĵģ ç§į
åħ ļ
è¯ Ĺ
æĺ ł
ç®¡ éģĵ
åĬĽ éĩı
è¯ģåĪ¸ äº¤æĺĵ
æ¶ī å«Į
åĴĮ ç®¡çĲĨ
ä¹ Ļ
åĳ ¢
åĩº åħ·
ä¸ĭ éĿ¢
åįķä½į åºĶå½ĵ
ç¬¬ä¸īåįģ ä¸ĢæĿ¡
åĨľæĿĳ éĽĨä½ĵç»ıæµİç»Ħç»ĩ
çĶŁæĢģçİ¯å¢ĥ ä¸»ç®¡éĥ¨éĹ¨
q u
ãĢ Ī
ãĢ ī
æĿ Ł
éĿ ©
è¿Ĳ åĬ¨
è®¤ è¯ģ
åĭ ¤
åı¦æľī è§Ħå®ļçļĦ
æľ ĭ
æĭ ĸ
æľ¬ ç½ª
ä¼ģä¸ļ çļĦ
ç¬¬ä¸īåįģ ä¸īæĿ¡
æĬķ è¯ī
åħħ åĪĨ
æ·» åĬł
å¦Ĥ å®ŀ
ç¬¬äºĮåįģ åĽĽæĿ¡
åį«çĶŁ åģ¥åº·
è®Ń ç»ĥ
ä¿¡ çĶ¨
ç«ĭ æ³ķ
è¿Ĳ èĲ¥
äº¤éĢļ è¿Ĳè¾ĵ
ä»»ä½ķ åįķä½įåĴĮä¸ªäºº
åĨľä¸ļåĨľæĿĳ ä¸»ç®¡éĥ¨éĹ¨
è§Ħ ç«ł
ä¼ł æĴŃ
Ġ 5
éĢ Ĵ
é¡ ¾
ç¨ĭ åº¦
åĲİ çļĦ
è¿Ļ æł·
è¶ £
åıĳå±ķ è§ĦåĪĴ
è£ģ åĨ³
e l
æĿĥ éĻĲ
ç³ ĸ
èįī æ¡Ī
ç¾¤ ä¼Ĺ
æŃ¦ è£ħ
i f
æĶ¹ åĸĦ
æ¿ Ģ
å¸Į æľĽ
æ ¦
å·¥ ä¼¤
çī© èµĦ
åıĹ çĽĬ
er s
æĬļ åħ»
u s
çļĦ çĽ¸åħ³
çļĦ éĻ¤å¤ĸ
è¯· éĹ®
ç¨İ æ¬¾
éĢĤçĶ¨ æľ¬æ³ķ
å¢ŀ å¼º
è¿Ķ è¿ĺ
ä¸į åıĹ
çŁ «
éĻį ä½İ
é Ĩ
å° Ŀ
æ¬ º
æ² Ł
éª ¤
æĬķèµĦ èĢħ
åģļ å¥½
çļĦ æĸ¹å¼ı
çİ° åľ¨
ç¬¬ä¸īåįģ ä¸ĥæĿ¡
ç¬¬ä¸īåįģ äºĮæĿ¡
æŃ¥ éª¤
éļĲ ç§ģ
åĽº ä½ĵ
u l
Â ·
å½ĵ çĦ¶
çĶ¨ æ°´
æ³ķå¾ĭ æı´åĬ©
æ¸ħ åģ¿
å»ºçŃĳ çī©
ä»İ ä¸ļ
éħ Ĵ
æľĭ åıĭ
è´ ´
ä¸Ģ ä¸ĭ
åħ¬ æŃ£
åĮ» åŃ¦
åĭŁ éĽĨ
å¨ģ èĥģ
æīĢ æľīæĿĥ
éĥ¨ éĺŁ
æĪĳ åĽ½
åĬł åħ¥
ç¬¬ä¸īåįģ åĽĽæĿ¡
æ»¡ è¶³
ç ŀ
éĹ »
å¯¹ è¯Ŀ
åħ¬ åĽŃ
åħ¨ éĿ¢
æĢ» ä¹ĭ
å¿ĥ çĲĨ
åĭ ĺ
æĮª çĶ¨
a m
à °
çļĦ ä¿¡æģ¯
åĪĹ åħ¥
ç®Ĺ æ³ķ
è§Ĩ ä¸º
é ²
æĿ Ĥ
å¹¶ åľ¨
èĤ ī
æŁ¥ å°ģ
æ¶Ī éĻ¤
åħ¬åħ± åį«çĶŁ
i r
çļĦ æĹ¶éĹ´
æīĢ ä»¥
ç®¡çĲĨ åĴĮ
æģ ¶
æĶ¹æŃ£ çļĦ
äºĴ èģĶç½ĳ
é¢Ħéĺ² æİ§åĪ¶
åĬŀæ³ķ çĶ±åĽ½åĬ¡éĻ¢
è§ ¦
è¯ģåĪ¸ åħ¬åı¸
åħ¬åħ± åĪ©çĽĬ
å§Ķæīĺ äºº
åģļ åĩº
è¿ ľ
ä¸į å±¥è¡Į
ç¬¬ä¸īåįģ äºĶæĿ¡
åĩı è½»
èīº æľ¯
éĺ² èĮĥ
åĮħ è£ħ
éķ¿ æ±Ł
ç¬¬ä¸īåįģ ä¹ĿæĿ¡
æĥ³ è¦ģ
ç ĳ
è¡Į åĬ¨
å² Ľ
æ¯Ķ å¦Ĥ
åªĴ ä½ĵ
çļĦ å·¥ä½ľ
åĨ »
é¡ º
åĳ¨ å²ģ
å»¶ éķ¿
åħ¬åĬ¡ åĳĺ
éĴĪ å¯¹
çļĦ åįķä½į
ä» Ĭ
ä¹ ħ
æµ ª
éĢļ æĬ¥
æĹ¥ å¸¸
ç§į åŃĲ
çĶµ ä¿¡
åĲĦ çº§äººæ°ĳä»£è¡¨å¤§ä¼ļ
å®Į æķ´
æ»¥ çĶ¨
è¡ĮæĶ¿ è®¸åı¯
é¡ ¿
è¿Ŀ çº¦
å¼Ģ æĶ¾
ç»Ļ æĪĳ
åĲį ä¹ī
ç¬¬ä¸īåįģ åħŃæĿ¡
åħĪ çĶŁ
ç¬¬åħ« ç«ł
æĭ ¥
å¤Ħ ä»¥
æīĢ è¿°
åĨĽ å®ĺ
ç¬¬åĽĽåįģ æĿ¡
çļĦ æĦıè§ģ
ç¨İ æĶ¶
ç¬¬ä¸īåįģ åħ«æĿ¡
äº§çĶŁ çļĦ
è´¦ æĪ·
æĭĽ æłĩ
åĨ Ĵ
ä¸» ä»»
æ ½
æĹħ è¡Į
å±Ĭ æ»¡
`` `
Ġ ä¸ºäºĨ
åºĶå½ĵ èĩª
åı¯ä»¥ ä¾Ŀæ³ķ
çĶµ è§Ĩ
å®£ åĳĬ
çº³ç¨İ äºº
ç» į
èĬĤ èĥ½
æ¬¡ ä¿®æŃ£
è®¾ç«ĭ çļĦ
ä»ĭ ç»į
æĮ ĳ
ç»ı éªĮ
çŃī çº§
åİ ħ
åĨ³ çŃĸ
ä¾Ŀçħ§æľ¬æ³ķ è§Ħå®ļ
æİĪ äºĪ
çļĦ åºĶçĶ¨
åĽ½åĬ¡éĻ¢ è¯ģåĪ¸çĽĳçĿ£ç®¡çĲĨæľºæŀĦ
çĽĳå¯Ł æľºåħ³
ä¸Ģ èµ·
ä¸į æľį
æľ¬ çº§äººæ°ĳæĶ¿åºľ
åī §
å½¢ æĪĲ
åĪ¶å®ļ æľ¬æ³ķ
å±Ĭåħ¨åĽ½äººæ°ĳä»£è¡¨å¤§ä¼ļå¸¸åĬ¡å§Ķåĳĺä¼ļ ç¬¬åįģ
çģ¾ å®³
çı Ń
æŀª æĶ¯
éĻĪ è¿°
æĸ ¯
ä¸ļ ä¸»
åĽ½å®¶ é¼ĵåĬ±
æ£ ®
æķĻ åŃ¦
éĢłæĪĲ çļĦ
æ°Ķ è±¡
æ¹ ĸ
ç» ©
è¯ º
æĥ ©
çº§ ä»¥ä¸Ĭ
æľª æĮīçħ§è§Ħå®ļ
è´ ¿
å®¡ æł¸
è¦ģæ±Ĥ çļĦ
ç±» åŀĭ
åĻ ª
å±ħæ°ĳ å§Ķåĳĺä¼ļ
è§Ĵ èī²
å¹¼åĦ¿ åĽŃ
č Ċ
ä¸Ģ åĲį
åĽ½ æ°ĳ
ä¿Ŀ åŃĺ
å½ĵäºĭ äººçļĦ
éģµ å¾ª
ç¨³ å®ļ
æľī åĪ©
æıĲ è¯·
Ġæľ¬æ³ķ èĩª
Ġ å½ķ
çļĦ éĩįè¦ģ
äºº æīį
æ³ķ æ²»
å¤§ æ°Ķ
è¢« åĪ¤
è¡Įä¸º èĥ½åĬĽ
åģľ ä¸ļ
æľªæĪĲå¹´ äººçļĦ
çŁ« æŃ£
3 0
åį Ĭ
ä¸Ģ èĩ´
å¹´ åĨħ
æľºæŀĦ åºĶå½ĵ
è· ¨
ä¼ĺ æĥł
çļĦ æľīåħ³è§Ħå®ļ
ä¹ ±
åĪĨ åī²
æ³ķå¾ĭ æ³ķè§Ħ
åĢ Ĵ
èĤ¡ ç¥¨
å¹´ä»¥ä¸Ĭ æľīæľŁå¾ĴåĪĳ
æĢİ ä¹Ī
è® ²
è¯ģ äºº
æĶ¶ åıĸ
ä¼ĺ åĮĸ
çĸ¾çĹħ é¢Ħéĺ²æİ§åĪ¶
åĢŁ æ¬¾
æľºåĻ¨ åŃ¦ä¹ł
å²Ĺ ä½į
ä¾Ŀæ³ķ å±¥è¡Į
åĪĳ ç½ļ
å®³ äºº
æ¹¿ åľ°
čĊ č
è¯· æł¹æį®
é¢Ħ æ¡Ī
åĿ Ģ
ç¬¬åĽĽåįģ åĽĽæĿ¡
åĬ³åĬ¨ äºīè®®
éĢĢ è¿ĺ
æ°ĳçĶ¨èĪªç©º åĻ¨
Ġy ou
æĿ¡ ä¾ĭ
æŃ §
æľīåħ³ ä¸»ç®¡éĥ¨éĹ¨
æİªæĸ½ çļĦ
ç¬¬åĽĽåįģ äºĮæĿ¡
ç¬¬åĽĽåįģ ä¸īæĿ¡
ç¬¬åĽĽåįģ äºĶæĿ¡
ç»¼ ä¸Ĭ
Ċ ĠĠ
çļĦ éľĢè¦ģ
æĸ° éĹ»
ç©º éĹ´
æīį èĥ½
æ´Ĺ éĴ±
æ³Ħ éľ²
ä¸į åĬ¨äº§
åħ¬ è¯ģ
è´£ä»» çļĦ
å°ı çº¢
åıĬåħ¶ æľīåħ³éĥ¨éĹ¨
å¾Ī å¤ļ
æħĪåĸĦ ç»Ħç»ĩ
ä¸ §
ä¸Ģ æŃ¥
æĪĲ æľ¬
åħ± äº«
å®³ åħ³ç³»
è¿ «
åľ¨ ä¸ŃåĽ½
åĩº çļĦ
åĪĨ å·¥
æıĲä¾Ľ èĢħ
éĿ¢ ä¸´
åĿ Ĺ
ä» ĵ
è¡ ¡
è´ ¡
å®ŀ éªĮ
ç¬¬åĽĽåįģ ä¸ĥæĿ¡
åħ·ä½ĵ çļĦ
èĩ´ ä½¿
æľīä¸ĭåĪĹè¡Įä¸º ä¹ĭä¸ĢçļĦ
åĲĮ ä¸Ģ
åŃ¦ ä½į
æī§ çħ§
åĢº åĪ¸
å®¶åºŃ æķĻèĤ²
å®ŀéĻħ æĥħåĨµ
Ġf or
å¯» æ±Ĥ
u n
é ±
Ġ 4
æ°ĳ æĶ¿
ç¬¬åĽĽåįģ åħ«æĿ¡
å¤Ħä¸ī å¹´ä»¥ä¸Ĭ
ä¹ ĺ
å¦ ¨
ç¬¬åĽĽåįģ ä¸ĢæĿ¡
æĹ¥èµ· æĸ½è¡Į
çĬ¶ æĢģ
åĻª å£°
ç»¼ä¸Ĭ æīĢè¿°
è´¡ çĮ®
æĬ ½
æ¶ ²
çĶµ åĬĽ
éĤ® ä»¶
å§ĵ åĲį
é± ¼
åĲ ¨
è¯ ĳ
è¿ĩ éĶĻ
å·¥ä½ľ ä¸Ń
æĢ» ä½ĵ
éĢłæĪĲ ä¸¥éĩį
æīĭ æľº
Ġ äººæ°ĳæ³ķéĻ¢
å® Ĺ
åĮ Ĺ
ç¬¬äºĶåįģ æĿ¡
åĽ¾ ä¹¦
æ±ĩ ç¥¨
è ĵ
æĪĲ åĬŁ
èģĮ å®Ī
æİĪ æĿĥ
ç¤¾åĮº çŁ«æŃ£
å ĺ
æ° ¸
é¢ ĳ
æķĪ æŀľ
æ£® æŀĹ
è¯ ļ
å¾ Ħ
çĶŁ æķĪ
çŃī çŃī
æŁ¥ è¯¢
æĮĩ å®ļçļĦ
åħ» æ®ĸ
ç¨İåĬ¡ æľºåħ³
èµ Ľ
ç¬¬åĽĽåįģ åħŃæĿ¡
æµĭ ç»ĺ
åįł çĶ¨
æ¨¡ åŀĭ
å¼Ĥ è®®
è´£ä»¤éĻĲæľŁ æĶ¹æŃ£
è Ķ
ç»ı å¸¸
åģ ¶
ç¬¬äºĮ æ¬¾
èµ· æĿ¥
è· µ
å®£ä¼ł æķĻèĤ²
éĺ» ç¢į
ä»¥ ä¾¿
åºĶå½ĵ éĩĩåıĸ
åĪ¶ åĵģ
åħ¨ çĲĥ
èĩª æĦ¿
æľª æĮīçħ§
èį £
ç¬¬åĽĽ çĻ¾
ç¬¬åĽĽåįģ ä¹ĿæĿ¡
é«ĺçŃī åŃ¦æł¡
æĮĳ æĪĺ
æĿ ¾
è° Ī
ç»Ħç»ĩ åĴĮä¸ªäºº
ç¼ Ķ
ç½ĳ ç«Ļ
èĪª éģĵ
ä¸ °
å· ŀ
ä¸¾ åĬŀ
åį«çĶŁ è¡ĮæĶ¿éĥ¨éĹ¨
Ġs t
éĥ½ æĺ¯
ä¼¤ å®³
è¯Ī éªĹ
åĽ½æ°ĳ ç»ıæµİ
ä¸Ģ æ®µ
åĩ Ģ
åºĶå½ĵ çĶ±
å¿ ½
ç½ļ éĩĳ
çİ¯å¢ĥ å½±åĵį
éĹ®é¢ĺ çļĦ
åĤ¨ å¤ĩ
åĲ¬ åıĸ
c t
åĬ ª
ä¼ į
åįģ å¹´ä»¥ä¸ĭæľīæľŁå¾ĴåĪĳ
æĪĸèĢħ ä¸į
å¼ Ĭ
çĽ¸ åĲĮ
ä¹ĭ åīį
è®° è½½
è¡¥ åħħ
æľĢé«ĺ äººæ°ĳæ³ķéĻ¢
åŃ© åŃĲ
æ¦ Ĥ
çŀ Ĵ
ç Ĩ
çļĦ æĸĩç«ł
åĴĮ æľįåĬ¡
åºĶå½ĵ ç«ĭåį³
ä¿Ŀ åģ¥
è¡¨ è¾¾
çĽ¸ äºĴ
ä¼ģä¸ļ äºĭä¸ļåįķä½į
æľĢ ç»Ī
ä¸ĩåħĥä»¥ä¸Ĭ äºĶåįģ
æ ¥
ä¸ ½
çļĦ åĲĪæ³ķæĿĥçĽĬ
å¤ º
åħ³ æ³¨
æİ¥ ç§į
æīĺ è¿Ĳ
æ°ĳäºĭ è¯īè®¼æ³ķ
çª ĥ
åĬª åĬĽ
a d
ï¼ļ ï¼Ī
è¿ĩ å¤±
è¿ĳ äº²å±ŀ
éķ¿æ±Ł æµģåŁŁ
# #
$ $
è¿ ģ
ç¬¬äºĮ èĬĤ
åĳĬ è¯ī
it h
éļĲ æĤ£
ä¼ Ĳ
ä¸Ģ ä½į
äº§ æĿĥ
æľ¬ çº§
ä½į ç½®
ç»Ħç»ĩ å¼Ģå±ķ
åİ¿çº§ äººæ°ĳæĶ¿åºľ
ç¬¬ä¸Ģåįĥ éĽ¶
æ²Ł éĢļ
è¯ ¾
æľ¬æ³ķ è§Ħå®ļçļĦ
æĿ¥ æºĲ
ä¸įå¾Ĺ è¶ħè¿ĩ
è¿Ŀåıį äºĨ
æĪĸèĢħ åħ¶
åŃ £
èĩª ä¸»
æįŁ åĿı
é¢Ħ æµĭ
æĤ¨ åı¯ä»¥
ç¬¬äºĶåįģ ä¸ĢæĿ¡
ä½ľåĩº çļĦ
å°Ŀ è¯ķ
è§Ħ æ¨¡
åħ± æľī
åĨ» ç»ĵ
æı ¡
ä»¥ä¸Ĭ çļĦ
åĮ» å¸Ī
ç¬¬äºĶåįģ äºĮæĿ¡
ç¬¬äºĶåįģ åħŃæĿ¡
æ°ĳäºĭ è¡Įä¸ºèĥ½åĬĽ
è½½ æĺİ
çļĦ åĨħå®¹
å¤ ı
æİ Į
ç»Ħç»ĩ å®ŀæĸ½
é© ¬
è¯¢ éĹ®
ç¿» è¯ĳ
è Ľ
é º
åĴĮ æľīåħ³
å¯ Ħ
åºĶå½ĵ åĬłå¼º
æŀ ¶
ç« ¯
æľ¬ äºº
æ± ½
æĺİ çŁ¥
ç¬¬ä¸Ģ èĬĤ
å°ı æĿİ
çĥ Ī
æ°ĳäºĭ è´£ä»»
æŃ§ è§Ĩ
Ġ åĲĦçº§äººæ°ĳæĶ¿åºľ
çļĦ æ¡Īä»¶
ç®¡ æİ§
æľº æ¢°
åĽ½å®¶ è§Ħå®ļçļĦ
éĿ ł
å¤§ éĩı
ä¿ĿæĬ¤ åĴĮ
åĮ» çĶŁ
ç¬¬äºĶåįģ ä¸ĥæĿ¡
å®¢ è§Ĥ
åĩŃ è¯ģ
åĽºä½ĵ åºŁçī©
a y
ç ¹
Ġa re
æĪĳä»¬ åı¯ä»¥
åĢĻ éĢī
åĩ ½
æĪĸèĢħ åľ¨
çī© ä¸ļ
è¿Ľ åĩºåı£
çĶ± çľģ
æ°´ åľŁ
l y
çļĦ çĬ¯ç½ª
åºĶå½ĵ ç»ı
æľ¬ åįķä½į
åĪ¶ æŃ¢
åĨħ éĥ¨
ç¤¾ äº¤
æī¿ ç§Łäºº
æī ¬
åºĶå½ĵ ä¸İ
æ´»åĬ¨ ä¸Ń
å¦Ĥæŀľ æĤ¨
äººå·¥æĻºèĥ½ æĬĢæľ¯
çļĦ ä¸Ģ
äºĮ çĻ¾
åĪ° äºĨ
æī§è¡Į çļĦ
æīĺ ç®¡
åĨľæĿĳ åľŁåľ°æī¿åĮħ
æľŁè´§ äº¤æĺĵ
æĽ´å¤ļ çļĦ
ç¦ı åĪ©
è®¨ è®º
åį ¸
åº Ĺ
æ°ĳ ä¸»
åĮĸ çļĦ
ç»ĵ è®º
æī¹åĩĨ çļĦ
åıĳçĶŁ çļĦ
åıĬåħ¶ å·¥ä½ľäººåĳĺ
ç»§æī¿ äºº
å· §
ä¸Ń åĮ»
ä¸Ĭ è¯ī
æıĲ åįĩ
å¹´ çļĦ
ç½ª çĬ¯
èĬĤ çº¦
ç¬¬äºĶåįģ åħ«æĿ¡
ç¬¬äºĶåįģ ä¸īæĿ¡
ç§» åĬ¨
Ġ\ (
è¿ŀ å¸¦
ä»¥å¤ĸ çļĦ
åĴĮ ä½¿çĶ¨
åĽ½ ç±į
ä¾µ åįł
èĢķ åľ°
æĬ «
æĪĸèĢħ æľīåħ¶ä»ĸ
æĸĩ æĺİ
æĶ¶ åħ»
æī¿ è¯º
åŁºéĩĳ ç®¡çĲĨäºº
ä¹īåĬ¡ çļĦ
åĪĳäºĭ è¯īè®¼æ³ķ
æīĢæľī çļĦ
åħ¶ è§Ħå®ļ
æĥ ¯
æĹ¥ ä»¥ä¸ĭ
åŃĺ æ¬¾
æİ¨ çĲĨ
åĽŀ éģ¿
èĻ ½
çĸ« æĥħ
çŃ¾ åıĳ
çĭ¬ èµĦ
æµ·äºĭ æ³ķéĻ¢
åıĹæīĺ äºº
ç¹ ģ
Ġ ä¸Ńåįİäººæ°ĳåħ±åĴĮåĽ½
æľº ä¼ļ
å¥ Ĺ
æľįåĬ¡ æıĲä¾ĽèĢħ
ç¬¬äºĶåįģ äºĶæĿ¡
æ¡Īä»¶ çļĦ
ç®¡çĲĨ åĪ¶åº¦
æĸĩ ä¹¦
æĬ¥ éĢģ
åĬł å·¥
éĴ Ł
æĪĺ çķ¥
æĭ ī
æ¬ ł
æīĢ åĪĹ
å¹´ é¾Ħ
åħŃ ä¸ªæľĪ
ç§į ç±»
è´¢æĶ¿ éĥ¨éĹ¨
Ġ v
å¾ ĩ
ä¼ļ åĳĺ
å¹¶ å°Ĩ
æ°´ è¡ĮæĶ¿ä¸»ç®¡éĥ¨éĹ¨
ç§ĳ çłĶ
ç¬¬ä¸ĢçĻ¾ ä¸īåįģ
æłĩåĩĨ åĴĮ
èĩªæ²» åľ°æĸ¹
æ£Ģå¯Ł å®ĺ
å¿ħè¦ģ æĹ¶
è´§çī© çļĦ
åĴĮ æ³ķå¾ĭ
åľ° çĲĥ
æ· ·
èĲ½ å®ŀ
1 5
è Ĵ
çļĦ ä¹īåĬ¡
æķ´ é¡¿
æ¯Ķ è¾ĥ
æĢĿ æĥ³
å¾ĩ ç§ģ
è ĸ
çļĦ éĥ¨éĹ¨
äººæ°ĳ èŃ¦å¯Ł
æľ¬ æĿ¡
è¿Ľ æŃ¥
æĪĳ æĥ³
æĶ¶ è´¹
é«ĺ æķĪ
å¤ļ å°ĳ
ç¬¬äºĶåįģ åĽĽæĿ¡
æĪĳä»¬ éľĢè¦ģ
ä½ı å®
éļı çĿĢ
åĢįä»¥ä¸ĭ çļĦç½ļæ¬¾
ä¸° å¯Į
äºº åĴĮ
æ³ Ĭ
ä¸Ń å°ı
æĹ¶ æķĪ
éģĵ å¾·
ç¬¬ä¸ĢçĻ¾ åĽĽåįģ
éħį å¤ĩ
å¤© æ°Ķ
ç¾İ åĽ½
æĲ º
èĳ£äºĭ ä¼ļ
åį«çĶŁåģ¥åº· ä¸»ç®¡éĥ¨éĹ¨
å¦ ¥
å¤į æĿĤ
Ġa s
éªĮ æĶ¶
å°± æĺ¯
ä¿Ŀéļľ æ³ķ
ç¬¬åħŃåįģ äºĮæĿ¡
åĨĻ ä¸Ģç¯ĩ
åħ¬åħ±åį«çĶŁ äºĭä»¶
åĽ½æ°ĳç»ıæµİ åĴĮç¤¾ä¼ļ
é¢ ľ
æľ¬ ç«ł
åĢ ¾
ä¹Ł æĺ¯
çĻ»è®° çļĦ
æľīæĿĥ è¦ģæ±Ĥ
éĥ½ æľī
æĻ® åıĬ
é¤Ĳ åİħ
ä¸»å¸Ń åĽ¢
e m
åĲĪ å¹¶
åĩº åĶ®
å¥ ĩ
å°Ĩ ä¼ļ
åĪ¤ æĸŃ
ä¸¾ è¡Į
å¯Ĩ çłģ
çŃĸ çķ¥
Ġ P
èĢħ çļĦ
æ°ĳæĹı èĩªæ²»åľ°æĸ¹
åĲ ĥ
ä¸Ģ ä»½
åįģ åŃĹ
æľº åľº
æıĲ åīį
è¾ ŀ
æĹł éļľç¢į
ç¬¬åħŃåįģ æĿ¡
äº¤éĢļ äºĭæķħ
æī¶ æĮģ
Ġ å½ĵäºĭäºº
åĨ ²
çĶ± åħ¬å®īæľºåħ³
å®ŀ è·µ
ä¹¡ æĿĳ
00 0
çº¢ åįģåŃĹ
æĺ¾ èĳĹ
è ¸
è¡ĮæĶ¿ ç®¡çĲĨéĥ¨éĹ¨
å¼Ģ éĩĩ
èģĮè´£ åĪĨå·¥
æ¸ħ æ´ģ
ç¬¬åħŃåįģ ä¸ĢæĿ¡
ä¹ł æĥ¯
åķĨä¸ļ ç§ĺå¯Ĩ
åĲİæŀľ çļĦ
ä¸§ å¤±
çļĦ äººæ°ĳä»£è¡¨å¤§ä¼ļ
çļĦ åŁºæľ¬
ä¸į ä»ħ
ä¸Ń å¿ĥ
å¤Ħ äºĮ
èµĦ è´¨
å¦Ĥ ä¸ĭ
æ¯ ķ
ä¸ĵ é¡¹
âĢĿ ï¼Į
ç®Ģ åįķ
èĪŀ å¼Ĭ
åī ©
è¶ ĭ
çļĦè§Ħå®ļ å¤Ħç½ļ
å»ºè®¾ çĶ¨åľ°
ç¬¬äºĶåįģ ä¹ĿæĿ¡
äº§åĵģ çļĦ
å¸ĥ å±Ģ
åľ°åĮº çļĦ
æ¼ ı
èģĮä¸ļçĹħ åį±å®³
æī¾ åĪ°
ä¸Ģ åĢįä»¥ä¸Ĭ
åĮ ¿
æĸĩ åŃ¦
åľ°æĸ¹ åĲĦçº§äººæ°ĳä»£è¡¨å¤§ä¼ļ
æľĢ è¿ĳ
è´¨éĩı å®īåħ¨
ä¸ĩåħĥä»¥ä¸Ĭ äºĮåįģ
æĳ Ħ
åº Ĭ
åı¯ä»¥ å¯¹
çŃī éĥ¨éĹ¨
åī ¥
æĹł æľŁå¾ĴåĪĳ
ç¬¬åħŃåįģ ä¸īæĿ¡
ä¸ĩåħĥä»¥ä¸Ĭ åįģ
19 9
å¤ª éĺ³
æĭ¥ æľī
æĹ ©
åºĶå½ĵ ä¾Ŀçħ§
äººæ°ĳ è°ĥè§£
å·¥ èīº
è¾ ħ
åĪ© å®³åħ³ç³»
æĸĩ åŃĹ
æİ¥ æĶ¶
æĶ¹ è¿Ľ
åĮħ åĲ«
ĠåĽ½å®¶ å»ºç«ĭ
åŁºéĩĳ çļĦ
éĢłæĪĲ æįŁå¤±çļĦ
èĩªçĦ¶ è¯Ńè¨Ģ
is t
an d
æīĢæľī äºº
éļĲ çŀĴ
å¤ĦäºĶ å¹´ä»¥ä¸ĭæľīæľŁå¾ĴåĪĳ
åħ± äº§
æĺİ æĺ¾
ä¸»ç®¡ æľºåħ³
åħ¬åı¸ ç«łç¨ĭ
æĿ¥ è¯´
çĥ ¤
å¦¥ åĸĦ
ç °
çī Ľ
æĺ¯ åľ¨
æĺ¯ ä»Ģä¹Ī
å¹¶ åĲĳ
å¹³ åĿĩ
æİĴ åºı
èį¯åĵģ çĽĳçĿ£ç®¡çĲĨéĥ¨éĹ¨
éĢ¾æľŁ ä¸į
èĽ ĭ
æĹ¥ä»¥ä¸ĭ æĭĺçķĻ
é¢ľ èī²
ç ĵ
è® ¯
äººåĳĺ åĴĮ
ä¸İ åħ¶
çĶŁäº§ ç»ıèĲ¥èĢħ
æĿ¥ è¶Ĭ
ç§ĳ æĻ®
é¢Ĩ åıĸ
åºĶæĢ¥ é¢Ħæ¡Ī
è¶Ĭ æĿ¥è¶Ĭ
æ°ĳæĶ¿ éĥ¨éĹ¨
æİĮ æı¡
å¾ĩç§ģ èĪŀå¼Ĭ
æĪĸ åħ¶ä»ĸ
è¿Ļ æĺ¯
æĶ¹ éĢł
æī¹ è¯Ħ
æľīæĿĥ åĲĳ
èĢĥ è¯ķ
å® Ŀ
æĬ ĺ
ä»¥ä¸ĭ ç½ļæ¬¾
çī¹ å¾ģ
çĻ»è®° æľºåħ³
âĢĿ ãĢĤ
æĥħå½¢ çļĦ
å°ļ æľª
åį ļ
åĬ¨ æ¤įçī©
çĶ± åİ¿çº§ä»¥ä¸Ĭåľ°æĸ¹äººæ°ĳæĶ¿åºľ
ç¤¾ä¼ļ ç»Ħç»ĩ
æł¸ è®¾æĸ½
å°ĳ äºİ
æ¸ħ åįķ
æī¶ åħ»
åįĥåħĥ ä»¥ä¸Ĭ
èĲ¥ä¸ļ æī§çħ§
åºĶå½ĵ åĬłå¼ºå¯¹
éļ Ķ
åıį æ´ĹéĴ±
ä¸ĵ å®¶
ä»· æ¬¾
ç² ī
ä»²è£ģ åĳĺ
Ġc on
åıª æľī
é«ĺçº§ ç®¡çĲĨäººåĳĺ
æ»¥çĶ¨ èģĮæĿĥ
æľīåĪ© äºİ
äºº æķ°
çĶ »
è¿Ľ ä¸ĢæŃ¥
çłĶç©¶ å¼Ģåıĳ
èĳĹ ä½ľ
æĲº å¸¦
5 0
o d
çĶ °
ä½ĵ éªĮ
æ°´ åŁŁ
æĤ ī
re s
éĺŁ ä¼į
åºĶçĶ¨ ç¨ĭåºı
æ±½ è½¦
è¶ĭ åĬ¿
Ġ F
æľī å®³
ä¸į èī¯
åºĶå½ĵ äºĪä»¥
å° Ķ
æµ· å²Ľ
å°ı è¯´
åĲĦ ç±»
æķĻèĤ² è¡ĮæĶ¿éĥ¨éĹ¨
åħĪ è¿Ľ
ç§» éĢģ
å±Ĭåħ¨åĽ½äººæ°ĳä»£è¡¨å¤§ä¼ļå¸¸åĬ¡å§Ķåĳĺä¼ļ ç¬¬äºĮåįģ
åı¬ å¼Ģ
Ġ or
èĲ¥ åĪ©
éĽ ĩ
æľįåĬ¡ æľºæŀĦ
çĤ ¸
åĨ³å®ļ çļĦ
ç§ĳåŃ¦ çłĶç©¶
åºĶå½ĵæĮīçħ§ è§Ħå®ļ
Ġb e
éļ¾ ä»¥
åĩł ä¸ª
çİ© å¿½
æ½ ľ
Ġ 0
åı ¶
åĪ »
åĴĮ åĽ½åĬ¡éĻ¢
å¤Ħ ä¸Ģ
æķ° åŃ¦
åıį æĺł
æķĻèĤ² åĴĮ
æĶ¾ å¼ĥ
æł¸ å¿ĥ
èĩªçĦ¶ äºº
çŁ¿ å±±
æ²»å®īç®¡çĲĨ å¤Ħç½ļ
åĺ ±
çİ©å¿½ èģĮå®Ī
äº ¬
åı¯ä»¥ è¦ģæ±Ĥ
åĪĨ ä¸º
åįķä½į æĪĸèĢħä¸ªäºº
æ¶ ¦
at e
æŀĹ æľ¨
åºĶå½ĵæĮīçħ§ åĽ½å®¶æľīåħ³è§Ħå®ļ
å¯¹åħ¶ çĽ´æİ¥è´Łè´£çļĦä¸»ç®¡äººåĳĺåĴĮåħ¶ä»ĸçĽ´æİ¥è´£ä»»äººåĳĺ
åĴ ĸ
æĹ Ĺ
æĪĸèĢħ ä»¥
ä¸į ä¼ļ
åºĶå½ĵ æī¿æĭħ
åĩº ç§Ł
æľīåħ³ æľºåħ³
çĽ¸ éĢĤåºĶ
åķ ¡
æĽ ²
åĪĴ å®ļ
ä½ł åı¯ä»¥
çģ µ
æİĪ æĿĥçļĦ
äºĭåĬ¡ æīĢ
ä»¥ä¸ĭæĺ¯ ä¸ĢäºĽ
å®Ĺ æķĻ
g e
Ġ r
ä¸Ģ å®¶
åĽ½å®¶ åħ¬åĽŃ
ä¿ĿæĬ¤ æ³ķ
éĻĲ é¢Ŀ
æĶ¯ åĩº
å»ºè®¾ å·¥ç¨ĭ
å®Į åħ¨
å¹¿ æĴŃ
çªģåıĳ åħ¬åħ±åį«çĶŁäºĭä»¶
k e
Ġ x
è¿Ļ ç¯ĩ
æµ· èŃ¦
è¡¥ åĬ©
åı¦ å¤ĸ
çģŃ å¤±
v er
åħ³ éĹŃ
çĲĨ äºĭ
åı¯ä»¥ å¹¶å¤Ħ
ç¤ ¼
ç¤¾ä¼ļ åĽ¢ä½ĵ
æĻ ĭ
ç»ıèĲ¥ æĿĥ
æł¸ åĩĨ
ç§» äº¤
ä»¥ ç¡®ä¿Ŀ
ä¸į æ»¡
å¹¶ å¯¹
åĽ½å®¶ å·¥ä½ľäººåĳĺ
è´¹ çļĦ
ä¸įå¾Ĺ ä»¥
in t
åģ¥åº· çļĦ
æĦŁ åĪ°
æľŁéĻĲ å±Ĭæ»¡
åĨį çĶŁ
æĭĨ éĻ¤
é£ŀ è¡Į
ç»¿ èī²
åĴĸ åķ¡
l d
ä»» èģĮ
åıĸ ä¿Ŀ
ç«ĭ æ¡Ī
å»ºè®¾ åįķä½į
æī¹åĩĨ åĲİ
æĶ¯æĮģ åĴĮ
åĲĪçĲĨ çļĦ
æµ·äºĭ ç®¡çĲĨæľºæŀĦ
ä¸ĵéĹ¨ å§Ķåĳĺä¼ļ
é¥® é£Ł
éĵ¶è¡Įä¸ļ çĽĳçĿ£ç®¡çĲĨæľºæŀĦ
y th
Ġ B
æĹ ¢
éĺ² æ´ª
æľ¬æ³ķ æīĢç§°
çī¹ èī²
å¦Ĥæŀľ ä½ł
æİ§ åĳĬ
çŁ¿ äº§
é¸ ¡
c h
çļĦ ä¼ģä¸ļ
çļĦ æĹ¶åĢĻ
å½ ©
çī §
çĶŁ èĤ²
ä¸º åħ¶
éĩį æķ´
åĩĨ äºĪ
éķ¿ æľŁ
çĭ ±
æĪ¿ äº§
åįł æľī
ç»ĦæĪĲ äººåĳĺ
çī¹ç§įè®¾å¤ĩ å®īåħ¨
æ³ķ åºŃ
æĸ Ĺ
ä»» åħį
è½¬ åĮĸ
èµł ä¸İ
éĢĶ å¾Ħ
åĲĪæł¼ çļĦ
åī¥ å¤º
çļĦ æľīåħ³
åľ° ä½į
éĿ Ļ
æ³ķå¾ĭ çļĦåĨ³å®ļ
æŁ¥ éĺħ
è´Ł æĭħ
çĽ® å½ķ
é¢Ħ èŃ¦
å¤ļ æł·
åŁºéĩĳ æīĺç®¡
éĤ »
éģĹ åĺ±
å¿« éĢŁ
æŃ¦ åĻ¨
åŁºéĩĳä»½é¢Ŀ æĮģæľīäºº
ä»İä¸ļ äººåĳĺ
åĽ¾ä¹¦ é¦Ĩ
T he
r ac
ã ģ
åħ ģ
åº ķ
æĸ¹ åı¯
åĪĨ éĴŁ
è½ ¯
çĽ¸ ç»ĵåĲĪ
éĢī æ°ĳ
æĬķ æłĩ
èĤ¡ä¸ľ ä¼ļ
ä¼ļè®¡ å¸Ī
æļĤ åģľ
åıĹçĽĬ äºº
åĩ½ æķ°
Ġ è¿Ŀåıįæľ¬æ³ķ
è¡¨ æĺİ
æĻ ļ
çĤ Ń
è¿ĺ æĺ¯
å¤ĸåĽ½ äºº
åĢĻ å®¡
èģĮä¸ļçĹħ éĺ²æ²»
æİ¢ ç´¢
çī©ä¸ļ æľįåĬ¡
è¸ ª
åıĸä¿Ŀ åĢĻå®¡
yth on
è¡ Ĺ
éĢ ®
åĩº è®©
æľª èĥ½
çĽ¸ å¯¹
ä»£è¡¨ äºº
ç»Ļ ä»ĺ
æ°´ èµĦæºĲ
æĥħåĨµ çļĦ
ä¿¡æģ¯ çļĦ
å¤į åĪ¶
éĵ ¾
éĢĤçĶ¨ äºİ
éĢīä¸¾ å§Ķåĳĺä¼ļ
åŁºç¡Ģ è®¾æĸ½
ä»į çĦ¶
ç¬¬ä¸Ģåįĥ ä¸ĢçĻ¾
æī© å¤§
1 1
åħ ¼
åĨ °
ç»ı åĽ½åĬ¡éĻ¢
ä¸» å¼ł
åĵģ çīĮ
åĪĹ è¡¨
åºĶæĢ¥ æķĳæı´
ä½İ äºİ
çĽĳå¯Ł å§Ķåĳĺä¼ļ
ä»»ä½ķåįķä½įåĴĮä¸ªäºº ä¸įå¾Ĺ
æŃ¦è£ħ èŃ¦å¯Ł
é² ľ
é¡º åºı
åģľä¸ļ æķ´é¡¿
çļĦ æĸ¹æ³ķ
åĲ §
å¤ ľ
æĪĸèĢħ æľª
åľ¨ ä¸Ńåįİäººæ°ĳåħ±åĴĮåĽ½
ä¸Ń æŃ¢
éĢļ ä¿¡
æŁ¥ å¤Ħ
ãĢĭ ãĢģ
åİŁ åĳĬ
åĬŀ äºĭ
æıĲåĩº çļĦ
ç¬¬åħŃåįģ äºĶæĿ¡
en d
ä½ı æĪ¿
å¼Ģåıĳ åĪ©çĶ¨
çı į
ig h
éĢ® æįķ
ä¸į æŃ£å½ĵ
çº§ äººæ°ĳæ³ķéĻ¢
è¿Ŀåıį æ²»å®īç®¡çĲĨ
ä¸ĩåħĥ çļĦ
æľĢ ä½İ
éħį åģ¶
è£ħ å¤ĩ
éģĹ ä¼ł
Ġth at
åħģ è®¸
è¡Į æĿİ
åĩº çīĪ
æł¹æį® è¯¥
çİ° å½¹
è¿Ŀåıį æ³ķå¾ĭ
åıĤ çħ§
è¯ģåĪ¸ æ³ķ
ä»²è£ģ å§Ķåĳĺä¼ļ
å¾ģ æ±Ĥ
ä¸īåįģ æĹ¥åĨħ
çĮ «
çĪ¶æ¯į æĪĸèĢħåħ¶ä»ĸ
æĳ ĺ
æĭĺå½¹ æĪĸèĢħ
å·¨ å¤§
Ġ 8
Ġ on
çļĦ æĬĢæľ¯
ç® ±
åıĳ æĺİ
åĩº ç§Łäºº
åĬ¨ åĳĺ
åĲį çļĦ
æĢ» ç»ĵ
æ» ©
ç»ıæµİ ç¤¾ä¼ļ
ç¬¬åħŃåįģ åĽĽæĿ¡
å¼ķ èµ·
ç¬¬ä¹Ŀ ç«ł
èī¯ å¥½çļĦ
æłĩçļĦ çī©
æĢ»ä½ĵ è§ĦåĪĴ
æ°¸ ä¹ħ
2 9
çļĦ ç»Ħç»ĩ
èĢ Ĺ
åºĶå½ĵ å»ºç«ĭ
å¹¶ åı¯ä»¥
æĬĢ å·§
è§£ æķ£
éľĢè¦ģ æ³¨æĦı
æµ· åķĨ
æ¯Ĵ åĵģ
çļĦ ç®¡çĲĨ
æ° §
æľī ä»Ģä¹Ī
å¯¹ åįķä½į
å·¥ åķĨ
ä¿ĿéĻ© åħ¬åı¸
é£Ł çī©
æī¿æĭħ è´£ä»»
ç¬¬ä¸ĢçĻ¾ äºĶåįģ
å°ĳ æķ°
æĶ¯ä»ĺ çļĦ
çĶŁäº§ç»ıèĲ¥ åįķä½į
x t
åĴĮ åĽ½å®¶
ä¸į åĨį
ä¿Ŀ åħ¨
è¦ģ ä»¶
æ² ¿
åĬ© äºİ
ç¬¬äºĶ çĻ¾
è· Ł
Ġp ro
Ġn um
å¤Ħä¸īå¹´ä»¥ä¸ĭæľīæľŁå¾ĴåĪĳ æĪĸèĢħæĭĺå½¹
o s
Ġ 6
çļĦ ä»£è¡¨
æĪ ª
è´ µ
ä¸į è¦ģ
çº ¸
ä¿Ŀ çķĻ
ç§ Ģ
æľ¬ æ¡Ī
åĩº åįĸ
éģ £
è° į
ç¬¬ä¸ī èĬĤ
å¤ļ ä¸ª
è¯ģåĪ¸ æĬķèµĦ
çŃ¾ ç½²
ä¸»è¦ģ è´Łè´£äºº
åħ±äº§ åħļ
Ġ he
è´ «
æľī åĵªäºĽ
æĢ Ģ
èĩª èº«
éĹ´ è°į
æĪ¿ åľ°
ä¸ĵä¸ļ æĬĢæľ¯
Ġw ith
AI æĬĢæľ¯
æµª è´¹
åĴĮ ä¹īåĬ¡
æ³ķå¾ĭ ä¿ĿæĬ¤
å¼Ģ åºŃ
ä¹ĭ åĲİ
æĮĩ æłĩ
éª ¨
è· Ŀ
è½¬ æį¢
è¿ĺ åı¯ä»¥
ä¸ŃåĽ½ åħ±äº§åħļ
åįıè®® çļĦ
çªģ åĩº
åĳ½ ä»¤
æŀĹä¸ļ èįīåİŁ
èį£ èªī
çŁ¿äº§ èµĦæºĲ
æµ·åķĨ æ³ķ
_ _
ãĢ Ĳ
è¾ ±
å¥ ¶
å±¥è¡Į èģĮè´£
èº« å¿ĥ
è¿Ļç§į æĥħåĨµä¸ĭ
éĢĤå½ĵ çļĦ
åľŁå£¤ æ±¡æŁĵ
èĻ½ çĦ¶
p p
çĽ Ĳ
æīĢ å±ŀ
éĿ¢ ç§¯
ç¨İ çİĩ
ç¬¬åħŃåįģ ä¸ĥæĿ¡
ä»²è£ģ åºŃ
ä¹¦éĿ¢ éĢļçŁ¥
çĶŁçī© å®īåħ¨
éªĹ åıĸ
èģĮè´£çļĦ éĥ¨éĹ¨
ĠT he
ç¼Ķ ç»ĵ
ãĢ ĳ
ãĢĤ âĢĿ
å½ °
éĻ ·
ä¸Ģ çĽ´
ä¸İ åħ¶ä»ĸ
è½ ®
æ£Ģ ä¸¾
æķĻèĤ² æľºæŀĦ
æľīåħ³éĥ¨éĹ¨ åĴĮ
ç¬¬åħŃåįģ åħŃæĿ¡
æ°Ķ åĢĻ
es t
é¥ °
è¾ĥ å¤§
åı¯ä»¥åĲĳ äººæ°ĳæ³ķéĻ¢
å¿Ĺ æĦ¿
åĳĬè¯ī æĪĳ
2 8
ç £
çŃī æİªæĸ½
åŃ¦ åīį
è¿Ľè¡Į è°ĥæŁ¥
åħĥ ç´ł
å°ı æĹ¶
èĢĮ ä¸Ķ
æł¸ å®īåħ¨
ä¸¥éĩį æĥħèĬĤ
çĶŁæĢģ ç³»ç»Ł
ç§ĳæĬĢ æĪĲæŀľ
æ³ķäºº æĪĸèĢħåħ¶ä»ĸ
è¯·æł¹æį® ä¸ĭéĿ¢
ä¸ŃåĮ» èį¯
ç° ¿
n t
æĿ¡ è§Ħå®ļ
åı¯ æĮģç»Ń
ä¸Ń ä»ĭ
é¢ ģ
éĺ ¶
æ³ķå¾ĭ æķĪåĬĽ
æ¸ ł
åħ¬åı¸ æ³ķ
èģĮè´£ èĮĥåĽ´åĨħ
ç¬¬åħŃåįģ ä¹ĿæĿ¡
or t
ä¼¤ äº¡
åı¸æ³ķ æľºåħ³
åįģäºĶ æĹ¥åĨħ
éĢĲ æŃ¥
èĩªçĦ¶è¯Ńè¨Ģ å¤ĦçĲĨ
çļĦ çĶŁäº§
åĬ £
åĴĮ å·¥ä½ľ
æľī åĬ©äºİ
ï¼ī ï¼Į
ä¸ª æĢ§
éĻ¢ éķ¿
åĬĽ åĴĮ
æĦı æĢĿ
çĶ³ è¯ī
ç© ¿
èµĶåģ¿ è¯·æ±Ĥ
ç¬¬ä¸ĥåįģ ä¸ĢæĿ¡
å®¶åºŃ æļ´åĬĽ
Ġ E
Ġ åĽł
äº ļ
æĿ ¿
åĪ© æ¶¦
è¿Ľè¡Į å®¡æŁ¥
è¿Ļ ä¸Ģ
ç§į æ¤į
æĽ´ æį¢
æĸĩåĮĸ éģĹäº§
åı¦ è¡Į
æī£ ç¼´
æ·± åº¦
æ¢ ¦
iv e
æŃ£å½ĵ çĲĨçĶ±
ä¸įæľį çļĦ
æĬ« éľ²
è¿Ļç¯ĩ æĸĩç«ł
æĪ¿åľ° äº§
Ġ it
æĿ ¯
ä¹ ³
æ°ĳ èĲ¥
æĭ ¨
åıĳ åĮħ
åħ¨ æ°ĳ
çĿ£ ä¿ĥ
åľº æĻ¯
åĲĪåĲĮ ä¸Ń
ä¸Ńåįİ æ°ĳæĹı
å¹³ è¡¡
æī¿æĭħ æ°ĳäºĭè´£ä»»
ĠåĽ½å®¶ å¯¹
ç¬¬åħŃåįģ åħ«æĿ¡
è£ħ ç½®
åħį éĻ¤
ä¸ĩåħĥä»¥ä¸Ĭ äºĶ
åºŁ å¼ĥ
æľīæķĪ çļĦ
Ġ '
çļĦ è´£ä»»
å¹ ķ
å¹¶ æıĲä¾Ľ
çĽĳ çĭ±
æł¹æį® çĽ¸åħ³
è¢« è¯·æ±Ĥ
è§£ æĶ¾
è£ Ĥ
åį± åıĬ
åĬ³ åĬ¡
å© ´
çĶŁæĢģ ä¿ĿæĬ¤
ç¬¬ä¹Ŀ çĻ¾
çŁ¥è¯Ĩ äº§æĿĥ
åħ»èĢģ ä¿ĿéĻ©
a v
o b
o g
äºº å¯¹
ä¸ī ä¸ª
è®¾ å®ļ
æŁ¥ éªĮ
åĪ° æľŁ
éĽ Ħ
ç¤¾ä¼ļ æķĳåĬ©
å¸¸ è§ģ
èģĮä¸ļ æķĻèĤ²
ä¹¡ éķĩ
è¯ģæĺİ æĸĩä»¶
çĮ İ
æ±¡æŁĵçī© æİĴæĶ¾
åľ¨ä¸ŃåĽ½ å¢ĥåĨħ
åĬ «
åı¯ åĨįçĶŁ
ä¸į éľĢè¦ģ
ä¸į å½±åĵį
åºĶå½ĵ ç»ĻäºĪ
èµ ¡
æĺ¯ çļĦ
ä¸» æĮģ
å®ī è£ħ
æĮīçħ§ åĽ½åĬ¡éĻ¢
è¿Ĳ çĶ¨
åĿ Ĳ
çİ¯å¢ĥ æ±¡æŁĵ
æ¯ı ä¸ªäºº
åıĤåĬł çļĦ
é¥ ²
çļĦçĽ¸åħ³ è§Ħå®ļ
å®ļ ç½ª
åŃ ķ
æĮ Ĥ
ç®¡çĲĨ çļĦ
è¢« ä¿ĿéĻ©äºº
æĶ¹ éĿ©
çĹ ĩ
å¤© çļĦ
åĪĽ ä¸ļ
ç»´æĬ¤ åĽ½å®¶å®īåħ¨
æŃ» åĪĳ
å¯» æī¾
åĨľäº§åĵģ è´¨éĩıå®īåħ¨
å¾ª çİ¯
å¯¹å¤ĸ è´¸æĺĵ
çĪĨ çĤ¸
r i
è ¦
ä»ĸ äººçļĦ
åĲį å½ķ
æ· «
åįĥåħĥ ä»¥ä¸ĭç½ļæ¬¾
çĽĳäºĭ ä¼ļ
æģĲæĢĸ ä¸»ä¹ī
èĶ ¬
æĭĺå½¹æĪĸèĢħ ç®¡åĪ¶
¹ æŀľ
åĴĮ ç»Ħç»ĩ
å¹´ è½»
è¡¨ å½°
è¢« æī§è¡Į
åĲį åįķ
éķ¿ å®ĺ
åħ¬åħ± æĸĩåĮĸ
èĭ ¹æŀľ
è§Ĥ çĤ¹
ç¬¬äºĮçĻ¾ éĽ¶
åºĶæĢ¥ å¤Ħç½®
æľīæķĪ æİªæĸ½
ç²¾ç¥ŀ éļľç¢į
Ġæľ¬æ³ķ æīĢç§°
çĭ¬èµĦ ä¼ģä¸ļ
ä¸ ²
åĨ ·
è¦ģ çº¦
å¹¶ æł¹æį®
è¾ ĳ
è¡ĮæĶ¿ éķ¿å®ĺ
å°ı çİĭ
çĶµ è¯Ŀ
ä¾Ŀçħ§ åīįæ¬¾è§Ħå®ļ
æĿĥåĪ© çļĦ
çģ ¯
å¼ºåĪ¶ æĢ§
è´¢åĬ¡ ä¼ļè®¡
çļĦ åįķä½įåĴĮä¸ªäºº
ä¼ ¦
ä¾ ¨
æĪĸèĢħ åįķ
åľ¨ è¿Ļç§įæĥħåĨµä¸ĭ
æĪĲ ç»©
éĩį å¤į
ä»£è¡¨ çļĦ
é¦ Ī
æł¸ å®ŀ
ic e
å®¡è®¡ æľºåħ³
æĹ¥ç¬¬åįģ ä¸ī
é©» åĨĽ
åĲĳäººæ°ĳæ³ķéĻ¢ æıĲèµ·è¯īè®¼
éĻĨ åľ°
èµ¡ åħ»
æ³ ¢
åĴĮ å®īåħ¨
åĴĮ çĽ¸åħ³
è´ ®
åľ¨ è¿Ļä¸ª
å®¶ å±ŀ
æľīåħ³ åįķä½į
ä¸ĥ å¹´ä»¥ä¸ĭæľīæľŁå¾ĴåĪĳ
æĽ ¿
æĬķ ä¿Ŀ
å®ŀæĸ½ çļĦ
åı£ å²¸
èĪ¹ åĳĺ
æµģ è¡Į
å¼ºåĪ¶ æī§è¡Į
åĲ¸ å¼ķ
æĪĴ æ¯Ĵ
ãĢĭãĢģ ãĢĬ
çļĦ æ´»åĬ¨
ä¸º æĤ¨
æĹ¥ ä»¥ä¸Ĭ
çľ ¼
çĹħ åİŁ
ç¬¬åħŃ çĻ¾
è¿Ŀæ³ķ çĬ¯ç½ª
è´§ å¸ģ
åıĺ éĢł
ç¬¬ä¸ĢçĻ¾ ä¸ĥåįģ
è¡ĮæĶ¿æ³ķè§Ħ è§Ħå®ļ
åŁİ éķĩ
èģĮåĬ¡ çļĦ
åĭŁ æįĲ
èĶ¬ èıľ
2 5
é Ń
åį ´
æĿ Ģ
åºĶå½ĵ éĩĩåıĸæİªæĸ½
åħ¬ èģĮ
åıĳ åĩº
åıĳ æĶ¾
æĪĲ çļĦ
ä»£ çłģ
å°ı å¼ł
åĲĦ é¡¹
ç»ĵ å©ļ
ç»´ ä¿®
åĪĽ ä½ľ
æĸ¹éĿ¢ çļĦ
è¯ģåĪ¸äº¤æĺĵ æīĢ
æ¸ł éģĵ
è§£æĶ¾ åĨĽ
åı¯åĨįçĶŁ èĥ½æºĲ
p l
Ġ W
çļĦ å·¥ä½ľäººåĳĺ
åħ ĳ
äºº åı£
åĴĮ åıĳå±ķ
åħ³ ç¨İ
æĿĥ åĬĽ
åĩº ç¥¨
è¿Ļ éĩĮ
è®¡ éĩı
çĶŁäº§ ä¼ģä¸ļ
ç»ĵ æĿŁ
åĨĽ è¡Ķ
åĲĪåĲĮ çº¦å®ļ
ä¿® è®¢
ä¹īåĬ¡ äºº
åľŁåľ° ä½¿çĶ¨æĿĥ
èĥ½åĬĽ çļĦ
ä¹° åıĹ
æŁĲ ä¸ª
é¡¹çĽ® çļĦ
å¤ĸäº¤ éĥ¨
èĭ± éĽĦ
å¦¨ ç¢į
çļ ®
å¯¹ è¯¥
ï¼ļ âĢľ
å¹´ éĻĲ
è¡ĮæĶ¿ è¡Įä¸º
ä»£ ä¸º
æľºæŀĦ åĴĮ
æĪĳ ä¼ļ
è° ģ
æłĩ è¯Ĩ
æıĲä¾Ľ äºĨ
é¢ĺ çĽ®
æµģ ç¨ĭ
åĽŀ æĶ¶
åĮ»çĸĹ ä¿ĿéĻ©
çľģ çº§äººæ°ĳæĶ¿åºľ
äºĭæķħ çļĦ
ç¬¬ä¸ĥåįģ åĽĽæĿ¡
æĪĺ äºī
æ°ĳçĶ¨èĪªç©º ä¸»ç®¡éĥ¨éĹ¨
çħ¤ çĤŃ
è¯¾ ç¨ĭ
S S
ï¼Į ãĢĬ
åĲ ¯
æĿ¡ æĸĩ
åľ¨ åĮ»çĸĹ
æĪĳ åı¯ä»¥
æĦı ä¹ī
åĤ ¬
åıª èĥ½
æ³¨åĨĮ èµĦæľ¬
-- --
çĶŁæĪĲ ä¸Ģä¸ª
ç¬Ķ å½ķ
èĩªçĦ¶èµĦæºĲ ä¸»ç®¡éĥ¨éĹ¨
èģļ ä¼Ĺ
p t
Ħ æĸŃ
çļĦ èĪ¹èĪ¶
åºĶå½ĵ ä¸º
ç½ ¢
çŃī ä¿¡æģ¯
è° ĭ
æĢ§ åĪ«
é«ĺ åİŁ
æĽ´ å¥½çļĦ
çĤ ¼
å¤± ä¸ļ
ç¬¬ä¸ĢçĻ¾ åħ«åįģ
ç»ıæµİ åıĳå±ķ
ä¹īåĬ¡ æķĻèĤ²
åŀ ĦæĸŃ
æ¹ĸ æ³Ĭ
éļĶ ç¦»
æ ©
çļĦ äº§åĵģ
çļĦ è¯ģæį®
è¯ ±
å·¥ åİĤ
ä¸ī ä¸ªæľĪ
ä»» æľŁ
æ³ķå¾ĭ è§Ħå®ļçļĦ
åįķ è¯į
æĶ¿åºľ éĩĩè´Ń
ç¡® æľī
åıį åºĶ
èŀį èµĦ
å¹¶å¤Ħ æĪĸèĢħåįķ
éļı æĹ¶
æĺİç¡® çļĦ
æľºåĻ¨ äºº
å¤«å¦» åħ±åĲĮ
è´£ä»¤åģľæŃ¢ è¿Ŀæ³ķè¡Įä¸º
åı¦æľīè§Ħå®ļçļĦ éĻ¤å¤ĸ
åĮĹ äº¬
çº¢åįģåŃĹ ä¼ļ
åĩº ç¤º
çĶ± åħ¶
åĪĨ äº«
æİ¥ è§¦
åħ·ä½ĵ æĥħåĨµ
æĥħèĬĤ çī¹åĪ«
ç¬¬ä¸ĥåįģ æĿ¡
å¦Ĥä½ķ å¤ĦçĲĨ
æ³ķå®ļ ç¨ĭåºı
åı¸æ³ķ åįıåĬ©
çĨ Ł
çĥĪ å£«
åĢĻéĢī äºº
ä½ıå® ħ
ä¸Ńå°ı ä¼ģä¸ļ
2 7
æľī åīįæ¬¾
éĢ ı
æį ŀ
åĲĮ çº§
å¿ ł
å±ķ ç¤º
ç¡® å®ŀ
åıį é¦Ī
æĽ ¾
åįı ä½ľ
æ® ´
è¾ĵ åĩº
éħį ç½®
å½±åĵį çļĦ
ç¬¬ä¸ĥåįģ ä¸īæĿ¡
ç¢ ³
æľŁè´§ çĽĳçĿ£ç®¡çĲĨæľºæŀĦ
èī¯ å¥½
æ´¾ åĩº
è¿ŀ ç»Ń
ä¼ĳ æģ¯
ä¸Ĭå¸Ĥ è®¸åı¯
æĲľ ç´¢
çļĦ çĶŁæ´»
åı «
åįģ äºĮ
ä¾ ®
ä¸Ń æĸĩ
æł¹æį® å®ªæ³ķ
æ¸ Ĳ
çĶŁäº§ èĢħ
æĸ° å»º
ä¾Ŀçħ§ æľīåħ³æ³ķå¾ĭ
æ³ķè§Ħ çļĦè§Ħå®ļ
è¿ĺ æľī
èĪ¹ éķ¿
åĪ¶å®ļ çļĦ
ä»²è£ģ æľºæŀĦ
è¡¥ è´´
é¢ĨåŁŁ çļĦ
å·¥ä½ľçļĦ éĥ¨éĹ¨
å¡ «
åĽ¢éĺŁ æĪĲåĳĺ
æī° ä¹±
æ·»åĬł åīĤ
çº§ä»¥ä¸Ĭ äººæ°ĳæĶ¿åºľ
æµ·èŃ¦ æľºæŀĦ
çļĦ æ°´
çļĦ å»ºè®®
æľī è¶£
ä¸Ģ äºº
çĲĨ è®º
è¯ģ çļĦ
æ¶ Ĥ
æĹł è®º
æłĩåĩĨ åĮĸ
éĢĢ ä¼ĳ
å®ĥ çļĦ
å¸Ĥåľº çĽĳçĿ£ç®¡çĲĨéĥ¨éĹ¨
åĨį æ¬¡
çŃĶ å¤į
ç¬¬äºĮçĻ¾ ä¸Ģåįģ
éļĲ åĮ¿
çĽĳå¯Ł å®ĺ
æĹ¥ç¬¬åįģ äºĮ
åı¬ éĽĨ
é¢Ħå¤ĩå½¹ äººåĳĺ
è¿ŀå¸¦ è´£ä»»
æİ¨çĲĨ è¿ĩç¨ĭ
ä¾® è¾±
a in
s e
ª æ±¡
Ġ ä»İäºĭ
çļĦ æķ°æį®
ä¸Ģ å¹´
åºĶ çº³ç¨İ
è¡ĮæĶ¿ å¤ĦåĪĨ
åıĹ æ³ķå¾ĭä¿ĿæĬ¤
ç¤¾ä¼ļ åħ¬åħ±åĪ©çĽĬ
åŁº åľ°
çİ¯å¢ĥ è´¨éĩı
Ġa l
æ³¨ éĶĢ
æ°ĳäºĭ è¯īè®¼
åı¦ ä¸Ģæĸ¹
è± Ĩ
ç´ł è´¨
åĽ¾ åĥı
æĹħæ¸¸ èĢħ
åĽº å®ļ
æģĲæĢĸ æ´»åĬ¨
Ġ åİ¿çº§ä»¥ä¸Ĭåľ°æĸ¹äººæ°ĳæĶ¿åºľ
æľī äºĽ
ä¹ ı
åĳ ¼
æıĲ ç¤º
ä¸» è§Ĥ
å»º éĢł
åĪ© æģ¯
è®® æ¡Ī
ä½¿ å¾Ĺ
æµ· åįĹ
ç³» åĪĹ
åıĺ å¾Ĺ
è®© äºº
æİĴ æ±¡
åħ¬åħ± åľºæīĢ
åħ·ä½ĵ åĬŀæ³ķçĶ±åĽ½åĬ¡éĻ¢
ä¼ĺ ç§Ģ
å®¹ æĺĵ
å¹¶å¤Ħ ä»¥
çĶµåŃĲ çŃ¾åĲį
åħ¬å¼Ģ åĭŁéĽĨ
æ¨¡ å¼ı
é¸ Ł
æŃ£ç¡® çļĦ
åŁİä¹¡ è§ĦåĪĴ
ä¼ļåĲĮåĽ½åĬ¡éĻ¢ æľīåħ³éĥ¨éĹ¨
è¦ Ĩ
' ,
a b
Ĳ å¾ħ
è¡ £
åºĶ ç¨İ
åģ ı
æľŁ æ»¡
éĩĳ çļĦ
è§£ æķĳ
ä½ł å¥½
èĻ Ĳå¾ħ
ç¬¬ä¸ĥ çĻ¾
ä¼ĺ åĬ¿
é© ³
æ£Ģå¯Ł éķ¿
ç¬¬ä¸ĥåįģ äºĮæĿ¡
ä¿Ŀè¯ģ äºº
ä¸´ åºĬ
è§£éĻ¤ åĲĪåĲĮ
çĪ± æĥħ
åĽ½éĺ² äº¤éĢļ
æ¯ģ æįŁ
Ġe x
èĳĹä½ľ æĿĥ
å°ĳæķ° æ°ĳæĹı
m ent
n um
äºº ä½ĵ
åĴĮ æĬĢæľ¯
æľī ç»Ħç»ĩ
åħ¬ ç¤º
åıĳ èµ·
çŃī çļĦ
åĮº åĨħ
åīį æıĲ
æĽ´ æĸ°
ä½ł éľĢè¦ģ
ĠåĽ½å®¶ å®ŀè¡Į
çĸ« çĹħ
æ¶ī æ¡Ī
ç½ĳç»ľ å®īåħ¨
æ°ĳæĹı ä¹¡
çĪ± åĽ½
åĢºæĿĥäºº ä¼ļè®®
æ¶Īéĺ² æķĳæı´
çĶµä¿¡ ç½ĳç»ľ
ä¸¥éĩįæĥħèĬĤ çļĦ
é¢ģ åıĳ
Ġ é¦Ļæ¸¯çī¹åĪ«è¡ĮæĶ¿åĮº
è´ ¯
æĶ »
è¡Į é©¶
ä¸Ģ çº§
åºĶå½ĵ åħ·å¤ĩ
ï¼ī ãĢģ
æĦı åĳ³
çī¹ å®ļçļĦ
æĥħèĬĤ è¾ĥ
åĪ©çĽĬ çļĦ
å¢ŀ åĢ¼
ä¸Ńå¤® äººæ°ĳæĶ¿åºľ
èĦ ĳ
èģĶåĲĪ ä¼ļ
éĿĴ èĹı
æľ¬çº§äººæ°ĳä»£è¡¨å¤§ä¼ļ å¸¸åĬ¡å§Ķåĳĺä¼ļ
ç«ĭæ³ķ ä¼ļ
éĢłæĪĲä¸¥éĩį åĲİæŀľçļĦ
ç½¢ åħį
± ä¹Ĳ
æ°ĳ åĬŀ
æĶ¿ åĬ¡
å¹¶ è¦ģæ±Ĥ
éĢļ çĶ¨
ä½ł èĥ½
çĽĳçĿ£ç®¡çĲĨ èģĮè´£çļĦéĥ¨éĹ¨
åº· å¤į
åĢºåĬ¡ äººçļĦ
çĭ¬ çī¹
Ġw h
æ´¾ éģ£
å¼Ĥ å¸¸
åħ¬çĽĬ äºĭä¸ļ
çĥŁ èįī
è¾©æĬ¤ äºº
ç¤¾äº¤ åªĴä½ĵ
åĨ² çªģ
æĻĭ åįĩ
æĳĺ è¦ģ
æĦıåĳ³ çĿĢ
éĿĴèĹı é«ĺåİŁ
åĽ½ åĨħ
ä¸į è¶ħè¿ĩ
åºĶå½ĵ ç»Ħç»ĩ
ï¼ī ãĢĤ
æĸ¹ åĲĳ
äºĶ å¹´
è¢« å®³äºº
åĪ° è¾¾
çİ° å®ŀ
çĽ® åīį
å¤į æł¸
æĿĥåĪ© äºº
åħ³ç³» çļĦ
è§Ĩ é¢ĳ
æŁĲ äºĽ
ç¬¬äºĮçĻ¾ äºĮåįģ
å½¢å¼ı çļĦ
åĽ½éĺ² æķĻèĤ²
éĺħ è¯»
è¿Ŀçº¦ è´£ä»»
éº »
åº §
æĿ¡ çļĦè§Ħå®ļ
çĽ ĺ
åľ° çĲĨ
çŃī æ´»åĬ¨
èĩª æĪĳ
åĽ½å®¶ æłĩåĩĨ
ç»Ħç»ĩ æĪĸèĢħä¸ªäºº
æĶ¾ æĿ¾
æİĴ éĻ¤
äº¤éĢļ å®īåħ¨
åĨľä¸ļ æĬĢæľ¯
åĨľä¸ļ æľºæ¢°
è¯Ń éŁ³
åıĸå¾Ĺ çļĦ
es s
æ³ķå®ļ ä»£è¡¨äºº
æīĢåľ¨ åľ°çļĦ
åķĨåĵģ æĪĸèĢħ
-- -
ä»ĵ åĤ¨
æŃ¦è£ħèŃ¦å¯Ł éĥ¨éĺŁ
çĶµä¿¡ç½ĳç»ľ è¯ĪéªĹ
æĪĸèĢħ åĽ½åĬ¡éĻ¢
ä¸º ä¸»
åı¯ä»¥ çĶ±
æĸ¹ ä¾¿
ç»ı åĬŀ
å¹¶ ä¸į
æĥħ æĬ¥
æĬ¤ çħ§
æŃ£ å¼ı
ä¾Ŀçħ§ åħ¶è§Ħå®ļ
å¤ĦçĲĨ çļĦ
æĪ· åı£
æļ ĸ
å¿ħè¦ģ æİªæĸ½
æ¤ Ĵ
Ġw e
èĥĮ æĻ¯
åĮ»çĸĹåį«çĶŁ æľºæŀĦ
åįĬ æķ°
è½¯ ä»¶
æ³ķäººæĪĸèĢħåħ¶ä»ĸ ç»Ħç»ĩ
' s
è ľ
Ġ L
Ġ åħ¬åı¸
å· ´
åı¯ä»¥ çĶ³è¯·
è¿Ľ å¢ĥ
æ¬¾ é¡¹
çº¦ æĿŁ
éħ ±
è¿Ŀåıį è§Ħå®ļ
èĪª è¡Į
åĪĳäºĭ åı¸æ³ķåįıåĬ©
ä¸ĩåħĥä»¥ä¸Ĭ ä¸ĢçĻ¾
ç¼ĸ åĨĻ
è¿Ŀæ³ķæīĢå¾Ĺ çļĦ
è¿Ŀæ³ķæīĢå¾Ĺ ä¸ĢåĢįä»¥ä¸Ĭ
èĩ³ å°ĳ
ä¹ĭæĹ¥èµ· åįģäºĶæĹ¥åĨħ
Ġ1 0
åı¸æ³ķ è¡ĮæĶ¿éĥ¨éĹ¨
åı¯ä»¥å¸®åĬ© æĤ¨
æľªæĿ¥ çļĦ
æľ¬è¡ĮæĶ¿åĮºåŁŁ çļĦ
æľ¬è¡ĮæĶ¿åĮºåŁŁ åĨħ
æŃ»äº¡ çļĦ
èĩªåĬ¨ åĮĸ
èµ° ç§ģ
è¯¦ç»Ĩ çļĦ
çĽĹ çªĥ
å¤Ħä¸īå¹´ä»¥ä¸Ĭ ä¸ĥå¹´ä»¥ä¸ĭæľīæľŁå¾ĴåĪĳ
Ġ H
è¿ ¹
åĴĮ è§£
æĿĥ åĴĮ
æĪĲ éķ¿
å¹¶ æĮīçħ§
åĪĨ æĶ¯
ä½ĵ çļĦ
åıĹ è´¿
éĢĤ éĩı
åľ°æĸ¹ åĲĦçº§
æĿ¡ä»¶ åĴĮ
å¹¶å¤Ħ äºĶ
èı Į
il l
èĤ¡ä»½ æľīéĻĲ
çĩĥ æĸĻ
çĽĸ ç«ł
å¤Ħåįģ å¹´ä»¥ä¸ĬæľīæľŁå¾ĴåĪĳ
è¾ħ åĬ©
igh t
Ġ å¦Ĥæŀľ
Ġ æľīä¸ĭåĪĹæĥħå½¢ä¹ĭä¸ĢçļĦ
ç§ ĭ
åıĳ ç¥¨
å¹¶ å¯¹åħ¶çĽ´æİ¥è´Łè´£çļĦä¸»ç®¡äººåĳĺåĴĮåħ¶ä»ĸçĽ´æİ¥è´£ä»»äººåĳĺ
éĶ ħ
æĢ» é¢Ŀ
ç¬¬ä¸ĢçĻ¾ åħŃåįģ
é£İ æł¼
æ¯ı å¹´
ä¸ļåĬ¡ çļĦ
åĲĮæĹ¶ ä¹Ł
å¨ ±ä¹Ĳ
ç»ĥ ä¹ł
åħ¬çĽĬ æĢ§
å¤ĦäºĶå¹´ä»¥ä¸ĭæľīæľŁå¾ĴåĪĳ æĪĸèĢħæĭĺå½¹
éĺ¶ æ®µ
çļĦ åľ°æĸ¹
çļĦ ä¸»è¦ģ
åĴĮ æľīåħ³éĥ¨éĹ¨
åı¯ éĿł
ä¸į å±ŀäºİ
éĥ¨ æ³ķå¾ĭçļĦåĨ³å®ļ
åĪĨ ä¹ĭä¸Ģ
å¤§ åŀĭ
è¿Ŀ èĥĮ
çĿ ¡
æĮī æĹ¶
ç»Ļ å®ļçļĦ
èį Ĵ
ä¸ªäºº çĭ¬èµĦä¼ģä¸ļ
æ±¡ æ°´
å¥³ æĢ§
äº¤éĢļ å·¥åħ·
ç¦» å¼Ģ
æĹ¶éĹ´ åĴĮ
åħį çĸ«
åĨĽäºĭ è®¾æĸ½
æĸĩçī© ä¿ĿæĬ¤
æľĢé«ĺ äººæ°ĳæ£Ģå¯ŁéĻ¢
ç»Ļåĩº çŃĶæ¡Ī
æ¬º éªĹ
ç»ıæµİç¤¾ä¼ļ åıĳå±ķ
è·Ŀ ç¦»
s w
u e
çļĦ è¯īè®¼
æĺ ¥
ä¸į å½ĵ
å° ¾
åĽ½å®¶ çļĦ
èĲ¥ éĶĢ
éĺ² ç©º
æĦı æĦ¿
æĮīçħ§ èģĮè´£åĪĨå·¥
æĬĢæľ¯ è§ĦèĮĥ
çŁ¥ æĤī
åģľ äº§
åĭ ĩ
èĥ½åĬĽ åĴĮ
æķ°æį® çļĦ
å¤© çĦ¶
Ġb y
æīĢåľ¨ åįķä½į
ä¼ļåĲĮ æľīåħ³éĥ¨éĹ¨
çİ°ä»£ åĮĸ
ä¸ŃåĽ½äººæ°ĳ éĵ¶è¡Į
åī¥å¤º æĶ¿æ²»
è¡Ĺ éģĵ
2 4
u re
Ġ ç¦ģæŃ¢
æľī çļĦ
æ´ ²
æįŁ æ¯ģ
èį¯ çī©
æķ´ æĶ¹
åĻ¨ æĿĲ
ä¹¦éĿ¢ å½¢å¼ı
ä»·åĢ¼ çļĦ
æ¸© åº¦
é©» å¤ĸ
åħ³éĶ® è¯į
æľīéĻĲ è´£ä»»
ec t
åİĭ åĬĽ
Ġ D
æ³ ¥
è¿ Ł
å½ »
åĲĪ éĢĤ
åıĸ æ¶Ī
å®¡ äººæ°ĳæ³ķéĻ¢
æĶ¯ ç¥¨
åįı å®ļ
çİ¯å¢ĥ çļĦ
è®¤ åı¯
åĪ¤ å¤Ħ
æµģ å¤±
ç¬¬åħ« çĻ¾
åį³ åı¯
ç¬¬ä¸ĥåįģ ä¸ĥæĿ¡
ç§ĳæĬĢ åĪĽæĸ°
æĲ Ń
èµĦæł¼ çļĦ
åħ´ è¶£
è¢«åĪ¤ å¤Ħ
å¤Ħä¸īå¹´ä»¥ä¸Ĭ åįģå¹´ä»¥ä¸ĭæľīæľŁå¾ĴåĪĳ
èĵ Ŀ
çİ¯å¢ĥå½±åĵį è¯Ħä»·
; (
f rac
çļĦ éĥ¨åĪĨ
åį ·
è´ ªæ±¡
è§ Ī
éĻ ª
åĽ½ åľŁ
æķ ı
äººæ°ĳ å¸ģ
åı¯ä»¥ æĮīçħ§
å¤§ åŃ¦
äºĨ ä¸Ģä¸ª
æµĭ è¯ķ
æķ´ ä¸ª
ç¬¬ä¸ĥåįģ åħŃæĿ¡
åģĩ éĩĬ
it y
èĪªç©º åĻ¨
çºł æŃ£
æĬ¢ åĬ«
éĩįæķ´ è®¡åĪĴ
o p
} {
çļĦ ä½¿çĶ¨
çļĦ åŁºç¡Ģ
æĭ Ĳ
ç»ı åİĨ
å¹¶ ä¾Ŀæ³ķ
çĸ ı
èĲ¥ åħ»
æĥħåĨµ åĴĮ
åıĺ åįĸ
åı¯èĥ½ å½±åĵį
èģĮä¸ļ åį«çĶŁ
éĻĦ åĬł
çľĭ åĪ°
Ġ\ )
æĸĩçī© è¡ĮæĶ¿éĥ¨éĹ¨
å¡ ĳ
ä¸Ĭä¸Ģ çº§
ä¾µæĿĥ è´£ä»»
è¯Ĺ æŃĮ
è® ¿
åºĶå½ĵ æľī
äºĭ çĶ±
è¿Ľè¡Į çļĦ
æĢ§ èĥ½
æłĩ çŃ¾
åįı åĲĮ
ç¼ ©
å»ºè®¾ åĴĮ
ç±» åĪ«
æ¶Ī çģŃ
æıĲåĩº çĶ³è¯·
å°ĳ å¹´
åĽ½éĻħ æĿ¡çº¦
åŃ¦çĶŁ çļĦ
æĬµæĬ¼ æĿĥ
å°ļ ä¸į
å¯¹çĽ´æİ¥è´Łè´£çļĦä¸»ç®¡äººåĳĺåĴĮåħ¶ä»ĸçĽ´æİ¥è´£ä»»äººåĳĺ ä¾Ŀæ³ķç»ĻäºĪå¤ĦåĪĨ
ä»Ĭ å¤©
è¯ģåĪ¸æĬķèµĦ åŁºéĩĳ
æ°ĳèĲ¥ ç»ıæµİç»Ħç»ĩ
. "
Ġ `
çļĦ åĲįç§°
æĪĸèĢħ è¢«
åħ¬ å¼Ģåıĳ
åĲĪ è®®
åľ° ä¸ĭ
å¹¶ éĩĩåıĸ
åįķ çĭ¬
éģ į
è¿Ľè¡Į çĽĳçĿ£æ£ĢæŁ¥
æĶ¶ åĽŀ
å¼Ģ éĻ¤
å°ı ç»Ħ
åľŁåľ° åĪ©çĶ¨
åĪĽ å»º
ç¬¬ä¸ĥåįģ åħ«æĿ¡
èº«ä»½ è¯ģ
è¯Ĭ çĸĹ
é¥® çĶ¨æ°´
åĲĦèĩª çļĦ
è´® åŃĺ
M O
å ³
æ ĩ
è¿ İ
ä»¥ åīį
æĪĸèĢħ ä½¿çĶ¨
åºĶå½ĵ éģµå¾ª
åı¯ä»¥ å°Ĩ
åĩº åºŃ
æµ ĵ
æĶ¶ æĶ¯
åīį ä¸¤
åħ¬åħ± å®īåħ¨
ç©º æ°Ķ
äº¤éĢļ ç®¡çĲĨéĥ¨éĹ¨
é£İéĻ© è¯Ħä¼°
ç¬¬äºĮçĻ¾ ä¸īåįģ
** :
çļĦæ³ķå¾ĭ éĹ®é¢ĺ
åĩºèµĦ äºº
çĪ¶æ¯įæĪĸèĢħåħ¶ä»ĸ çĽĳæĬ¤äºº
çļĦ å¦ĩå¥³
æľī æīĢ
çĽ ²
åħ¶ æ¬¡
å¹¶ åıĬæĹ¶
èµĦ åĬ©
åħ¶ä»ĸ æľīåħ³éĥ¨éĹ¨
æĶ¶ è´§
æĺİ çļĦ
èĲ¥ è¿Ĳ
æıĲä¾Ľ å¿ħè¦ģçļĦ
æ°´ æºĲ
è´¨ è¯¢
è· ĳ
å¿ħ éľĢ
å¯Ĩ åĪĩ
èģĮä¸ļ åŃ¦æł¡
en ce
ç¡®å®ļ éĹ®é¢ĺ
çķĻ ç½®
ç¬¬ä¸ĥåįģ äºĶæĿ¡
æ®µ èĲ½
æł· çļĦ
æĴ¤ èģĮ
åĨĽäºĭ æľºåħ³
æĢĿ èĢĥ
çĶµåŃĲåķĨåĬ¡ å¹³åı°
æ°´åľŁ ä¿ĿæĮģ
åĨĻä¸Ģç¯ĩ åħ³äºİ
æ°ĳæĹıèĩªæ²»åľ°æĸ¹ çļĦ
åĲĪè®® åºŃ
MO SS
1 00
è ²
Ġ åħ¬å®īæľºåħ³
çļĦ åĪ¤åĨ³
ç» ª
çĶ¨ åĵģ
ä½ľ è¯ģ
çĽĳ æİ§
æł¹æį® æ³ķå¾ĭè§Ħå®ļ
å®īåħ¨ äºĭæķħ
æ¯ Ľ
ç¤¾ä¼ļ çļĦ
ä¾Ŀçħ§ åīįæ¬¾
æī§è¡Į èģĮåĬ¡
é¢Ĩ äºĭ
ä¸ĭåĪĹ æĿ¡ä»¶
å±ħ çķĻ
çº¦å®ļ æĪĸèĢħ
ä¼¤ æ®ĭ
åį±å®³ åĽ½å®¶å®īåħ¨
æħ ¢
çºª å¿µ
åĪĨä¹ĭ äºĮ
çŃīæĸ¹éĿ¢ çļĦ
è°¢ è°¢
æ¦Ĥ å¿µ
è¿ ·
ä»¥ åĨħ
ä¸Ģ å®ļçļĦ
æĪĸèĢħ éĩĩåıĸ
ä¸Ń æľī
åľ° åĿĢ
ï¼ļ ãĢĬ
ä¸» åĬ¨
çĶ± äººæ°ĳæ³ķéĻ¢
éĢļ è¡Į
éĺ ¿
è¡ĮæĶ¿ è¯īè®¼
è¢ ĭ
åĮ» éĻ¢
çĽ¸åħ³ éĥ¨éĹ¨
ç¬¬ä¸ĢçĻ¾ ä¹Ŀåįģ
è¯·æ±Ĥ åĽ½
è¿½ åģ¿
å°ıæĺİ çļĦ
è´¹çĶ¨ çļĦ
Ġc an
åºĶæĢ¥ ç®¡çĲĨéĥ¨éĹ¨
ä»£çĲĨ äººçļĦ
è¯ķ éªĮ
ç¥ŀ ç»ı
å¼ºåĪ¶ æİªæĸ½
æµ·äºĭ è¯·æ±Ĥ
å¹´ä»¥ä¸Ĭ åįģå¹´ä»¥ä¸ĭæľīæľŁå¾ĴåĪĳ
åħµ å½¹
æ¥ ¼
éģĹä¼ł èµĦæºĲ
æŀĹä¸ļèįīåİŁ ä¸»ç®¡éĥ¨éĹ¨
\ )
r om
Ġ 9
åħ ½
ä¸ī åĪĨä¹ĭäºĮ
è¿ĩ åįĬæķ°
ç¬¬ä¸Ģ é¡¹
æĶ¹ å»º
è¿Ŀæ³ķ è¡Įä¸ºçļĦ
åŃĺ åĤ¨
ĠåĽ½å®¶ åĬłå¼º
èĤ¡ æĿĥ
åĪ©çĶ¨ èģĮåĬ¡
è´¹çĶ¨ çĶ±
è¡Įä¸ļ åįıä¼ļ
åı¦æľī çº¦å®ļçļĦ
å®ĥä»¬ çļĦ
æįķ æįŀ
åĢįä»¥ä¸ĭ ç½ļæ¬¾
è¯·æł¹æį®ä¸ĭéĿ¢ çļĦæ³ķå¾ĭéĹ®é¢ĺ
ç¡®å®ļéĹ®é¢ĺ åĪĨç±»
è¯·æł¹æį®ä¸ĭéĿ¢çļĦæ³ķå¾ĭéĹ®é¢ĺ ç¡®å®ļéĹ®é¢ĺåĪĨç±»
Ġ åħ¨åĽ½äººæ°ĳä»£è¡¨å¤§ä¼ļ
Ġ ä»»ä½ķ
ä¸ Ŀ
å® ½
ä¸Ģ é¦ĸ
äºĭ åħĪ
åľ° æ³ķå¾ĭ
ä¸Ĭ ä¸ĭ
æĸ¹ éĴĪ
åĩº è´¨
æľŁ çļĦ
æĬ¥ éģĵ
é«ĺ çļĦ
éħ ¸
äººæ°ĳæ³ķéĻ¢ åºĶå½ĵ
ç¥ ĸ
æĢ» éĩı
he r
åŁºéĩĳ ç®¡çĲĨ
éĤ Ģ
è¿Ĳè¾ĵ ä¼ģä¸ļ
ä¸ĩåħĥä»¥ä¸ĭ ç½ļéĩĳ
æĺ¯åĲ¦ æľī
æŁĲ åħ¬åı¸
ou r
å¹² æī°
å®ªæ³ķ åĴĮæ³ķå¾ĭ
æĭĴä¸į æĶ¹æŃ£çļĦ
éĨ ī
ä¸ĩåħĥä»¥ä¸ĬäºĶåįģ ä¸ĩåħĥä»¥ä¸ĭçļĦç½ļæ¬¾
æ·· åĲĪ
åħ¬å¼Ģåıĳ è¡Į
åīįä¸¤ æ¬¾
è Ĩ
Ġ å°Ĩ
Ġ çľģ
Ġ ä¸ĢèĪ¬
åľ¨ çº¿
åı¯ä»¥ è¯·æ±Ĥ
æĬ¥ è¯·
å§Ķåĳĺ éķ¿
åŃĺ ç»Ń
æ» ŀ
åĴĮåħ¶ä»ĸ ç»Ħç»ĩ
Ġs u
è§Ĩ è§ī
è®º è¯ģ
an s
èĢģ å¸Ī
è§£åĨ³ æĸ¹æ¡Ī
ç¬¬åħ«åįģ ä¸ĢæĿ¡
è¯´æĺİ ä¹¦
ä»·åĢ¼ è§Ĥ
as e
ä¿¡æīĺ è´¢äº§
Ġn e
åĽ½å®¶æľºåħ³ å·¥ä½ľäººåĳĺ
è§ī å¾Ĺ
## #
éľĢè¦ģæ³¨æĦı çļĦæĺ¯
t er
Ġ çĶ¨äººåįķä½į
æľī æ¯Ĵ
ä¸Ń æłĩ
åı¯ä»¥ ä½¿çĶ¨
åıĳ ç»Ļ
éĢļ è®¯
èĤ ¥
æĢ§ æ³ķè§Ħ
æĬ¥ ç»ı
ç½ª åĲį
ç»ıèĲ¥ çļĦ
åĲĪåĲĮ çº¦å®ļçļĦ
éĶĢ æ¯ģ
ä¿ĿéĻ© çĽĳçĿ£ç®¡çĲĨæľºæŀĦ
çĦ ¦
åĪ¤ å¤Ħç½ļéĩĳ
è´Ń çī©
åŀ ¦
èĩªæ²» å·ŀ
åĢºåĬ¡ çļĦ
Ġs p
å¾ģ çĶ¨
äºĴ çĽ¸
ä»»åĬ¡ çļĦ
åī¯ æľ¬
ä¾ĽåºĶ åķĨ
èħ Ĳ
åĲĳç¤¾ä¼ļ åħ¬å¸ĥ
çĸ¾çĹħé¢Ħéĺ²æİ§åĪ¶ éĥ¨éĹ¨
Ġ èĪ¹èĪ¶
åĴĮ å»ºè®®
æĹ ¨
èĥ ľ
åĵ º
åĵ Ī
èĥ½ åĲ¦
æ² ī
æł¹æį® éľĢè¦ģ
åĨ³ ç®Ĺ
æıĲä¾Ľ æľįåĬ¡
æıĲä¾Ľ æĭħä¿Ŀ
çĶ³è¯· ä»²è£ģ
çĶ³è¯· ä¹ĭæĹ¥èµ·
å¤ļ æ¬¡
èĮ ¶
æľĢ å¤§
æ³¨ éĩį
æµĭ éĩı
æ¸ħ æĻ
åľŁåľ° çļĦ
ä¾µ æĿĥäºº
æĿĥçĽĬ ä¿Ŀéļľæ³ķ
å®¢ ä½ĵ
çĥ §
åĬ¨çī© çĸ«çĹħ
åŃ¦ä¹ł åĴĮ
å®¶åºŃ æĪĲåĳĺ
Ġc om
ç¾İ ä¸½
é¢Ħéĺ² åĴĮ
åĲĪæ³ķæĿĥçĽĬ çļĦ
å¹² é¢Ħ
çºª å¾ĭ
ä¸ĩåħĥä»¥ä¸ĬäºĮåįģ ä¸ĩåħĥä»¥ä¸ĭçļĦç½ļæ¬¾
sw er
Ġ 7
Ġ R
çļĦ æįŁå¤±
åºĶå½ĵ çŁ¥éģĵ
åĩº åħ¥å¢ĥ
åģ ·
åĽ½å®¶ åĪ©çĽĬ
æŀĦ å»º
å¥ ı
ä¾Ŀæ³ķ å¯¹
ä¿ĿæĬ¤ æİªæĸ½
åĲį é¢Ŀ
åĲĦ æĸ¹
çķ ħ
æĸ° åŀĭ
ä¾Ŀçħ§ æ³ķå¾ĭè§Ħå®ļ
åıĺ çĽ¸
è¿Ĳè¾ĵ å·¥åħ·
å»ºè®® æĤ¨
æ³ķå®ļ ä»£çĲĨäºº
éģĩ åĪ°
ä¼łæŁĵçĹħ çĸ«æĥħ
Ġn ot
èĩªçĶ± è´¸æĺĵ
éĵ¶è¡Įä¸ļ éĩĳèŀįæľºæŀĦ
å·¥ä¼¤ ä¿ĿéĻ©
æ¬º è¯Ī
å½ĵçĦ¶ åı¯ä»¥
ãĢĤ ãĢĬ
ä¸į èµ·è¯ī
äººæ°ĳ éĺ²ç©º
æİ ĺ
èĩª å¾ĭ
åĪĨ å¸ĥ
æł¹æį® ä¸ŃåĽ½
éĺ² æİ§
ä¿ĿæĬ¤ çļĦ
åº¦ åĴĮ
åİŁ å§ĭ
ç¬¬åĽĽ èĬĤ
ä¿¡æģ¯ åĮĸ
æĸ° æĬĢæľ¯
ç±» ä¼¼
ç´ ¯
äº§åĵģ è´¨éĩı
èŃ¦ ç¤º
éĶĢåĶ® çļĦ
å¢ŀ éķ¿
çī©åĵģ çļĦ
è¾¹ éĺ²
åı¥ è¯Ŀ
ç¼º ä¹ı
åĪ©å®³åħ³ç³» äºº
åĵº ä¹³
h n
o re
åĪ Ĭ
å· ¦
ä¸Ń æıĲåıĸ
ç»ı çĲĨ
æľŁ åĨħ
ä¾Ľ çĶµ
ç»Ħç»ĩ åĴĮ
ç»Ļ å®ļ
æķĪ çĽĬ
å»ºè®¾ çļĦ
çĽ¸åħ³ ä¿¡æģ¯
åĽ¢ ç»ĵ
åį±éĻ© åºŁçī©
æĥ³ æ³ķ
an t
åŁºæľ¬ åĮ»çĸĹä¿ĿéĻ©
ç»Łä¸Ģ çļĦ
æĹ¥ç¬¬åįģ ä¸Ģ
éĶĻè¯¯ çļĦ
ä¸Ģæ¬¡ æĢ§
éĤĢ è¯·
äºº åĬĽ
ä»¥ åĲİ
åĽ½ æĹĹ
å¼ ±
çħ§ é¡¾
çĽ¸åħ³ æ³ķå¾ĭ
èĮ Ħ
ä¾ĭ åŃĲ
éĿŀæ³ķ äºº
è°ĥè§£ åįıè®®
ou ld
æ²¡æĶ¶ è´¢äº§
æľªç»ı æī¹åĩĨ
æľ¬è¡ĮæĶ¿åĮºåŁŁ åĨħçļĦ
åĩºå¢ĥ åħ¥å¢ĥ
id e
ä¸ŃåĽ½äººæ°ĳ è§£æĶ¾åĨĽ
åĽ°éļ¾ çļĦ
æ¿Ģ åĬ±
åĽ½æ°ĳç»ıæµİåĴĮç¤¾ä¼ļ åıĳå±ķ
åĤ¬ åĳĬ
æĥħèĬĤçī¹åĪ« ä¸¥éĩįçļĦ
çĪ±åĽ½ ä¸»ä¹ī
è´¯ å½»
A l
åĪ ł
ç» ĳ
æ° ı
æľī è¿Ŀæ³ķæīĢå¾ĹçļĦ
çĶ¨ çĶµ
ä¸º çĽ®çļĦ
å®¶ å±ħ
æľ¬ ç½ªçļĦ
è¿Ľ åĩºå¢ĥ
åĽ½å®¶ å¯¹
æľª åıĸå¾Ĺ
ä¾Ŀæ³ķ æī¿æĭħèµĶåģ¿è´£ä»»
ãĢĭ ï¼Į
åĬĽ çļĦ
éĩĩ éĽĨ
è´Ł éĿ¢
åĬŀ æ¡Ī
èµĶåģ¿ æįŁå¤±
å®Į æ¯ķ
ä¼ĺ å¾ħ
è¯ģæį® è¯ģæĺİ
çŃĶ è¾©
ç¬¬äºĮçĻ¾ åħŃåįģ
åĳ¨ åĽ´
åĳ¨ è¾¹
æĦ¿ æĦı
æĳ Ĭ
åı¦æľī è§Ħå®ļ
ç»ĵç®Ĺ æľºæŀĦ
å·¨ å¤§çļĦ
çĸ¾çĹħé¢Ħéĺ²æİ§åĪ¶ æľºæŀĦ
æ½ľ åľ¨
å¯¹åįķä½į åĪ¤å¤Ħç½ļéĩĳ
Ġ åľ°æĸ¹åĲĦçº§äººæ°ĳæĶ¿åºľ
çļĦ äºĭé¡¹
å® ł
ä¸Ģ åĪĩ
è§Ħ ç¨ĭ
æĪĸèĢħ éĻĲåĪ¶
å¼ ¹
æĮ ĸ
åĩº å¸Ń
éĻ¢ æł¡
åĪĨ ç«ĭ
ä½¿ åħ¶
æľª æĮī
åıĹ å®³äºº
è¿Ľè¡Į çĽĳçĿ£
éĽ ¨
ä¸įå¾Ĺ ä»İäºĭ
ä¸Ńåįİäººæ°ĳåħ±åĴĮåĽ½ å¢ĥåĨħ
éĢłæĪĲ æįŁå®³çļĦ
è£ħ åį¸
èŀį åĲĪ
åħ¬æ°ĳ çļĦ
19 8
te xt
202 1
æľ¬æĿ¡ ç¬¬ä¸Ģæ¬¾
å¢ŀåĢ¼ ç¨İ
1 6
l o
çļĦ æĥħå½¢
åĴĮ åľ°æĸ¹
ä¼ ´
ä¸º ä»Ģä¹Ī
ä½ĵ åĪ¶
åŃ¦ æľ¯
æľª å±¥è¡Į
èĲ ¨
æī¿ è®¤
åĽ½åĬ¡éĻ¢ æľīåħ³éĥ¨éĹ¨
æ°´ æŀľ
è¯¥ åħ¬åı¸
çĶ³è¯· ä¹¦
Ġt r
Ġa t
è´£ä»¤ åħ¶
è¡¥ æķĳ
æ¯Ķ èµĽ
è¶³ å¤Ł
æĴ¤ åĽŀ
è§£åĨ³ éĹ®é¢ĺ
ç¬¬åħ«åįģ æĿ¡
æķĳåĬ© æĸ¹
çĽ¸éĢĤåºĶ çļĦ
æĭĲ åįĸ
èĩªçĶ±è´¸æĺĵ æ¸¯
åı ³
åĴĮ çľģ
æĭ ¿
åĽ½å®¶ æľīåħ³
èģĮ èĥ½
å®īåħ¨ åĴĮ
åĪĳ æľŁ
ä»İ éĩį
ç¨İ é¢Ŀ
è®¤ è¯Ĩ
ä¸ĭåĪĹ äºĭé¡¹
èĩªæ²» åİ¿
èĪ¹èĪ¶ çļĦ
æ°ĳäºĭ æ³ķå¾ĭ
è¿Ŀæ³ķæīĢå¾Ĺ ä¸įè¶³
åºŁ çī©çļĦ
ç¬¬åħ«åįģ äºĮæĿ¡
çĶ¨æĪ· çļĦ
çģ« çģ¾
éĩİçĶŁåĬ¨çī© ä¿ĿæĬ¤
ä¸Ĭå¸Ĥ åħ¬åı¸
å·® å¼Ĥ
åī§ æ¯Ĵ
æīĺè¿Ĳ äºº
åī© ä½Ļ
ä¸ĩåħĥä»¥ä¸Ĭåįģ ä¸ĩåħĥä»¥ä¸ĭçļĦç½ļæ¬¾
æµ·åįĹ èĩªçĶ±è´¸æĺĵæ¸¯
è¯ģåĪ¸æĬķèµĦåŁºéĩĳ æ³ķ
Ġä¸ĢèĪ¬ è§Ħå®ļ
Ġ M
Ġ æ¾³éĹ¨çī¹åĪ«è¡ĮæĶ¿åĮº
ģ åħį
çļĦ åĢºåĬ¡
ä½ ³
ä»¥ åħ¶
éĢ Ļ
åľ¨ ä¸Ģèµ·
äºĭ æĥħ
æĪĲ ä¸ºäºĨ
çŃī æĥħåĨµ
äºĶ æĹ¥åĨħ
æĥħ ç»ª
æĪĳ è®¤ä¸º
åıį æģĲæĢĸä¸»ä¹ī
éĿŀ çī©è´¨
ä½ł ä»¬
æĬķ ç¥¨
æĴ ŀ
æ±¡æŁĵ çİ¯å¢ĥ
é£Łåĵģ æ·»åĬłåīĤ
åºĶå½ĵåıĬæĹ¶ åĲĳ
å¹² æ¶ī
è¾¹ å¢ĥ
ç¾¤ ä½ĵ
éĩĬ æĶ¾
æľīç»Ħç»ĩ çĬ¯ç½ª
ä» ª
äºº å£«
ä¸Ģ é¡¹
æį ·
ä½ľ æĪĺ
å¹¶ çĶ±
ä¸» æĿĥ
ä½į äºİ
è° ĵ
è¢« è°ĥæŁ¥
éĺ² çĸ«
çİ° éĩĳ
ç¬¬åįģ ç«ł
åĨľ çĶ°
åĲį åŃĹ
çĶ³è¯· çļĦ
éĻ¤ äºĨ
èĢĮ è¨Ģ
æł¼ å¼ı
æµģ åĬ¨
è¿Ĳè¾ĵ çļĦ
ä½ľåĩº åĨ³å®ļ
æīĢå¾Ĺ ç¨İ
æĬķèµĦ äºº
è± ģåħį
Ġc h
åıª è¦ģ
æ²³ éģĵ
ç§ĺ ä¹¦
æ¹ ¾
å£° æĺİ
ä¸įåı¯ æĬĹ
å¯¹è¯Ŀ åĨħå®¹
æ°´åľŁ æµģå¤±
åĽ½æ°ĳç»ıæµİåĴĮç¤¾ä¼ļ åıĳå±ķè§ĦåĪĴ
åĢ¾ åĢĴ
ç®Ģåįķ çļĦ
èĭ±éĽĦ çĥĪå£«
e ar
p r
Ġ åİ¿çº§ä»¥ä¸Ĭ
ä¸ Ļ
çļĦ çĶµå½±
æľī æľ¬æ³ķ
æľī å¾Īå¤ļ
åºĶå½ĵ æī¿æĭħèµĶåģ¿è´£ä»»
å¤Ħ äºİ
çŃī æľīåħ³éĥ¨éĹ¨
çŃī åĽłç´ł
ä¸ª ä½ĵ
åŃ¦ åİĨ
éĩĳ å±ŀ
åĲį èªī
æĮĩ ä»¤
æĹł æŃ£å½ĵçĲĨçĶ±
å¤Ħç½ļ çļĦ
åĬ³åĬ¨ æ³ķ
æĬ¥åĳĬ çļĦ
ĠĠ Ċ
å¸® æĪĳ
äº¤éĢļ ä¸»ç®¡éĥ¨éĹ¨
åĪĳäºĭ æ¡Īä»¶
éĶĢåĶ® é¢Ŀ
ä¸įåĲĮ æĦı
ç¬¬äºĮçĻ¾ äºĶåįģ
çĽĳæĬ¤ äººçļĦ
ou nt
èİ·å¾Ĺ çļĦ
ä¾Ŀæ³ķç»ĻäºĪ æ²»å®īç®¡çĲĨå¤Ħç½ļ
è´Łæľī è´£ä»»çļĦ
å¥¹ çļĦ
éĤ®æĶ¿ ä¼ģä¸ļ
æ¥ ļ
æĶ¿åĬ¡ å¤ĦåĪĨ
éĿŀçī©è´¨ æĸĩåĮĸéģĹäº§
1 8
æ³ ¡
åºĶå½ĵ åĮħæĭ¬
èµ Ĥ
æĺ¯ çĶ±
ä¸ī å¹´
æĭ ¼
åĽ½å®¶ æĪĸèĢħ
åĵģ è´¨
æľīåħ³ äººåĳĺ
è¯· æ³¨æĦı
æ³ķå¾ĭ ä¾Ŀæį®
èĪ Ĵ
åıĹ éĽĩ
è¿Ľè¡Į æ£ĢæŁ¥
æĮģ ç¥¨
ç¤¾ä¼ļ åĬĽéĩı
çĬ¯ åīįæ¬¾
åº¦ çļĦ
åĬŀ åħ¬
åıĳå±ķ çļĦ
è´§ åĢ¼
æĪĳä»¬ åºĶè¯¥
åŁºéĩĳ è´¢äº§
æ¸ħ æ¥ļ
æ· ĺ
æľŁéĻĲ çļĦ
æĺ¯åĲ¦ åı¯ä»¥
é¼ ł
èĩªçĦ¶ çģ¾å®³
ç¬¬ä¸ĥåįģ ä¹ĿæĿ¡
ä¿ĥè¿Ľ æ³ķ
å®ŀéĻħ æİ§åĪ¶
æĺ¾ ç¤º
èĦ ±
æĪĲç«ĭ çļĦ
èĥģ è¿«
éĢ¾æľŁ æľª
åĪĿ æŃ¥
æģ¶ åĬ£
æ°§ åĮĸ
è´« åĽ°
è¢«æī§è¡Į äºº
æ¸ħæĻ °
è´§åĢ¼ éĩĳé¢Ŀ
e p
è ļ
Ġ ä»¥
çļĦ ä»»åĬ¡
æľ «
åºĶå½ĵ è½½æĺİ
ä¸ĭ çļĦ
çī© ç§į
åĢ ĳ
åıĹ åģ¿
ç¬¬äºĮ æ¬¡ä¿®æŃ£
æī¿ ç§Ł
åĨľ èį¯
çĶŁæ´» çļĦ
æŀĹ åľ°
åºĶå½ĵæĮīçħ§ åĽ½åĬ¡éĻ¢
ç¯ ¡
è¯¯ å¯¼
ç»Ĩ èĬĤ
éĻį çº§
ä¸ªäººä¿¡æģ¯ å¤ĦçĲĨ
ĊĠĠ Ġ
å¦¨ å®³
èĸ ª
éĢ¾æľŁä¸į æĶ¹æŃ£çļĦ
åĩºåįĸ äºº
ç¼Ķç»ĵ æĪĸèĢħ
æ·±åº¦ åŃ¦ä¹ł
åĨľä¸ļæĬĢæľ¯ æİ¨å¹¿
i z
Ġ un
çļĦ é£İéĻ©
ä» °
åĴĮ å¤ĦçĲĨ
åĴĮ å¹³
å¾ ½
å½ĵ åīį
å½ĵ åľº
åĪĨ çº§
ç¬¬äºĮ é¡¹
ç¬¬ä¸Ģ æ¬¡ä¿®æŃ£
ä¹¦ çļĦ
éĿŀ æĶ¿åºľ
ä¿ĿéĻ© è´¹
æĤ¨ éľĢè¦ģ
æī¿æĭħ è¿ŀå¸¦è´£ä»»
æµģ è½¬
æ¶Ī æ¯Ĵ
æķ´ ä½ĵ
åĻ¨ åħ·
åĨľä¸ļ çĶŁäº§ç»ıèĲ¥
åŃĹ ç¬¦
ç§Ł éĩĳ
** ï¼ļ
ç¬¬åħ«åįģ ä¸īæĿ¡
å¤ĦäºĶ å¹´ä»¥ä¸Ĭåįģå¹´ä»¥ä¸ĭæľīæľŁå¾ĴåĪĳ
åĩºåı£ ç®¡åĪ¶
èĵ Ħ
æĪĸèĢħä»¥ åħ¶ä»ĸ
æī£ç¼´ ä¹īåĬ¡äºº
å¹¶å¤ĦæĪĸèĢħåįķ å¤Ħç½ļéĩĳ
åĪł éĻ¤
ç¯¡ æĶ¹
5 00
è¿ ħ
åĴĮ æĸĩåĮĸ
å¾ ¡
çº µ
ä¸ĭ çº§
ä¸ĭ æĿ¥
æ± ģ
å¾Ĺ åĩº
æľīåħ³ åįķä½įåĴĮä¸ªäºº
æŁ¥ æĺİ
çĽ¸ å½ĵ
ä»¥ä¸ĭ æİªæĸ½
é«ĺ è´¨éĩı
å¸Ĥ è¾ĸ
åİŁ æĸĻ
ä¸įå¾Ĺ åľ¨
çł Ĥ
è¿ĺ éľĢè¦ģ
ĠåĽ½å®¶ æĶ¯æĮģ
åĬ³åĬ¨ è¡ĮæĶ¿éĥ¨éĹ¨
ä¿® å»º
æľīæĿĥ å¯¹
è¿½ æ±Ĥ
æĦŁ è°¢
è¡ĮæĶ¿æ³ķè§Ħ è§Ħå®ļçļĦåħ¶ä»ĸ
æĪĲåĳĺ å¤§ä¼ļ
è¿Ŀæ³ķæīĢå¾Ĺ æĪĸèĢħ
ç§ģ èĩª
çĶµåŃĲ éĤ®ä»¶
çļĦäºº èº«
çŁ¿ ä¸ļ
ç¬¬åħ«åįģ åĽĽæĿ¡
åħħ æ»¡
ar t
çŁ¥è¯Ĩ åĴĮ
å¼ł åħĪçĶŁ
è¯Ńè¨Ģ æĸĩåŃĹ
åĲ« ä¹ī
åįıè°ĥ æľºåĪ¶
ç¤¾ä¼ļä¿ĿéĻ© ç»ıåĬŀ
å°Ĭ ä¸¥
ä»¥å¤ĸ çļĦåħ¶ä»ĸ
èģĺ çĶ¨
im es
åįģäºĶ æĹ¥ä»¥ä¸ĭæĭĺçķĻ
åĭĺ æŁ¥
åĳ¨å²ģ çļĦ
ä¹°åıĹ äºº
åĽ½åľŁ ç©ºéĹ´
b er
äº ĳ
çļĦ æİªæĸ½
çļĦ é¢Ĩå¯¼
ãĢĤ -
åĴĮ ä¿ĿæĬ¤
åĩ ¡
æĪĲ äº¤
çŃī äºĭé¡¹
åĲĮ çŃī
æģ ¤
è´¢ çī©çļĦ
ç»Ļ ä»ĸäºº
æµ· æįŁ
åıį å¯¹
åĪĴ åĪĨ
æĹł å®³
å¤ļ çļĦ
å¤ļ æķ°
åıĤ èĢĥ
è§ĦåĪĴ åĴĮ
å¸¸åĬ¡å§Ķåĳĺä¼ļ ä¼ļè®®
åħ¬åħ± åĽ¾ä¹¦é¦Ĩ
åħį è´¹
åĨį å®¡
æ¼ «
åĽ½éĺ² åĬ¨åĳĺ
å½ĵåľ° çļĦ
åĲ« æľī
å¢ĥå¤ĸ éĿŀæĶ¿åºľ
ç³ĸ æŀľ
ç¾¤ä¼Ĺ æĢ§
å¤Ħä»¥ ç½ļæ¬¾
è®² è¿°
å¼Ĥè®® çļĦ
çļĦçĬ¯ç½ª åĪĨåŃĲ
å°ļä¸į æŀĦæĪĲçĬ¯ç½ªçļĦ
ª èĮĦ
åĪ ļ
çĶ ļ
åĴĮ å®ĮåĸĦ
ä¼ ½
èĢ Ĳ
åįģ ä¸Ģ
å¹ »
å¹ ħ
æĹ §
åºĶå½ĵ åĪ¶å®ļ
ç½ Ĺ
ä¸Ń èį¯
å·¥ äºº
ä½ľ èĢħ
é¢ Ĺ
æĹ¶ çļĦ
èģ Ĭ
æī¿ åħĳ
ç¬¬ä¸ī é¡¹
éĢĤ å®ľ
é¢Ĩ é¦Ĩ
æł¸ æŁ¥
æľīæĿĥ è¯·æ±Ĥ
è·¯ çº¿
éĢĢ åĩºçİ°
æ¶ī å¤ĸ
çĶŁæ´» ä¸Ń
æ¯ı ä¸Ģ
æĪĲåĳĺ çļĦ
å®£ å¸ĥ
åĨĽäºº ä¿ĿéĻ©
äººæĪĸèĢħ åħ¶
å¿« éĢĴ
ac t
å©ļå§» åħ³ç³»
æīĢéľĢ çļĦ
æĹħè¡Į ç¤¾
ä¾Ŀæ³ķå±¥è¡Į èģĮè´£
æ¸ħæ´ģ çĶŁäº§
çĲĨäºĭ ä¼ļ
å®ļç½ª å¤Ħç½ļ
è´¢åĬ¡ä¼ļè®¡ æĬ¥åĳĬ
éĢĢåĩºçİ° å½¹
v e
Ġ ä¸º
çļĦ åİŁåĽł
åĪ º
å®ļ ä¹ī
å¯ ¿
æĪĸèĢħ å¯¹
åºĶå½ĵ åĿļæĮģ
æı Ĵ
ä»» åĳ½
çĽĳ è§Ĩ
æ´ ŀ
åĢ ¡
å·¥ä½ľ æľºæŀĦ
ä¾Ŀæ³ķ äº«æľī
ä¹ĭ å¤ĸ
åİŁ çĬ¶
æĬĢæľ¯ åĴĮ
çĶ³è¯· è¡ĮæĶ¿å¤įè®®
æº ¯
ä½ł è®¤ä¸º
ä¼ł æī¿
ä¼ł è¾ĵ
ĠåĽ½å®¶ å»ºç«ĭåģ¥åħ¨
åı¯èĥ½ éľĢè¦ģ
è®© æĪĳä»¬
åıĳçĶŁ éĩįå¤§
èģĮä¸ļ åŁ¹è®Ń
å®¹ åĻ¨
ç»´ æĮģ
èĳ ±
å°ıæĺİ åľ¨
æįŁå®³ èµĶåģ¿
è§Ĥ å¯Ł
ä¸ĩåħĥä»¥ä¸Ĭ çļĦ
ç»Ī ç»ĵ
è¯´æĺİ çĲĨçĶ±
èģĺ ä»»
æ±Ł æ²³
å¼ķæ¸¡ è¯·æ±Ĥ
æķĪçİĩ åĴĮ
é»ĳ åľŁåľ°
te p
ç¼ĵ åĪĳ
çĳ ľ
æ²¿ æµ·
åī¥å¤ºæĶ¿æ²» æĿĥåĪ©
e f
n d
p le
é ¹
Ġ å¯¹äºİ
çŃī çĽ¸åħ³
å¹¶ åħ¬å¸ĥ
è¿ĩ åİ»
è½ ¨
ä¿¡ åı·
ä¾Ľ æ°´
è¢« æ£ĢæŁ¥
è¢« çĶ³è¯·äºº
æľį ä»İ
ç»ıèĲ¥ æ´»åĬ¨
çĽ´ åĪ°
çľ ł
åĬŀ åŃ¦
ä¸ĭåĪĹ æĥħå½¢
æİ§ èĤ¡
éħį å¥Ĺ
æķĳ æ²»
åħ¬åħ± æľįåĬ¡
æ¯ı å¤©
æľªæĪĲå¹´ åŃĲå¥³
ç¼´ è´¹
éĶĢåĶ® èĢħ
åĲĪä¼Ļ åįıè®®
çĶµåŃĲ è®¤è¯ģ
é¢Ħéĺ² æľªæĪĲå¹´äºº
ion s
ic al
è´¦ ç°¿
å®īåħ¨çĶŁäº§ æ³ķ
è¡¨çİ° ä¸º
çĶ· å¥³
æĪĴ ä¸¥
åħ¨ä½ĵ ä¼ļè®®
éĨ Ĵ
ul t
åºĶå½ĵèĩª æĶ¶åĪ°
åŁºéĩĳæīĺç®¡ äºº
ä¸Ĭå¸Ĥè®¸åı¯ æĮģæľīäºº
ç»ĳ æŀ¶
ä»İéĩį å¤Ħç½ļ
çĶļ èĩ³
çĳľ ä¼½
A N
i ke
Ġ åħ¬æ°ĳ
ĺ æī¬
æľ Ŀ
äºº æł¼
çī ²
äºĮ å¹´
åıĳ éĢģ
çŃī å·¥ä½ľ
æł¹æį® ä»¥ä¸Ĭ
å·¥ä½ľ éľĢè¦ģ
ä»¥ä¸ĭ çļĦç½ļæ¬¾
åķĨ æĬķèµĦ
æĬĢæľ¯ çļĦ
ä¸ªäºº çļĦ
åĨĽ äººçļĦ
ä¾Ŀçħ§ åĪĳæ³ķ
ä¹Ł æľī
è¯īè®¼ æĹ¶æķĪ
è´£ä»¤ åģľä¸ļæķ´é¡¿
ä¸ŃåĽ½ åħ¬æ°ĳ
æīĭ æľ¯
æ²¡æľī è¿Ŀæ³ķæīĢå¾ĹæĪĸèĢħ
èĩ´ äºº
çº¦å®ļ ä¸į
è¿Ļä¸ª éĹ®é¢ĺ
æħ İ
èµĦæĸĻ çļĦ
å¾ĭå¸Ī äºĭåĬ¡æīĢ
åĮºåŁŁ åĨħ
åĽ½å®¶å®īåħ¨ æľºåħ³
æīĵ åĩ»
Ġ| |
ä¸ĵåĪ© æĿĥ
ç»Łè®¡ è°ĥæŁ¥
çħ¤ çŁ¿
202 2
è¯ļ ä¿¡
çªģåĩº è´¡çĮ®
åīįæıĲ ä¸ĭ
å¢ĥå¤ĸéĿŀæĶ¿åºľ ç»Ħç»ĩ
J o
l u
Ġ G
Ġ çĶ³è¯·
çļĦ è´¹çĶ¨
çļĦ æķħäºĭ
æĿ °
ä¿ Ĺ
æĪĸèĢħ æľī
åľ¨ æŃ¤
åºĶå½ĵ ä»¥
å¼ ĺæī¬
åľ° åĪ¶
å¤§ å°ı
åĮº åĴĮ
å·¥ä½ľ ä¸»ç®¡éĥ¨éĹ¨
è¿Ŀ è§Ħ
æĶ¶ åıĹ
æıĲä¾Ľ èĻļåģĩ
æĮīçħ§ åĽ½å®¶è§Ħå®ļ
æľį çİ°å½¹
çĤ Ĵ
è¯ģåĪ¸ çĻ»è®°
åħĪ è¡Į
èĻ «
èµĦæºĲ çļĦ
æĦŁ è§ī
åĪĽ æĦı
åı¦ ä¸Ģ
æļ Ĺ
æĸĩä»¶ åĴĮ
è¾ĥ å¤§çļĦ
ç¦»å©ļ åĲİ
æĬĹ è¯ī
æĬļ æģ¤
åŁİä¹¡ å»ºè®¾
éĢĲ æ¸Ĳ
èĭ¥ å¹²
ĠåĽ½å®¶é¼ĵåĬ± åĴĮæĶ¯æĮģ
è¡Ģ æ¶²
åĨĴ éĻ©
æ°ĶåĢĻ åıĺåĮĸ
è°ĭ åıĸ
åıĳèµ· äºº
æľīéĻĲè´£ä»» åħ¬åı¸
è¡¥æķĳ æİªæĸ½
ä¸įåı¯æĬĹ åĬĽ
T om
i es
åĴĮ åĪ©çĽĬ
åĽ½ çķĮ
åºĶ æĶ¶
æĪĸèĢħ éĩįå¤§
ç»ı åħ¸
åĩº çĶŁ
çī© æĿĥ
æ± °
èĤ ĸ
æŁ¥ çľĭ
åĬł å¤§
æĹ¥ åīį
ç¤¾ä¼ļ ä¿Ŀéļľ
æĤ ¬
ä¿¡æģ¯ ç³»ç»Ł
ç»ıèĲ¥ è®¸åı¯è¯ģ
åģ¥ èº«
è¿ĺ æ¬¾
åĨľä¸ļ çĶŁäº§
åħ±åĲĮ æµ·æįŁ
ä¸ĩåħĥä»¥ä¸Ĭ äºĮçĻ¾
å·¥ç¨ĭ å»ºè®¾
ç¬¬åħ«åįģ ä¹ĿæĿ¡
å»ºçŃĳ å·¥ç¨ĭ
æ³¨åĨĮ åķĨæłĩ
æ·± åħ¥
è´¦ æ¬¾
æī§æ³ķ æľºæŀĦ
åĲĬéĶĢ èĲ¥ä¸ļæī§çħ§
é¾ Ļ
è¡ĮæĶ¿å¤įè®® æľºåħ³
æĢİä¹Ī åĬŀ
è¿Ŀåıįæ²»å®īç®¡çĲĨ è¡Įä¸ºçļĦ
ä¸ªæĢ§ åĮĸ
èĤ¡ä»½æľīéĻĲ åħ¬åı¸
æ·ĺ æ±°
åľ°åĪ¶ å®ľ
Ġ å¤ĸåĽ½
Ġ us
çļĦ çĽĳçĿ£ç®¡çĲĨ
ç¬ ĳ
æľī ä¸Ģä¸ª
å° ¼
å° ĺ
ä¿Ŀ åį«
æı ½
å¹¶ äºĪä»¥
èĩª æĶ¶åĪ°
çħ ®
è¡¨ æ¼Ķ
åĽł åľ°åĪ¶å®ľ
å®¡ å®ļ
çİ° è±¡
éĿ¢ å¯¹
è´Ł åĢº
ä¸įå¾Ĺ æĭĴç»Ŀ
çĽ´ èĩ³
åģ¿ è¿ĺ
åĨ³å®ļ ä¹¦
ä¸Ģä¸ª æľĪ
åı£ å¤´
ç»ĻäºĪ è¡¨å½°
æıĲåĩº æĦıè§ģ
åıĳçĶŁ æ³ķå¾ĭæķĪåĬĽ
èĩªæ²» æľºåħ³
é£İéĻ© ç®¡æİ§
ç¾İ é£Ł
al l
å®¡æŁ¥ åĴĮ
é¢Ħéĺ² æİ¥ç§į
æĻ® éģį
åı° æ¹¾
ç¬¬åħ«åįģ äºĶæĿ¡
äººåºĶå½ĵ åľ¨
è½» çļĦ
æľŁè´§ ç»ıèĲ¥
æī¿è¿Ĳ äººçļĦ
è¡Ķ æİ¥
ç¨İæĶ¶ ä¼ĺæĥł
æ²¡æľīè¿Ŀæ³ķæīĢå¾ĹæĪĸèĢħ è¿Ŀæ³ķæīĢå¾Ĺä¸įè¶³
1 4
ç Ĵ
Ġ le
ä¸ ¢
ãĢĤ \
ä¸į æĪĲçļĦ
æīĢ ç»Ļ
çĶ± åĽ½å®¶
å·¥ä½ľ åĴĮ
æľª åıĬæĹ¶
åĨħ å¹ķ
é«ĺ åº¦
å¼º è¿«
éĩĩåıĸ æľīæķĪæİªæĸ½
èĢĮ ä¸įæĺ¯
æĶ¾ åľ¨
ä¹Ł ä¼ļ
ç¬¦åĲĪ æĿ¡ä»¶çļĦ
èĮĥåĽ´ åĴĮ
èī² çļĦ
è®¾å¤ĩ åĴĮ
or d
äºĭé¡¹ çļĦ
è´§çī© è¿Ĳè¾ĵ
ä¹ĭæĹ¥èµ· ä¸īåįģæĹ¥åĨħ
è°ĥè§£ ä¹¦
åŁºæľ¬ åħ»èĢģä¿ĿéĻ©
ç®Ģ æĺĵ
èĮĥåĽ´åĨħ çļĦ
è®¤å®ļ ä¸º
æįĲèµł äºº
ç¼´çº³ çļĦ
é£Łåĵģå®īåħ¨ çĽĳçĿ£ç®¡çĲĨéĥ¨éĹ¨
å¾® çĶŁçī©
åł Ĩ
éĿ© åĳ½
ä¿¡çĶ¨ åį¡
äº¤éĢļè¿Ĳè¾ĵ ä¸»ç®¡éĥ¨éĹ¨
ç¤¾åĮºçŁ«æŃ£ å¯¹è±¡
è¾ŀ èģĮ
åĬŀäºĭ å¤Ħ
å·¥åķĨ è¡ĮæĶ¿ç®¡çĲĨéĥ¨éĹ¨
æ°ĳåĬŀ åŃ¦æł¡
çŁ¥æĤī çļĦ
åľŁåľ°åĪ©çĶ¨ æĢ»ä½ĵè§ĦåĪĴ
å®ł çī©
Ø §
Ġ *
Ġ N
Ġ k
äº ®
çļĦ é£Łåĵģ
åĴĮ äººæ°ĳ
æľī åºı
æĪĸèĢħ æĹłæľŁå¾ĴåĪĳ
æĪĸèĢħ åıĺçĽ¸
ä¸į è¿ĩ
å¯¹ è¢«
æĿĥ å±ŀ
ï¼ļ -
ç®¡çĲĨ åĬŀæ³ķ
æŀĦ çŃĳ
åĪĨ è£Ĥ
è¯· ç»Ļåĩº
åĮº åĪ«
å·¥ä½ľ æĹ¶éĹ´
ç¬¬ä¸ī æ¬¾
éľĢè¦ģ çļĦ
ä¿¡æģ¯ åħ±äº«
å½ĵäºĭäºº å¯¹
å±ħ æīĢ
çłĶ åıĳ
è¯Ń çļĦ
åį³ ä½¿
ä¸¤ ç§į
åĢºæĿĥ åĢºåĬ¡
æīĢæľī åĪ¶
ç¬¬åħ«åįģ åħŃæĿ¡
æ¶Īè´¹èĢħ æĿĥçĽĬ
ä¼łæŁĵçĹħ éĺ²æ²»
ĠĠĠĠ ĠĠ
éĢĥ éģ¿
è·Ł è¸ª
åı¯æĮģç»Ń åıĳå±ķ
ç²¾ç¥ŀéļľç¢į æĤ£èĢħ
è¡Ĺéģĵ åĬŀäºĭå¤Ħ
åĲĪéĢĤ çļĦ
å¡ĳ æĸĻ
éĿŀæ³ķäºº ç»Ħç»ĩ
2 3
a p
l ow
å Ĺ
Ġ 20
å® ĩ
æľī åģ¿
åı¯ä»¥ éĢīæĭ©
åĬ¨ æĢģ
ç®¡çĲĨ æľºåħ³
è¡¨ éĿ¢
åĢ ĭ
ä¿¡ ä»°
ç¤¾ä¼ļ ç§©åºı
çķ ªèĮĦ
éĻ¤ éĿŀ
æĹł åģ¿
åľ°æĸ¹ æĢ§æ³ķè§Ħ
æĢ» çĲĨ
æĸ¹å¼ı åĴĮ
éĵ ħ
è®© æĪĳ
åĴĮåħ¶ä»ĸ æľīåħ³éĥ¨éĹ¨
å½ķ åĥı
æ°Ķ ä½ĵ
åŁ¹ èĤ²
é¼ĵåĬ± åĴĮæĶ¯æĮģ
ç»´æĬ¤ èĩªå·±çļĦ
æĺ¯æĮĩ åľ¨
åºĶçĶ¨ äºİ
çº¿ è·¯
Ġp r
è¿½ç©¶ æ³ķå¾ĭè´£ä»»
åĵª ä¸ª
èģĮä¸ļçĹħ éĺ²æĬ¤
è¿Ķ åĽŀ
ä¾µæĿĥ è¡Įä¸º
éĺ³ åħī
äº¤éĢļè¿Ĳè¾ĵ å·¥åħ·
åĬ³åĬ¨äºīè®® ä»²è£ģå§Ķåĳĺä¼ļ
ä¼ļè®¡å¸Ī äºĭåĬ¡æīĢ
çıį è´µ
å¿ĹæĦ¿ èĢħ
åºŁå¼ĥ çī©
åħ¬èģĮ äººåĳĺ
é©³ åĽŀ
çļĦ æī§è¡Į
ãĢģ âĢľ
å¹ ¸
äºĮ çº§
çŃī é¢ĨåŁŁ
ä¸» äºº
æīĢ è°ĵ
ç®¡çĲĨ æ³ķ
éĢļ èĪª
å§ Ĩ
éĩį ä¼¤
å¤ĸ åķĨæĬķèµĦ
åıĹ ä¼¤
éĶ »
åıį åŀĦæĸŃ
ä¼ģä¸ļ çł´äº§
ä¸įå¾Ĺ åĲĳ
æĮĩ ç¤º
åĲĦ ä¸ª
æĹł åħ³
è´¢äº§ å®īåħ¨
è¿ĺ åºĶå½ĵ
éªĮ è¯ģ
æ¶Ī èĢĹ
ä¿Ŀéļľ æİªæĸ½
æ±¡æŁĵ çī©çļĦ
ç§ģ äºº
ä¿Ŀè¯ģ éĩĳ
ä¾Ŀæį® æľ¬æ³ķ
èĳĹ åĲįçļĦ
çŁ¥éģĵ æĪĸèĢħ
éī´å®ļ äºº
åķĨä¸ļéĵ¶è¡Į æ³ķ
è®¢ç«ĭ çļĦ
åŃ¦åīį æķĻèĤ²
åĪĨæĶ¯ æľºæŀĦ
çĶµåŃĲåķĨåĬ¡å¹³åı° ç»ıèĲ¥èĢħ
åŃĺç»Ń æľŁéĹ´
2 6
b ers
Ġ en
çļĦ æĿ¡ä»¶
ï¼Į âĢľ
è´ ¥
çĽ Ī
è§Ħ å¾ĭ
åºĶå½ĵ éĢļè¿ĩ
èµ ı
æĮ ¯
ä¸Ĭ çº§äººæ°ĳæĶ¿åºľ
åıĳ è¡¨
æ± Ľ
å¤§ åĪ©
çĽ¸ ä¿¡
ä¿¡ ä»»
ç»Ļ ä½ł
ç¬¬ä¸Ģ å®¡
éĻĲ äºİ
åķĨ æ£Ģ
ä¿¡æģ¯ åĴĮ
æĶ¾ åħ¥
è®¾æĸ½ åĴĮ
éĢłæĪĲ ä»ĸäºº
åĪ¶åº¦ åĴĮ
éĢĢ åĩº
æĸĩåĮĸ åĴĮ
æĺ¯åĲ¦ ç¬¦åĲĪ
äºĭæķħ éļĲæĤ£
ç¢ °
å£° éŁ³
ç§ĳåŃ¦æĬĢæľ¯ çłĶç©¶å¼Ģåıĳ
åĲ¸ æ¯Ĵ
ç¼º éĻ·
æĹłæķĪ çļĦ
ç§Łèµģ çī©
æģ¶ æĦı
äººæ°ĳè°ĥè§£ å§Ķåĳĺä¼ļ
æ°¸ä¹ħ æĢ§
ä¸ĩåħĥä»¥ä¸Ĭä¸ĢçĻ¾ ä¸ĩåħĥä»¥ä¸ĭçļĦç½ļæ¬¾
é¢Ħéĺ²æľªæĪĲå¹´äºº çĬ¯ç½ª
Jo hn
éĶ» çĤ¼
o c
p ut
é ½
Ġ è¡ĮæĶ¿æľºåħ³
çļĦ æĢ»
çļĦ æľŁéĻĲ
çļĦ è´§çī©
æ³ķ æĿ¡
å¼ Ł
å¯¹ åľ¨
åľ° å½¹
èĥ ŀ
å¹¶ æ²¡æľī
è¾ £
å®ŀ çĶ¨
å§ Ĳ
ä¸İ ä»ĸäºº
æıĲä¾Ľ æľīåħ³
æĽ´ åĩĨç¡®
éĽĨ ä¼ļ
ä¿® çĲĨ
åıĬåħ¶ å¸¸åĬ¡å§Ķåĳĺä¼ļ
æ¡Īä»¶ ä¸Ń
Ġs h
æ¸¸ è¡Į
æŀĦæĪĲ è¿Ŀåıįæ²»å®īç®¡çĲĨè¡Įä¸ºçļĦ
æ¤į è¢«
ç®Ģ ç§°
æľīä¸ĭåĪĹæĥħå½¢ ä¹ĭä¸Ģ
åĽ½æľī èµĦäº§
åĲ¸ æĶ¶
å¯¹æĸ¹ å½ĵäºĭäºº
åľŁåľ°æī¿åĮħ ç»ıèĲ¥æĿĥ
ä½ıæīĢ åľ°
ä¹¡éķĩ äººæ°ĳæĶ¿åºľ
é©»å¤ĸ å¤ĸäº¤
ä¾Ŀçħ§åīįæ¬¾ çļĦè§Ħå®ļå¤Ħç½ļ
åı¦æľīçº¦å®ļçļĦ éĻ¤å¤ĸ
çŁ¥éģĵæĪĸèĢħ åºĶå½ĵçŁ¥éģĵ
Ġ ä½¿çĶ¨
ï¼ ħ
çļĦ äººæ°ĳæĶ¿åºľ
çļĦ ä¿ĿæĬ¤
çļĦ ç»ĵæŀľ
åĴĮ å®ŀæĸ½
åĴĮ ç¨ĭåºı
æĪĸèĢħ éĥ¨åĪĨ
æĪĸèĢħ åĩıè½»
åľ¨ åħ¶
ä¸į åħ·æľī
åŃ ¤
ï¼ļ ```
å®ŀ çī©
ä½ĵ çİ°
éĢļ éģĵ
å¥ ĭ
æľª ä¾Ŀæ³ķ
ç½ª è¡Į
çĬ ¬
åĽ½åĬ¡éĻ¢ æľŁè´§çĽĳçĿ£ç®¡çĲĨæľºæŀĦ
æĦı å¤ĸ
ç¡® éľĢ
åķ Ĭ
åİŁ åŃĲ
ä¸įå¾Ĺ å¯¹
è´¨ æĬ¼
ä¸ĵ èģĮ
é¢Ħ æĬ¥
ä¿ĿéĻ© éĩĳ
åı£ åĳ³
è¯Ħ å®¡
æľīæĿĥ æĭĴç»Ŀ
èİ ī
éĩįå¤§ æįŁå¤±çļĦ
è¶ħ åĩº
è¶³ ä»¥
ç¾İ åĳ³
ä¹ĭæĹ¥èµ· è®¡ç®Ĺ
äº§çĶŁ äºĨ
ç¬¬äºĮçĻ¾ ä¹Ŀåįģ
åĨĽäºĭ ç¦ģ
æĸĩä»¶ çļĦ
æľªæĪĲå¹´äºº ä¿ĿæĬ¤æ³ķ
ç»¼åĲĪ åĪ©çĶ¨
ä¸ĸ çºª
æ²Ļ åĮĸ
çļĦåħ·ä½ĵ ç½ªåĲį
åį° ç«ł
201 8
æĭĸ å»¶
æ¯ķ ä¸ļ
åįļ çī©
åŁºéĩĳä»½é¢ĿæĮģæľīäºº å¤§ä¼ļ
åĳ¼ åĲ¸
æ°ĳäºĭæ³ķå¾ĭ è¡Įä¸º
1 7
B ob
Ġ O
çļĦ ä¸ªäºº
å® ģ
ä¸Ģ å¹´åĨħ
åľ¨ è¯¥
åºĶå½ĵ ä¸¥æł¼
çĶŁ åŃĺ
åħ¬ è¯ī
ï¼ī ï¼ļ
çŃī ä¸»ç®¡éĥ¨éĹ¨
æĹ¶ ä»£
ç®¡çĲĨ å·¥ä½ľ
å®ŀ è´¨
çĽĳ å¤ĸ
åŃ¦ ä¼ļ
ä»¥ä¸ĭ æĺ¯ä¸Ģ
æ¶ µ
çĶ³è¯· åĲİ
è¿Ŀåıį åĽ½å®¶è§Ħå®ļ
èĢĮ ä¸į
åĬ³åĬ¨ æĬ¥éħ¬
è´£ä»¤ åģľäº§
è®¸åı¯ çļĦ
å½ķ éŁ³
æĹ¶éĹ´ åĨħ
ç¤º å¨ģ
æŀĦæĪĲ çĬ¯ç½ª
ä»»ä½ķ ç»Ħç»ĩæĪĸèĢħä¸ªäºº
è¶ħ è¶Ĭ
åıª æĺ¯
Ġm a
å°½ éĩı
åı¯ä»¥å¸®åĬ© ä½ł
èģĺ è¯·
æī§ä¸ļ è¯ģä¹¦
æĲľ æŁ¥
é¡¾ éĹ®
è¯·æł¹æį® æīĢç»Ļ
æľ¬ç«ł è§Ħå®ļ
è¢«è¯·æ±Ĥ å¼ķæ¸¡
éĻĨåľ° åĽ½çķĮ
æĬķä¿Ŀ äºº
ç¤¾ä¼ļä¿ĿéĻ©ç»ıåĬŀ æľºæŀĦ
è¯·æł¹æį®æīĢç»Ļ çļĦåħ·ä½ĵç½ªåĲį
Ġ äººæ°ĳæ£Ģå¯ŁéĻ¢
çļĦ åħ¬åı¸
éĢ »
åħ³ èģĶ
æĪĸèĢħ æ²¡æĶ¶è´¢äº§
å· Ŀ
åºĶå½ĵ è¿Ľè¡Į
åĩº æĿ¥
çŃī æľįåĬ¡
è¿ĩ åº¦
æĪĳ åľ¨
è¿Ľè¡Į äºĨ
æĶ¶ èĹı
è¿Ļ æĺ¯ä¸Ģä¸ª
æľ¬æ³ķ è§Ħå®ļ
åĽ½åĬ¡éĻ¢ éĵ¶è¡Įä¸ļçĽĳçĿ£ç®¡çĲĨæľºæŀĦ
ä»£è¡¨ åĽ¢
éĽ ·
æ°´ åĪ©
æĻ Ĥ
ç»ıèĲ¥ ä¼ģä¸ļ
èĬĤ æ°´
åĨĽ çĶ¨
æĹł æ°ĳäºĭè¡Įä¸ºèĥ½åĬĽ
âĢ Ķ
ç¨İ çļĦ
å±¥è¡Į çļĦ
in e
åı£ æĦŁ
é£Ł çĶ¨
åı¯èĥ½ æĺ¯
å¥³ èģĮå·¥
è°ĥæŁ¥ å¤ĦçĲĨ
çŃ¾ è¯ģ
æ»¡ åįģ
éĩįå¤§ äºĭé¡¹
åĲĪçĲĨ åĪ©çĶ¨
æī¿åĮħ æĸ¹
èµĦéĩĳ çļĦ
ç¬¬åħ«åįģ ä¸ĥæĿ¡
æŀģ ç«¯
åĲ¬ è¯ģ
ç¦»å©ļ æĹ¶
æ³¨åĨĮ ä¼ļè®¡å¸Ī
æ£ĢéªĮ æľºæŀĦ
çĸĳ ä¼¼
æ·± åĪ»
ä¾Ŀæ³ķç»ĻäºĪ è¡ĮæĶ¿å¤ĦåĪĨ
ç¤¾ä¼ļä¿ĿéĻ© è´¹
è¢«åĪ¤ åĪĳ
çİ¯å¢ĥå½±åĵį æĬ¥åĳĬ
åħŃä¸ªæľĪ åĨħ
èģĮä¸ļçĹħéĺ²æ²» æ³ķ
å·¨å¤§ æĪĸèĢħæľīåħ¶ä»ĸ
è¦Ĩ çĽĸ
èĪĴ éĢĤ
çĬ¯åīįæ¬¾ ç½ªçļĦ
åįļçī© é¦Ĩ
e re
Ġ è®¾ç«ĭ
çļĦ ç¨ĭåºı
æľī çĿĢ
æľī çī¹æ®Ĭ
ä¸į åħ·å¤ĩ
ä¸į è®¾åĮºçļĦå¸Ĥ
ä¸į åĲĪæł¼çļĦ
åı¯ä»¥ ä»İ
åı¯ä»¥ åĨ³å®ļ
æıĲ åĲį
è¾ ¨
éĩį çļĦ
èĤ ¤
è®® ç¨ĭ
ä½¿ é¦Ĩ
æĬ¥ å¤į
ä¸»ç®¡ æľºæŀĦ
è§Ħå®ļçļĦ è¡Įä¸º
å¼º è°ĥ
æķĻèĤ² æķĻåŃ¦
æĹł çº¿
åĽŀ å¤į
æĻºèĥ½ å®¶å±ħ
å¸®åĬ© æĤ¨
ç§» æ°ĳ
æĿĲæĸĻ çļĦ
å®ŀéĻħ éľĢè¦ģ
ç¬¬åħ«åįģ åħ«æĿ¡
éĽĨä½ĵ æīĢæľīçļĦ
é¦ĸ æ¬¡
çľŁ æŃ£
ic h
æ³ķäºº åĴĮåħ¶ä»ĸç»Ħç»ĩ
ä¸¤ä¸ª ä»¥ä¸Ĭ
çİ¯å¢ĥä¿ĿæĬ¤ ä¸»ç®¡éĥ¨éĹ¨
å®¢æĪ· çļĦ
im e
èĭ± æĸĩ
æī© å»º
åı¤ ä»£
è°Ī åĪ¤
res s
æĹ¥ç¬¬åįģä¸ī å±Ĭåħ¨åĽ½äººæ°ĳä»£è¡¨å¤§ä¼ļå¸¸åĬ¡å§Ķåĳĺä¼ļ
åľ¨åĮ»çĸĹ é¢ĨåŁŁ
å¤«å¦»åħ±åĲĮ è´¢äº§
æĶ» åĩ»
è¯¦ç»ĨçļĦ æİ¨çĲĨè¿ĩç¨ĭ
åī§æ¯Ĵ åĮĸåŃ¦åĵģ
3 1
a re
Ġ ç»ıèĲ¥èĢħ
çĶ¨ å·¥
æĪĸèĢħ åı¯èĥ½
æĪĸèĢħ æĴ¤éĶĢ
ä¸į éĶĻ
ä¸į å®ľ
åºĶå½ĵ ä¼ĺåħĪ
ä¿Ŀ å®Ī
å¹¶ ä¸º
å¹¶ ç»ı
æľª ä½ľ
ç»Ħç»ĩ ç¼ĸåĪ¶
åľº åľ°
çĶµ æĸĩ
éĢī é¡¹
å½¢ è±¡
é¢Ĩ æµ·
è®¾æĸ½ å»ºè®¾
ä¸ĭåĪĹ æİªæĸ½
æĥħèĬĤ ä¸¥éĩį
å§Ķæīĺ çļĦ
Ġf rom
æī£ éĻ¤
ç¬¬ä¹Ŀåįģ ä¸ĢæĿ¡
å®¡åĪ¤ äººåĳĺ
ç¤¾ä¼ļä¿ĿéĻ© åŁºéĩĳ
ac h
èģĶç³» æľºåħ³
ä¸Ĭä¸Ģ çº§äººæ°ĳæĶ¿åºľ
å¿ĥçĲĨ åģ¥åº·
æ³ķæ²» å®£ä¼łæķĻèĤ²
å®ŀéªĮ å®¤
ä¹ĭåĲİ åĨį
éŃ Ķ
è¿Ŀæ³ķæīĢå¾Ĺä¸ĢåĢįä»¥ä¸Ĭ äºĶ
åºĶæĶ¶ è´¦æ¬¾
i re
çļĦ çĽĳçĿ£
çļĦ è´¨éĩı
çļĦ çī©åĵģ
åįģ æĹ¥åĨħ
ä¸į çŁ¥éģĵ
åħ¬ ç§¯
åı¯ä»¥ å§Ķæīĺ
èĩª ä¿¡
åŃ¦ ç§ĳ
è° İ
ä¾Ŀæ³ķ åºĶå½ĵ
æłĩ æĺİ
éĺ² å¾¡
ä¼ģä¸ļ äºĭä¸ļ
ä¾Ŀçħ§ æľīåħ³
è®¤ çľŁ
æ³ķè§Ħ åĴĮ
æĢģ åº¦
ä¸ŃåĽ½ çļĦ
å®¢ æľį
å¼ķ åıĳ
æķ°æį® å®īåħ¨
æķ°æį® çĶµæĸĩ
at ed
èĩªçĦ¶ ä¿ĿæĬ¤
è¡ĮæĶ¿æ³ķè§Ħ åĴĮ
ç¬¬äºĮçĻ¾ åħ«åįģ
æĺ¯ä¸Ģ éĥ¨
åıĮæĸ¹ å½ĵäºĭäºº
å¤ĦäºĶ æĹ¥ä»¥ä¸Ĭ
æĺİç¡® è§Ħå®ļ
äºīè®® çļĦ
Ġe qu
çķľ çī§
ç»Ļåĩº åħ¶
æ¬¢ è¿İ
æľºåĬ¨è½¦ é©¾é©¶
æļĤ äºĪ
åĲĦèĩª èģĮè´£èĮĥåĽ´åĨħ
æĬ½ æŁ¥
ä¸ĩåħĥä»¥ä¸Ĭåįģ ä¸ĩåħĥä»¥ä¸ĭç½ļæ¬¾
è½¬æį¢ ä¸º
æ®´ æīĵ
éĩįæķ´è®¡åĪĴ èįīæ¡Ī
å³ °
pr int
èĤĸ åĥı
à ¤
çļĦ ç¤¾ä¼ļ
çļĦ å°ı
åº Ħ
åı¯ è¡Į
åħ¬ çº¦
æŁ Ķ
æ± ī
å» ī
èģĮ ä½į
åıĸ è¯ģ
é¡ µ
äº¤ çĶ±
åįķä½į åĴĮ
æĦı å¤§åĪ©
éĩĩ çŁ¿
åķĨ å®¶
åİŁ åĪ¤åĨ³
æķĳ çģ¾
è¿½ æº¯
æīĢå¾Ĺ çļĦ
èĭ ¦
ç§° ä¸º
ä»²è£ģ åįıè®®
æĦŁ æĥħ
æĺ¯åĲ¦ éľĢè¦ģ
åŃĹ æ¯į
å®ĺ æĸ¹
ä»»ä½ķ ç»Ħç»ĩåĴĮä¸ªäºº
or m
äººå·¥æĻºèĥ½ çļĦ
éģĹ å¼ĥ
è¶³ é¢Ŀ
è¯Ħä¼° æľºæŀĦ
ç¬¬äºĮçĻ¾ åĽĽåįģ
åĲ¬ èµ·æĿ¥
æĮĩå¯¼ åĴĮ
éļı æľº
æĢĿ ç»´
åĪĨæŀĲ åĴĮ
å½ĵåľ° äººæ°ĳæĶ¿åºľ
èĳ£äºĭ éķ¿
è¿ŀ æİ¥
äººèº« å®īåħ¨
åĩĨç¡® æĢ§
ä¸ŃåĽ½äººæ°ĳ æŃ¦è£ħèŃ¦å¯Łéĥ¨éĺŁ
åĭĺ æİ¢
ç¿»è¯ĳ æĪĲ
èĲ¥åĪ© æĢ§
éĻª å®¡
äººåĬĽ èµĦæºĲ
æĹłå®³ åĮĸ
è¯·ç»Ļåĩº è¯¦ç»ĨçļĦæİ¨çĲĨè¿ĩç¨ĭ
ä¹ĭåĲİåĨį ç»ĻåĩºçŃĶæ¡Ī
è¯·ç»Ļåĩºè¯¦ç»ĨçļĦæİ¨çĲĨè¿ĩç¨ĭ ä¹ĭåĲİåĨįç»ĻåĩºçŃĶæ¡Ī
P ython
a ge
h is
i a
p ython
Ġ åŃ¦æł¡
Ġ qu
åĴĮ è°
æ° Ľ
åºĶ æł¹æį®
æİ ī
æľ¬ éĥ¨éĹ¨
å¹¶ æľª
å¦ Ī
ä¸İ è¯¥
å¿ ĺ
æī¿ åıĹ
æī¿ éĶĢ
è°ĥ åº¦
è°ĥ èĬĤ
ä¸įå¾Ĺ å°ĳäºİ
åĲĦ éĥ¨éĹ¨
ç± ĥ
æĸ° åĵģç§į
è¦ģæ±Ĥ åħ¶
æľĢ éĩįè¦ģçļĦ
ä»¤ äºº
æĻº æħ
çľģ çº§
èİ ĵ
åĲĪæ³ķ çļĦ
åħ±åĲĮ ä½ĵ
åľºæīĢ çļĦ
åģĩ è®¾
ç»Łä¸Ģ é¢Ĩå¯¼
ç¬¬ä¹Ŀåįģ æĿ¡
åī¯ ä¸»å¸Ń
ç»ŁçŃ¹ åįıè°ĥ
å¸¦æĿ¥ äºĨ
åĩºåħ· çļĦ
ä¸ĩåħĥä»¥ä¸ĬäºĶåįģ ä¸ĩåħĥä»¥ä¸ĭç½ļæ¬¾
èĴ ľ
æľīå®³ çī©è´¨
åħ¬å¼ĢåĭŁéĽĨ åŁºéĩĳçļĦ
çĭ¬çī¹ çļĦ
æĪĸèĢħéĩĩåıĸ åħ¶ä»ĸ
æľŁè´§ç»ıèĲ¥ æľºæŀĦ
æļĤäºĪ çĽĳå¤ĸ
æĻºæħ §
i b
à ®
Ġ Ã
çļĦ å®ŀæĸ½
æĹ ĭ
åºĶå½ĵ å®ļæľŁ
èµ Į
å¸ Ĳ
åı¯ä»¥ è®©
åı¯ä»¥ çĶ¨äºİ
æľ¬ ä¹¦
çŃī åĨħå®¹
çİ Ľ
å¹¶ æĬ¥
å¤§ éĻĨ
èĪ į
æĪĳ å°Ĩ
åĮĸ å·¥
ç§į è´¨
ä»£è¡¨ æľºæŀĦ
çĶµ èĦĳ
in d
è¯īè®¼ è¯·æ±Ĥ
æĸ¹å¼ı çļĦ
é¡» ç»ı
åį±éĻ© çī©åĵģ
åĲĪçĲĨ æľŁéĻĲåĨħ
çĪ¶ äº²
çļĦåħ¶ä»ĸ æĥħå½¢
è®¸åı¯è¯ģ ä»¶
å½Ĵ å±ŀ
åĪĨéħį æĸ¹æ¡Ī
æģ¢å¤į åİŁçĬ¶
åĴ¨è¯¢ ä¸ĵä¸ļ
çĶ² åħ¬åı¸
éĢļæĬ¥ æī¹è¯Ħ
ç±»åŀĭ çļĦ
è¯ļ å®ŀ
ç»ıå¸¸ å±ħæīĢ
ä¸Ģæ®µ å¯¹è¯Ŀ
åıĤåĬłçļĦ åĽ½éĻħæĿ¡çº¦
æĥħèĬĤè¾ĥ è½»çļĦ
ç®Ģæĺĵ ç¨ĭåºı
9 9
ç ·
çļĦ æķĻèĤ²
çĶ ľ
åĴĮ ä¸į
åĮ Ģ
æĪĸèĢħ çĶ±
æĪĸèĢħ éĿŀæ³ķ
å¼ ¥
èĥ ¡
çŃī æ³ķå¾ĭ
å®ŀ æĹ¶
åĪĨ åĮħ
æ´ ¥
æī¿ æı½
ä¹ĭ æĹ¥
æ²» æ²Ļ
éĩĩ ä¼Ĳ
æĽ´ æŃ£
çĽ¸åħ³ è§Ħå®ļ
æĢ» çļĦ
ĠåĽ½å®¶ æľºåħ³
ä¼ļè®® çļĦ
on e
ç¾ ģ
åıĳçĶŁ äºĨ
èģĮä¸ļ æĬĢèĥ½
è£ħ é¥°
ä»²è£ģ è£ģåĨ³
æĦŁ åıĹ
äº¤æĺĵ çļĦ
ç»´æĬ¤ åĽ½å®¶
é¥ ¼
é¦ĸ è¦ģ
åŁ¹è®Ń åĴĮ
æĬµ è§¦
Ġm e
éĿŀå¸¸ éĩįè¦ģçļĦ
å¦ĩå¥³ èģĶåĲĪä¼ļ
ent ence
æİ¢ è®¨
æµ·æ´ĭ çİ¯å¢ĥ
èº«ä½ĵ åģ¥åº·
èĭ± è¯Ń
ç¨³ å®ļçļĦ
åĲĳäººæ°ĳæ³ķéĻ¢ èµ·è¯ī
è´¿ èµĤ
è§Ĵèī² ä¿¡æģ¯
èĸ Ħ
æĦıæĢĿ è¡¨ç¤º
å¸¸è§ģ çļĦ
çĿ¡ çľł
ä¼ģä¸ļçł´äº§ æ³ķ
) :
c om
i e
i le
º çī²
Ġ ç»ı
Ġ è¢«
å® «
è¡ į
æľī ä¸Ģ
ä¼ļ æľŁéĹ´
æĪĸèĢħ åĲĳ
åºĶå½ĵ æıĲä¾Ľ
çº ½
èµ ĸ
çī Ł
çī ºçī²
åħ¬ å¼ı
åıĳ çĶµ
æıĲ åĪ°
æıĲ åŃĺ
å¹¶ ç¡®ä¿Ŀ
è¿Ľ å±ķ
æĬ¥ è¡¨
åĪ° åľº
è¿Ļ æĦıåĳ³çĿĢ
éĺ² æ±Ľ
æĿ¥ èĩª
ä¸ĵ æ³¨
çĹ Ľ
èī ¾
è· ³
æĺĵ çĩĥ
è¯īè®¼ ä»£çĲĨäºº
ç½ĳ ä¿¡
é© ±
æ¯ı å±Ĭ
an g
å¹¶å¤Ħ åįģ
çº¿ ç´¢
éĤ£ äºĽ
åĪ¤åĨ³ ä¹¦
æĿİ åħĪçĶŁ
Ġin t
æ¶īåıĬ åĪ°
å»¶ æľŁ
ä¼ĺåħĪ çº§
éĢŁ åº¦
çİ© å®¶
ur n
è§Ħç«ł åĪ¶åº¦
æĥ© ç½ļ
æĺİçŁ¥ æĺ¯
é¥² åħ»
Al ice
æĮģç¥¨ äºº
äº ı
æĹ ¦
æķ Į
ä¸į åĪ©
å° º
æĭ ĵ
æľ¬ èº«
æıĲ åįķ
è¯ģ è¨Ģ
æīĢ éĻĦ
çº§ åĪ«
è¿Ŀ çºª
æĶ¶ ä¹°
æģ ĭ
æ£ Ĵ
åĬĽ åº¦
éľĢè¦ģ æł¹æį®
éľĢè¦ģ è¿Ľè¡Į
è¿Ĳ ä½ľ
åīį å¾Ģ
åĪĹ åĩº
äººçļĦ åĲĪæ³ķæĿĥçĽĬ
çĤ İ
çĽĳçĿ£ç®¡çĲĨ çļĦéĥ¨éĹ¨
æµģ éĢļ
åĶ ¤
æĻºèĥ½ åĮĸ
è£ħ ä¿®
ç¤º èĮĥ
çĶŁæ´» åŀĥåľ¾
å¼Ģåıĳ åĴĮ
è®¡åĪĴ çĶŁèĤ²
æĪĺ æĹ¶
è®¤ä¸º æĺ¯
æ¼ ł
å¹² éĥ¨
åı· çłģ
å½Ĵ è¿ĺ
éķĩ çļĦäººæ°ĳä»£è¡¨å¤§ä¼ļ
ç¿ Ĵ
ro w
çļĦåħ·ä½ĵ åĬŀæ³ķ
é«ĺçº§ äººæ°ĳæ³ķéĻ¢
çĶ· æĸ¹
Ġth is
è¡¨åĨ³ æĿĥ
çİ°åľº æ£ĢæŁ¥
åŃ¦ä½į æİĪäºĪ
å¤§éĩı çļĦ
èĴ ¸
æł¸è®¾æĸ½ èĲ¥è¿Ĳ
æĪª çķĻ
æĲŃ éħį
ä¾Ŀçħ§åĪĳæ³ķ æľīåħ³è§Ħå®ļ
éĵħ ç¬Ķ
y p
à ±
é ŀ
Ġ äººæ°ĳ
çļĦ èĥ½åĬĽ
äºº ä¸İ
å®ļ ä»·
ä¸į å°ĳäºİ
æıĲ è®®
å¹¶ ä¸İ
å¹¶ è¿Ľè¡Į
æ± ¤
çĶ± æľīåħ³ä¸»ç®¡éĥ¨éĹ¨
å¥ ¥
æ¡ Ĩ
äº¤ æį¢
æ¡Ī ä¾ĭ
è¿Ĳ éĢģ
ä¸ĵ åįĸ
è§Ħå®ļçļĦ æĿĥéĻĲ
æĹł äºº
ä½Ĩ åľ¨
å½¢ çĬ¶
åıĳå±ķ åĴĮ
Ġa d
æī¿æĭħ çĽ¸åºĶçļĦ
éĵ º
æİ¨ éĢī
æķ´ çĲĨ
å¾ģ å¾Ĺ
æĪ¿ åŃĲ
æŀĦæĪĲ æľ¬ç½ª
åºŁ æŃ¢
å±ħæ°ĳ èº«ä»½è¯ģ
çĽĳæµĭ åĴĮ
å»ºçŃĳ æĸ½å·¥
æĮģæľī çļĦ
å¼ł ä¸ī
çĶŁæĢģçİ¯å¢ĥ ä¿ĿæĬ¤
å®¡åĪ¤ åĳĺ
çłģ å¤´
èĦ ļ
ç¬¬ä¸Ģåįĥ äºĮçĻ¾
çł´äº§ è´¢äº§
æĹłéļľç¢į è®¾æĸ½
åįĥåħĥä»¥ä¸Ĭ äºĶ
å¤ļæł· æĢ§
ç£ ģ
åħ¬åħ±æĸĩåĮĸ æľįåĬ¡
ä¼¦ çĲĨ
ç¥ŀç»ı ç½ĳç»ľ
è¿ħ éĢŁ
ä¸ĩåħĥä»¥ä¸ĬäºĮçĻ¾ ä¸ĩåħĥä»¥ä¸ĭçļĦç½ļæ¬¾
éĻªå®¡ åĳĺ
ç¾ģ æĬ¼
i p
Ġ j
Ġ ä¼ģä¸ļ
Ġ ä¸ĭåĪĹ
çļĦ æĥħæĦŁ
åĴĮ æī§è¡Į
åľ¨ æľªæĿ¥
èµ ĭ
äºĭ å®ľ
ä¸º çĶ±
ä¸Ń çŃī
èĥ½ éĩı
åĲĮ å±ħ
åĽ½å®¶ åıĳå±ķè§ĦåĪĴ
åĬł å¿«
æķ° çļĦ
æĥħåĨµ è¿Ľè¡Į
åĲį è¯į
æľįåĬ¡ åĴĮ
çİ¯ èĬĤ
è§Ħå®ļçļĦ ç¨ĭåºı
å¼º åĮĸ
å¦Ĥæŀľ ä¸Ģä¸ª
çĹħ äºº
åıĺ éĩı
è¯Ħ è®º
æıĲåĩº ä¹¦éĿ¢
æķ´ æ²»
ç©º ä¸Ń
è®¾å¤ĩ çļĦ
is e
ç¼´ ç¨İæ¬¾
ç¼ĸ éĢł
ç¾İ å¥½
çº¢ èī²
æĤ£ æľī
æıĲèµ· è¡ĮæĶ¿è¯īè®¼
æ³¨åĨĮ çļĦ
è¡Įä½¿ èģĮæĿĥ
çĶŁäº§ç»ıèĲ¥ æ´»åĬ¨
ç¬¬ä¹Ŀåįģ ä¸īæĿ¡
ç¬¬ä¹Ŀåįģ åĽĽæĿ¡
å¤ĩæ¡Ī çļĦ
çı ł
åį±éĻ©åĮĸåŃ¦åĵģ çļĦ
ä½ľä¸ļ çļĦ
éĺ» æĮ
çľŁå®ŀ æĢ§
å¯¹å¤ĸ èģĶç³»æľºåħ³
å»ºè®¾é¡¹çĽ® çļĦ
çĻ¾åĪĨä¹ĭ äºĶåįģ
ç¥¨æį® æ³ķ
åł Ĥ
æľŁè´§äº¤æĺĵ åľºæīĢ
ä½ıå® ¿
äººåĳĺåĴĮ çĽ´æİ¥è´£ä»»äººåĳĺ
å¹¿æĴŃ çĶµè§Ĩ
æ¢¦ æĥ³
å¤Ħåįģå¹´ä»¥ä¸ĬæľīæľŁå¾ĴåĪĳ æĪĸèĢħæĹłæľŁå¾ĴåĪĳ
æķı æĦŁ
çĽĳè§Ĩ å±ħä½ı
éĢ» è¾ĳ
è°İ æĬ¥
æĢ»çļĦ æĿ¥è¯´
é¦ĸè¦ģ åĪĨåŃĲ
) .
. .
1 3
6 0
a g
f f
i al
t urn
Ċ Ġ
Ġ åĲĳ
çļĦ äºĭå®ŀ
ãĢĤ (
åĳ Ī
åĩ ī
åľ¨ æī§è¡Į
ä¸į åĪ°
å¯¹ æľīåħ³
å± ı
éĥ¨ ä»¶
æľ¬ åįķä½įçļĦ
ï¼ļ ãĢĲ
åĵ ¥
éĩį è§Ĩ
è¡¨ æł¼
æł¹æį® æľ¬æ³ķ
å¤ĸ è§Ĥ
è° ·
ä¾Ŀæ³ķ å¤ĦçĲĨ
ç»Ħç»ĩ æĪĸèĢħ
è¿Ļ æ®µ
ä¸įå¾Ĺ æĵħèĩª
éķ¿ åº¦
ä¿ĿéĻ© æłĩçļĦ
è´Łè´£ çī¹ç§įè®¾å¤ĩå®īåħ¨
æĺĵ åĪ¶
åİ¿çº§ä»¥ä¸Ĭ åľ°æĸ¹åĲĦçº§äººæ°ĳæĶ¿åºľ
çĽĳçĿ£ç®¡çĲĨ å·¥ä½ľ
æķĳ æµİ
åĶ ±
ç»´ æĿĥ
åħ¬å®ī éĥ¨éĹ¨
çłĶç©¶ åĴĮ
ç¼ĸ ç¨ĭ
ç¬¬äºĮçĻ¾ ä¸ĥåįģ
æľīæķĪ åľ°
å±ŀäºİ åĽ½å®¶
ç»ĦæĪĲ éĥ¨åĪĨ
ç´¢ åıĸ
æ¶Īè´¹èĢħ åįıä¼ļ
ç¬¬ä¹Ŀåįģ äºĮæĿ¡
æħĪåĸĦ æ³ķ
æĻ¯ çĤ¹
å±Ĥ æ¬¡
ç»¼åĲĪ èĢĥèĻĳ
éĩįçĤ¹ ä¿ĿæĬ¤
im p
å·¥ä¸ļ ä¼ģä¸ļ
çŁ³ æ²¹
çĶµåŃĲåķĨåĬ¡ ç»ıèĲ¥èĢħ
çĻ¾åĪĨä¹ĭ äºĶ
åŁºå±Ĥ äººæ°ĳæ³ķéĻ¢
ç§ĳæĬĢæĪĲæŀľ è½¬åĮĸ
ç»ĵæĿŁ åĲİ
æ´¥ è´´
éŀ ĭ
è´Łè´£çī¹ç§įè®¾å¤ĩå®īåħ¨ çĽĳçĿ£ç®¡çĲĨçļĦéĥ¨éĹ¨
£ å·¥
½ è°
Ġ çĶŁäº§
Ġ çĽĳçĿ£ç®¡çĲĨ
Ġ åĪ¶å®ļ
ķ çĸ
è¯ ½è°
æľī æľº
ä¹ İ
åĽ½ åºĵ
åħ³ å¿ĥ
ä¾ §
éĹ ²
ç« £å·¥
åı¯ä»¥ èĢĥèĻĳ
ï¼ļ (
æĪĲ å°±
åĬ¨ æľº
æ± ł
çĽĳ çĲĨ
æĬ¤ çĲĨ
æ³ķå¾ĭ çļĦ
æĦ ī
äººåĳĺ åºĶå½ĵ
åĮº åĪĨ
äº¤ äºĴ
æĶ¶ ç¼´
ä»¥ä¸ĭ åĩłä¸ª
æİ¥ ç®¡
å°Ĩ è¢«
ç¬¬ä¸Ģ æ¬¡
åŁº æľ¬æ³ķ
è°ĥ æİ§
ä¿ĿæĬ¤ çİ¯å¢ĥ
å§Ķåĳĺä¼ļ çļĦ
å°ı åŀĭ
ç¬¬äºĶ èĬĤ
çĬ¯ç½ª åĪĨåŃĲ
è¿Ŀæ³ķ ç»ıèĲ¥
å±¥è¡Į ä¸ĭåĪĹ
åħ» æĬ¤
åĸ Ŀ
éĢłæĪĲ äºĨ
æĴ Ĵ
åľŁåľ° ä½¿çĶ¨
åĸĦ æĦı
åĩı çģ¾
æĸĩåĮĸ çļĦ
äº¤æĺĵ èĢħ
äºĭæķħ åıĳçĶŁ
an ce
éĢļçŁ¥ ä¹¦
é¥ Ń
Ġp re
åħħ è¶³
å®ĮæĪĲ ä»»åĬ¡
çļĦæĿĥåĪ© åĴĮä¹īåĬ¡
çĽ®æłĩ åĴĮ
çī¹æ®Ĭ æķĻèĤ²
ä½ĵç³» å»ºè®¾
æ¾³éĹ¨ é©»åĨĽ
äººèº« èĩªçĶ±
æĺŁ æľŁ
å²¸ çº¿
çĳ ķçĸ
ä»ĵ åįķ
Ġpro v
å®ŀéĻħæİ§åĪ¶ äºº
æĹłçº¿ çĶµ
åħ¬ç§¯ éĩĳ
è¯½è° ¤
çĳķçĸ µ
o st
è ¹
Ġ æľī
ç» ķ
ä¼ Ł
æľī éĩįå¤§
åºĶ åľ¨
ä¸į è´Ł
ä¸ī çº§
å®ŀ ä½ĵ
éĩį å»º
ä¸İ æľ¬æ¡Ī
å®īåħ¨ éļĲæĤ£
æłĩ é¢ĺ
è¢« ä¾Ŀæ³ķ
æ°´ çļĦ
çĶŁäº§ å®īåħ¨äºĭæķħ
ä¸įå¾Ĺ æĭħä»»
çļĦè§Ħå®ļ å®ļç½ªå¤Ħç½ļ
éĩĩåıĸ å¿ħè¦ģçļĦ
è®¤ å®ļçļĦ
æ» ĭ
è¿½ ç´¢
çĶŁæĢģ ä¿®å¤į
åģľ çķĻ
ä»²è£ģ æ³ķ
è¯ģæį® çļĦ
éĻĦ å±ŀ
Ġp l
çķĮ éĻĲ
å°±ä¸ļ çļĦ
as t
å°½ åĬĽ
å¢ĥå¤ĸ çļĦ
ä¸ªäººä¿¡æģ¯ çļĦ
ä¸ĬçļĦ ä¾¿åĪ©
åĲĪä¼Ļä¼ģä¸ļ æ³ķ
ä¿Ŀç®¡ äºº
200 9
æ³ķå¾ĭæı´åĬ© æľºæŀĦ
çļĦä¸Ģ éĥ¨åĪĨ
ä¸°å¯Į çļĦ
å»ºè®¾çĶ¨åľ° ä½¿çĶ¨æĿĥ
å¤ªéĺ³ èĥ½
ä¸ºåħ¶ æıĲä¾Ľ
æ°ĳæĹıèĩªæ²»åľ°æĸ¹çļĦ èĩªæ²»æľºåħ³
å§Ķåĳĺéķ¿ ä¼ļè®®
çĦ¦ èĻĳ
å·¦ åı³
ä¸ªäººä¿¡æģ¯å¤ĦçĲĨ èĢħ
æŀĦçŃĳ çī©
ç· ´
ä¾Ŀçħ§åĪĳæ³ķæľīåħ³è§Ħå®ļ è¿½ç©¶åĪĳäºĭè´£ä»»
" ,
u c
u st
è Ŀ
Ġ J
çļĦ åĪ©çĽĬ
å®ļ ä½į
ä¸Ģ å¹¶
æĪĸèĢħ åĽł
åľ¨ å¤ĦçĲĨ
åľ¨ åĲĦèĩªèģĮè´£èĮĥåĽ´åĨħ
åħ¬ å¾·
ä½ľ çī©
æŃ ī
å®¶ éķ¿
æľ¬ ç¤¾
çī© é¡¹
çī© æµģ
åĲĮ æł·
åĽ½å®¶ æĶ¯æĮģ
æľīåħ³ æĥħåĨµ
æŁ¥ æī¾
è° ±
çĻ¾ åħĥ
è´£ä»» äºº
è´£ä»» åĪ¶
æĹ¥ ç¬¬ä¹Ŀ
ä¸įå¾Ĺ æįŁå®³
èĢĮ æĺ¯
åħ¨åĽ½ æĢ§
ä¸ŃåĽ½ çī¹èī²
æ²¡æľī çº¦å®ļæĪĸèĢħ
åħį å¾ģ
åĭ ķ
åħ¬å®ī éĥ¨
éĻĦ ä»¶
éĽĨä½ĵ æīĢæľī
ou t
åĽ¾ æ¡Ī
æ¨¡ æĭŁ
åĽ½éĻħ åĲĪä½ľ
æ¢ ¯
ä¸ªäººä¿¡æģ¯ ä¿ĿæĬ¤
ä¾µçĬ¯ çļĦ
ä¼ĳ åģĩ
Ġre s
ä¸Ĭçº§ æľºåħ³
ç¤¾åĮºçŁ«æŃ£ æľºæŀĦ
Ġst r
ct ion
em ent
åľ¨ä¸Ńåįİäººæ°ĳåħ±åĴĮåĽ½ å¢ĥåĨħ
åħ¨æ°ĳ æīĢæľīåĪ¶
ä¸Ńåįİæ°ĳæĹı åħ±åĲĮä½ĵ
ä¸ĩåħĥä»¥ä¸ĬäºĶ çĻ¾
æł¹æį®çĽ¸åħ³ æ³ķå¾ĭè§Ħå®ļ
çĥŁèįī ä¸ĵåįĸ
åľ°çĲĨ ä¿¡æģ¯
éĩİçĶŁåĬ¨çī©ä¿ĿæĬ¤ ä¸»ç®¡éĥ¨éĹ¨
åľ°å½¹ æĿĥ
åĴĮè° Ĳ
Â ł
Ġ åķĨä¸ļéĵ¶è¡Į
Ġ åĲĦçº§
åħ °
åĴĮ æ²»çĸĹ
åĴĮ æĮĳæĪĺ
æľī æĿ¡ä»¶çļĦ
ä¸Ģ æĹ¦
åºĶ çĶ±
æł ĸ
æĪĸèĢħ åĲĬéĶĢ
çī ¢
æİ ©
ä¸ĭ ä¸Ģ
çĶ± æµ·åħ³
åıĬ çĽ¸åħ³
æ¡ ¥
æĹ¥ ç¬¬åħ«
ä»¥ä¸ĭ ç®Ģç§°
è¿Ļ åı¥è¯Ŀ
æıĲä¾Ľ ä¸ĢäºĽ
æıĲä¾Ľ ä¾¿åĪ©
æ°´ ä½ĵ
æĤ Ķ
ç¬¬äºĶ é¡¹
æľĢ ä½³
é¢Ĩ åľŁ
æī¹åĩĨ æĪĸèĢħ
å¥³ æĸ¹
èŃ¦ è¡Ķ
er m
æĹ¶éĹ´ çļĦ
æĹ¶éĹ´ ç®¡çĲĨ
èĭ ı
åĢºåĬ¡ æĪĸèĢħ
éĢĢ ä¼Ļ
å©ļ åīį
è¯Ń æ³ķ
ä¸ĵä¸ļ äººåĳĺ
æ°ĳäºĭ ä¸»ä½ĵ
å®ĺ åĳĺ
åıĳçİ° çļĦ
åħ¬å®īæľºåħ³ äº¤éĢļç®¡çĲĨéĥ¨éĹ¨
è¡Įä¸ļ æłĩåĩĨ
åĽ½éĻħ ç»Ħç»ĩ
Ġd e
å°½ åı¯èĥ½
å°½ å¿«
æĬ¢ æķĳ
ä¸ĸçķĮ ä¸Ĭ
æ¿ Ĵ
ä»İèĢĮ æıĲé«ĺ
ä¹°åįĸ åĲĪåĲĮ
éĹŃ ä¼ļæľŁéĹ´
åĲĳç¤¾ä¼ļ åħ¬å¼Ģ
ä»ĺæ¬¾ äºº
æĥ© æĪĴ
åĬ³åĬ¨äºīè®® è°ĥè§£
åĻªå£° æ±¡æŁĵéĺ²æ²»
åĬ¨æ¤įçī© æ£Ģçĸ«
æİĪæĿĥçļĦ éĥ¨éĹ¨
æĽ¿ ä»£
æĹ¥ç¬¬åįģä¸Ģ å±Ĭåħ¨åĽ½äººæ°ĳä»£è¡¨å¤§ä¼ļå¸¸åĬ¡å§Ķåĳĺä¼ļç¬¬åįģ
3 00
A P
t imes
äºº ä¸º
åĴĮ äºĭå®ŀ
åĽ½ å¾½
æķ ¬
ä¿Ŀ åħ»
å¯¹ åºĶ
å¯¹ å¾ħ
åħ¬ æ¬¾
äºĮ äºº
ä¸Ĭ éĿ¢
æĭ Į
æľ¬ åħ¬åı¸
æĥ Ĭ
çĶ± æŃ¤
åıĸ åĨ³
æĪĳ åĢĳ
å§Ķ ä¼ļ
å®īåħ¨ é£İéĻ©
æģ Ĵ
è®¡ ç¨İ
ç§į æĹı
éľĢè¦ģ åľ¨
æıĲä¾Ľ çĽ¸åħ³
é«ĺ åħ´
åıį çĶµä¿¡ç½ĳç»ľè¯ĪéªĹ
æ°´ äº§
åķĨ çĶ¨
æĹł æĿĥ
å¤± è¸ª
å±¥è¡Į åĩºèµĦäºº
å¹³ æĸ¹
æī¿æĭħ ä¾µæĿĥè´£ä»»
æ» ĳ
åĮ»çĸĹ ä¿Ŀåģ¥
æĴ ĳ
ä¾µ åħ¥
åģ¥åº· åĴĮ
è¯´ æ³ķ
Ġs o
èĪ¹èĪ¶ æīĢæľīäºº
éĥ½ ä¼ļ
å¿ħé¡» ç¬¦åĲĪ
åºĶè¯¥ å¦Ĥä½ķ
å¤ĦäºĶ å¹´ä»¥ä¸ĬæľīæľŁå¾ĴåĪĳ
å®īåħ¨çĶŁäº§ çĽĳçĿ£ç®¡çĲĨèģĮè´£çļĦéĥ¨éĹ¨
åı¦æľī çº¦å®ļ
ä¼ĺåħĪ æĿĥ
æ¯ģ çģŃ
æ®ĭçĸ¾äºº ä¿Ŀéļľæ³ķ
è´Łæľī å®īåħ¨çĶŁäº§çĽĳçĿ£ç®¡çĲĨèģĮè´£çļĦéĥ¨éĹ¨
éĩİçĶŁåĬ¨çī© åıĬåħ¶
åħ³éĶ® ä¿¡æģ¯
å¯¹çĽ´æİ¥è´Łè´£çļĦä¸»ç®¡äººåĳĺåĴĮåħ¶ä»ĸçĽ´æİ¥è´£ä»»äººåĳĺ ç»ĻäºĪèŃ¦åĳĬ
ä¸įè¶³ ä»¥
201 5
201 7
ç¼ĵ è§£
çī¹çĤ¹ åĴĮ
è¿ĩéĶĻ çļĦ
åŃ£ èĬĤ
åĽºä½ĵåºŁçī© æ±¡æŁĵçİ¯å¢ĥ
åĢĻéĢī äººçļĦ
çĵ ľ
åıįæ´ĹéĴ± è¡ĮæĶ¿ä¸»ç®¡éĥ¨éĹ¨
æķĻèĤ²åĴĮ åŁ¹è®Ń
Ġnum ber
è¯ŃéŁ³ è¯ĨåĪ«
è² Į
çĪ±åĽ½ä¸»ä¹ī æķĻèĤ²
ç§ĺä¹¦ éķ¿
èļ Ģ
åŃĹç¬¦ ä¸²
åĨĽäºĭç¦ģ åĮº
åıĸåĨ³ äºİ
a il
c c
k s
r t
½ åĬ¨
è ³
Ġ æµ·åħ³
ï¼ į
çļĦ å½ĵäºĭäºº
çļĦ åħ¬æ°ĳ
çļĦ åķĨåĵģ
æ³ ³
è´ ©
çĽ ¾
æ°ĳ éĹ´
åĩ Ŀ
æĪĸèĢħ ä¸İ
æĪĸèĢħ ç»Ħç»ĩ
åºĶå½ĵ ä¾Ŀçħ§æ³ķå¾ĭ
å¼ Ħ
èµ ŀ
åħ¬ çĶ¨
åı¯ä»¥ å»¶éķ¿
æĸ¹ ç¨ĭ
çŃī å¾ħ
æ¬ £
çİ ī
çħ ½åĬ¨
è¯· ä½ł
å¥ ¸
é¡ ¶
åĨħ å¿ĥ
å¤ĸ æ±ĩ
åıĹ å®³
å®īåħ¨ æĢ§
ç¡ ¬
æĦı åĽ¾
ç§į çķľç¦½
åħ¬åı¸ åľ¨
å°ı åŃ¦
æĿ¥ ç¡®å®ļ
åİŁ æľī
çĶµ ç½ĳ
ç¬¬åĽĽ é¡¹
è´¨ æĿĥ
åĲĦ æ°ĳæĹı
æĽ´ æĶ¹
éĢĤ é¾Ħ
äººçļĦ å§ĵåĲį
çļĦè§Ħå®ļ æī§è¡Į
åĿ ¡
çĤ ī
ä¿ĿéĻ© åĲĪåĲĮ
åĵį åºĶ
å°± åĮ»
è¯·æ±Ĥ ä¹¦
çĻ»è®° æľºæŀĦ
æķĳ æĬ¤
åĻ¨ æ¢°
èµĦæºĲ ä¿ĿæĬ¤
æ²¡æľī è§Ħå®ļçļĦ
ç¨ĭåºı çļĦ
âĢĿ ãĢģâĢľ
æ»¡ æĦı
éĴ ¢
åĢ¼ å¾Ĺ
ä»»ä½ķ åįķä½įæĪĸèĢħä¸ªäºº
ç¼ĸ è¾ĳ
å¹¶å¤Ħ ä¸Ģ
éģĹ å¤±
è¯ģæĺİ æĿĲæĸĻ
ç¦ģæŃ¢ åľ¨
çĶ±åĽ½åĬ¡éĻ¢ è§Ħå®ļ
æī¿åĮħ åľ°
çķĮ åĪ«
åıĤä¸İ äºº
ar y
æ¬¡ä¼ļè®® ä¿®è®¢
ç¦»å©ļ åįıè®®
é¦Ļæ¸¯ é©»åĨĽ
èĻļ æĭŁ
è´¢æĶ¿ é¢Ħç®Ĺ
ç®Ģ æ´ģ
ç¬¬ä¹Ŀåįģ äºĶæĿ¡
èģĮä¸ļçĹħ è¯ĬæĸŃ
åī¯ ä¸»ä»»
å¤«å¦» åıĮæĸ¹
åıĳè¡Į äºº
æļĤ æĹ¶
ot h
åı¬ åĽŀ
èģĶåĲĪ åĽ½
èģĶåĲĪ ç¤¾
åķĨæłĩ æ³¨åĨĮ
å¤ļç§į å½¢å¼ı
åħ»èĢģ æľºæŀĦ
éĤ®æĶ¿ ç®¡çĲĨéĥ¨éĹ¨
çĽĹ ä¼Ĳ
é¡º åĪ©
æŃ¦åĻ¨ è£ħå¤ĩ
æĢĢ åŃķ
çĮİ æįķ
åĲ¯ åĬ¨
æ© Ļ
æĶ¶è´§ äºº
çĶµåŃĲè®¤è¯ģ æľįåĬ¡æıĲä¾ĽèĢħ
è¯ģåĪ¸çĻ»è®° ç»ĵç®ĹæľºæŀĦ
å¼¥ è¡¥
éĺ»æĮ ł
o x
r y
Ġ AI
çļĦ èµĦéĩĳ
çļĦ ä»·æł¼
å® Ļ
ä¸Ģ æł·
åĽ½ æŃĮ
æĪĸèĢħ ä¾Ŀæ³ķ
åľ¨ æľ¬
èµ İ
äººæ°ĳ åĽ¢ä½ĵ
åı¯ä»¥ è¢«
åĬ¨ ä½ľ
åĬ¨ åĬĽ
ç»Ħ åĲĪ
äººåĳĺ åľ¨
åĮº åĿĹ
æľª åľ¨
æĸĩ çī©çļĦ
ä¾Ŀæ³ķ æī¿æĭħæ°ĳäºĭè´£ä»»
æĬ¥ æ¡Ī
çŁ Ľ
ç¬¬ä¸ī æĸ¹
ç¬¬ä¸Ģ ä¸ª
éĩı åĪĳ
ç³ ķ
çŁ¥ æĥħ
éĩĩåıĸ çļĦ
ä¸Ńåįİäººæ°ĳåħ±åĴĮåĽ½ åĪĳæ³ķ
åı¯èĥ½ éĢłæĪĲ
åĶ Ĩ
ä¼ĺ çĤ¹
æĿĥçĽĬ çļĦ
å¼ķ è¿Ľ
å¼ķ è¯±
è´¨éĩı åĴĮ
çĶŁæ´» æĸ¹å¼ı
çĶŁæ´» ä¿Ŀéļľ
ä¸ĩåħĥä»¥ä¸Ĭ ä¸īåįģ
å®ŀéĻħ æī¿è¿Ĳäºº
æĺ¯ä¸Ģ ä½į
è½½ è¿Ĳ
åĲĮæĦı åĲİ
æľªç»ı è®¸åı¯
ä¸Ģæĸ¹ å½ĵäºĭäºº
éĤ® å¯Ħ
å¦ĩå¥³ æĿĥçĽĬä¿Ŀéļľæ³ķ
ç²¾ç¥ŀ åį«çĶŁ
åŁİå¸Ĥ çļĦ
ç»¼åĲĪ æ²»çĲĨ
åĿļæĮģ ä¸ŃåĽ½åħ±äº§åħļ
å¤«å¦» ä¸Ģæĸ¹
æ¼Ķ ç»ĥ
ç¬¬ä¸ĢçĻ¾éĽ¶ ä¸ĢæĿ¡
å¾Ģ å¾Ģ
æĬ¢ éĻ©
ç¬¬ä¸īçĻ¾ éĽ¶
åĨľæ°ĳä¸ĵä¸ļåĲĪä½ľç¤¾ æ³ķ
æłĳ ç«ĭ
çªģåıĳäºĭä»¶ åºĶå¯¹
am e
åģļåĩº çªģåĩºè´¡çĮ®
çªĥ åıĸ
æľ¬çº§ é¢Ħç®Ĺ
æľīè¶£ çļĦ
è®¿ éĹ®
åıĹéĽĩ äºº
çŁ¿ä¸ļ æĿĥ
åĽ½åľŁç©ºéĹ´ è§ĦåĪĴ
ä¸¢ å¤±
å®ĩ å®Ļ
çķľçī§ ä¸ļ
æłĸ æģ¯
åķĨçĶ¨ å¯Ĩçłģ
) ,
Ġ éĻ¤
çļĦ æľºåħ³
åħ Ħ
ãĢĤ "
åĪ ĺ
æī ĳ
ä¸Ģ ç«ł
åĩ Į
æĪĸèĢħ çĽĸç«ł
åľ¨ äºİ
åľ¨ ä¸Ģä¸ª
ä¸į éĢĤçĶ¨
å° ¤
å¯¹ è´Łæľīè´£ä»»çļĦ
æĺ¯ ä¸ŃåĽ½
ä¸ĭ éĻį
èĩª è¯ī
çĶ± æľīåħ³
æ³ķå¾ĭ åĴĮ
æľª ä¾Ŀçħ§æľ¬æ³ķè§Ħå®ļ
è¿Ľè¡Į è¯Ħä¼°
åĲĳ æ³ķéĻ¢
æĬ¥ åħ³
å±ķ è§Ī
ä»£è¡¨ ä¼ļè®®
æĮīçħ§ æľīåħ³è§Ħå®ļ
çī¹ æĢ§
å°ı çļĦ
æĮĩ æ´¾
å¼º è¡Į
å¦Ĥæŀľ å°ıæĺİ
å¤± åİ»
èī ĺ
ä¸Ńåįİäººæ°ĳåħ±åĴĮåĽ½ æ°ĳæ³ķåħ¸
åºı åĪĹ
å±¥è¡Į åĲĪåĲĮ
Ġa b
åı¯èĥ½ çļĦ
ç»ĻäºĪ å¤ĦåĪĨ
èµĶåģ¿ éĩĳ
çĻ»è®° è¯ģä¹¦
åĮ»çĸĹ è´¹çĶ¨
æ¸ħ çĲĨ
çľģ çº§ä»¥ä¸Ĭäººæ°ĳæĶ¿åºľ
æĥħèĬĤ è½»
åı¦ ä¸Ģä¸ª
è§Ĥ ä¼Ĺ
it ion
æ¯į äº²
å¤Ħç½® æİªæĸ½
ç»ĦæĪĲ çļĦ
çº³ç¨İ æ¬¾
æĳ ©
åĿĩ åĮĢ
äººç±» çļĦ
é«ĺçº§ ç®¡çĲĨ
è®¢ç«ĭ åĲĪåĲĮ
ä¸Ĭçº§ äººæ°ĳæ³ķéĻ¢
çŁŃ è¯Ń
çķľç¦½ éģĹä¼łèµĦæºĲ
æĥ© æ²»
çļĦäººæ°ĳä»£è¡¨å¤§ä¼ļ å¸¸åĬ¡å§Ķåĳĺä¼ļ
__ __
å©´ å¹¼åĦ¿
åĪ©çĶ¨èģĮåĬ¡ ä¸ĬçļĦä¾¿åĪ©
å¸Ĥè¾ĸ åĮº
ç¢° æĴŀ
é½ Ĳ
æ¿Ĵ åį±
çŁĽ çĽ¾
è ķ
Ġ ãĢĬ
Ġ åĨĽå®ĺ
çļĦ çİ¯å¢ĥ
çļĦ æī¹åĩĨ
ãĢĤ ï¼Ī
åĴĮ éĩįè¦ģ
åĴĮ å¥ĸåĬ±
ä¸į åŃĺåľ¨
åºĶå½ĵ éĩĩçĶ¨
å¯¹ æľī
ç»ı çºª
ä¸ª å·¥ä½ľ
çī© çĲĨ
å¹¶ æİ¥åıĹ
å¤§ æķ°æį®
è¯· åĳĬè¯īæĪĳ
æ³ķå¾ĭ è§Ħå®ļçļĦåħ¶ä»ĸ
è¡ĮæĶ¿ è¯īè®¼æ³ķ
åıĹ èµł
ä¾Ŀæ³ķ å¼Ģå±ķ
ä¾Ŀæ³ķ äºĪä»¥
æ¡Ī æĥħ
ä¾Ľ åħ»
è¢« æĭĲåįĸ
éĺ² æ²Ļ
éĽ ª
åŁº åĽł
åĨľ çĶ¨åľ°
åİŁ å®¡äººæ°ĳæ³ķéĻ¢
ä»İ åħ¶è§Ħå®ļ
æķĪ èĥ½
çĹħ æ¯Ĵ
æĤ¨ å¥½
èµĶåģ¿ ä¹īåĬ¡
èŃ¦ æĬ¥
åľŁåľ° ç»ıèĲ¥æĿĥ
è¿½ ç¼´
çĶŁæĢģ åĬŁèĥ½
å² ©
èįī èİĵ
åĨħå®¹ çļĦ
å¹¶å¤Ħ äºĮ
ç»Ī èº«
å±Ĭ åħ¨åĽ½äººæ°ĳä»£è¡¨å¤§ä¼ļ
çŁ¿ åĮº
äººåºĶå½ĵ åĲĳ
ç³»ç»Ł çļĦ
åĽłä¸º å®ĥ
åįıåķĨ è§£åĨ³
é¦Ļæ¸¯çī¹åĪ«è¡ĮæĶ¿åĮº æĶ¿åºľ
æ¯ģ åĿı
ç®¡è¾ĸ æĿĥçļĦ
ç®¡åĪ¶ æĪĸèĢħ
æĬµæĬ¼ æĿĥäºº
èĤ¡ä»½ çļĦ
èĩªåĬ¨ é©¾é©¶
æĶ¾å°ĦæĢ§ åºŁçī©
åĸľæ¬¢ çļĦ
ä¼łç»Ł æĸĩåĮĸ
è¾ĵåħ¥ çļĦ
æīĢéľĢ è´¹çĶ¨çĶ±
è¾¾æĪĲ åįıè®®
ç§Łèµģ åĲĪåĲĮ
if ic
å®¶åºŃæķĻèĤ² æĮĩå¯¼
åĨľæĿĳåľŁåľ°æī¿åĮħ ç»ıèĲ¥
åĨľæĿĳåľŁåľ°æī¿åĮħ ä»²è£ģå§Ķåĳĺä¼ļ
åı¯ä»¥åĲĳäººæ°ĳæ³ķéĻ¢ æıĲèµ·è¯īè®¼
åºĶçº³ç¨İ é¢Ŀ
çº¦æĿŁ åĬĽ
é¥®çĶ¨æ°´ æ°´æºĲ
ä¸Ĭä¸ĭ æĸĩ
åıįæģĲæĢĸä¸»ä¹ī å·¥ä½ľ
åĨľä¸ļçĶŁäº§ç»ıèĲ¥ ç»Ħç»ĩ
éĺ²æ²Ļ æ²»æ²Ļ
çļĦ åĲĪæ³ķ
çļĦ ä¸»é¢ĺ
è¡Į æĿ¡ä¾ĭ
æĬ ±
åºĶå½ĵ å»ºç«ĭåģ¥åħ¨
å¯¹ æīĢ
å± ł
æĺ¯ ä¸ºäºĨ
ç»ı å®¡æŁ¥
å¤Ħ äºĶåįģ
å¹¶ éĢļçŁ¥
èĤ Į
å¿ Ĩ
çĽ¸ æĬµè§¦
è¢« ä¿ĿéĻ©
ãĢĭ ãĢĤ
èĲ¥ éĢł
ä¼ģä¸ļ æĪĸèĢħåħ¶ä»ĸ
æĹł éĻĲ
æľĢ éķ¿
è´Łè´£ ç®¡çĲĨ
è´Łè´£ åħ¨åĽ½
åŃĺ è´§
æĺĵ çĪĨ
æĿĳ åºĦ
æĢ» æĺ¯
æł¸ å®ļ
æł¸ äºĭæķħ
ç»ıæµİ æįŁå¤±
åı¯èĥ½ å¯¼èĩ´
æĿĥåĪ© ä¹īåĬ¡
è¯ģåĪ¸ çļĦ
çģ Į
çĥ ¹
åĩı åħį
æ¯ı æ¬¡
èĮĥåĽ´ çļĦ
ç§ĳåŃ¦ å®¶
åĬ¨çī© éĺ²çĸ«
è®¡ç®Ĺ åįķä½į
èĩ³ äºİ
ç¾İ å¥½çļĦ
é¢ĨåŁŁ åĨħ
éĽĨä½ĵ åĲĪåĲĮ
è½¬è®© çļĦ
èµĶåģ¿è´£ä»» éĻĲåĪ¶
åºĶå½ĵåıĬæĹ¶ éĢļçŁ¥
é¢Ĩå¯¼ äººåĳĺåĴĮçĽ´æİ¥è´£ä»»äººåĳĺ
åĳ¨ æľŁ
å¯¹åħ¶ è¿Ľè¡Į
èº«ä»½ ä¿¡æģ¯
ç®¡è¾ĸ çļĦ
éī´å®ļ æĦıè§ģ
ä¼ªéĢł çļĦ
iv en
é»ĳ ç¤¾ä¼ļ
æ¸ħç®Ĺ ç»Ħ
èĥĮ ä¹¦
æ»¥ ä¼Ĳ
éĿĴ å°ĳå¹´
éĢĢå½¹åĨĽäºº å·¥ä½ľä¸»ç®¡éĥ¨éĹ¨
æĵįä½ľ è§Ħç¨ĭ
å®Įæķ´ çļĦ
éĢłæĪĲçļĦ æįŁå¤±
Ġyou r
ä¸ĩåħĥä»¥ä¸ĬäºĶ ä¸ĩåħĥä»¥ä¸ĭçļĦç½ļæ¬¾
æ¯ıä¸ªäºº éĥ½
èľ Ĥ
åħ½ åĮ»
é«ĺè´¨éĩı åıĳå±ķ
ä¼ģä¸ļäºĭä¸ļ ç»Ħç»ĩ
è¡į çĶŁ
äºı æįŁ
æ²¡æľīçº¦å®ļæĪĸèĢħ çº¦å®ļä¸į
T o
n e
n swer
ã Ĥ
Ġ [
Ġ ä¾Ŀæ³ķ
ä¸ ģ
çļĦ èģĮè´£
çļĦ åĨ³è®®
äºº çī©
åį Ī
åº Ĩ
åľ Ĩ
åĴĮ é£İéĻ©
åĴĮ ç²¾ç¥ŀ
æľī è´£ä»»
åįģ åĢįä»¥ä¸ĭçļĦç½ļæ¬¾
çĽ Ľ
çĶ¨ æĿ¥
æĪĸèĢħ ç»ĪæŃ¢
ä¸į æĺİ
äºĭ åĲİ
ä¸Ń æĸŃ
åľ° éĿ¢
åħ¨ ç¤¾ä¼ļ
åĲĮ æŃ¥
èĩª è§ī
è®® åĳĺ
æĪĳ å¾Ī
å¼Ģ è®¾
å¼Ģ åŀ¦
æĺİ ç¤º
ä¾Ŀæ³ķ è¿Ľè¡Į
æĬ¥ åºŁ
ä¹ĭ å¤Ħ
ä»¥ä¸ĭ åĩł
çī¹ åĮº
åıį éĹ´è°į
è¯¥ é¡¹
éĩı åŃĲ
åħ¥ åŃ¦
çĶŁäº§ çļĦ
åĲį åĨĮ
ä¿¡æģ¯ æĬĢæľ¯
åĨĽ å£«
å¦Ĥæŀľ æĺ¯
ä¸Ńåįİäººæ°ĳåħ±åĴĮåĽ½ ç¼Ķç»ĵæĪĸèĢħ
å®ŀæĸ½ çĽĳçĿ£ç®¡çĲĨ
å±¥è¡Į ä¹īåĬ¡
æĢ» åĲ¨
æł¸ ç®Ĺ
ç»ĻäºĪ å¥ĸåĬ±
åıĳçĶŁ æķĪåĬĽ
åħ¬åħ± ç§©åºı
èģĮä¸ļ åģ¥åº·
èģĮä¸ļ éģĵå¾·
ä½ľåĩº å¤ĦçĲĨ
è¿½ åĽŀ
ä»»ä½ķ äºº
å¸Ĥåľº çļĦ
äººå·¥æĻºèĥ½ åľ¨
å¿ħé¡» ç»ı
é» ĺ
åľºæīĢ åĴĮ
äºĴ åĬ¨
å±ħæ°ĳ æµ·å²Ľ
çĽĳæĬ¤ äººåºĶå½ĵ
å¼ºåĪ¶ ä»¤
äºĭå®ŀ çļĦ
å£« åħµ
çĽ®çļĦ åľ°
æĭĽ èģĺ
èĢĥèĻĳ åĪ°
å°½ ç®¡
çĬ¶åĨµ åĴĮ
æĬĢèĥ½ åĴĮ
éģĵè·¯ äº¤éĢļå®īåħ¨
å±ħä½ı åľ°
éĺ²æĬ¤ æİªæĸ½
æŃ¦è£ħ åĬĽéĩı
æ¹¿åľ° ä¿ĿæĬ¤
æĸ°éĹ» åªĴä½ĵ
ç¬¬äºĮæ¬¾ è§Ħå®ļ
ä¸įæ»¡ åįģ
æĸĹ æ®´
çī©ä¸ļæľįåĬ¡ äºº
åŃ¦åīį åĦ¿ç«¥
çĹĩ çĬ¶
Ġwh ich
ä¸īåĪĨä¹ĭäºĮ ä»¥ä¸Ĭ
è¢«è¯·æ±Ĥå¼ķæ¸¡ äºº
æĹłå®³åĮĸ å¤ĦçĲĨ
2 2
: **
I n
t her
Ġ ì
Ġ çļĦ
Ġ çº³ç¨İäºº
äº ķ
çļĦ å·¥èµĦ
å® °
åĪ Ģ
æľī è´¢äº§
æľī æ²¡æľī
æľī éĴĪå¯¹
ä¹ Ķ
åĽ½ å¤ĸ
ä¸į ç¬¦
åħ¶ åľ¨
å¯¹ çİ¯å¢ĥ
åħ¬ ç§ģ
ä½ľ åģĩ
åı¯ä»¥ ä¸İ
å®¶ éĩĮ
æĭ ¦
æľ¬ èĬĤ
åĩº åıĳ
å¹¶ ç»Ħç»ĩå®ŀæĸ½
å¦ ¹
å·¥ä½ľ èĢħ
æ¸ Ĺ
åıĹ è®©äºº
åįķä½į çĬ¯åīįæ¬¾ç½ªçļĦ
åĬł ä»¥
åĲİ åĭ¤
è¢« æĴ¤éĶĢ
æķ° ç½ª
ç¬¬åįģ ä¸Ģç«ł
æĿ¥ å®ŀçİ°
ä¹¦ ç±į
éĢĤ æĹ¶
åĨ³å®ļ æĺ¯åĲ¦
ä¸Ńåįİäººæ°ĳåħ±åĴĮåĽ½ çļĦ
in al
ç¬¦ åı·
æĿ¡ä»¶ ä¸ĭ
æĪ· ç±į
åŁºéĩĳ åĲĪåĲĮ
çģ °
åıĬæĹ¶ åĲĳ
ä¸ŃåĽ½ å¢ĥåĨħ
æĶ¯ä»ĺ æĬ¥éħ¬
åĬ¨çī© äº§åĵģ
è§Ĥ å¿µ
ç¼ĸ åı·
éģĹ æ¼ı
ç¾İ åħĥ
ç§ģ åĪĨ
ä»»åĬ¡ åĴĮ
æľīæķĪ æľŁ
ing s
æī£ çķĻ
ç¦»å©ļ è¯īè®¼
è¡Įä¸ļ ç»Ħç»ĩ
è¯¯ è§£
ç¬¬ä¹Ŀåįģ åħ«æĿ¡
ç¬¬ä¹Ŀåįģ ä¹ĿæĿ¡
çĸ¾çĹħ çļĦ
åĩºèµĦ é¢Ŀ
éľĢæ±Ĥ åĴĮ
æŃ£å¸¸ è¿Ĳè¡Į
çŃĶæ¡Ī æĺ¯
çĦ¶åĲİ åĨį
åŁºå±Ĥ ç¾¤ä¼ĹæĢ§
åľŁå£¤ æ±¡æŁĵéĺ²æ²»
åºĶå½ĵéģµå®Ī æ³ķå¾ĭ
æĹ¥å¸¸ çĶŁæ´»
åĢĴ åįĸ
åĢŁæ¬¾ äºº
åħ¬è¯ģ æľºæŀĦ
å®¢è§Ĥ æĸ¹éĿ¢
åıĳåĮħ æĸ¹
å©´ åĦ¿
çĹħåİŁ å¾®çĶŁçī©
è¾¹éĺ² æ£ĢæŁ¥
æĮ¯ åħ´
éĢłæĪĲä»ĸäºº æįŁå®³çļĦ
æ°Ľ åĽ´
èµĶåģ¿ä¹īåĬ¡ æľºåħ³
åŁºå±Ĥç¾¤ä¼ĹæĢ§ èĩªæ²»
( )
a pp
Ġ U
Ġ èį¯åĵģ
çļĦ è´¢çī©
çļĦ åľ°æĸ¹åĲĦçº§äººæ°ĳä»£è¡¨å¤§ä¼ļ
å® ħ
åĴĮ æķĻèĤ²
åĴĮ æłĩåĩĨ
åĴĮ ä¸Ńå¤®åĨĽäºĭå§Ķåĳĺä¼ļ
èĢ ³
æľī å¼Ĥè®®çļĦ
æĪĸèĢħ ç»ı
å¯¹ æīĭ
å¯¹ ä¸įç¬¦åĲĪ
ï¼Ľ (
åľ° è´¨
éĥ¨ ç½²
æı Ń
åı¯ä»¥ ä¸į
åı¯ä»¥ ä¸º
åı¯ä»¥ ä¾Ŀçħ§
å®¶ åħ·
æıĲ éĨĴ
çŃī éĹ®é¢ĺ
åŁ ĭ
æĹ¶ æľŁ
äºĶ å¹´åĨħ
åĪ© çİĩ
èģĮ ç§°
è¡ĮæĶ¿ æī§æ³ķ
åįķ è¯ģ
å¢ Ļ
æĪĳ æĺ¯
æĪĳ éľĢè¦ģ
äº¤ å¾Ģ
åıĹ æķĻèĤ²
å¼Ģ å·¥
å¼Ģ ç«ĭ
ä»¥ä¸ĭ æŃ¥éª¤
æĶ¯ åĩºçļĦ
åľº åĲĪ
æĬĢæľ¯ æłĩåĩĨ
åĪĴ æĭ¨
æĸ° é²ľ
çĽ¸åħ³ ä¸ļåĬ¡
çĬ¯ç½ª æīĢå¾Ĺ
æľĢ å¤§çļĦ
æī¿æĭħ ä¿Ŀè¯ģ
æł¸ éªĮ
ä¸¥éĩį åį±å®³
ä¸ĭåĪĹ è§Ħå®ļ
åĬ³åĬ¨ åħ³ç³»
æ±¡æŁĵ çļĦ
åĲ¦ åĪĻ
çłĶ åĪ¶
åĪĳäºĭ è¯īè®¼
æķ°æį® åºĵ
éĩįå¤§ æįŁå¤±
éĢģ äº¤
ç¥ŀ ç§ĺ
åħ¬å¼Ģ åĭŁæįĲ
éĢīä¸¾ äº§çĶŁ
é¦Ĩ èĹı
Ġd o
èĻļ ä½ľåģĩ
è´¦ åı·
æĳ ĩ
å¿« ä¹Ĳ
äºĭåĬ¡ çļĦ
æ±ĩ æ¬¾
ä¿¡æīĺ çļĦ
æ¸Ķ æĶ¿
ç§¯æŀģ åıĤä¸İ
èĻļåģĩ çļĦ
ç¬¬ä¸ĢçĻ¾éĽ¶ ä¹ĿæĿ¡
Ġl ike
æµ·åŁŁ ä½¿çĶ¨
åĽ½å®¶ç§ĺå¯Ĩ çļĦ
åĭĺ éªĮ
éĺ²èĮĥ åĴĮ
çļĦéĩįè¦ģ æĢ§
Ġcon t
éĺŁä¼į å»ºè®¾
æł¸å®īåħ¨ çĽĳçĿ£ç®¡çĲĨéĥ¨éĹ¨
é¥² æĸĻ
åºĶå½ĵåħ·å¤ĩ ä¸ĭåĪĹæĿ¡ä»¶
åĭĩ æ°Ķ
è´¨è¯¢ æ¡Ī
å®¡æŁ¥åĴĮ æī¹åĩĨ
è¯ŃçļĦ åĲ«ä¹ī
åıįåŀĦæĸŃ æī§æ³ķæľºæŀĦ
æ¯ıå±Ĭ ä»»æľŁ
å¼Ħ èĻļä½ľåģĩ
é ĸ
Ġ /
Ġ æ³ķå¾ĭ
Ġ åħ¬åĬ¡åĳĺ
çļĦ çĶ³è¯·
çļĦ æķ°éĩı
ä» ¿
çĶ ĺ
æ³ ½
æ° ¢
æī ®
ä¸į åĩĨ
ä¸į ä¸Ģèĩ´
åºĶå½ĵ åįıåĬ©
çŃ Ľ
å¯¹ ä¸ªäºº
åľ° åŁŁ
ä¸Ĭ ç¼´
æľ¬ éĻ¢
æĹ¶ å°ļ
åĽ½å®¶ çĽĳå¯Łå§Ķåĳĺä¼ļ
çĶ± åİŁ
å®ŀ çļĦ
éģ Ĥ
è¿ĩ å¢ĥ
ä»¥ä¸Ĭ æĺ¯
åī ª
åĲĳ åĽ½åĬ¡éĻ¢
è¢« çĽĳæĬ¤äºº
ä»¥ä¸ĭ éĻĪè¿°
ç¤¾ä¼ļ åħ¬å¾·
åħ¬åı¸ åĢºåĪ¸
å°ı åįİ
ä¸įå¾Ĺ å°Ĩ
ä¿¡æģ¯ æĬ«éľ²
æĭħ è´Ł
åĪĹ å¸Ń
è®° åħ¥
çº¦ è°Ī
éĢī åĮº
éĩĩåıĸ çĽ¸åºĶçļĦ
æŃ¤ æĹ¶
ä¸Ńåįİäººæ°ĳåħ±åĴĮåĽ½ æ°ĳäºĭè¯īè®¼æ³ķ
ä½ķ ç§į
æĪ· å¤ĸ
å½ķ çĶ¨
åĭ ī
åĩı åĪĳ
æĦŁ åıĹåĪ°
Ġs e
ä½ı éĻ¢
æ°ĳäºĭ æ¡Īä»¶
ç¼´ çº³ç¨İæ¬¾
è®º å¤Ħ
æİ¥åıĹ ç¤¾ä¼ļ
èĢģ æĿ¿
å¹¶å¤Ħ è¿Ŀæ³ķæīĢå¾Ĺä¸ĢåĢįä»¥ä¸ĬäºĶ
æĪĺ æĸĹ
ä¾¿ æį·
éĤ£ éĩĮ
é¢Ħç®Ĺ æī§è¡Į
ä¼ĺåħĪ åıĹåģ¿
æķ°é¢Ŀ è¾ĥå¤§
ä¿¡æīĺ æĸĩä»¶
è¾© è®º
æĽ´å¥½åľ° çĲĨè§£
æ¶Īéĺ² å®īåħ¨
åħĭ æľį
ç¬¬ä¸Ģæ¬¾ è§Ħå®ļ
çº³åħ¥ åĽ½æ°ĳç»ıæµİåĴĮç¤¾ä¼ļåıĳå±ķè§ĦåĪĴ
å¹³çŃī çļĦ
æī© æķ£
å©ļå§» å®¶åºŃ
æ¸Ķä¸ļ æ¸ĶæĶ¿
å¤Ħåįģ æĹ¥ä»¥ä¸Ĭ
æľīä¸ĭåĪĹè¡Įä¸º ä¹ĭä¸Ģ
æľ¬ç½ª åľ¨
ä¸įåıĹ ä¾µçĬ¯
æľīåĪ© å®³åħ³ç³»
å¤ı å¤©
çģµ æ´»
åĬŀäºĭ æľºæŀĦ
æł¹æį®è¯¥ æ³ķ
éĢı æĺİ
éº» éĨī
åľ°ä¸ĭ æ°´
ĠĠĠĠĠĠ Ġ
è¿Ŀæ³ķç»ıèĲ¥ é¢Ŀ
k ing
å ´
ç ĺ
çļĦ ä¸į
æľ µ
åı Ľ
åľ ĭ
åĴĮ èµĦæºĲ
åĴĮ æľīåħ³æ³ķå¾ĭ
åĨ ł
åĽ½ å¢ĥ
ä¾ Ĩ
çĶ¨ èĥ½
æĪĸèĢħ è¿Ľè¡Į
åºĶå½ĵ ä¼ļåĲĮ
ä¸º åŁºç¡Ģ
äºĮ æ°§åĮĸ
å®¶ äºº
å¤Ħ äºĮåįģ
çī© ä½ĵ
æŁ ľ
å¹¶ å®ļæľŁ
æĸĩ çĮ®
åıĹ è®©
è¿Ľè¡Į å¤ĦçĲĨ
è° ¨
æłĩ æ³¨
æĹ¥ çļĦ
è¿Ļ å°Ĩ
æĶ¯ éħį
å°ı é¢Ŀ
ç»ıèĲ¥ æĢ§
è´¢äº§ æįŁå¤±çļĦ
åĨ³å®ļ ä¸įæľįçļĦ
ä¹Ł ä¸į
ä¹Ł éľĢè¦ģ
è¯Ħ å®ļ
éħį æĸ¹
æľīæĿĥ ä¾Ŀæ³ķ
ç² ĺ
ç¦» èģĮ
åĪĳäºĭ å¤Ħç½ļ
èĢĥ å¯Ł
åĭ ĭ
èĥ½åĬĽ å»ºè®¾
çŃ¾ åŃĹ
æĦŁ æŁĵ
æľŁéĹ´ çļĦ
ä»£çĲĨ æľºæŀĦ
è¯ķ çĶ¨
çªģ çĦ¶
æĺ¯ä¸Ģ åĲį
ç»ĵæŀľ çļĦ
Ġ1 5
åĲ¬ è¯´
Ġin c
åıĹåĪ° ä¾µå®³
åıĺæĽ´ çļĦ
è¢«åĳĬ äººçļĦ
å½Ĵ ä¾¨
æ´ĭ èĳ±
åĢºæĿĥäºº å§Ķåĳĺä¼ļ
æĿĳæ°ĳ ä¼ļè®®
æ³¨æĦı åĬĽ
æĹ¥ç¬¬åįģ åĽĽ
æĺŁ çĲĥ
æłĩå¿Ĺ çļĦ
èĢģå¹´ äººçļĦ
è½¬ç§» æĶ¯ä»ĺ
æŃĮ æĽ²
å¡ Ķ
åįĹ æŀģ
çŃ¾åĲį æĪĸèĢħçĽĸç«ł
ä¸įåı¯ ç§»åĬ¨
ĠI n
é»Ħæ²³æµģåŁŁ åİ¿çº§ä»¥ä¸Ĭåľ°æĸ¹äººæ°ĳæĶ¿åºľ
åĨĴ çĶ¨
èģĮä¸ļçĹħåį±å®³ çļĦ
å¦¥åĸĦ ä¿Ŀç®¡
èĽĭ ç³ķ
çĲĨäºĭ éķ¿
åĬ³åĬ¡ æ´¾éģ£
av e
æĽ¾ ç»ı
åķĨåĵģæĪĸèĢħ æľįåĬ¡
ç¥ĸ çĪ¶æ¯į
éĢ¾æľŁæľª æĶ¹æŃ£çļĦ
å¯¿ åĳ½
å¹¸ ç¦ı
çº½ çº¦
åħ¨æ°ĳæīĢæľīåĪ¶ å·¥ä¸ļä¼ģä¸ļ
3 5
4 0
s is
Ġ Ċ
Ġ å¸¸åĬ¡å§Ķåĳĺä¼ļ
çļĦ æľįåĬ¡
çļĦ åħ³ç³»
çļĦ åİĨåı²
åĴĮ æĸ¹å¼ı
è´ Ŀ
ä»¥ èĩªå·±çļĦ
æľī åı¯èĥ½
æķ ¢
æĪĸèĢħ æľįåĬ¡
æĪĸèĢħ å½ĵäºĭäºº
å· ¡
ä¸į ä½İäºİ
çī µ
çī Ļ
åĲĪ çº¦
åı¯ä»¥ çĽ´æİ¥
åı¯ä»¥ ä½ľä¸º
åı¯ä»¥ éĩĩçĶ¨
æĭ Ķ
æľ¬ åľ°åĮº
æĪĲ åĪĨ
åĩº åĢŁ
æµ ®
éĥ¨éĹ¨ çļĦ
è¿Ľ åĩº
å§ ľ
éĩį éĩı
æ³ķå¾ĭ åı¦æľīè§Ħå®ļçļĦéĻ¤å¤ĸ
æł¹æį® æĤ¨
äºĨ ä¸ĢäºĽ
æľª åĲĳ
åıĹ éĢģè¾¾
æĬ¥ èŃ¦
ä»£è¡¨ æĢ§
æ°´ çĶŁ
æĶ¯ æĴĳ
åİŁ çĲĨ
ä¸ªäºº éļĲç§ģ
è§Ħå®ļçļĦ æĥħå½¢
éĩĩåıĸ å¿ħè¦ģæİªæĸ½
ä¾Ŀçħ§ è§Ħå®ļ
çĽ¸åħ³ å·¥ä½ľ
è®¤ çŁ¥
è®¤ è´Ń
ä¼ł åĶ¤
åıĤ æķ°
æµģ éĩı
åĬ³åĬ¨ èĥ½åĬĽ
æĿĥåĪ© åĴĮä¹īåĬ¡
åĴĮåħ¶ä»ĸ çĶŁäº§ç»ıèĲ¥èĢħ
è¯ģåĪ¸ å¸Ĥåľº
åĶ ¯
éĢĤçĶ¨ æ³ķå¾ĭ
åģ¥åº· åıĳå±ķ
æĺ¯åĲ¦ æŃ£ç¡®
at es
ä¸ĵä¸ļ çŁ¥è¯Ĩ
æ¸¸ æ³³
ä¸ļåĬ¡ æ´»åĬ¨
äºĮåįģ åĽĽ
å·¥ç¨ĭ è®¾æĸ½
Ġc ar
ä¸įèĥ½ å±¥è¡Į
Ġw or
Ġw as
Ġw ill
å¼ºåĪ¶ åĮ»çĸĹ
èģĮå·¥ ä»£è¡¨å¤§ä¼ļ
è¡Įä½¿ ä¸ĭåĪĹ
Ġd et
ç¬¬ä¹Ŀåįģ ä¸ĥæĿ¡
ç¬¬ä¹Ŀåįģ åħŃæĿ¡
å®¡åĪ¤ å§Ķåĳĺä¼ļ
æĭįåįĸ æłĩçļĦ
çĶŁæĪĲ ä¸Ģæ®µ
æĸĩæľ¬ ä¸Ń
ç®¡è¾ĸ æĿĥ
é¤Ĳ é¥®
åĩºçİ° äºĨ
æĽ´å¥½åľ° äºĨè§£
åĪĩ æĪĲ
st r
Ġh as
201 6
æĦıè¯Ĩ åĴĮ
ĠS tep
æĬ¥åĽ½åĬ¡éĻ¢ æī¹åĩĨåĲİ
è¿ĲèĲ¥ èĢħ
el l
é² ģ
äººæīį åŁ¹åħ»
è·¨ å¢ĥ
éº ¦
åī© ä¸ĭ
çĵ ¶
å¼ĢåºŃ å®¡çĲĨ
åĪĨè£Ĥ åĽ½å®¶
åĴ¨è¯¢ä¸ĵä¸ļ å¾ĭå¸Ī
å±¥è¡ĮåĩºèµĦäºº èģĮè´£çļĦ
å¯¹è´Łæľīè´£ä»»çļĦ é¢Ĩå¯¼äººåĳĺåĴĮçĽ´æİ¥è´£ä»»äººåĳĺ
é»ĳç¤¾ä¼ļ æĢ§è´¨
å¤ĦåįģæĹ¥ä»¥ä¸Ĭ åįģäºĶæĹ¥ä»¥ä¸ĭæĭĺçķĻ
f orm
g h
è ©
Ġ Ø
Ġ åĨĽäºº
Ġ çĽĳçĿ£æ£ĢæŁ¥
Ġ æ£Ģå¯Łå®ĺ
çļĦ å¤Ħç½ļ
çļĦ ç§įç±»
äºº çĶŁ
åº ĩ
åĴĮ è®¾å¤ĩ
ä¸Ģ åıª
ä¸Ģ åįĥåħĥä»¥ä¸ĭç½ļæ¬¾
å¯ Ĵ
æĪĸèĢħ æľºæŀĦ
æĪĸèĢħ çľģ
ä¸į åĮħæĭ¬
åºĶå½ĵ éĢļçŁ¥
èµ ĥ
åŃ ¸
ç½ Ĳ
é¢ Ī
åıĳ è¨Ģ
çŃī äºİ
åħ¨ è¿ĩç¨ĭ
æĹ¶ åºĶå½ĵ
æīĢ å¿ħéľĢ
è¯· æıĲä¾Ľ
æ³ķå¾ĭ æĸĩä¹¦
æ³ķå¾ĭ æĿ¡æĸĩ
åıĸ æ°´
åıĹ æįŁ
è¿Ľè¡Į å®īåħ¨
ç¬¬äºĮ å®¡äººæ°ĳæ³ķéĻ¢
åĩĨ åĪĻ
è¢« åĲĬéĶĢ
æĿ¥ è§£åĨ³
çĶ³è¯· åĬŀçĲĨ
çĤ º
åĪĻ æĺ¯
ç§ĳ å¹»
æī¿æĭħ è¿Ŀçº¦è´£ä»»
æĿĥåĪ© åĴĮ
ä¸¾ è¯ģ
èŃ¦ æĸ¹
æķ´ æķ°
åħ·ä½ĵ åĬŀæ³ķ
çī¹åĪ« ä¸¥éĩįæĥħèĬĤçļĦ
ç§° åı·
è°ĥæŁ¥ åĴĮ
en c
çŃ¾ ç«ł
Ġs entence
æŁĲ ç§į
åºĶå½ĵæĮīçħ§ çº¦å®ļ
å¿ħé¡» éģµå®Ī
åºŁ æ°´
åĨĽäºĭ ç®¡çĲĨ
åºĶè¯¥ éĩĩåıĸ
èĤ¡ä¸ľ å¤§ä¼ļ
çĽĳæĬ¤ èģĮè´£
çľĭ å®Ī
Ġw he
èĥ½æºĲ ä¸»ç®¡éĥ¨éĹ¨
æĲ ħ
å¼ł æŁĲ
æµ·äºĭ å¼ºåĪ¶ä»¤
æ°ĳçĶ¨ æľºåľº
çĪ± çļĦ
æµģåŁŁ ç®¡çĲĨæľºæŀĦ
åĨľæ°ĳ åĴĮ
åıĳå¸ĥ çļĦ
æľīåħ³çļĦ ä¸ĵéĹ¨å§Ķåĳĺä¼ļ
åĽ½æľī èµĦæľ¬
ä¸ĵåĪ© æĿĥçļĦ
è´Łè´£äºº æī¹åĩĨ
éĺ» æŃ¢
å¾ĹåĪ° äºĨ
ä¸¾æĬ¥ äºº
éĿĴ å¹´
å°Ĭéĩį åĴĮ
æĬķåħ¥ åĵģ
æĮĩæĮ¥ æľºæŀĦ
åħ¬å¹³ ç«ŀäºī
åħħåĪĨ åıĳæĮ¥
if y
åĽºä½ĵ åºŁçī©çļĦ
æľªæĪĲå¹´äººçļĦ çĪ¶æ¯įæĪĸèĢħåħ¶ä»ĸçĽĳæĬ¤äºº
ç¹ģ èĤ²
å¼ķèµ· çļĦ
å¿ĹæĦ¿ æľįåĬ¡
åĩºç¥¨ äºº
åģı è§ģ
èĨ ľ
Ġne ed
éŃĶ æ³ķ
å¤ĦäºĶæĹ¥ä»¥ä¸Ĭ åįģ
ä¸ŃåĽ½çī¹èī² ç¤¾ä¼ļä¸»ä¹ī
ä¸ĩåħĥä»¥ä¸ĬäºĶçĻ¾ ä¸ĩåħĥä»¥ä¸ĭçļĦç½ļæ¬¾
åı¦æľīçº¦å®ļ å¤ĸ
åĽºä½ĵåºŁçī©æ±¡æŁĵçİ¯å¢ĥ éĺ²æ²»
å±ł å®°
m at
p h
u p
Ġ æ³ķå®ĺ
Ġ æľīä¸ĭåĪĹè¡Įä¸ºä¹ĭä¸ĢçļĦ
çļĦ è¯Ŀ
çļĦ åīįæıĲä¸ĭ
å® ¾
ä»¥ èİ·åıĸ
å½ĵ æĹ¶
æĪĸèĢħ éĢļè¿ĩ
åºĶå½ĵ åıĸå¾Ĺ
åºĶå½ĵ å¦Ĥå®ŀ
çĶŁ éķ¿
è§Ħå®ļ äºĨ
å¯¹ åĽ½å®¶
ä¸Ń çº§äººæ°ĳæ³ķéĻ¢
åĲĪ è§Ħ
æĺ¯ ä¸į
åı¯ä»¥ æıĲé«ĺ
åıĳ è¯ģ
åĩº äºĨ
çŃī åįķä½į
çŃī åİŁåĽł
çĶ± ä¸Ńå¤®åĨĽäºĭå§Ķåĳĺä¼ļ
åıĬ æľīåħ³
å¤§ è¿ĩ
å·¥ä½ľ æĬ¥åĳĬ
ä¾Ŀæ³ķ åĬŀçĲĨ
åĩĨ è®¸
æĹ¥ æľ¬
åĽł åħ¬
ä½¿çĶ¨ åįķä½į
è¿Ĳ è´¹
é«ĺ äºİ
ç¬¬åįģ äºĮ
åĬ© æīĭ
ä¼ģä¸ļ åĴĮ
æī§ åĭ¤
çĶµ æ¢¯
è®° å¤§è¿ĩ
èĮ ¨
æĶ¾ æĺł
ä¹Ł å°±æĺ¯
æł¸ åıĳ
ä¸ĭåĪĹ çĶ¨
åĬ³åĬ¨ åĲĪåĲĮçļĦ
æłĩåĩĨ æĪĸèĢħ
åį«çĶŁ æ£Ģçĸ«
ä¼ĺ è´¨
æ°Ķ æ¸©
çī¹åĪ« ç¨ĭåºı
éĢĤçĶ¨ çļĦ
åĭ ¾
at er
åį³ å°Ĩ
é£İéĻ© çļĦ
ç¾İ çļĦ
ä¹ĭæĹ¥èµ· åįģæĹ¥åĨħ
å®¡æŁ¥ æī¹åĩĨ
åĨĻ ä½ľ
äººæ°ĳæ£Ģå¯ŁéĻ¢ åĴĮ
çļĦæ³ķå¾ĭ è´£ä»»
æĿİ åĽĽ
è®¸åı¯è¯ģ çļĦ
è´¢æĶ¿ æĢ§
ä»·æł¼ ä¸»ç®¡éĥ¨éĹ¨
åıĺæĽ´ çĻ»è®°
ä¿¡æīĺ æ³ķ
èĦ Ĥ
åıĳè¡Į çļĦ
éĢļå¸¸ ä¼ļ
äºĨä¸Ģ ä»½
ä¸Ĭå¸Ĥ äº¤æĺĵ
åĢįä»¥ä¸ĭ ç½ļéĩĳ
æľīéĻĲ åĲĪä¼Ļä¼ģä¸ļ
åĲĳäººæ°ĳæ³ķéĻ¢ çĶ³è¯·
å·® é¢Ŀ
åĨľæ°ĳä¸ĵä¸ļåĲĪä½ľç¤¾ èģĶåĲĪç¤¾
åŀĥåľ¾ åĪĨç±»
æĮīçħ§åĽ½å®¶æľīåħ³è§Ħå®ļ ç»ĻäºĪè¡¨å½°
æŀĹä¸ļ ä¸»ç®¡éĥ¨éĹ¨
ç²®é£Ł å®īåħ¨
ig n
çĳ ŀ
æ½ ®
çĽ¸åĲĮ çļĦ
Ġas s
è®¯ éĹ®
æĻļ ä¸Ĭ
åŁºç¡Ģè®¾æĸ½ å»ºè®¾
åľŁåľ°ä½¿çĶ¨æĿĥ åĩºè®©
å¿ł äºİ
æ¶Īéĺ²æķĳæı´ è¡Ķ
è¶³å¤Ł çļĦ
æīĵåĩ» æĬ¥å¤į
åıĳçĶŁæ³ķå¾ĭæķĪåĬĽ çļĦåĪ¤åĨ³
æľºåĬ¨è½¦é©¾é©¶ è¯ģ
æł¸è®¾æĸ½èĲ¥è¿Ĳ åįķä½į
è¹ Ī
åŁºå±Ĥç¾¤ä¼ĹæĢ§èĩªæ²» ç»Ħç»ĩ
æ¸Ķä¸ļæ¸ĶæĶ¿ ä¸»ç®¡éĥ¨éĹ¨
( "
\ [
r ou
Ġ K
ãĢ Ģ
çļĦ çłĶç©¶
çļĦ æĪĲåĳĺ
çļĦ çĽ®çļĦ
çļĦ å»ºçŃĳçī©
æĪ ´
åĴĮ æ°´
åĴĮ è¿Ŀæ³ķæīĢå¾Ĺ
ä»¥ ç¡®å®ļ
å®ļ ä½ľ
æľī ä¹īåĬ¡
ä¸Ģ ä¸ªäºº
åĽ½ çļĦ
æĪĸ åħ¶
åħ³ è¡Ķ
çĶ¨ åľ°çļĦ
çĲĨ å¿µ
æĪĸèĢħ åĩıå°ĳ
äººæ°ĳ éĻªå®¡åĳĺ
ä¸º ä»ĸäºº
åħ¬ éĩĮ
åı¯ä»¥ æĺ¯
ä»ĸ åľ¨
æµ ´
çŃī æĬĢæľ¯
ä¸ĭ è¾¾
åĲĮ èĥŀ
å¹¶ å°Ĩåħ¶
åĽ½å®¶ å»ºç«ĭ
çħ§ æĸĻ
æ³ķå¾ĭ æľįåĬ¡
è¡ĮæĶ¿ æ¡Īä»¶
æł¹æį® ä¸Ĭè¿°
æľºæŀĦ æĪĸèĢħ
å¿ Ļ
çĽ¸ éĤ»
æĬ¥ åĪĬ
åĬł ä¸Ĭ
è°ĥ åıĸ
åīį æĻ¯
æĿ¥ çļĦ
æĤ ¦
ç»ıèĲ¥ ç®¡çĲĨ
æĽ´ å®¹æĺĵ
ä¸ĵ é¢ĺ
åĨĽ åĵģ
éª ļ
è£ģ åĪ¤
ä¼ł éĢĴ
æĢ» åĴĮ
ç¬¬ä¸ĢçĻ¾ æĿ¡
ç»ıæµİ è¡¥åģ¿
èµĶåģ¿ çļĦ
è¯ģåĪ¸ åħ¬åı¸çļĦ
åıĬæĹ¶ éĢļçŁ¥
åģľ è½¦
è°ĥæŁ¥ å§Ķåĳĺä¼ļ
æ£Ģå¯Ł æľºåħ³
æ¶ī å¯Ĩ
å¾ģ éĽĨ
äºĪä»¥ åħ¬åĳĬ
éĩįå¤§ éĹ®é¢ĺ
åį±éĻ© çļĦ
åŃ¦æł¡ çļĦ
ç§» ç®¡
ç¢ İ
è®¡åĪĴ åĴĮ
è±¡ å¾ģ
åºĶè¯¥ æĺ¯
ä»Ģä¹Ī æĺ¯
çľĭ èµ·æĿ¥
è½¬è®© æĪĸèĢħ
åıĮæĸ¹ çļĦ
ĠåĽ½åĬ¡éĻ¢ åĴĮ
äº«æľī çļĦ
æīĵ å¼Ģ
å¹³åı° åĨħ
æµ·æ´ĭ ä¸»ç®¡éĥ¨éĹ¨
è¿Ļç§į æĥħåĨµ
é¥® æĸĻ
ç«ŀ ä¹°
ä¸ĵåĪ© è¡ĮæĶ¿éĥ¨éĹ¨
çģ« è½¦
äººä»¬ çļĦ
æ¸© æļĸ
çĶ² æĸ¹
é«ĺçŃī æķĻèĤ²
å®¡æī¹ æīĭç»Ń
ç¤¾ä¼ļä¸»ä¹ī çİ°ä»£åĮĸ
åĮ»çĸĹåį«çĶŁ æľįåĬ¡
è®¾åĮºçļĦå¸Ĥ çº§ä»¥ä¸Ĭ
çīĪ æľ¬
è¾©æĬ¤ å¾ĭå¸Ī
æĬļåħ» è´¹
ir st
å½¢æĪĲ çļĦ
æľĢä½İ çĶŁæ´»ä¿Ŀéļľ
çĨŁ æĤī
åŁİä¹¡è§ĦåĪĴ ä¸»ç®¡éĥ¨éĹ¨
Ġex p
æĢ»éĩı æİ§åĪ¶
ç¾İä¸½ çļĦ
è´ŁéĿ¢ å½±åĵį
æ¬£ èµı
å°¤ åħ¶
çľĭå®Ī æīĢ
å¤ĦäºĶæĹ¥ä»¥ä¸Ĭåįģ æĹ¥ä»¥ä¸ĭæĭĺçķĻ
a k
t al
Ġ ç»Ħç»ĩ
Ġ æµ·ä¸Ĭ
äº ¿
çļĦ åĮºåŁŁ
çļĦ åħ³éĶ®
ä½ £
ä½ ©
ä½ Ľ
å½ ¼
åĨ ¬
åįģ å¹´
å½ĵ éĢī
åºĶå½ĵ å±¥è¡Į
ä¿Ŀ çĲĨ
ä¿Ŀ èįĲ
ç§ ½
äº§ åľ°
å®¶ çļĦ
åĪĨ ç»Ħ
èģĮ çº§
åĮº åĪĴ
å¥ ĳ
æľª è¾¾åĪ°
æŁ¥ è¯ģ
çĽ¸ åıį
è¿Ľè¡Į è°ĥè§£
ä¿¡ è´·
ãĢĭ ï¼Ī
è¿Ļ ä¸¤ä¸ª
éĺ² çģ«
æİ¥ ä¸ĭæĿ¥
æıĲä¾Ľ ä¸İ
éĽ ħ
è°ĥ åĳ³
æĶ¯ æµģ
åŃĲ çļĦ
éĢł æŀĹ
æĮĩ åĩº
ä¸ĵ å±ŀ
åĮ» èį¯
éĩĩåıĸ ä¸ĭåĪĹæİªæĸ½
è´¢äº§ æĿĥ
ç¥ Ŀ
æķħ éļľ
åı¯èĥ½ æĢ§
å°± ä¼ļ
åĶ Ĳ
åħ¬åħ± èĪªç©º
åıĤåĬł è¯īè®¼
è¯Ħä¼° æĬ¥åĳĬ
è®¡åĪĴ åľ°
æ°ĳæĹı åĽ¢ç»ĵ
çļĦäºº éĢī
ä¸»è¦ģ æĺ¯
ä¸»è¦ģ è´Łè´£
éĻĲåĪ¶ æ°ĳäºĭè¡Įä¸ºèĥ½åĬĽ
è½» æĿ¾
Ġ1 2
èµĦæĸĻ åĴĮ
ç¯ Ģ
çľŁ çļĦ
çĶµå½± çļĦ
å®¡çĲĨ æ¡Īä»¶
å®¡è®¡ çĽĳçĿ£
èĬ± è´¹
æĽ´å¥½åľ° ç®¡çĲĨ
çī¹ç§įè®¾å¤ĩ çĶŁäº§
äº¤ä»ĺ çļĦ
è§Ĵ åº¦
il d
ç¬¬ä¸ĢçĻ¾ä¸Ģåįģ ä¸ĥæĿ¡
æ¸¯åı£ è¡ĮæĶ¿ç®¡çĲĨéĥ¨éĹ¨
çĶ· æĢ§
çĶ· åŃĲ
ĠĠĠĠ ĠĠĠĠ
ä½ľåĵģ çļĦ
çĩĥ æ°Ķ
ç»ŁçŃ¹ è§ĦåĪĴ
ä¸Ĭä¸Ģ çº§äººæ°ĳæ³ķéĻ¢
ä¸Ģå®ļ æľŁéĻĲåĨħ
çĶµåŃĲåķĨåĬ¡ æ³ķ
èĪŀ è¹Ī
æīĢéľĢ ç»ıè´¹
å¸¦æĿ¥ çļĦ
è¿ĲåĬ¨ åĳĺ
åºĶå½ĵèĩª åıĹçĲĨ
å¯Ħ éĢĴ
èĴ Ļ
å¤įæĿĤ çļĦ
å®ŀè·µ ä¸Ń
æĺ¾èĳĹ æĪĲç»©
èµĦè´¨ è¯ģä¹¦
èģĮä¸ļçĹħåį±å®³ åĽłç´ł
èĽĭ çĻ½
åįĥåħĥä»¥ä¸Ĭ äºĮ
ä¸įæŃ£å½ĵ ç«ŀäºī
åı¯ä»¥åĲĳäººæ°ĳæ³ķéĻ¢ çĶ³è¯·
ä¸īä¸ªæľĪ åĨħ
åıĺå¾Ĺ æĽ´åĬł
num bers
ç¼ĸåĨĻ ä¸Ģä¸ª
å¤©çĦ¶ æ°Ķ
èĵĿ èī²
æ»ŀ çº³
çŃĶè¾© çĬ¶
åĪº æ¿Ģ
åİŁåŃĲ èĥ½
Ġequ ation
èµĮ åįļ
è¡Įä½¿ä¸ĭåĪĹ èģĮæĿĥ
æĲħ æĭĮ
ä¸ĭåĪĹçĶ¨ è¯ŃçļĦåĲ«ä¹ī
4 5
o y
Ġ å»ºç«ĭ
Ġ çĽĳå¯Łå®ĺ
ä» Ķ
å® ı
åĴĮ æĦıè§ģ
æľī ç®¡è¾ĸæĿĥçļĦ
ä¸į æī¿æĭħèµĶåģ¿è´£ä»»
åºĶå½ĵ æĶ¯æĮģ
åºĶå½ĵ ä¾Ŀçħ§æľ¬æ³ķ
åºĶå½ĵ å¾ģæ±Ĥ
ç®¡ æķĻ
åħ¶ æīĢ
ç½ ©
ä¸ī å¹´åĨħ
ä¾Ŀ èµĸ
åİ ¨
æł¹æį® æıĲä¾ĽçļĦ
çĽ¸ ä¼¼
äº¤ ç»Ļ
äº¤ åī²
è¿Ľè¡Į åĪĨç±»
å¼Ģ åħ·
ç¡ «
è´£ä»» ä¿ĿéĻ©
æĮī æľŁ
éĺ² åį«
åĽ½åĬ¡éĻ¢ åĨľä¸ļåĨľæĿĳä¸»ç®¡éĥ¨éĹ¨
å°Ĩ ä»¥ä¸ĭ
æķĻ åĶĨ
æĮīçħ§ åĽ½å®¶
æľį è£ħ
ä¿ĿæĬ¤ å·¥ä½ľ
åħ¬åı¸ çĻ»è®°æľºåħ³
æ°´ æ±¡æŁĵ
éĹ´ æİ¥
æĮĩ çļĦæĺ¯
å¼º å¤§çļĦ
çĶ³è¯· äººçļĦ
éķ¿ åŁİ
å¤į å®¡
å¦Ĥæŀľ åľ¨
æĬķ æĶ¾
äººæ°ĳä»£è¡¨å¤§ä¼ļ å¸¸åĬ¡å§Ķåĳĺä¼ļ
å±¥ èģĮ
æ³ķè§Ħ è§Ħå®ļ
è½¬ ä¸º
éĵ ¸
æ» ¤
æİ¨ è¡Į
on g
åŀ «
èĩªæ²» æĿ¡ä¾ĭ
äº¤éĢļ è®¾æĸ½
èĢĥ éªĮ
çª Ĺ
é£Łåĵģ æµªè´¹
å·¥ç¨ĭ å¸Ī
åĲĪä¼Ļ äººçļĦ
äº§çĶŁ åĬŀæ³ķ
æł· åĵģ
Ġp os
è®¤ä¸º éľĢè¦ģ
ä¸īåįģ æĹ¥
çĽĳæµĭ é¢ĦèŃ¦
æ®ĭçĸ¾ äººçļĦ
äºĭå®ŀ åĴĮ
Ġan swer
éļı åĨĽ
æ·± è¿ľ
åĽ½æľī åħ¬åı¸
åĳ³ éģĵ
äººèº« ä¼¤äº¡
ç§©åºı çļĦ
æ¤įçī© æĸ°åĵģç§į
æļĤ æī£
èģĶç³» æĸ¹å¼ı
çŃ¾è®¢ çļĦ
éģĹäº§ ç®¡çĲĨäºº
æ¸Ķä¸ļ èĪ¹èĪ¶
åħ¨éĥ¨ æĪĸèĢħéĥ¨åĪĨ
çĻ¾åĪĨä¹ĭ åįģ
ĠC h
æµ·åŁŁ ä½¿çĶ¨æĿĥ
èħ ¿
åı¯ä»¥éĩĩåıĸ ä»¥ä¸ĭæİªæĸ½
åĭ¤ åĭī
el y
ers on
ç¹ģ æ®ĸ
è¾ŀ éĢĢ
äººæ°ĳè°ĥè§£ åĳĺ
åħ¼ èģĮ
ä¸ªæĢ§ åĮĸçļĦ
å¿ł è¯ļ
å¡« åĨĻ
ä¸´åºĬ è¯ķéªĮ
éĢļçĶ¨ è¯Ńè¨ĢæĸĩåŃĹ
æĹ¨ åľ¨
åĵºä¹³ åĬ¨çī©
åĬŀæ¡Ī æľºåħ³
åı¦æľīè§Ħå®ļ å¤ĸ
å¼¹ èį¯
åĽ½å®¶æĪĸèĢħ åľ°åĮº
æĤ¬ æĮĤ
ç¾İåĳ³ çļĦ
çİ¯å¢ĥå½±åĵįæĬ¥åĳĬ ä¹¦
å»ī æ´ģ
åĬ¨æ¤įçī©æ£Ģçĸ« æľºåħ³
éĩİçĶŁåĬ¨çī©åıĬåħ¶ åĪ¶åĵģ
æłĸæģ¯ åľ°
ç®¡åĪ¶æĪĸèĢħ åī¥å¤ºæĶ¿æ²»æĿĥåĪ©
è¡įçĶŁ åĵģ
æī® æ¼Ķ
r it
u b
Ġ å·¥ä¼ļ
Ġ ä»»ä½ķåįķä½įåĴĮä¸ªäºº
Ġ imp
çļĦ è¿ĩç¨ĭä¸Ń
çļĦ çĬ¯ç½ªå«Įçĸĳäºº
æľ Ĺ
å® ¿
åĴĮ åįķ
åĴĮ åĨĽéĺŁ
è¡Į æĺŁ
æĬ ĵ
å¯ ĵ
åºĶå½ĵ åħĪ
åºĶå½ĵ æİ¥åıĹ
çº ¯
åŃ Ļ
å¯¹ è¿Ŀåıį
éĥ ģ
æĢ ķ
æľ¬ ç¥¨
ï¼ļ "
åĩº äºİ
å¹¶ ä»¥
å¹¶ ç½ļ
å¹¶ éĢļè¿ĩ
å¹¶ åıĸå¾Ĺ
å¹¶ ä¸įæĺ¯
åĽ½å®¶ ç¦ģæŃ¢
éĺ µ
æ³ķå¾ĭ çļĦè§Ħå®ļ
è¡ĮæĶ¿ å¼ºåĪ¶
æł¹æį® ç»Ļå®ļçļĦ
çĸ ²
å¤ĸ éĥ¨
è¿Ľè¡Į åĪĨæŀĲ
ä¾Ŀæ³ķ è¡Įä½¿
ä¾Ŀæ³ķ è®¾ç«ĭçļĦ
æĬ¥ åħ¨åĽ½äººæ°ĳä»£è¡¨å¤§ä¼ļå¸¸åĬ¡å§Ķåĳĺä¼ļ
åĬł éĢŁ
åĮĸ åĴĮ
åĪ° åºŃ
éļ ¶
åĽ½åĬ¡éĻ¢ æ°ĳçĶ¨èĪªç©ºä¸»ç®¡éĥ¨éĹ¨
åħ« åĳ¨å²ģ
å°Ĩ è¯¥
ä½¿çĶ¨ åĴĮ
ä½¿çĶ¨ æĥħåĨµ
è°ĥ çĶ¨
è¯¥ å¦Ĥä½ķ
çĶ³ è¾©
çĶ³è¯· äººæ°ĳæ³ķéĻ¢
æĹł éľĢ
æĸ° èĥ½æºĲ
äººæ°ĳæ³ķéĻ¢ ç®¡è¾ĸ
çĬ¯ç½ª è¡Įä¸º
ä½Ĩ ä¸į
åıĳå±ķ æĶ¹éĿ©
ç»Ł ç§°
è£ģ å®ļçļĦ
ä¹Ł æ²¡æľī
çĽĳçĿ£ç®¡çĲĨ èģĮè´£
è¯īè®¼ ç¨ĭåºı
æ³¨ æĺİ
æİĴ åĪĹ
äº§åĵģ åĴĮæľįåĬ¡
on d
è´Ń ç½®
åħ¨åĽ½äººæ°ĳä»£è¡¨å¤§ä¼ļ åĴĮ
åģ¥åº· æĪĲéķ¿
è°ĥæŁ¥ åıĸè¯ģ
æĪĸèĢħåħ¶ä»ĸ æĸ¹å¼ı
æĪĸèĢħåħ¶ä»ĸ éĩĳèŀįæľºæŀĦ
åĨľä¸ļ æĬķåħ¥åĵģ
æľªæĪĲå¹´ åŃ¦çĶŁ
ä¸ļåĬ¡ è§ĦåĪĻ
åĢºæĿĥ äººçļĦ
å¸Ĥåľº çĽĳçĿ£ç®¡çĲĨ
å¸Ĥåľº ç«ŀäºī
ç»Ī å®¡
æ°ĳæĹı åľ°åĮº
é¢ĨåŁŁ ä¸Ń
é¢Ħéĺ² æİªæĸ½
æ²³ æµģ
éĢīæĭ© éĢĤåĲĪ
è½¬è®© ç»Ļ
Ġ1 9
åĽ½éĻħ åĪĳäºĭåı¸æ³ķåįıåĬ©
æµ·äºĭ è¯īè®¼
èı ²
åĵª éĩĮ
äº² èĩª
å®īåħ¨çĶŁäº§ ç®¡çĲĨäººåĳĺ
åŃĲå¥³ çļĦ
èµ·è¯ī çĬ¶
ç»ĪæŃ¢ çļĦ
ç«łç¨ĭ è§Ħå®ļ
ç»§ç»Ń å±¥è¡Į
é¤Ĳ åħ·
çİ¯å¢ĥä¿ĿæĬ¤ è¡ĮæĶ¿ä¸»ç®¡éĥ¨éĹ¨
ç§¯æŀģ çļĦ
çŃ¹ éĽĨ
æ²Ļ æĭī
çļĦåħ·ä½ĵ æĥħåĨµ
åħ´ å¥ĭ
ç¼º çĤ¹
å¾ģæĶ¶ ç®¡çĲĨ
èĲ¥ä¸ļ åľºæīĢ
åĽŀçŃĶ éĹ®é¢ĺ
å®¡æī¹ æľºåħ³
ç¤¾ä¼ļä¸»ä¹ī å¸Ĥåľº
æĢİ æł·
å¹¶å¤Ħç½ļéĩĳ æĪĸèĢħæ²¡æĶ¶è´¢äº§
çĥŁ åı¶
ol low
æĬ¥åĽ½åĬ¡éĻ¢ æī¹åĩĨ
åĭ¤ åĬ¡
è¿Ļæł· çļĦ
è¿Ļæł· åı¯ä»¥
æĸ°éĹ» æĬ¥éģĵ
ä¹ĺ åĿĲ
åŃ©åŃĲ çļĦ
æĬ« èĲ¨
Ġv al
æĹłæľŁå¾ĴåĪĳ æĪĸèĢħ
çģµ æĦŁ
Ġhe l
ä¸² éĢļ
æĹ¥ç¬¬åįģäºĮ å±Ĭåħ¨åĽ½äººæ°ĳä»£è¡¨å¤§ä¼ļå¸¸åĬ¡å§Ķåĳĺä¼ļç¬¬åįģ
åħįçĸ« è§ĦåĪĴ
è¿Ł å»¶
åĲĦèĩªçļĦ èģĮè´£èĮĥåĽ´åĨħ
åĩºåı£ç®¡åĪ¶ ç®¡çĲĨéĥ¨éĹ¨
è½¨ éģĵ
ä¸ĭåĪĹæĥħå½¢ ä¹ĭä¸ĢçļĦ
æĺĵåĪ¶ çĪĨ
äºĮæ°§åĮĸ ç¢³
Ġ if
Ī å¤«
ä¸ Īå¤«
çļĦ åľŁåľ°
çļĦ åĲĮæĹ¶
æľ ĥ
ãĢĤ âĢľ
åľ Ī
ä¼ļ å¯¹
çĶ¨ æµ·
æĪĸèĢħ æıĲä¾Ľ
æĪĸèĢħ ä¸įäºĪ
ä¸į æĪĲ
åºĶå½ĵ ä¿Ŀéļľ
åħ¶ åĲĪæ³ķæĿĥçĽĬ
åħ¨ ç¨ĭ
æ¬ §
ç®¡çĲĨ åĬŀæ³ķçĶ±åĽ½åĬ¡éĻ¢
çĶ± ä¸»å¸ŃåĽ¢
æĶ¿åºľ æľīåħ³éĥ¨éĹ¨
éĩĳ éĴ±
ä¸İ åĲĪä½ľ
ä¾Ŀæ³ķ æī§è¡Į
åĩĨ åħ¥
ä¾Ľ ç»Ļ
åĮĸ åĲĪ
è¿Ļ éĥ¨
è¿Ļ é¦ĸ
æŃ£ èģĮ
æľįåĬ¡ çŃī
çĶ³è¯· å¤įè®®
éķ¿ çļĦ
éĩĩåıĸ çĽ¸åºĶ
å¯¼ èĪª
è¿ĺ æľīåħ¶ä»ĸ
æ¶Ī æŀģ
å°± è¯¥
åŁºéĩĳ éĶĢåĶ®
è®© äººä»¬
åĮ»çĸĹ æľįåĬ¡
åįĸ æ·«
éĢĤçĶ¨ ç®Ģæĺĵç¨ĭåºı
éĢĢ åĽŀ
æĺ¯åĲ¦ åŃĺåľ¨
è§Ĩ åĲ¬
èī² å½©
é£Łåĵģ çĶŁäº§ç»ıèĲ¥èĢħ
is h
ç¼´ çļĦ
ç»´æĬ¤ ç¤¾ä¼ļ
å¿ħé¡» æĺ¯
éģĹ èµł
åģĩ èį¯
äºĴ æį¢
åį±å®³ åħ¬åħ±å®īåħ¨
å¦Ĥä½ķ åľ¨
Ġf ollow
åİ» ä¸ĸ
èĻļ æŀĦ
ç»ĦæĪĲ åĲĪè®®åºŃ
åķĨåĵģ çļĦ
çĪ± å¥½
è¯į æ±ĩ
æĶ¿çŃĸ åĴĮ
ç®Ģ çŁŃ
æ¶Īè´¹èĢħ çļĦ
åĿĩ è¡¡
ä¼łæŁĵçĹħ çĹħåİŁ
çĽĳçĿ£æ£ĢæŁ¥ äººåĳĺ
çī¹æ®Ĭ æĥħåĨµ
æİ¢ éĻ©
åı¯ä»¥å¸®åĬ© æĪĳä»¬
åħŃåįģ æĹ¥åĨħ
äº§ä¸ļ åıĳå±ķ
åħ´ åĬŀ
ç¬¬ä¸ĢçĻ¾éĽ¶ ä¸īæĿ¡
ç¬¬ä¸ĢçĻ¾ä¸Ģåįģ äºĶæĿ¡
æĤ£èĢħ çļĦ
ç¬Ķ è®°
ä¹ĭéĹ´çļĦ åħ³ç³»
æĵį çºµ
åı¯èĥ½ä¼ļ å¯¼èĩ´
ä½Ļ é¢Ŀ
æ¬º åĩĮ
éħĴ åºĹ
æĮªçĶ¨ åħ¬æ¬¾
åĽ½å®¶é¼ĵåĬ± åĴĮæĶ¯æĮģ
æ°Ķè±¡ ä¸»ç®¡æľºæŀĦ
åĢĴ åħ¥
èµĽ äºĭ
ä¸ĩåħĥä»¥ä¸ĬäºĶåįģ ä¸ĩåħĥä»¥ä¸ĭç½ļéĩĳ
æĶ¶è´¹ æłĩåĩĨ
çīĽ å¥¶
åı¦è¡Į è§Ħå®ļ
æ·« ç§½
åĽ¾åĥı è¯ĨåĪ«
æĥħèĬĤè¾ĥ éĩįçļĦ
ä»ĵåĤ¨ çī©
çļĦåŁºç¡Ģ ä¸Ĭ
æĮĸ æİĺ
æľªæĮī è§Ħå®ļ
çĽ¸å½ĵ äºİ
å½ķéŁ³ å½ķåĥı
è¾¨ è®¤
çİĽ ä¸½
åĳĪ çİ°
ç·´ ç¿Ĵ
ä¸Ńåįİæ°ĳæĹıåħ±åĲĮä½ĵ æĦıè¯Ĩ
å®ħ åŁºåľ°
å±¥è¡ĮåĩºèµĦäººèģĮè´£çļĦ æľºæŀĦ
l l
s um
u ct
Ġ æĪĳ
Ġ æľºåħ³
Ġ åıĳçĶŁ
Ġ åĨľæĿĳéĽĨä½ĵç»ıæµİç»Ħç»ĩ
çļĦ åĽ½å®¶
äºº ç¾¤
æ³ķ åĪ¶
åĴĮ çĽĳçĿ£
åĴĮ éĿŀ
åĴĮ æĹ¶éĹ´
æľī ç¬¦åĲĪ
ä¸Ģ ç³»åĪĹ
æĪĸèĢħ å°Ĩ
æĪĸèĢħ å§Ķæīĺ
æĪĸèĢħ åĲįç§°
åı¯ ä¾Ľ
ä¸į åľ¨
åºĶå½ĵ å¼Ģå±ķ
ç®¡ æĬ¤
åıĳ æİĺ
ä¸ª åĪ«
èĩª çĲĨ
çĶ± å½ĵäºĭäºº
çĶ± å¤ĸäº¤éĥ¨
å¤§ å®¶
éĺ Ĳ
éģ ¸
æł¹ æľ¬
ä»£ æĶ¶
ä¾Ŀæ³ķ ä¿ĿæĬ¤
åĲĳ åħ¬å®īæľºåħ³
æıĲä¾Ľ å¸®åĬ©
æıĲä¾Ľ è¯ģæį®
ç¤¾ä¼ļ è´£ä»»
çĶŁäº§ åĬĽ
åĲĦ è¯¥
æĽ´ å¿«
è§Ħå®ļçļĦ æľŁéĻĲåĨħ
æº ¶
âĢ Ļ
åİ¿ äººæ°ĳæĶ¿åºľ
æĸ° äº§åĵģ
çĽ¸åħ³ æ³ķå¾ĭæ³ķè§Ħ
è´¢äº§ æįŁå¤±
åĿ ¦
å¦Ĥæŀľ æľī
å¦Ĥæŀľ æ²¡æľī
æī§è¡Į æľºåħ³
æĬķ ç±ĥ
å¤Ħç½ļ æ¬¾
åı¯èĥ½ éĿ¢ä¸´
å½ĵäºĭäºº åı¯ä»¥
å½ĵäºĭäºº ä¸Ģæĸ¹
re e
åĮ»çĸĹ åĻ¨æ¢°
å·² çŁ¥
ĠĠ ĊĠĠ
åıĳçĶŁ åľ¨
åıĳçĶŁ åĲİ
æ· ¡
20 20
åĩı å¾ģ
æķ°æį® åĴĮ
æķ°æį® åĪĨæŀĲ
åĢºæĿĥ çļĦ
èŀį åħ¥
äººå·¥æĻºèĥ½ åľ¨åĮ»çĸĹé¢ĨåŁŁ
ä¸ľ è¥¿
éĻĦ æľī
éĻĦ å¸¦
èį¯åĵģ çĶŁäº§
æī¿åĮħ ç»ıèĲ¥
éļĲ èĹı
èĥ½å¤Ł è¯ģæĺİ
çĮ ª
å®ĮæĪĲ åĲİ
ç¦»å©ļ çļĦ
Ġm an
åıĹåĪ° æįŁå®³çļĦ
çº³ç¨İ ä¹īåĬ¡
æĸĩçī© æĶ¶èĹı
ä¼ļè®¡ è´¦ç°¿
æĭĽ æĶ¶
é¦Ļæ¸¯çī¹åĪ«è¡ĮæĶ¿åĮº ç»´æĬ¤åĽ½å®¶å®īåħ¨
æīĵ åį°
å°½ è´£
Ġåľ¨ ä¸Ńåįİäººæ°ĳåħ±åĴĮåĽ½å¢ĥåĨħ
ç§ĳåŃ¦æĬĢæľ¯ äººåĳĺ
ç¿ °
èıľ åĵģ
æĬĹ éľĩ
æįĲèµł è´¢äº§
åİĨåı² ä¸Ĭ
ç¬¬ä¸ĢçĻ¾éĽ¶ åħ«æĿ¡
ç¬¬ä¸ĢçĻ¾éĽ¶ äºĮæĿ¡
ç¬¬ä¸ĢçĻ¾ä¸Ģåįģ ä¸ĢæĿ¡
è¡¨çİ° åĩº
éĵģè·¯ è¿Ĳè¾ĵä¼ģä¸ļ
å¤ļç§į æĸ¹å¼ı
èĢģå¹´äºº æĿĥçĽĬä¿Ŀéļľæ³ķ
202 3
å®īç½® åľ°
æłĳ æľ¨
ç»Ħç»ĩçļĦ åĲĪæ³ķæĿĥçĽĬ
ç¬¬ä¸ĢçĻ¾äºĮåįģ æĿ¡
çķľç¦½ åħ»æ®ĸ
åł ¤
åł µ
è¯ģåĪ¸äº¤æĺĵ åľºæīĢ
æĭĽæłĩ äºº
ä¼ĺæĥł æĶ¿çŃĸ
æĶ¶åıĸ è´¹çĶ¨
æľ¬çº§ æĶ¿åºľ
åĨľæĿĳåľŁåľ°æī¿åĮħ æ³ķ
åį¸ è´§
ä½ıæĪ¿ åĴĮ
ä¸įæŃ£å½ĵ æīĭæ®µ
çļ® èĤ¤
ä¸»è§Ĥ æĸ¹éĿ¢
ä¼ļåĲĮåĽ½åĬ¡éĻ¢æľīåħ³éĥ¨éĹ¨ åĪ¶å®ļ
æ¶īæ¡Ī è´¢çī©
åĪĽå»º ä¸Ģä¸ª
æľīæīĢ ä¸įåĲĮ
ç´¯ è®¡
åĽ½æ°ĳç»ıæµİåĴĮç¤¾ä¼ļåıĳå±ķ è®¡åĪĴ
èĩ´äºº éĩįä¼¤
ä¸»äºº åħ¬
åķĨæ£Ģ æľºæŀĦ
æĺĵçĩĥ æĺĵçĪĨ
èµĭ äºĪ
å±ŀäºİåĽ½å®¶ æīĢæľī
ä¾µçĬ¯çļĦ å®¢ä½ĵ
åĮºåĿĹ éĵ¾
åĨľæĿĳåľŁåľ°æī¿åĮħç»ıèĲ¥ çºłçº·
å¹³åı°åĨħ ç»ıèĲ¥èĢħ
Ġhel p
: ï¼Ī
d e
Ġ ä¸İ
çļĦ æĿĲæĸĻ
çļĦ æŀĹæľ¨
åı ī
äºº æľī
åĴĮ ä¼ģä¸ļ
æ° ¯
åĽ½ æ³ķå¾ĭ
éĢ ¼
éĹ ª
ä¸į åºĶ
åºĶå½ĵ ä½ľåĩº
çĶŁ çĲĨ
ä¸º åĩĨ
æĺ¯ çĶ±äºİ
èĥ İ
åĪ¶ åīĤ
æĹ¶ åºĶ
åĲĮ äºĭ
å¹¶ å®ŀæĸ½
åİ ĺ
ç¨ ®
æľīåħ³ åĽ½å®¶æľºåħ³
èĤ ¢
èĪ Ĩ
éĩĳ åĴĮ
æĺİ å¤©
ä¾Ŀæ³ķ è¿½ç©¶æ³ķå¾ĭè´£ä»»
æĬ¥ çľģ
æľ¬æ³ķ æĸ½è¡Į
ç¬¬ä¸ī äººçļĦ
æıĲä¾Ľ çļĦæ³ķå¾ĭ
å°Ĩ åľ¨
çİ° çĬ¶
ä¿ĿæĬ¤ åĮº
æ°´ å·¥ç¨ĭ
çĶŁäº§ åĴĮ
ä¸ªäºº è´¢äº§
ä¿¡æģ¯ ç½ĳç»ľ
ç¼ ĺ
æĽ´ ä¸º
æķĻèĤ² åŁ¹è®Ń
æĹł åĬĽ
çº¦ ç¿°
ä¿ĿéĻ© äºĭæķħ
çİ¯å¢ĥ åĴĮ
æŃ¤ ç±»
éĢļè¿ĩ çļĦ
è´Łè´£ ç»Ħç»ĩ
ä»¥åıĬ çĽ¸åħ³
æĤ¨ åı¯ä»¥åĲĳ
åıĺ åĬ¨
Ġa m
è½¬ ç§Ł
æľĪ ä»½
å½ĵäºĭäºº åľ¨
å°± åı¯ä»¥
æıĲåĩº å»ºè®®
è¯·æ±Ĥ èµĶåģ¿
åħ¨åĽ½äººæ°ĳä»£è¡¨å¤§ä¼ļ ä»£è¡¨
20 00
20 19
æīĢå¾Ĺ é¢Ŀ
å®¢ è¿Ĳ
è´¨éĩı ç®¡çĲĨ
Ġs ol
æıĲé«ĺ æķĪçİĩ
è¡ĮæĶ¿æ³ķè§Ħ è§Ħå®ļçļĦ
æİ§åĪ¶ æİªæĸ½
åĲĪçĲĨ ç¡®å®ļ
æł· æľ¬
å®ŀéĻħ ä¸Ĭ
å¼ºåĪ¶ éļĶç¦»
æĲ ¬
Ġm ore
çĶŁçī© å¤ļæł·æĢ§
å±Ĭåħ¨åĽ½äººæ°ĳä»£è¡¨å¤§ä¼ļå¸¸åĬ¡å§Ķåĳĺä¼ļ ç¬¬ä¸īåįģ
æµ·åħ³ çĽĳç®¡
éī´ å®ļçļĦ
èĳĹ åĲį
as ed
æ³¨æĦı äºĭé¡¹
åĩºèµĦ çļĦ
çĶŁæĪĲ ä¸Ģé¦ĸ
ç¤¾ä¼ļä¿ĿéĻ© æ³ķ
æķ°é¢Ŀ çī¹åĪ«
èįīåİŁ è¡ĮæĶ¿ä¸»ç®¡éĥ¨éĹ¨
æĭħä¿Ŀ çļĦ
è¡Ķ çº§
é¸ £
Ġåİ¿çº§ä»¥ä¸Ĭäººæ°ĳæĶ¿åºľ åºĶå½ĵå°Ĩ
åĲĦèĩª èģĮè´£
åĮ»çĸĹåį«çĶŁ äººåĳĺ
å®¤ åĨħ
è¯ĬæĸŃ åĴĮæ²»çĸĹ
åħ¨ä½ĵ åĲĪä¼Ļäºº
ç»© æķĪ
æľºåĻ¨åŃ¦ä¹ł ç®Ĺæ³ķ
æĹłéļľç¢į çİ¯å¢ĥ
æĳĦ åħ¥
çĵ ¦
æĻĭ çº§
ä¸įå¾Ĺä»¥ ä»»ä½ķ
éĤ» å±ħ
ç¬¬äºĶçĻ¾ ä¸Ģåįģ
èº«å¿ĥ åģ¥åº·
çĸı æķ£
èģĬ å¤©
å©ļå§»åħ³ç³» åŃĺç»ŃæľŁéĹ´
åĢ¡ å¯¼
æ²ĻåĮĸ åľŁåľ°
èĩªçĦ¶ä¿ĿæĬ¤ åľ°
æļĤäºĪçĽĳå¤ĸ æī§è¡Į
Ġint o
çī¢ ä¸Ńåįİæ°ĳæĹıåħ±åĲĮä½ĵæĦıè¯Ĩ
éĢĤé¾Ħ åĦ¿ç«¥
è°¨ æħİ
éªļ æī°
éĵ¸ çī¢ä¸Ńåįİæ°ĳæĹıåħ±åĲĮä½ĵæĦıè¯Ĩ
f ul
h at
Ġ åĴĮ
Ġ à°
çļĦ å»ºè®¾
çļĦ å½¢å¼ı
çļĦ ç²¾ç¥ŀ
çļĦ èĳ£äºĭ
æľī è§Ħå®ļçļĦ
æĬ Ħ
éĢ ¸
è§Ħ æł¼
æĪĸèĢħ æĵħèĩª
åľ¨ ä¸į
åºĶå½ĵ åĳĬçŁ¥
åºĶå½ĵ å°Ĭéĩį
çº ²
ä¸º æ®ĭçĸ¾äºº
å¯¹ åħ¬åı¸
åı¯ä»¥ èĩª
ç»ı ä¾Ŀæ³ķ
çŃī è¡Įä¸º
æĥ ľ
éĥ¨éĹ¨ åĴĮ
åĲĮ ç±»
ç®¡çĲĨ åįķä½į
éĢļ çĶ¨çļĦ
å§ ¿
èĤ º
æ¬¾ çī©
äººåĳĺ è¿Ľè¡Į
æĪĳ åĸľæ¬¢
å¦Ĥ æŃ¤
åĨħ æ²³
çĽ¸ åĬł
åıĹ æ¬¢è¿İ
å®īåħ¨ éĺ²èĮĥ
ä¿¡ ä»¶
æĺİ ä»¤
ä¾Ŀæ³ķ ä½ľåĩº
è¢« ç»§æī¿äºº
è¿Ļ æľīåĬ©äºİ
å±ķ çİ°
å°Ĩ éĿ¢ä¸´
éĩĩ çº³
æµ· æ»©
åıį å®¶åºŃæļ´åĬĽ
æŃ£ ä¹ī
æ°´ éĩı
æ°´ åºĵ
è¯¥ ä¼ģä¸ļ
æĻ Ĵ
æĤ ł
çĶµ ä»·
ä¸ªäºº æīĢå¾Ĺç¨İ
ä¸įå¾Ĺ åĪ©çĶ¨
çľ ·
çļĦè§Ħå®ļ åĬŀçĲĨ
éĽĨ èµĦ
ä»¥åıĬ ä¸İ
é£Ł æĿĲ
æıĲåĩº å¼Ĥè®®
è´Ń æĪ¿
å¸® æī¶
èģĮä¸ļ èµĦæł¼
äº¤éĢļ ç®¡åĪ¶
èģĶ åĲį
çĶŁæĢģ çł´åĿı
å®ĥ æĺ¯
æ¯ı æľĪ
èĳ ¬
èįī åľ°
åıĳçİ° æľī
éĿŀæ³ķ åįłæľī
å¿ħé¡» åľ¨
éĻĦ è¿ĳ
åģļ åĪ°
å¾Ī å¥½
éĥ¨åĪĨ æ³ķå¾ĭçļĦåĨ³å®ļ
å¤ĸåĽ½ åĽ½å®¶
èĤ¡ä¸ľ çļĦ
åŃĺåľ¨ çļĦ
åĮºåŁŁ çļĦ
æµ·äºĭ èµĶåģ¿è´£ä»»éĻĲåĪ¶
éļı æĦı
æĹłæ³ķ ç¡®å®ļ
çĶµå½± ä¸»ç®¡éĥ¨éĹ¨
éĢĶ ä¸Ń
å°±ä¸ļ ä¿ĥè¿Ľæ³ķ
åįıåķĨ ä¸Ģèĩ´
è´Ńä¹° çļĦ
æī¾ åĩº
æµ·ä¸Ĭ äº¤éĢļå®īåħ¨
è´¢åĬ¡ çĬ¶åĨµ
éĻĲæľŁ æĶ¹æŃ£
çĥŃ çĪ±
Ġe ach
æīĭç»Ń çļĦ
ç´§ å¼ł
çŃ¾è®¢ ä¹¦éĿ¢
ä¸įæĸŃ åıĳå±ķ
ĠT his
è¡ĮæĶ¿å¤Ħç½ļ åĨ³å®ļ
å±ħä½ı çļĦ
Ġth an
æ´ª æ°´
åľ°éľĩ çģ¾
åħ³äºİä¿®æĶ¹ éĥ¨åĪĨæ³ķå¾ĭçļĦåĨ³å®ļ
é¡¾ å®¢
çļĦåįķä½į æĪĸèĢħä¸ªäºº
ä¸ļä¸» å§Ķåĳĺä¼ļ
ä¹ĺ ä»¥
æµĭç»ĺ åľ°çĲĨä¿¡æģ¯
åĩĢ åĮĸ
åħ±æľī äºº
å¤ı å¤©çļĦ
ç¦ıåĪ© å¾ħéģĩ
èĬĤçº¦ èĥ½æºĲ
æĶ¶åħ» åħ³ç³»
ä¹¡æĿĳ æĮ¯åħ´
ä¸ĩåħĥä»¥ä¸ĬäºĮåįģ ä¸ĩåħĥä»¥ä¸ĭç½ļéĩĳ
pt ions
å¹¶å¤ĦäºĶ ä¸ĩåħĥä»¥ä¸ĬäºĶåįģä¸ĩåħĥä»¥ä¸ĭç½ļéĩĳ
åħ½ èį¯
Ġcom p
åĨħå¹ķ ä¿¡æģ¯
ç»ıå¸¸å±ħæīĢ åľ°æ³ķå¾ĭ
çīŁ åıĸ
è´© åįĸ
èµİ åĽŀ
åħ¨æ°ĳæīĢæľīåĪ¶å·¥ä¸ļä¼ģä¸ļ æ³ķ
ç¤¾ä¼ļä¸»ä¹īå¸Ĥåľº ç»ıæµİ
æµĭç»ĺåľ°çĲĨä¿¡æģ¯ ä¸»ç®¡éĥ¨éĹ¨
' m
G AN
X X
c ul
m e
m ise
Ã ©
Ġ #
Ġ V
Ġ åĮ»çĸĹæľºæŀĦ
Ġ çĽĳå¯Łæľºåħ³
Ġ åľ°æĸ¹åĲĦçº§äººæ°ĳä»£è¡¨å¤§ä¼ļ
Ġ çŁ¿å±±
äºº å¤§
æ³ķ äººæĪĸèĢħ
åĴĮ ä¸İ
è¡Į è´¿
æī «
ä¸Ģ éĥ¨
åįģ åĪĨ
åºĶ äºĪ
åºĶ éĢī
åľ¨ åĲĦèĩªçļĦèģĮè´£èĮĥåĽ´åĨħ
ä¸į å¿ħè¦ģçļĦ
ä¸į æĺİçļĦ
åºĶå½ĵ æĺİç¡®
åºĶå½ĵ éħįåĲĪ
èµ ¢
åħ¶ ä¸ŃçļĦ
ä¸º æĪĳ
åľ° æĪĸèĢħ
ä¸ī æĹ¥åĨħ
åı¯ä»¥ æıĲä¾Ľ
åı¯ä»¥ è®¾ç«ĭ
æıĲ åĢ¡
å¹¶ éĿŀ
å¹¶ æĬ¥åĳĬ
åĪĨ åĮº
åĪĨ æĳĬ
è¯· åħĪ
åıĸ ç¼Ķ
æ¡ ĥ
æĪĳ æ²¡æľī
å®īåħ¨ äºĭä»¶
äººæ°ĳæĶ¿åºľ æī¹åĩĨ
åĬł çıŃ
è¢« è§Ĩä¸º
è¿Ļ å®¶
è§£ çŃĶ
ç¬¬ä¸ī æ¬¡ä¿®æŃ£
éĩĩ çłĤ
çİ° æľī
æ°´ æ±¡æŁĵéĺ²æ²»
åĨľ ä½ľçī©
éĿ¢ è¯ķ
åľº é¦Ĩ
æĬĢæľ¯ çłĶç©¶
ä¸įå¾Ĺ è½¬è®©
åĲĦ æĸ¹éĿ¢
èĬĤ æĹ¥
èĬĤ çĽ®
å¼º å¥¸
åĲĪåĲĮ æĺ¯
è´¢äº§ ä»½é¢Ŀ
ä½Ĩ æĪĳ
å¤ĦçĲĨ ç»ĵæŀľ
ç±» ä¼łæŁĵçĹħ
æĶ¾ è¡Į
å¹³ æĹ¶
æĺĵ äºİ
èĪ¹ åıª
ĠåĽ½å®¶ éĩĩåıĸæİªæĸ½
ä¿Ŀéļľ å·¥ä½ľ
å¥³ åŃ©
èŃ¦ æĪĴ
ä¸ŃåĽ½ æĶ¿åºľ
æľīæĿĥ åľ¨
åħ¬åħ± äº¤éĢļå·¥åħ·
é£İ æĻ¯
çī¹åĪ« æĺ¯
ä½ľåĩº åĨ³è®®
åĭ Ĵ
å¸®åĬ© ä½ł
ç¦ģ æ¯Ĵ
ä¸ļåĬ¡ ç»ıèĲ¥èĢħ
æĥ³ è±¡
æ°ĳäºĭ åħ³ç³»
an ge
åİ¿çº§ä»¥ä¸Ĭäººæ°ĳæĶ¿åºľ æľīåħ³éĥ¨éĹ¨
å·²ç»ı æĪĲä¸º
è¿ĩç¨ĭ ä¸ŃçļĦ
åĲĪä½ľ åĴĮ
æ³ķå®ļ ä»£è¡¨
åŁºæľ¬ åĨľçĶ°
éĿŀå¸¸ éĩįè¦ģ
æ³ķäºº èµĦæł¼
å½Ĵ ç±»
åįıåķĨ ç¡®å®ļ
Ġto tal
æĭįåįĸ äºº
æķ°é¢Ŀ å·¨å¤§æĪĸèĢħæľīåħ¶ä»ĸ
èĦ ¸
å¦» åŃĲ
æķħæĦı ä¼¤å®³
å·¥ä¼ļ æ³ķ
ä¸ĵåĪ© çĶ³è¯·
Ġre turn
ç¬¬ä¸ĢçĻ¾éĽ¶ åĽĽæĿ¡
ç¬¬ä¸ĢçĻ¾ä¸Ģåįģ åħŃæĿ¡
åĲĪåĲĮçļĦ çº¦å®ļ
Ġy ear
æĢ§è´¨ çļĦ
æĲľ æķĳ
ĠI t
ä»ĸä»¬çļĦ å¯¹è¯ĿåĨħå®¹
ç«ĭæ³ķ ä¼ļè®®
åĨĴ åħħ
ä¸įåĬ¨äº§ æĪĸèĢħ
ä¸įåĬ¨äº§ çĻ»è®°
å®Ĺ æĹ¨
ä»¥ä¾¿ æĽ´å¥½åľ°
åºĶå½ĵéĩĩåıĸ æľīæķĪæİªæĸ½
ä¸¾åĬŀ çļĦ
åĲ¬åıĸ åĴĮ
ä¼ģä¸ļäºĭä¸ļåįķä½į åĴĮåħ¶ä»ĸçĶŁäº§ç»ıèĲ¥èĢħ
çŃ¾åıĳ çļĦ
é«ĺæķĪ çļĦ
åķĨä¸ļç§ĺå¯Ĩ åĴĮä¸ªäºº
å¾ĩç§ģèĪŀå¼Ĭ çļĦ
èĳĹä½ľ æĿĥäºº
æķ°åŃ¦ éĹ®é¢ĺ
åħ¼ ä»»
èį£èªī ç§°åı·
æ´¾åĩº æľºæŀĦ
æłĩåĩĨåĮĸ è¡ĮæĶ¿ä¸»ç®¡éĥ¨éĹ¨
æĹ¥ç¬¬åįģäºĮ å±Ĭåħ¨åĽ½äººæ°ĳä»£è¡¨å¤§ä¼ļå¸¸åĬ¡å§Ķåĳĺä¼ļç¬¬äºĮåįģ
æ³¨éĶĢ çĻ»è®°
æİĴæ±¡ åı£
åĪĨä¹ĭä¸Ģ ä»¥ä¸Ĭ
åĨ³ç®Ĺ èįīæ¡Ī
çķħ éĢļ
æĹ¥ç¬¬åįģä¸Ģå±Ĭåħ¨åĽ½äººæ°ĳä»£è¡¨å¤§ä¼ļå¸¸åĬ¡å§Ķåĳĺä¼ļç¬¬åįģ æ¬¡ä¼ļè®®
åĿļæĮģä¸ŃåĽ½åħ±äº§åħļ çļĦé¢Ĩå¯¼
ç¬¬åįģäºĮ ç«ł
æ»ŀçº³ éĩĳ
G o
S W
f t
© åĽº
Ġ ë
Ġ ä»£è¡¨
Ġ è¿Ŀåıį
Ĭ æĪ
çļĦ åĬ¨çī©
çļĦ å¤ĦåĪĨ
çļĦ æŃ¥éª¤
æ³ °
è¿ ª
åįģ ä¸ī
çĽ Ĩ
æĪĸèĢħ æĭĴç»Ŀ
å· ©åĽº
åľ¨ å¢ĥåĨħ
åºĶå½ĵ ä¿Ŀè¯ģ
æŀ Ŀ
å¯¹ æŃ¤
ä¸Ń æľĢ
åľ° åĽ¾
éĥ¨ ä½į
ï¼ī âĢľ
åĵ Ħ
ä¸ĭ çº§äººæ°ĳæ³ķéĻ¢
åĲĮ åŃ¦
ç®¡çĲĨ è§Ħå®ļ
ç¨ į
åħ¶ä»ĸ åĲĪä¼Ļäºº
åĪĨ å±ħ
çĻ ¼
èģĮ åľº
è¯· ç»ĻæĪĳ
èĤ ´
è®® äºĭ
ä»£ æĽ¿
æĶ¶ æ¬¾
ä¾Ŀæ³ķ åıĸå¾Ĺ
åĲİ æĿ¥
è¢« å®£åĳĬ
è¢« ç§°ä¸º
è¡Įä¸º ä¹ĭä¸ĢçļĦ
æĹ¥ ä»¥åĨħ
ä»¥ä¸ĭ ç»Łç§°
ä»£è¡¨ åĢĻéĢīäºº
æıĲä¾Ľ æĬĢæľ¯
éĶ ģ
éĻĲ åº¦
å°ı åĮº
æĿ¥ çľĭ
éĻ¤ ä»¥
è®° è¿ĩ
äººæ°ĳæ³ķéĻ¢ åıĹçĲĨ
éĩĩåıĸ è¡¥æķĳæİªæĸ½
é¢Ŀ å¤ĸ
ä½ł æĺ¯
æī§è¡Į å®Įæ¯ķ
å¹³ éĿ¢
åı£ ç½©
æĢ» ç½²
çĤ¹ çļĦ
åħ¨åĽ½ çļĦ
ç¬¦åĲĪ åĽ½å®¶
æ¶Ī å¤±
åıĬæĹ¶ å¤ĦçĲĨ
èµĦæºĲ åĴĮ
åıĬåħ¶ è¿ĳäº²å±ŀ
åıĬåħ¶ æ³ķå®ļä»£çĲĨäºº
è½¦ èĪ¹
èģĮä¸ļ ä¸Ńä»ĭ
æĻºèĥ½ æīĭæľº
ä½ľåĩº è¯´æĺİ
è¿½ è¯ī
æĪĸèĢħåħ¶ä»ĸ æľīåħ³éĥ¨éĹ¨
at ing
ä¸ĵä¸ļ çļĦ
åīįæ¬¾ æīĢåĪĹ
å°ıæĺİ åĴĮ
åħ±åĲĮ çļĦ
èİ· æķĳ
ç»´æĬ¤ ä¿Ŀåħ»
äºĴ åĬ©
åį±å®³ çļĦ
ç²¾ åĬĽ
äººæ°ĳæ£Ģå¯ŁéĻ¢ çļĦ
åİ» å¹´
åĲĮæĦı çļĦ
ar d
æ£ĢéªĮ åĲĪæł¼
é¢Ĩå¯¼ æľºæŀĦ
ç»ĦæĪĲ äººåĳĺçļĦ
ä¸Ńå¤® åĴĮåľ°æĸ¹
å¤ĦäºĶ æĹ¥ä»¥ä¸ĭæĭĺçķĻ
æ¢ ģ
è£ģå®ļ ä¹¦
è°ĥæķ´ æĸ¹æ¡Ī
åĴĮç¤¾ä¼ļ åħ¬åħ±åĪ©çĽĬ
æĭĽ çĶ¨
å»¶ è¯¯
æķ°é¢Ŀ è¾ĥå¤§çļĦ
èĦ ı
æıı ç»ĺ
æī§æ³ķ äººåĳĺ
åį±éĻ©åĮĸåŃ¦åĵģ å®īåħ¨
Ġå¯¹ åľ¨
æķ£ æŃ¥
ac e
ä»į ä¸įèĥ½
èıľ åįķ
ç»Ļåĩº æİ¨çĲĨè¿ĩç¨ĭ
ç¬¬ä¸ĢçĻ¾ä¸Ģåįģ æĿ¡
èĭ± åĽ½
ç¼ĵ æľŁ
ä¼¼ ä¹İ
å§ĵ æ°ı
Ġg o
éĨ ĭ
å®Įæķ´ æĢ§
åĲ¨ ç¨İ
ç¬¬ä¸ĢåįĥéĽ¶ åħŃåįģ
èµĦè´¨ çŃīçº§
é¸¡ èĽĭ
åºĶæĢ¥å¤Ħç½® æİªæĸ½
ä¾¨ çľ·
åºĶçº³ç¨İ æīĢå¾Ĺé¢Ŀ
ç»ĻåĩºçŃĶæ¡Ī çĦ¶åĲİåĨį
å°¾ çŁ¿
è¿ĩåįĬæķ° éĢļè¿ĩ
åŁºéĩĳç®¡çĲĨ äººçļĦ
æł¹æį®ä¸ŃåĽ½ æ³ķå¾ĭ
æģ¶åĬ£ çļĦ
æİ§èĤ¡ èĤ¡ä¸ľ
é¢Ħéĺ²æľªæĪĲå¹´äººçĬ¯ç½ª æ³ķ
æľªä½ľ è§Ħå®ļçļĦ
æĦıå¤§åĪ© éĿ¢
Ġad d
ä¸ªå·¥ä½ľ æĹ¥åĨħ
èĤĮ èĤī
éº»éĨī èį¯åĵģ
äºĮåįģåĽĽ å°ıæĹ¶
Ġass ist
èĪĨ è®º
å¼ºåĪ¶éļĶç¦» æĪĴæ¯Ĵ
è¯·åħĪ ç»ĻåĩºçŃĶæ¡ĪçĦ¶åĲİåĨį
è¯·åħĪç»ĻåĩºçŃĶæ¡ĪçĦ¶åĲİåĨį ç»Ļåĩºæİ¨çĲĨè¿ĩç¨ĭ
W e
n ot
o o
o v
v ent
w e
ç µ
Ġ ä¿ĿéĻ©
Ġ ç½ĳç»ľ
Ġ äººæ°ĳèŃ¦å¯Ł
çļĦ ä¸Ģä¸ª
çļĦ æłĩåĩĨ
çļĦ è®¾è®¡
çļĦ æĸ¹éĴĪ
äºº æĪĸ
åĬ Ŀ
åĴĮ äºº
åĴĮ æľī
åĴĮ åı¯
åĴĮ è¡Įä¸º
ä»¥ æıĲé«ĺ
ä¸Ģ åįĥ
ä¸Ģ å¼ł
ä¸Ģ æĿ¯
å½ĵ ä»£
æĪĸèĢħ ä¸įèĥ½
æĪĸèĢħ åħ¨éĥ¨
ä¸į åĽł
åºĶå½ĵ ä»İ
åºĶå½ĵ åĩºç¤º
çĶŁ æĹ¥
å¯¹ è¿Ŀæ³ķ
èĥ ¸
åıĳ åĽŀ
ä¸ĭ ä¸Ģä¸ª
çī© æĿĥçļĦ
æĹ¶ åĪ»
äºĶ åĢįä»¥ä¸ĭçļĦç½ļæ¬¾
åİ ļ
ä»» æĦı
åĽ½å®¶ æĺİä»¤
æīĢ æĮģ
åĽĽ æ¬¡ä¼ļè®®
çħ§ çīĩ
åĪĨ ç¦»
å¹´ ä»½
éģ ©
åıĸ åĩº
äºĨ è®¸å¤ļ
ä¸İ åĬ³åĬ¨èĢħ
çĽ¸ è¡Ķæİ¥
åĲĳ åħ¶
ä¾Ľ è¿°
åĬł çĽĸ
è¢« çĽĳæĬ¤äººçļĦ
æĹ¥ ç¬¬ä¸ĥ
åĽ½åĬ¡éĻ¢ èį¯åĵģçĽĳçĿ£ç®¡çĲĨéĥ¨éĹ¨
éľĢè¦ģ èĢĥèĻĳ
éľĢè¦ģ å»¶éķ¿
ç»Ļ åħ¶ä»ĸ
ä½¿çĶ¨ äºĨ
ç¤¾ä¼ļ æ³ķ
å¸¸ å¸¸
éĹ´ çļĦ
è¯¥ å¦Ĥä½ķå¤ĦçĲĨ
éĿ¢ åĲĳ
çĶµ åĻ¨
åĲį ä¸º
æĮĩ æİ§
è´¨ æĿĥäºº
æĭħ å¿ĥ
ä¸ĵ æľī
éĻ¤ åĲį
æĹł å±ħæ°ĳæµ·å²Ľ
é¢Ħ è®¢
éĢī åĩº
äººæ°ĳæ³ķéĻ¢ åı¯ä»¥
å¤ļ åħĥ
çĽ¸åħ³ æ³ķå¾ĭè§Ħå®ļ
ç¨İ çĽ®
å¯¼ æ¸¸
çĬ¯ç½ª æ¡Īä»¶
çĬ¯ç½ª äºĭå®ŀ
åľ°æĸ¹ æĶ¿åºľ
ä½ł åľ¨
Ġt w
åı¯èĥ½ å¯¹
ç¾ Ĭ
èģĶ åĭ¤
Ġs um
å¤© ç©º
è¡¥ æŃ£
ä¸ĵä¸ļ äººå£«
æ°ĳäºĭ èµĶåģ¿è´£ä»»
éĵ¶è¡Į è´¦æĪ·
å·²ç»ı è¢«
Ġc ount
éĽ¶ åĶ®
å®£ æī¬
é¥ ª
ç²¾ åĩĨ
æ³ķå®ļ èģĮè´£
éĤ£ ä¸ª
çľĭ æ³ķ
éĢīä¸¾ çļĦ
æľªç»ı çĻ»è®°
ç¯ ®
åºĶå½ĵä¾Ŀæ³ķ æī¿æĭħèµĶåģ¿è´£ä»»
è§£éĻ¤ åĬ³åĬ¨åĲĪåĲĮ
éĿŀå¸¸ æĦŁè°¢
æ°ĳçĶ¨ æŀªæĶ¯
ç»¼åĲĪ æĢ§
åįĩ çº§
åĲ« éĩı
èº«ä»½ è¯ģæĺİ
åĿļæĮģ ä»¥
çı ¾
æ²¹ æ±¡
å°ģ åŃĺ
æī¶ è´«
ä¸¤ä¸ª æķ°åŃĹ
æŃ»äº¡ æĪĸèĢħ
èº«ä½ĵ çļĦ
ç¬¬ä¸ĢçĻ¾éĽ¶ ä¸ĥæĿ¡
ç¬¬ä¸ĢçĻ¾éĽ¶ äºĶæĿ¡
åį° èĬ±
æĪ¿å±ĭ çļĦ
æĸ½å·¥ åįķä½į
ä¸įäºĪ åıĹçĲĨ
æ¾³éĹ¨çī¹åĪ«è¡ĮæĶ¿åĮº æĶ¿åºľ
æľ¨ æĿĲ
éĢĥ éĢ¸
çĻ¾åĪĨä¹ĭ äºĮåįģ
ol d
åªĴ ä»ĭ
æĭŁ è®¢
åł ¡
ç®¡éģĵ ä¼ģä¸ļ
å¦Ĥå®ŀ è®°å½ķ
åħ¬è¯ģ åĳĺ
çĨ Ĭ
ä¿Ŀåģ¥ é£Łåĵģ
æİ¥ç§į åįķä½į
è¿ģ ç§»
od e
åħĪè¿Ľ çļĦ
æ½ľ åĬĽ
å®ĹæķĻ ä¿¡ä»°
çªģåıĳåħ¬åħ±åį«çĶŁäºĭä»¶ åºĶå¯¹
æĬķæłĩ äºº
ä¸įæŃ£å½ĵ åĪ©çĽĬ
èľ ľ
ä¸ĩåħĥä»¥ä¸Ĭä¸ĢçĻ¾ ä¸ĩåħĥä»¥ä¸ĭç½ļæ¬¾
æĳĬ æ´¾
ç»´æĬ¤èĩªå·±çļĦ æĿĥçĽĬ
ç§ĳåŃ¦æĬĢæľ¯çłĶç©¶å¼Ģåıĳ æľºæŀĦ
å®ŀè´¨ æĢ§
ä»»ä½ķç»Ħç»ĩæĪĸèĢħä¸ªäºº ä¸įå¾Ĺ
ä»»ä½ķç»Ħç»ĩåĴĮä¸ªäºº ä¸įå¾Ĺ
çĥ¹ é¥ª
ä¸įåı¯ç§»åĬ¨ æĸĩçī©
ä»¥èĩªå·±çļĦ åĲįä¹ī
çī¹åĪ«ç¨ĭåºı æ³ķ
å®ı è§Ĥ
èĩªæ²»æĿ¡ä¾ĭ åĴĮåįķ
æµ·äºĭè¯īè®¼ çī¹åĪ«ç¨ĭåºıæ³ķ
ä½ıæĪ¿åĴĮ åŁİä¹¡å»ºè®¾
SW AP
èĩªæ²»æĿ¡ä¾ĭåĴĮåįķ è¡ĮæĿ¡ä¾ĭ
9 0
b ox
s o
´ éĢī
æ ª
Ġ éĢļè¿ĩ
Ġ å¤ĸåĽ½äºº
Ġ æ°ĳæĹıèĩªæ²»åľ°æĸ¹çļĦèĩªæ²»æľºåħ³
çļĦ èģĮä¸ļ
çļĦ ç»Ħç»ĩåĴĮä¸ªäºº
çļĦ ç»ĦæĪĲäººåĳĺ
ãĢĤ ãĢĲ
åĴĮ è¦ģæ±Ĥ
ä¼ Ĭ
ä»¥ åħ¶ä»ĸ
ä»¥ æļ´åĬĽ
æľī ä¸ĢäºĽ
ä¸Ģ æĹ¥
èĢħ åĴĮ
æĹ ±
æĪĸèĢħ ä»İäºĭ
æĪĸèĢħ æľªç»ı
æĪĸèĢħ åıĺæĽ´
åºĶå½ĵ åĪ¶ä½ľ
è§Ħå®ļ æĿ¡ä»¶çļĦ
æĺ¯ éĢļè¿ĩ
æľ¬ åľ°
æľ¬ æĿ¡ä¾ĭ
çŃī å½¢å¼ı
æĹ¶ èµ·
å¹¶ åĳĬçŁ¥
å¹¶ æĬ¥åĽ½åĬ¡éĻ¢
ç®¡çĲĨ çŃī
ç¨ ¿
çĶ± æ³ķå¾ĭè§Ħå®ļ
å®ŀ ä¹ł
åĪĨ æĪĲ
å¤§ è§Ħæ¨¡
éģ ´éĢī
èĤ ĩ
æĪĳ ä¹Ł
å¿ Į
æ¸ £
çĽ¸ ç¬¦
å§Ķ æ´¾
è¿Ľè¡Į æ¸ħç®Ĺ
å®īåħ¨ æĬĢæľ¯
å®īåħ¨ æĬĢæľ¯è§ĦèĮĥ
æĢ§ éĹ®é¢ĺ
è¢« çĽĹ
æİ¥ è¿ĳ
ä½¿çĶ¨ æĪĸèĢħ
ä½¿çĶ¨ è´¹
çī¹ æĿĥ
æ°´ è¡ĮæĶ¿
è¯¥ æ³ķ
åķĨ åľº
åĪĹ è½¦
éª ĳ
åįİ ä¾¨
è¦ģæ±Ĥ èµĶåģ¿
å¥½ å¤Ħ
éĽĨ åĽ¢
ä¸Ńåįİäººæ°ĳåħ±åĴĮåĽ½ æ³ķå¾ĭ
è´§ è¿Ĳ
æĶ¾ ç½®
æ³ķè§Ħ è§Ħå®ļçļĦåħ¶ä»ĸ
in k
åŃĺ æĶ¾
Ġa pp
åĪ¶å®ļ åĴĮ
ä¸¥éĩį å½±åĵį
ä¸¥éĩį åĲİæŀľçļĦ
æī¹åĩĨ æĿĥçļĦ
æİĴ æ°´
æĴ °
å·² è¢«
æ¸ħ éĻ¤
é£İ æļ´
æ· ĭ
å¿ĥ åĴĮ
ç¤º ä¾ĭ
éĢĢ è´§
åģľ æ³Ĭ
en g
æķ°æį® éĽĨ
æĸĩåĮĸ ä¸»ç®¡éĥ¨éĹ¨
äºĪä»¥ èŃ¦åĳĬ
åį±éĻ© æºĲ
åį±éĻ© è´§çī©
èİ· çī©
æĦıè§ģ çļĦ
éģĹ å±ŀ
è¯ģæĺİ ä¹¦
åĲĪçĲĨ å®īæİĴ
æľŁéĹ´ ä¸º
åį±å®³ æĢ§
** .
åħ¸ åŀĭ
çĭ¬ ä»»
æī¿åĮħ åįķä½į
è½» æĪĸèĢħåĩıè½»
éĩĳèŀį æľįåĬ¡
ç§ĳæĬĢ çļĦ
æıĲèµ· çļĦè¯īè®¼
å®ĮæĪĲ çļĦ
ĠåĽ½åĬ¡éĻ¢ æľīåħ³éĥ¨éĹ¨
æĿİ æŁĲ
è®¸åı¯è¯ģ æĪĸèĢħ
ç®Ģ åĮĸ
om e
æĸĩæľ¬ ä¸ŃçļĦ
æµ·æ´ĭ çİ¯å¢ĥä¿ĿæĬ¤
ç®¡åĪ¶ çī©é¡¹
ä¸ªæľĪ åĨħ
åĽ½æľī çĭ¬èµĦ
åħ¶ä¸Ń åĮħæĭ¬
åĩºå¢ĥ çļĦ
åĸľ å¥½
åħ¬åĬ¡ çļĦäººåĳĺ
Ġh ave
ç¬¬ä¸Ģæ¬¾ è§Ħå®ļçļĦ
æ¡£æ¡Ī é¦Ĩ
åĳĺå·¥ çļĦ
ç«ŀäºī å¯¹æīĭ
æĶ¾å°ĦæĢ§ æ±¡æŁĵéĺ²æ²»
ç¬¬ä¸īçĻ¾ åħ«åįģ
ĠS t
æĬķåħ¥ ä½¿çĶ¨
æĢ§è´¨ åĴĮ
åľ°éľĩ çĽĳæµĭ
åĨĽéĺŁ åĲİåĭ¤
æİ¥åĪ° ä¸¾æĬ¥
è®¡ç®Ĺæľº è§Ĩè§ī
ç®¡éģĵ ä¿ĿæĬ¤
ä¹Ļ æĸ¹
æĭĸ æ¬ł
çĶµä¿¡ ä¸ļåĬ¡ç»ıèĲ¥èĢħ
Ġä¸ºäºĨ è§ĦèĮĥ
å¯»æ±Ĥ å¸®åĬ©
åģ¶ æķ°
æ¦Ĥ æĭ¬
è®¨è®º åĨ³å®ļ
çĶ±åħ¬å®īæľºåħ³ ä¾Ŀæ³ķç»ĻäºĪæ²»å®īç®¡çĲĨå¤Ħç½ļ
åºĶå½ĵäºĪä»¥ éħįåĲĪ
æł¸å¿ĥ ä»·åĢ¼è§Ĥ
çī¹ç§įè®¾å¤ĩå®īåħ¨ æ³ķ
æ°¸ä¹ħ åŁºæľ¬åĨľçĶ°
æīĢå±ŀ çļĦ
ç£ ¨
è¿Ŀæ³ķçĬ¯ç½ª è¡Įä¸º
åħ·ä½ĵåĬŀæ³ķçĶ±åĽ½åĬ¡éĻ¢ è§Ħå®ļ
åħµå½¹ æľºåħ³
æľīæ¯Ĵ æľīå®³çī©è´¨
Ġsp ec
æĭ¼ åĨĻ
è´«åĽ° åľ°åĮº
é¹ ¿
çĶ·å¥³ åıĮæĸ¹
è´£ä»¤åģľäº§ åģľä¸ļæķ´é¡¿
æŀģç«¯ ä¸»ä¹ī
åħĦ å¼Ł
æī¿æĭħä¿Ŀè¯ģ è´£ä»»
åĽ½å¢ĥ åį«çĶŁæ£Ģçĸ«
åĭ¾ ç»ĵ
åĮĸåĲĪ çī©
å®īç½®åľ° äººæ°ĳæĶ¿åºľ
box ed
) )
3 6
8 0
\ ]
d ef
Û Į
è ¤
Ġ å¼Ģå±ķ
Ġ 200
Ġ åĨľæ°ĳä¸ĵä¸ļåĲĪä½ľç¤¾
Ġ æħĪåĸĦç»Ħç»ĩ
Ġ é«ĺçŃīåŃ¦æł¡
Ġ ä¿ĿéĻ©åħ¬åı¸
çļĦ è®¾æĸ½
çļĦ è®¾ç«ĭ
çļĦ æľªæĪĲå¹´äºº
çļĦ ä¾Ŀæį®
çļĦ èĩªçĶ±
ä»¥ å¸®åĬ©
æľī æī¹åĩĨæĿĥçļĦ
ä¸Ģ æ¬¾
æĬ Ľ
åºĶ åĲĳ
å¯ ¸
æĪĸ ä¸į
æĹ ģ
ä¸į åĲĪæł¼
åºĶå½ĵ åĲĮæĹ¶
åºĶå½ĵ ç»ĵåĲĪ
äººæ°ĳ çļĦ
å° ī
å¯¹ åı¯èĥ½
å¯¹ æľªæĪĲå¹´äºº
äº§ æĿĥçļĦ
æĺ¯ åĽ½å®¶
æĺ¯ åĽłä¸º
éĥ¨ éķ¿
è¦ģ æ³¨æĦı
åı¯ä»¥ çĶ¨
ç»ı äººæ°ĳæ³ķéĻ¢
æľ¬ äººçļĦ
çŃī è¿Ľè¡Į
çī© èģĶç½ĳ
çİ »
åĽ½å®¶ åĬłå¼º
åĽ½å®¶ éĢļçĶ¨è¯Ńè¨ĢæĸĩåŃĹ
æīĢ æıĲä¾ĽçļĦ
çĶ± å¸ĤåľºçĽĳçĿ£ç®¡çĲĨéĥ¨éĹ¨
åĪĨ è§£
çĻ Į
æ³ķå¾ĭ åı¦æľīè§Ħå®ļçļĦ
éģ ĬæĪ
æł¹æį® é¢ĺçĽ®
è¿ĩ æĪ·
å·¥ä½ľ æķĪçİĩ
å®īåħ¨ ä¿Ŀåį«
æĺİ çĻ½
ä¾Ŀæ³ķ äº«åıĹ
æĬ¥ çº¸
ä¸ĥ æĹ¥åĨħ
è¢« ä¾µå®³
æĹ¥ åİĨ
éľĢè¦ģ éĩĩåıĸ
æĮīçħ§ åħ¶
é«ĺ ä¸Ń
åĨľ æĪ·
æºĲ å¤´
æĸ° å¢ŀ
æľĢ å¥½çļĦ
ä¸Ńåįİäººæ°ĳåħ±åĴĮåĽ½ åĪĳäºĭè¯īè®¼æ³ķ
ä¹Ł å°Ĩ
åıĺ æĪĲ
åıĺ éĿ©
åĸ ·
æī¿æĭħ çĽ¸åºĶ
ĠåĽ½å®¶ å®īåħ¨
ç¬¦åĲĪ æľ¬æ³ķ
æ³¨ å°Ħ
ç»ĻäºĪ å¤Ħç½ļ
æĪĳä»¬ å°Ĩ
è®© ä½ł
æıĲåĩº çĶ³è¯ī
è¯·æ±Ĥ æĿĥ
åĽŀ å®¶
å®¹ çķĻ
å¼ķ äºº
æĦŁ çŁ¥
at a
äºĪä»¥ å¤Ħç½ļ
è¯Ń åı¥
åį±éĻ© æĸ¹æ³ķ
åīįæ¬¾ æīĢç§°
éĵ¶è¡Į æĪĸèĢħåħ¶ä»ĸéĩĳèŀįæľºæŀĦ
å°ıæĺİ æľī
å¼Ģåıĳ åķĨ
åºĶå½ĵæĮīçħ§ æľīåħ³è§Ħå®ļ
äºĮåįģ ä¸ĩåħĥä»¥ä¸ĬäºĮçĻ¾ä¸ĩåħĥä»¥ä¸ĭçļĦç½ļæ¬¾
é¼ĵåĬ± åĴĮ
è¯Ħä¼° ç»ĵæŀľ
ç¾İ æľ¯
æĵ ĩ
åĨĽäºĭ è®Ńç»ĥ
Ġp er
åĨĻ æĺİ
è¾ĥ é«ĺ
èµĦéĩĳ åĴĮ
åĤ¨ èĵĦ
åĨĽäºº éħįåģ¶
é¦ĸ å¸Ń
çĶ¨æĪ· ä½ĵéªĮ
çī©åĵģ ç§į
çŁ¥è¯Ĩ çļĦ
Ġin d
æ¶īåıĬ åĽ½å®¶ç§ĺå¯Ĩ
ic t
åħ¬å¸ĥ ä¹ĭæĹ¥èµ·
çļĦæĿĥåĪ© ä¹īåĬ¡
çĽ®çļĦ çļĦ
æĭįåįĸ èĪ¹èĪ¶
äººåı¯ä»¥ è¯·æ±Ĥ
æİ¢ æµĭ
æĴŃ æĶ¾
æµ·ä¸Ĭ è®¾æĸ½
å°ģ éĹŃ
åĩĨç¡® çļĦ
çİ¯ä¿Ŀ çļĦ
æĶ¶åħ¥ çļĦ
ä¸¥æł¼ æİ§åĪ¶
æķ°åŃĹ åĮĸ
æĶ¶éĽĨ è¯ģæį®
ç¼º å¸Ń
å¾® ä¿¡
ç¬¬ä¸īçĻ¾ åĽĽåįģ
éĻĨ çĶŁ
çĻ¾åĪĨä¹ĭ ä¸īåįģ
åŁºäºİ ä»¥ä¸ĭ
ation s
ç¬¬ä¸ĢçĻ¾äºĮåįģ ä¸īæĿ¡
è®¡ç®Ĺæľº ç§ĳåŃ¦
ä¹Ļ åħ¬åı¸
æĹ¥å¸¸ å·¥ä½ľ
un ction
æĬ½ éĢĥ
å¤ı åŃ£
ä¸ĵé¡¹ è§ĦåĪĴ
è¾ħ å¯¼
æĺİæĺ¾ çļĦ
çĥ¤ ç®±
å¦¥åĸĦ å®īç½®
çĶ±åİ¿çº§ä»¥ä¸Ĭåľ°æĸ¹äººæ°ĳæĶ¿åºľ åĨľä¸ļåĨľæĿĳä¸»ç®¡éĥ¨éĹ¨
åı¯ä»¥å¹¶å¤Ħ äºĶ
è½¬åĮĸ ä¸º
çĽ¸å¯¹ äºº
å¤ľ æĻļ
æ»© æ¶Ĥ
ä¿Ŀåħ¨ æİªæĸ½
ä¸Ĭå¸Ĥè®¸åı¯ æĮģæľī
çİ¯å¢ĥè´¨éĩı æłĩåĩĨ
Ġal l
ç¥ĸ åĽ½
ä¸Ńèį¯ æĿĲ
ç»ĳæŀ¶ çļĦå¦ĩå¥³
æ¶Īè´¹èĢħæĿĥçĽĬ ä¿ĿæĬ¤æ³ķ
åŃ¤ çĭ¬
ç½ĳä¿¡ éĥ¨éĹ¨
åĬ³åĬ¨äºīè®®è°ĥè§£ ä»²è£ģæ³ķ
éģ¸ æĵĩ
ç«ĭæ³ķä¼ļè®® åĳĺ
ä¸įåĬ¨äº§æĪĸèĢħ åĬ¨äº§
éģĬæĪ ²
. ,
p er
r ight
« åĬ©
Ð ¾
Ø ±
Ù Ĩ
ï ½
Ġ ä»»ä½ķåįķä½įåĴĮä¸ªäººä¸įå¾Ĺ
çļĦ åħ±åĲĮ
çļĦ å®¶åºŃ
çļĦ æľĢé«ĺ
çļĦ ä½ľçĶ¨
çļĦ ä½ľåĵģ
è¯ «
åĴĮ åĮ»çĸĹ
åĴĮ åºĶçĶ¨
åĴĮ ä¿®å¤į
è´ ¬
æľī ä»»ä½ķ
æľī åīįæ¬¾è§Ħå®ļ
æľī è¯ģæį®è¯ģæĺİ
æī İ
å¹ «åĬ©
æĪĸ æĺ¯
æĪĸ ä¸ªäºº
åĮ ¹
æĪĸèĢħ äººæ°ĳæ³ķéĻ¢
æĪĸèĢħ åıĳçİ°
åºĶå½ĵ åħ·æľī
äººæ°ĳ ç¾¤ä¼Ĺ
å¯¹ åħ¶ä»ĸ
æĢ ł
ä¸Ĭ åįĩ
åı¯ä»¥ å¾Ĺåĩº
çŃī æĥħå½¢
ä¸ª ç³ĸæŀľ
èģ ª
å¹¶ èİ·å¾Ĺ
å¹¶ åĲĳç¤¾ä¼ļåħ¬å¸ĥ
å¹¶ è¯´æĺİçĲĨçĶ±
è¿Ľ åº¦
åĽ½å®¶ ä¿ĿæĬ¤
ç®¡çĲĨ äººåºĶå½ĵ
çĶ± åħ¨åĽ½äººæ°ĳä»£è¡¨å¤§ä¼ļå¸¸åĬ¡å§Ķåĳĺä¼ļ
åĵģ å°Ŀ
æľīåħ³ è¡ĮæĶ¿éĥ¨éĹ¨
å¤§ çº¦
å¹´ æ»¡
è¡ĮæĶ¿ ç®¡çĲĨ
æĦ Ī
åıĸ ä»£
å·¥ä½ľ å²Ĺä½į
å·¥ä½ľ åįıè°ĥæľºåĪ¶
ç¬¬äºĮ ä¸ª
åįķä½į æĪĸèĢħ
åįķä½į çĬ¯
åĲĳ ä»ĸäºº
è¢« è®¤ä¸ºæĺ¯
è¿Ļ æĺ¯ä¸Ģ
éĺ² éľĩ
è§£ èģĺ
æıĲä¾Ľ çļĦæĥħåĨµ
æĮīçħ§ çº¦å®ļ
æ°´ æ±¡æŁĵçī©æİĴæĶ¾
æ³ķéĻ¢ çļĦ
æĬĢæľ¯ äººåĳĺ
ä¸įå¾Ĺ æľīä¸ĭåĪĹè¡Įä¸º
ä¿¡æģ¯ å®īåħ¨
å¼º ä»¤
åĲĪåĲĮ å±¥è¡Į
éĢī åĿĢ
è´¢äº§ åĪĨåī²
å¦Ĥæŀľ æŁĲ
å¤ĦçĲĨ è®¾æĸ½
ç¬¬åħŃ èĬĤ
æľĢ å¥½
æľĢ æĸ°çļĦ
æł¸ æĿĲæĸĻ
è¯Ħ æłĩ
ä¼ļè®® è®®ç¨ĭ
ç»ĻäºĪ è¡¥åģ¿
è®© ä»ĸä»¬
è´£ä»¤ åħ³éĹŃ
è½¦ ç«Ļ
è£ħ ç®±
è´¨éĩı éĹ®é¢ĺ
æ¯ı æĹ¥
å§Ķæīĺ äººçļĦ
åŃ¦æł¡ åıĬåħ¶ä»ĸ
è®º æĸĩ
åºĶå½ĵæĮīçħ§ åĽ½å®¶è§Ħå®ļ
å¸Ĥåľº ä»·æł¼
åİ¿çº§ä»¥ä¸Ĭåľ°æĸ¹äººæ°ĳæĶ¿åºľ åıĬåħ¶æľīåħ³éĥ¨éĹ¨
æĸ¹æ³ķ çļĦ
åºĶè¯¥ å¦Ĥä½ķå¤ĦçĲĨ
Ġo ther
æīĢåľ¨ çļĦ
ä¹¦éĿ¢ åĳĬçŁ¥
ar k
çŁ¥è¯Ĩ äº§æĿĥçļĦ
æĸĩç«ł çļĦ
æ¤į çī©çļĦ
çĸĳ éĹ®
æľŁè´§ ç»ĵç®ĹæľºæŀĦ
ç¾¤ åĽ¢
å®¡çĲĨ çļĦ
åįıåķĨ ä¸įæĪĲçļĦ
çĽĳçĿ£æ£ĢæŁ¥ èģĮè´£
ç«łç¨ĭ çļĦè§Ħå®ļ
èĦ Ĩ
è´¢åĬ¡ éĥ¨éĹ¨
æķħæĦı æĪĸèĢħéĩįå¤§
èĩªçĶ± åĴĮ
å·¥ä¼ļ å§Ķåĳĺä¼ļ
æķ£ å¸ĥ
åĲĬéĶĢ åħ¶
æĬĹ è¾©
èĻļåģĩ è®°è½½
æ²»çĸĹ æĸ¹æ¡Ī
ç¬¬ä¸ĢçĻ¾ä¸Ģåįģ åĽĽæĿ¡
æĭĴä¸į æī§è¡Į
ä¸įæĸŃ åľ°
è¯» èĢħ
ç¤¾ä¼ļä¸»ä¹ī æł¸å¿ĥä»·åĢ¼è§Ĥ
å¤Ħåįģ ä¸ĩåħĥä»¥ä¸ĬäºĶåįģä¸ĩåħĥä»¥ä¸ĭçļĦç½ļæ¬¾
è¾¾æĪĲ ä¸Ģèĩ´
çªģåıĳäºĭä»¶ çļĦ
åĲĦçº§äººæ°ĳä»£è¡¨å¤§ä¼ļ å¸¸åĬ¡å§Ķåĳĺä¼ļ
è¿Ŀçº¦ éĩĳ
å®¶åºŃæķĻèĤ² ä¿ĥè¿Ľæ³ķ
æµĭç»ĺ æĪĲæŀľ
ç¬¬ä¸ĢåįĥéĽ¶ ä¹Ŀåįģ
ay s
çĶ±çľģ çº§ä»¥ä¸Ĭäººæ°ĳæĶ¿åºľ
å·§ åħĭ
æĺ¾èĳĹ ä½įç½®
æī¹è¯Ħ æķĻèĤ²
ä¸įèī¯ è¡Įä¸º
æĥħåĨµçļĦ æĬ¥åĳĬ
åıĳæĺİ åĪĽéĢł
ä¸ĵä¸ļæĬĢæľ¯ äººåĳĺ
og le
æĹ¥ç¬¬åįģä¸ī å±Ĭåħ¨åĽ½äººæ°ĳä»£è¡¨å¤§ä¼ļå¸¸åĬ¡å§Ķåĳĺä¼ļç¬¬äºĮåįģ
æĿĢ äºº
åĬłå¤§ å¯¹
çĴ ĥ
æ°¸ä¹ħæĢ§ å±ħæ°ĳ
ä¸įå¾Ĺå¯¹ æĬĹ
æ±¤ å§Ĩ
éĩįçĤ¹ä¿ĿæĬ¤ éĩİçĶŁåĬ¨çī©
Ġprov ide
æľīéĴĪå¯¹ æĢ§çļĦ
ä¹Ķ æ²»
åķĨä¸ļç§ĺå¯ĨåĴĮä¸ªäºº éļĲç§ģ
çİ» çĴĥ
æķħæĦıæĪĸèĢħéĩįå¤§ è¿ĩå¤±
' re
. ãĢĬ
j ect
n ow
Ġ Y
Ġ åħ¶ä»ĸ
Ġ å¥½çļĦ
Ġ å±ħæ°ĳå§Ķåĳĺä¼ļ
çļĦ äº¤æĺĵ
çļĦ åľºæīĢ
çļĦ ç½ªçĬ¯
åĴĮ å¯¹
åĴĮ ç»ıæµİ
åĴĮ æĶ¹è¿Ľ
åĴĮ ä¿¡æģ¯åĮĸ
ä»¥ éģ¿åħį
ä¼ļ è§ģ
åĮ Ļ
æĪĸèĢħ æįŁåĿı
åľ¨ è¿Ľè¡Į
ä¸į æĮīçħ§
åºĶå½ĵ æĬ¥
åºĶå½ĵ ä¾Ŀæį®
åºĶå½ĵ æıĲäº¤
åºĶå½ĵ äºĭåħĪ
æŀ ī
äºĭ è¿¹
è¦ģ ç´ł
åı¯ä»¥ èĩªè¡Į
ç»ı æī¹åĩĨçļĦ
åĪ¶ çļĦ
çŃī åĬŁèĥ½
ä¸ª èĭ¹æŀľ
æĹ¶ åħī
åĽ½å®¶ ç»Łä¸Ģ
åĪĨ æķ£
æľīåħ³ åľ°æĸ¹äººæ°ĳæĶ¿åºľ
æľīåħ³ è¡ĮæĶ¿ä¸»ç®¡éĥ¨éĹ¨
æľīåħ³ åĨĽäºĭæľºåħ³
å¤§ åľ°
å¹´ ä»£
åŃ¦ ä¸ļ
èģĮ æĿĥçļĦ
å·¥ä½ľ ä¸ļ
æ¡ Į
æĪĳ è§īå¾Ĺ
è¿Ľè¡Į äº¤æĺĵ
èĲ Ŀ
è¢« å®¡è®¡
åĽł ä¸įåı¯æĬĹåĬĽ
åĽ½åĬ¡éĻ¢ åĴĮ
æĮģ èĤ¡
æ°´ è·¯
åīį çļĦ
è¯¥ æĢİä¹ĪåĬŀ
éĩı çļĦ
ä¸įå¾Ĺ ä¸İ
ä¸įå¾Ĺ æ³Ħéľ²
åĲĦ æĹı
æľįåĬ¡ ä½ĵç³»
éĻ¤ æ³ķå¾ĭ
åĲĪåĲĮ çºłçº·
åĮ» åĬ¡
äººæ°ĳæ³ķéĻ¢ çļĦ
è´¢äº§ æĿĥåĪ©
ä¿ĿéĻ© ä¸ļåĬ¡
å¤ĦçĲĨ æĸ¹å¼ı
å¤ĦçĲĨ ä¸ªäººä¿¡æģ¯
æī§è¡Į ä»»åĬ¡
å¤± æķĪ
ä¸Ńåįİäººæ°ĳåħ±åĴĮåĽ½ åħ¬æ°ĳ
ä¸Ńåįİäººæ°ĳåħ±åĴĮåĽ½ åħ¬åı¸æ³ķ
ä»¥åıĬ åľ¨
è´§ èĪ¹
åıĺ è¿ģ
åħ» æĪĲ
ç»ıæµİ å»ºè®¾
åı¯èĥ½ äº§çĶŁ
ä¼ļè®® è®°å½ķ
çĻ»è®° äºĭé¡¹
åıĬåħ¶ éĻĦå±ŀ
èģĶ è¿Ĳ
å¼ķ é¢Ĩ
èĢĥ åı¤
æĺ¯åĲ¦ è¿ĿåıįäºĨ
åĨľä¸ļ åĴĮ
åŃĹ æł·
èĳ ¡
åħ·æľī æ³ķå¾ĭ
è´¹çĶ¨ åĴĮ
å¸Ĥåľº ä¸»ä½ĵ
ä»ĸäºº è´¢çī©
é» İ
å¹¶å¤Ħ ä¸ī
æĦıè§ģ ä¹¦
é£İéĻ© ç®¡çĲĨ
èį¯åĵģ ä¸Ĭå¸Ĥè®¸åı¯æĮģæľīäºº
åĲĪçĲĨ ä½¿çĶ¨
ä¼Ĺ å¤ļ
ä»ĸä»¬ ä¹ĭéĹ´çļĦ
èģĮåĬ¡ çŃīçº§
ä¸»è¦ģ åĮħæĭ¬
æī¿åĮħ çļĦ
çķĮ éĿ¢
åıĤä¸İ è¡¨åĨ³
Ġb ut
çľĭ çľĭ
æ¨ ª
æĸĩç«ł ä¸Ń
å®ĮæĪĲ ä¸Ģæ®µå¯¹è¯Ŀ
åºĶå½ĵä¾Ŀæ³ķ äºĪä»¥
èģĮå·¥ çļĦ
æĮĩå¯¼ ä¸ĭ
çĶŁäº§ç»ıèĲ¥ åįķä½įçļĦ
è®¾è®¡ åĴĮ
è§ĦèĮĥ æĢ§
çģ¾ éļ¾
æī¿è¿Ĳ äººåºĶå½ĵ
åĬ³åĬ¨èĢħ çļĦ
æ´¾ åĳĺ
as k
èµĦäº§ è´ŁåĢº
æłĩçļĦ çī©çļĦ
å¹¿åĳĬ çļĦ
åĩł ç§į
åĽ½æľī ä¼ģä¸ļ
Ġ2 5
çĥŃ æĥħ
æĬµæĬ¼ äºº
æĬµæĬ¼ è´¢äº§
å¥ĸ éĩĳ
å¥ĸ æĥ©
ä½ĵèĤ² èµĽäºĭ
æĵħèĩª æĶ¹åıĺ
åĲĪæł¼ åĲİ
å²ģ çļĦ
äº§ä¸ļ æĶ¿çŃĸ
Ġ$ $
æ¼Ķ åĳĺ
Ġh ow
é£Łåĵģå®īåħ¨ äºĭæķħ
ä¿Ŀå¯Ĩ è¡ĮæĶ¿ç®¡çĲĨéĥ¨éĹ¨
æĪĲç«ĭ åĲİ
ç¬¬ä¸ĢçĻ¾éĽ¶ åħŃæĿ¡
ç¬¬ä¸ĢçĻ¾ä¸Ģåįģ ä¹ĿæĿ¡
ç¬¬ä¸ĢçĻ¾ä¸Ģåįģ ä¸īæĿ¡
å¡ ŀ
Ġl a
æľīéĻĲ åĲĪä¼Ļäºº
æĬ¢ å¤º
èĢĥæł¸ è¯Ħä»·
æĪĳä»¬çļĦ çĶŁæ´»
çĭ¬ç«ĭ çļĦ
ç´§æĢ¥ æĥħåĨµä¸ĭ
ä½ıæīĢ åľ°çļĦ
ç»ĵæŀĦ åĴĮ
å¹¿æ³Ľ çļĦåºĶçĶ¨
åĮħè£ħ çī©
è¡ĮæĶ¿è®¸åı¯ çļĦ
ç¨³å®ļ æĢ§
è·¨ çľģ
ç¬¬äºĮæ¬¾ è§Ħå®ļçļĦ
ç½ĳç«Ļ çļĦ
åĩĢ èµĦäº§
æĤ¨åı¯ä»¥ èĢĥèĻĳ
æ°ĳä¸» ç®¡çĲĨ
åħ¬åı¸ç«łç¨ĭ çļĦè§Ħå®ļ
å¹³åĿĩ å·¥èµĦ
æĬĺ ä»·
æ²»å®īç®¡çĲĨå¤Ħç½ļ æ³ķ
å®Įåħ¨ æ°ĳäºĭè¡Įä¸ºèĥ½åĬĽ
åħ¼ é¡¾
æ·« ä¹±
å¹´è½» çļĦ
å¹´è½» äºº
æ´¾åĩº æīĢ
ab le
è¡£ æľį
æľŁæ»¡ åĲİ
çĥŁèįī åĪ¶åĵģ
è¾£ æ¤Ĵ
å®ŀçĶ¨ æĸ°åŀĭ
è¢«åĪ¤åĪĳ äºº
è§Ĵèī²ä¿¡æģ¯ å®ĮæĪĲä¸Ģæ®µå¯¹è¯Ŀ
å±ı å¹ķ
çĻ¾åĪĨä¹ĭäºĶ ä»¥ä¸Ĭ
æĦī å¿«
æķ°ç½ª å¹¶ç½ļ
åĶ¯ ä¸Ģ
è´¢æĶ¿æĢ§ èµĦéĩĳ
åŁºäºİä»¥ä¸ĭ è§Ĵèī²ä¿¡æģ¯å®ĮæĪĲä¸Ģæ®µå¯¹è¯Ŀ
éĺ²éľĩ åĩıçģ¾
å·§åħĭ åĬĽ
" ãĢĤ
C h
b y
Ù ħ
é ł
Ġ æĬĢæľ¯
Ġ æķĻèĤ²
Ġ èĩªçĦ¶äºº
çļĦ æĸĩçī©
çļĦ æ¯Ķä¾ĭ
çļĦ é¢ľèī²
äºº ä»¥ä¸Ĭ
åĲ ¹
æ³ķ åĽ½
æ³ķ å®ļçļĦ
åĴĮ å¤Ħç½®
ç¬¬ X
ä»¥ ä¹¦éĿ¢å½¢å¼ı
è¡Į æ´ª
ä¸Ģ ç»Ħ
ä¸Ģ å¤©
åħ³ åĬ¡
åľ¨ å¯¹
åľ¨ åĽ½åĬ¡éĻ¢
åľ¨ ä½¿çĶ¨
åľ¨ æµ·ä¸Ĭ
åºĶå½ĵ åħħåĪĨ
ä¸º ä¾Ŀæį®
ç« ¹
æĺ¯ å¤ļå°ĳ
æĺ¯ æŃ£ç¡®çļĦ
åı¯ä»¥ è´£ä»¤
åı¯ä»¥ èĩªæĶ¶åĪ°
å®¶ ä¸Ń
å®¶ åĽŃ
åŁ ĥ
å¹¶ æıĲåĩº
ä¸» è§Ĵ
æĸ½ å·¥ä½ľä¸ļ
åĪĨ æĭħ
æľīåħ³ äººæ°ĳæĶ¿åºľ
éĺ Ķ
è¡ĮæĶ¿ æĭĺçķĻ
èĤ ¯
æł¹æį® åħ·ä½ĵæĥħåĨµ
éľ į
éľ ľ
ä»¥ä¸Ĭ äºĮ
æľª éĩĩåıĸ
äº¤ çº³
å¤ĸ æĿ¥
æľºåħ³ è´¢åĬ¡éĥ¨éĹ¨
æī¿ åĬŀ
åĪ° çļĦ
å±ķ å¼Ģ
æ£Ģ å®ļ
çī¹ è®¸
æľį åĪĳ
å¸¸ çĶ¨çļĦ
æ°´ åĴĮ
åķĨ æłĩçļĦ
è´¹ åĴĮ
èµ· èįī
åİŁ ä»¶
åŃĲ éĩĮ
éķ ľ
çĶµ åķĨ
ä¸įå¾Ĺ çĶ¨äºİ
æĮĩ ä½¿
éķ¿ åĴĮ
äººæ°ĳæ³ķéĻ¢ æĪĸèĢħ
ä¾Ŀçħ§ æ³ķå®ļç¨ĭåºı
åĿ Ŀ
çĬ¯ç½ª åĲįç§°
Ġt e
å¤į åį°
å¦Ĥæŀľ åıĳçİ°
åĴĮåĽ½ éĻħ
ä¸Ńåįİäººæ°ĳåħ±åĴĮåĽ½ æĶ¿åºľ
ä¸Ńåįİäººæ°ĳåħ±åĴĮåĽ½ åĽ½ç±į
å®ŀæĸ½ çĽĳçĿ£æ£ĢæŁ¥
in ce
è¿ĺ éľĢ
èĪ¹ ä¸Ĭ
ä¸¥éĩį çĸ¾çĹħ
ç´ «
æİ¨ æĸŃ
åı¯èĥ½ åıĳçĶŁ
è¯Ħ è®®
å½ĵäºĭäºº ä¹ĭéĹ´
æ¶Ī æģ¯
æİĴ æŁ¥
æĻº åĬĽ
äº¤éĢļ èŃ¦å¯Ł
çī¹åĪ« è§Ħå®ļ
è¾¾ æłĩ
ä»İäºĭ åħ¬åĬ¡çļĦäººåĳĺ
åĪĳäºĭ å¤Ħç½ļçļĦ
çĥ Ĥ
èİ İ
Ġthe ir
æĦŁ åħ´è¶£
æľŁéĻĲ ä¸º
Ġs ec
è¿Ŀåıįæľ¬æ³ķ è§Ħå®ļçļĦ
ç§ĳåŃ¦ è®ºè¯ģ
åį³ æĹ¶
æİ¥åıĹ çĽĳçĿ£
è¯ģæĺİ åħ¶
çĶµåŃĲ æķ°æį®
é¢ĨåŁŁ çļĦåºĶçĶ¨
çĶ±åĽ½åĬ¡éĻ¢ æ°ĳçĶ¨èĪªç©ºä¸»ç®¡éĥ¨éĹ¨
é¦Ļ èķ
ä½ľä¸º ä¸Ģä¸ª
å¾Ī å¤§çļĦ
æĻ® æĥł
äººæĪĸèĢħ ç®¡çĲĨäºº
è¡Įä¸ļ çļĦ
åĮºåŁŁ èĩªæ²»
ĠåĽ½åĬ¡éĻ¢ è¯ģåĪ¸çĽĳçĿ£ç®¡çĲĨæľºæŀĦ
ĠåĽ½åĬ¡éĻ¢ æľīåħ³éĥ¨éĹ¨åĴĮ
éģĩ éĻ©
éģĩ åĪ°äºĨ
éĿŀå¸¸ æľī
èĻļ æĬ¥
åĵª ç§į
è¾¹ è¿ľ
è¯´æĺİ æĥħåĨµ
å¦ĩå¥³ çļĦ
æķĳåĬ© æĬ¥éħ¬
ä¼ļè®¡ åĪ¶åº¦
åĪĨç±» ä¸º
åĪĨç±» ç®¡çĲĨ
å¿ħè¦ģçļĦ æĹ¶åĢĻ
é¦Ļæ¸¯çī¹åĪ«è¡ĮæĶ¿åĮº åŁºæľ¬æ³ķ
æ±ĩ æĢ»
ç®¡è¾ĸ æµ·åŁŁ
åºĶå½ĵåĲĳ ç¤¾ä¼ļ
ç§ĳåŃ¦æĬĢæľ¯ çłĶç©¶
ä½ĵèĤ² è¡ĮæĶ¿éĥ¨éĹ¨
æİ¨å¹¿ åºĶçĶ¨
åıĭ å¥½
åį° åıĳ
æ¸¯åı£ ç»ıèĲ¥
è§ĦåĪĻ åĴĮ
å¾Ģ æĿ¥
è¡ĮæĶ¿å¤Ħç½ļ çļĦ
éŁ³ä¹Ĳ åĴĮ
æĿ¡æ¬¾ çļĦ
çĶ¨éĢĶ çļĦ
è®¾åĮºçļĦå¸Ĥ çº§
åľ°éľĩ çģ¾å®³
ç²®é£Ł çĶŁäº§
ç¬¬ä¸ĢçĻ¾äºĮåįģ ä¸ĢæĿ¡
åĩºåħ· èĻļåģĩ
åĭĺ å¯Ł
ç§įåŃĲ çĶŁäº§ç»ıèĲ¥
ä¸»ä»» ä¼ļè®®
å¤§æ°Ķ æ±¡æŁĵçī©æİĴæĶ¾
æ³ķå¾ĭæ³ķè§Ħ åĴĮ
åĮĹ æŀģ
æľªæĮīçħ§ çº¦å®ļ
ç¬¬åĽĽçĻ¾ ä¸Ģåįģ
çŀĴ æĬ¥
è¿Ľåĩºåı£ è´§çī©
ç¹ģ èį£
ä¸¾è¡Į ä¼ļè®®
Ġå½ĵäºĭäºº å¯¹
ä¸ĩåħĥä»¥ä¸ĬäºĮåįģ ä¸ĩåħĥä»¥ä¸ĭç½ļæ¬¾
æĪª æŃ¢
åľŁå£¤æ±¡æŁĵ é£İéĻ©ç®¡æİ§
è¯·æł¹æį®ä¸ĭéĿ¢ çļĦçĬ¯ç½ª
æŃ»åĪĳ ç¼ĵæľŁ
å¯¹å¤ĸè´¸æĺĵ ä¸»ç®¡éĥ¨éĹ¨
ä¸ºæĤ¨ æıĲä¾Ľ
å¤±ä¸ļ ä¿ĿéĻ©
èĲ¥éĶĢ çŃĸçķ¥
æĩ Ĥ
Ġsu b
æĪĸèĢħä»¥åħ¶ä»ĸ æĸ¹å¼ı
æĸĩä»¶åĴĮ èµĦæĸĻ
èĭ¥å¹² äºº
æ·ĺæ±° çļĦ
å¹¶äºĪä»¥ åħ¬åĳĬ
çŁ¥æĤīçļĦ åĽ½å®¶ç§ĺå¯Ĩ
çĽĪ ä½Ļ
åĽŀå¤į çĬ¯ç½ªåĲįç§°
ç§įè´¨ èµĦæºĲ
è¯ļå®ŀ ä¿¡çĶ¨
é¢ĨåľŁ å®Įæķ´
æĭ¦ æĪª
åıĹæķĻèĤ² èĢħ
åĨľæ°ĳåĴĮ åĨľä¸ļçĶŁäº§ç»ıèĲ¥ç»Ħç»ĩ
åħ¬åħ±èĪªç©º è¿Ĳè¾ĵä¼ģä¸ļ
åĭ¤åĭī å°½è´£
éļ¶ å±ŀ
åİĺ ç±³
é¦Ļèķ ī
) ;
ì Ŀ
Ġ {
Ġ æĶ¿åºľ
Ġ éĿŀ
Ġ åĪ©çĶ¨
Ġ æĿĳæ°ĳå§Ķåĳĺä¼ļ
Ġ å®¡è®¡æľºåħ³
Ġ æµ·èŃ¦æľºæŀĦ
çļĦ æľºæŀĦ
çļĦ åĲĪåĲĮ
çļĦ æĸĩåĮĸ
çļĦ è¿ĩç¨ĭ
åį §
è¯ ¸
åľ £
åĴĮ ç»´æĬ¤
åĴĮ çĲĨè§£
è¡Į çºª
æľī è®¸å¤ļ
ä¸Ģ éģĵ
ä¸Ģ éĥ¨åĪĨ
åºĶ æī¿æĭħ
å· ¾
åľ¨ åħ¨åĽ½äººæ°ĳä»£è¡¨å¤§ä¼ļ
åºĶå½ĵ ç§¯æŀģ
å° į
ä¸º æŃ¢
å¯¹ ç¬¦åĲĪ
ä¸ī ç§į
ä¸Ĭ æµ·
åı¯ä»¥ ç»Ħç»ĩ
åı¯ä»¥ åĪ¶å®ļ
çŃī æīĭæ®µ
ä¸ĭ èĲ½
å¹¶ æĮīçħ§è§Ħå®ļ
åİ ī
æīĢ æ¬ł
ç®¡çĲĨ æĿĥéĻĲ
æľīåħ³ å·¥ä½ľ
ä¸İ æ¡Īä»¶
ä¸İ åģ¥åº·
æľª è®°è½½
è¿Ľè¡Į çĽĳæµĭ
è¿Ľè¡Į åįıåķĨ
è¿Ľè¡Į éī´å®ļ
ä¾Ŀæ³ķ æŁ¥å¤Ħ
åĲĳ æµ·åħ³
ç»Ħç»ĩ æ³ķ
çĿ Ľ
æ¯ «
è¢ Ń
è¢« å®³
è¡Įä¸º ä¹ĭä¸Ģ
åŁº åĩĨ
æ°´ ä¸Ĭ
è¯¥ åĽ½
åķĨ åºĹ
è´¹ çŃī
æĿ¥ å¤ĦçĲĨ
ä¸įå¾Ĺ ä½¿çĶ¨
æ´»åĬ¨ åĴĮ
éĢĤ åº¦
éĢĤ èĪª
äººæ°ĳæ³ķéĻ¢ åĴĮ
å»ºè®¾ åįķä½įåºĶå½ĵ
å¦Ĥæŀľ æĤ¨çļĦ
éģĵ æŃī
æľĢ æĸ°
è¿Ŀæ³ķ çĶŁäº§
å¤Ħç½ļ åĨ³å®ļ
åıĤ è§Ĥ
è¿ĺ åī©ä¸ĭ
æľĪ çļĦ
he sis
æł¸ å¯¹
ä¸¥éĩį çł´åĿı
ä¸¥éĩį åĲİæŀľ
ĠåĽ½å®¶ æł¹æį®
æİ¨ å®ļ
åĴĮåħ¶ä»ĸ æľīåħ³æ³ķå¾ĭ
è¯ģåĪ¸ åıĳè¡Į
éĢłæĪĲ äººèº«
éĤ ª
åĪ©çĶ¨ çļĦ
åħ¬åħ± è´¢äº§
åħ¬åħ± è®¾æĸ½
åľŁåľ° ä¸Ĭ
è¿½ éĢĲ
èĩ´ æ®ĭ
å¼ķ èĪª
å¼ķ æĵ
æķ°æį® å¤ĦçĲĨ
å©ļ åĲİ
Ġs y
æĺ¯åĲ¦ ä¼ļ
åĬŀçĲĨ çĻ»è®°
ç§Ł èĪ¹
çł´ è£Ĥ
ç¢ ±
åĲĮæĹ¶ åºŁæŃ¢
éĿŀæ³ķ èİ·åıĸ
å·²ç»ı åľ¨
æīĢæľī èĢħ
èĩ³ åħ³
ä¹ĭæĹ¥èµ· äºĶæĹ¥åĨħ
ä¹ĭæĹ¥èµ· ä¸Ģå¹´åĨħ
åİ¿çº§ä»¥ä¸Ĭåľ°æĸ¹äººæ°ĳæĶ¿åºľ åºĶå½ĵ
æĿĲæĸĻ åĴĮ
è¿ĻäºĽ ä¿¡æģ¯
Ġp h
æħ °
å¾Ī å¤§
ä¿ĥè¿Ľ å·¥ä½ľ
å¤ĸåĽ½ æ³ķéĻ¢
è¯ķ åĽ¾
åŃĺåľ¨ éĩįå¤§
le ase
å¯¼èĩ´ çļĦ
è¡Įä¸ļ èĩªå¾ĭ
Ġd og
åıĹåĪ° äºĨ
å§ĭ ç»Ī
ä¹Łåı¯ä»¥ åľ¨
è£ģå®ļ é©³åĽŀ
æħĪåĸĦ æ´»åĬ¨
ä¼łæŁĵçĹħ é¢Ħéĺ²
as s
çī¹æ®Ĭ çļĦ
ç½ªçļĦ ä¸»ä½ĵ
æ®ĭçĸ¾äºº èģĶåĲĪä¼ļ
çºłçº· çļĦ
ç§ĳåŃ¦æĬĢæľ¯ è¿ĽæŃ¥
å«Įçĸĳ äºº
éĩĩè´Ń äºº
çł´äº§ æ¸ħç®Ĺ
ot hesis
å¼ķæ¸¡ æ³ķ
é£Łåĵģå®īåħ¨ çĽĳçĿ£ç®¡çĲĨ
im pl
æ²»çĸĹ çļĦ
ç¬¬ä¸ĢçĻ¾ä¸Ģåįģ äºĮæĿ¡
æī§ä¸ļ æ´»åĬ¨
çŁŃ æĸĩ
ç¬¬ä¸īçĻ¾ ä¹Ŀåįģ
çİĭ åħĪçĶŁ
ç»ĻäºĪèŃ¦åĳĬ æĪĸèĢħ
201 3
è¯ģä»¶ çļĦ
ç¬¬ä¸ĢçĻ¾äºĮåįģ äºĮæĿ¡
ç»¿ åĮĸ
Ġg iven
æĭĸ æĸ¹
ä¿¡çĶ¨ è®°å½ķ
æ¿Ģ åıĳ
Ġä¸ºäºĨ åĬłå¼º
æ³ķæ²» æķĻèĤ²
å¤§æ°Ķ æ±¡æŁĵ
ä¹ĺ å®¢
è¿ĩéĶĻ æĸ¹
éĢłæĪĲä¸¥éĩį åĲİæŀľ
æ±ĩç¥¨ ä¸Ĭ
æ¦Ĥ çİĩ
äººå·¥æĻºèĥ½æĬĢæľ¯ çļĦ
ä¸Ĭè¯ī çĬ¶
æĸĩæĺİ å»ºè®¾
çļĦåŁºæľ¬ åİŁåĪĻ
æĸĩåŃ¦ ä½ľåĵģ
åįļ å£«
éĵ¾ æİ¥
æ°§ æ°Ķ
åıĺéĢł çļĦ
æĹłè®º æĺ¯
åı¯éĿł æĢ§
åĭĩ æķ¢
æµ·äºĭè¯·æ±Ĥ äºº
åĩºåħ¥å¢ĥ è¾¹éĺ²æ£ĢæŁ¥
è¢«è°ĥæŁ¥ äºº
å¹ħ åº¦
æł¹æį®ä»¥ä¸Ĭ æ³ķå¾ĭè§Ħå®ļ
æ»¡åįģ åħŃ
åĲ¬èµ·æĿ¥ å¾Ī
yp othesis
åľ¨åĲĦèĩªèģĮè´£èĮĥåĽ´åĨħ è´Łè´£
Ġres p
æ©Ļ åŃĲ
å¹¶å¤ĦäºĮ ä¸ĩåħĥä»¥ä¸ĬäºĮåįģä¸ĩåħĥä»¥ä¸ĭç½ļéĩĳ
çŁ¿åĮº çĶŁæĢģä¿®å¤į
æİ¥åıĹç¤¾ä¼ļ çĽĳçĿ£
åĭĭ ç«ł
èĽĭçĻ½ è´¨
æ·±è¿ľ çļĦå½±åĵį
æĬ¥åħ¨åĽ½äººæ°ĳä»£è¡¨å¤§ä¼ļå¸¸åĬ¡å§Ķåĳĺä¼ļ å¤ĩæ¡Ī
èĪĨè®º çĽĳçĿ£
åħ¬å¸ĥä¹ĭæĹ¥èµ· æĸ½è¡Į
ç¾¤åĽ¢ ç»Ħç»ĩ
æŀī æ³ķ
å¼ķæĵ İ
5 000
d er
f ere
i P
u al
Ġ éĢīæĭ©
Ġ å¾ĭå¸Ī
Ġ åŁİå¸Ĥ
Ġ ent
Ġ ä¿Ŀéļľæİªæĸ½
Ġ up
ä¸ ¦
äº ¦
çļĦ ç»ıèĲ¥
çļĦ å¸®åĬ©
çļĦ éĻĲåĪ¶
çļĦ åĬŀæ³ķ
åĪ ·
åĴĮ åĪĽæĸ°
ä»¥ ä¿ĿæĬ¤
ä¸Ģ èīĺ
èĢħ æī¿æĭħ
åºĶå½ĵ æĶ¯ä»ĺ
åºĶå½ĵ è®¾ç½®
çº ¹
å¸ Ŀ
ä¸º éĻĲ
å¯¹ æ¶īå«Į
ä¸Ĭ å²Ĺ
æľ¬ åľ°æĸ¹
æľ¬ ç§ĳ
åıĳ åĬ¨æľº
åĵ ¦
æŁ ł
çħ İ
æľŁ ä¸º
æľīåħ³ èµĦæĸĻ
å¤§ ä¼Ĺ
æł¹æį® åĪĳæ³ķ
æł¹æį® æĪĳåĽ½
æł¹æį® å®ŀéĻħæĥħåĨµ
è¿ĩ æ»¤
å¿ §
æĹ¥ åĪ¶
è¿Ļ æĺ¯ä¸Ģéĥ¨
ç»Ļ äºĨ
ä¿ĿæĬ¤ æľºæŀĦ
æµ· åºķ
ä¼ģä¸ļ æīĢå¾Ĺç¨İ
åħ¥ æµ·
åº¦ è¿ĩ
çĶµ ç£ģ
ä¿¡æģ¯ äº§ä¸ļ
æĮĩ åįĹ
åĮħ åºĩ
ä¹ī è¯į
è®° ä½ı
æĹł ç½ª
äººçļĦ åĪ©çĽĬ
éĢī èĤ²
äººæ°ĳæ³ķéĻ¢ åľ¨
äººæ°ĳæ³ķéĻ¢ å®¡çĲĨ
çĽ¸åħ³ äº§åĵģ
ä¿ĿéĻ© è´£ä»»
è¦ģæ±Ĥ å¯¹è¯ĿåĨħå®¹
è¿Ŀåıį æ³ķå¾ĭè§Ħå®ļ
èī °
å®ŀæĸ½ å®¶åºŃæļ´åĬĽ
å±¥è¡Į åĢºåĬ¡
åİ¿çº§ä»¥ä¸Ĭ çļĦåľ°æĸ¹åĲĦçº§äººæ°ĳä»£è¡¨å¤§ä¼ļ
åĬ³åĬ¨ åĬĽ
ç»ĻäºĪ è¡ĮæĶ¿å¤ĦåĪĨ
éħį éĢģ
è´£ä»¤ æļĤåģľ
çĻ»è®° æĹ¶
åĮ»çĸĹ ä¿Ŀéļľ
åĮ»çĸĹ æķĳæ²»
åħ¬åħ± å®īåħ¨çļĦ
æ²¡æľī æ³ķå¾ĭ
æ¸ħ æ´Ĺ
å¯Ĩ éĽĨ
ä¼ĺ èī¯
æ¡Īä»¶ æĹ¶
ä½ľåĩº æĺ¯åĲ¦
ä½ľåĩº åĪ¤åĨ³
æĶ¯ä»ĺ æĸ¹å¼ı
Ġthe y
æĪĲå¹´ äºº
æľŁéĻĲ åĴĮ
æĪ¿ ä¸ľ
çķĻ ä¸ĭ
æ¸¸ å®¢
åį±éĻ© æĢ§
è¡ĮæĶ¿æ³ķè§Ħ åĴĮåĽ½åĬ¡éĻ¢
åıĸå¾Ĺ äºĨ
åĨħå®¹ åĴĮ
å¸Ĥåľº ä»½é¢Ŀ
åĬ¨çī© çĸ«æĥħ
æĺ¯æĮĩ ä»¥
äººå·¥æĻºèĥ½ åı¯ä»¥éĢļè¿ĩ
åģĩ åĨĴ
èį¯åĵģ çļĦ
èį¯åĵģ çĶŁäº§ä¼ģä¸ļ
ç½ĳç»ľ æľįåĬ¡æıĲä¾ĽèĢħ
åºŁ æ°Ķ
çİĩ åĴĮ
è¿Ļä¸ª åı¥åŃĲ
æ¤ ħ
ç²¾ ç¡®
äºĶåįģ ä¸ĩåħĥä»¥ä¸ĬäºĶçĻ¾ä¸ĩåħĥä»¥ä¸ĭçļĦç½ļæ¬¾
å¦Ĥä½ķ åĪ¶ä½ľ
äººæ°ĳæ£Ģå¯ŁéĻ¢ æ£Ģå¯Łéķ¿
Ġb oth
ä»Ģä¹Ī æł·çļĦ
ou s
éļ¾ åº¦
åįł æ¯Ķ
æ®ĭçĸ¾ åĦ¿ç«¥
æıĲèµ· ç¦»å©ļè¯īè®¼
äºĭå®ŀ æ¸ħæ¥ļ
ĠåĽ½åĬ¡éĻ¢ çĶŁæĢģçİ¯å¢ĥä¸»ç®¡éĥ¨éĹ¨
éģĩ æľī
åķĨåĵģ åĴĮæľįåĬ¡
è´¢æĶ¿ ç»ıæµİ
æ¶Īè´¹èĢħ åĲĪæ³ķæĿĥçĽĬ
æĳ Ĩ
åĲįç§° åĴĮ
å°±ä¸ļ æľºä¼ļ
åī¯ èĳ£äºĭéķ¿
åĩºèµĦ ä¼ģä¸ļ
åŁºç¡Ģ çłĶç©¶
èº«ä»½ çļĦ
çĶŁæĪĲ ä»ĸä»¬ä¹ĭéĹ´çļĦ
å°½ åĪ°
ç¤¾ä¼ļä¿ĿéĻ© è¡ĮæĶ¿éĥ¨éĹ¨
æķ°é¢Ŀ çļĦ
ä¿¡æīĺ äºĭåĬ¡
Ġåľ¨ ä¸Ńåįİäººæ°ĳåħ±åĴĮåĽ½
ä¸¤ä¸ª è§Ĵèī²ä¿¡æģ¯
çļĦåħ·ä½ĵ åĬŀæ³ķçĶ±åĽ½åĬ¡éĻ¢
il ity
åįĥåħĥ ä»¥ä¸ĭçļĦç½ļæ¬¾
çĸ«èĭĹ ä¸Ĭå¸Ĥè®¸åı¯æĮģæľīäºº
æŃ£å¸¸ ä½¿çĶ¨
çĬ¯ç½ªå«Įçĸĳ äººçļĦ
ç«ŀäºī åĬĽ
åıĹæīĺ äººçļĦ
è¯¦ç»Ĩ ä¸°å¯Į
æĬķåħ¥ çĶŁäº§
202 4
çī¹çĤ¹ çļĦ
éģŃåıĹ éĩįå¤§æįŁå¤±çļĦ
åĵģç§į çļĦ
åĨľæĿĳéĽĨä½ĵç»ıæµİç»Ħç»ĩ æĪĲåĳĺ
ç®¡çĲĨåĴĮ çĽĳçĿ£
äºĴèģĶç½ĳ æľįåĬ¡æıĲä¾ĽèĢħ
æµª æ¼«
çĶµè§Ĩ åī§
ç»ıéªĮ åĴĮ
ĠåĲĦçº§äººæ°ĳæĶ¿åºľ åıĬåħ¶æľīåħ³éĥ¨éĹ¨
æĳĦ æ°ı
æİĴåºı ç®Ĺæ³ķ
çģŃå¤± çļĦ
çıį æĥľ
æĢĢ çĸĳ
æł¹æį®çĽ¸åħ³ æ³ķè§Ħ
ç¤¾ä¼ļæķĳåĬ© ç®¡çĲĨéĥ¨éĹ¨
çľ¼ çĿĽ
---- ----
åģı å¥½
äººä½ĵ åģ¥åº·
éĢļçĶ¨ èĪªç©º
åĴĮè§£ åįıè®®
éĢĤéĩı çļĦ
éĶħ ä¸Ń
éĶħ çĤī
ä»ª å¼ı
ä»ª åĻ¨
éĿŀçī©è´¨æĸĩåĮĸéģĹäº§ ä»£è¡¨æĢ§
è®²è¿° äºĨ
å¿«éĢĴ ä¸ļåĬ¡
çĶ³è¯·è¡ĮæĶ¿å¤įè®® æĪĸèĢħ
åłĨ æĶ¾
åĹ ¯
ç»Ļä½ł ä¸¤ä¸ªè§Ĵèī²ä¿¡æģ¯
Ġsh ould
é©»å¤ĸå¤ĸäº¤ äººåĳĺ
æ¯ķä¸ļ çĶŁ
å»ºçŃĳæĸ½å·¥ ä¼ģä¸ļ
æİ© é¥°
æľ¬åħ¬åı¸ èĤ¡ä»½
é¡ºåĪ© è¿Ľè¡Į
çŁ¿ä¸ļæĿĥ åĩºè®©
å®ļä½ľ äºº
æĹłæľŁå¾ĴåĪĳæĪĸèĢħ æŃ»åĪĳ
åħįçĸ«è§ĦåĪĴ çĸ«èĭĹ
ä¼łæŁĵçĹħçĹħåİŁ ä½ĵ
éĻĦå¸¦ æ°ĳäºĭè¯īè®¼
æĸĩçī©æĶ¶èĹı åįķä½į
GAN æĬĢæľ¯
èĤĩ äºĭ
è¦ģæ±Ĥå¯¹è¯ĿåĨħå®¹ è¯¦ç»Ĩä¸°å¯Į
çĶŁæĪĲä»ĸä»¬ä¹ĭéĹ´çļĦ ä¸Ģæ®µå¯¹è¯Ŀ
ç»Ļä½łä¸¤ä¸ªè§Ĵèī²ä¿¡æģ¯ å¦Ĥä¸ĭ
o ver
Ð °
ç ¶
Ġ ä¸ª
Ġ ä¸ŃåĽ½
Ġ âĢľ
Ġ ä¸Ńå¤®
Ġ åĬłåħ¥
ī åħ¬
çļĦ ç»ĦæĪĲ
çļĦ åŃ¦çĶŁ
çļĦ è¯Ńè¨Ģ
åı ¹
äºº äºĭ
åį ľ
åĴĮ äººåĳĺ
åĴĮ ä¸»æĮģ
åºĶ ä»¥
éĢ Ĭ
çĲ ´
æĪĸèĢħ ä¸º
æĪĸèĢħ æĺ¯
æĪĸèĢħ æĮīçħ§
æĪĸèĢħ æľīåħ³éĥ¨éĹ¨
æĪĸèĢħ æĴ¤èģĮ
åľ¨ æŁĲ
ä¸į æī¿æĭħ
ä¸į åĲĪçĲĨ
åºĶå½ĵ æī§è¡Į
çĶŁ çĪ¶æ¯į
ä¸º ä½ł
è§Ħå®ļ æľŁéĻĲåĨħ
ä¸Ń åıĳçİ°
ä¸Ń éĢĶ
æĺ¯ å¦Ĥä½ķ
åı¯ä»¥ åĩıå°ĳ
ç»ı æī¹åĩĨ
åıĳ è´§
æµ ¸
æµ Ĩ
æıĲ æ¡Ī
çŃī å¤ļç§į
åĬ¨ çĶ¨
äºĶ ä¸ª
å¹¶ ç¬¦åĲĪ
å¹¶ å¤Ħç½ļæ¬¾
è¾ Ĳ
çħ§ æĬ¤
åĵģ è¡Į
æľīåħ³ ä¸ĵéĹ¨å§Ķåĳĺä¼ļ
ä½ĵ éĩį
éĺ ´
æ´ Ľ
æ³ķå¾ĭ é¡¾éĹ®
è¡ĮæĶ¿ å¼ºåĪ¶æİªæĸ½
æł¹æį® åĽ½å®¶
å·¥ä½ľ åľºæīĢ
å·¥ä½ľ æľºåĪ¶
ä»¥ä¸Ĭ åĽŀçŃĶ
æĪĳ åĴĮ
æľª å¯¹
æľª å°Ĩ
äº¤ åıī
åıĹ è¿ĩ
å¼Ģ æĶ¯
æģ ©
åĬł éĩį
åĬł å¯Ĩ
æĮī è§Ħå®ļ
è¢« å¹¿æ³Ľ
åĮĸ è§£
åĮĸ çŁ³
ä»¥ä¸ĭ çļĦ
ä»¥ä¸ĭ æĿ¡ä»¶
ä»¥ä¸ĭ æĺ¯ä¸Ģä¸ª
ä»¥ä¸ĭ åı¥åŃĲ
è®¡ åħ¥
æķ° ä¸º
æıĲä¾Ľ æĶ¯æĮģ
ä½¿çĶ¨ èĢħ
æĮīçħ§ ä¸ĭåĪĹ
é«ĺ éĢŁ
æĿ¥ ä¿ĿæĬ¤
æĿ¥ è®¡ç®Ĺ
åŃĲ åĴĮ
çĶµ æ±ł
ä¸įå¾Ĺ ä½İäºİ
ç¬¬åĽĽ æ¬¾
ï¼Ł âĢĿ
çĶ³è¯· æī§è¡Į
éĻ¤ æľ¬æ³ķ
éĿŀ èĲ¥åĪ©
éĢī ç¥¨
å¤ļ é¡¹
éĩĩåıĸ è¡ĮåĬ¨
åĿ ĳ
ä½ł æľīä»Ģä¹Ī
å¤± è´¥
ä»¥åıĬ å¯¹
ä¹Ł åı¯ä»¥åĲĳ
åŃĺ åħ¥
åıĺ è´¨
åıĺ æļĸ
è½¬ è´¦
æī¿æĭħ è¿ŀå¸¦
ĠåĽ½å®¶ ä¿Ŀéļľ
è´£ä»¤ åģľä¸ļ
æİĴ åĲį
åĽŀ æĬ¥
åĽŀ å½Ĵ
è®¸åı¯ äºº
èĪª è¿Ĳ
å£ ®
å© Ĩ
çī¹åĪ« éĩįå¤§
ç¦» èĪ¹
èģĶ åĬ¨
æľŁå¾ ħ
æĥħå½¢ ä¹ĭä¸ĢçļĦ
çĥ ¦
èİ «
Ġs c
äºĪä»¥ å¤ĦçĲĨ
æĪ¿ éĹ´
æ¯ı åĳ¨
ä¹° æĸ¹
æ¸¸ ä¹Ĳ
ä¸ļåĬ¡ èĮĥåĽ´
èĩªçĦ¶ äººçļĦ
äºĭæķħ è°ĥæŁ¥
åħ±åĲĮ çĶŁæ´»çļĦ
or y
an c
çłĶç©¶ çĶŁ
éĿŀæ³ķ ä¹°åįĸ
éĻĦ æĿ¡ä»¶
è¯ģæĺİ çļĦ
Ġc l
èį¯åĵģ ç»ıèĲ¥ä¼ģä¸ļ
äºĴ æĥł
al y
al cul
ä½İ ç¢³
çĽ´è¾ĸå¸Ĥ çļĦ
äºĶåįģ ä¸ĩåħĥçļĦ
ä¸»è¦ģ çĶ¨äºİ
éĥ¨åĪĨ æĪĸèĢħåħ¨éĥ¨
éĻĲåĪ¶ èµĶåģ¿è´£ä»»
ç´ł åħ»
éĽĨä½ĵ æĪĲåĳĺ
è½» è½»
èĪªç©º è¿Ĳè¾ĵ
æıĲèµ· åħ¬è¯ī
çļĦåħ¶ä»ĸ è¡Įä¸º
çĲĥ çļĦ
èµĶåģ¿è´£ä»» éĻĲé¢Ŀ
æľŁè´§ å¸Ĥåľº
å½Ĵ ä¸ªäºº
è¯ģä¹¦ çļĦ
åĴĮç¤¾ä¼ļ ä¿Ŀéļľ
æĿĳæ°ĳ å°ıç»Ħ
æĿĳæ°ĳ ä»£è¡¨ä¼ļè®®
çī¹æ®Ĭ æĥħåĨµä¸ĭ
å·¥ä½ľçļĦ é¢Ĩå¯¼
æī§æ³ķ æ£ĢæŁ¥
åĩĨç¡® åľ°
èıľ èĤ´
ä¸»ä½ĵ å·¥ç¨ĭ
æ£Ģçĸ« æŁ¥éªĮ
ç¬¬ä¸ĢçĻ¾ä¸Ģåįģ åħ«æĿ¡
åķĨæłĩ å±Ģ
åºĶå¯¹ å¤Ħç½®
å·¥ä¸ļ åĴĮä¿¡æģ¯åĮĸ
ä¸įæĸŃ æıĲé«ĺ
çĮ® è¡Ģ
éģĵè·¯ äº¤éĢļäºĭæķħ
ç¬¬ä¸īçĻ¾ ä¸Ģåįģ
æ¸Ķä¸ļ æ°´åŁŁ
ç´§æĢ¥ æĥħåĨµ
å®¡è®® æĦıè§ģ
çĭĹ çĭĹ
ä¾ĽåºĶ éĵ¾
æĭĸ èĪª
çī©èµĦ çļĦ
æ¸ħåģ¿ åĢºåĬ¡
am ple
èīºæľ¯ ä½ľåĵģ
æĭĽæłĩ æĬķæłĩ
çĶµè§Ĩ åı°
æŀªæĶ¯ çļĦ
åĻªå£° æ±¡æŁĵ
Ġäººæ°ĳæ³ķéĻ¢ å®¡çĲĨ
æ°¸ è¿ľ
ç¬¬äºĮæ¬¾ çļĦè§Ħå®ļ
åŃ©åŃĲ ä»¬
åŃ£ åº¦
ä¿ĿæĬ¤åĴĮ æĶ¹åĸĦ
æĶ¶åħ» äºº
ä¼ļåĳĺ ä»£è¡¨å¤§ä¼ļ
å¤©æ°Ķ é¢ĦæĬ¥
çº¢åįģåŃĹ æłĩå¿Ĺ
æĳĦ å½±
äººæ°ĳè°ĥè§£ æ³ķ
çīĽ æİĴ
æµ·å²Ľ ä¿ĿæĬ¤
æķ°åŃ¦ é¢ĺ
éĺ²æ´ª è§ĦåĪĴ
åŁºéĩĳæīĺç®¡ äººçļĦ
åıĤçħ§ æľ¬æ³ķ
çĪ¶æ¯įæĪĸèĢħåħ¶ä»ĸ çĽĳæĬ¤äººåºĶå½ĵ
è¿Ŀæ³ķçĬ¯ç½ª æ´»åĬ¨
éŃ ħ
èģļä¼Ĺ æĸĹæ®´
çĶµä¿¡ç½ĳç»ľè¯ĪéªĹ æ´»åĬ¨
å·´ é»İ
èĤ¡ä»½æľīéĻĲ åħ¬åı¸çļĦ
åĩºè´¨ äºº
æĬ¥ç»ı æľīæī¹åĩĨæĿĥçļĦ
èħĲ èļĢ
å¸Ĥè¾ĸ åĮºçļĦ
æıĴ åħ¥
è¿Ŀè§Ħ è¡Įä¸º
åı°æ¹¾ åĲĮèĥŀ
æĹłåħ³ çļĦ
åıĳè¡¨ æĦıè§ģ
æĸĩåĮĸåĴĮ æĹħæ¸¸
å¦Ī å¦Ī
èģĮä¸ļæĬĢèĥ½ åŁ¹è®Ń
ä¸ĵæ³¨ äºİ
ä»¥ä¸ĭåĩłä¸ª æĸ¹éĿ¢
åĸĦæĦı ç¬¬ä¸īäºº
è¿½ç´¢ æĿĥ
erm ine
ä¸ĩåħĥä»¥ä¸Ĭä¸īåįģ ä¸ĩåħĥä»¥ä¸ĭç½ļæ¬¾
æ²¡æľīçº¦å®ļæĪĸèĢħçº¦å®ļä¸į æĺİç¡®çļĦ
ä¸Ńåįİäººæ°ĳåħ±åĴĮåĽ½ç¼Ķç»ĵæĪĸèĢħ åıĤåĬłçļĦåĽ½éĻħæĿ¡çº¦
èģĮä¸ļåģ¥åº· æ£ĢæŁ¥
çŃĽ éĢī
å¹¶å¤Ħè¿Ŀæ³ķæīĢå¾Ĺä¸ĢåĢįä»¥ä¸ĬäºĶ åĢįä»¥ä¸ĭç½ļæ¬¾
åįĹæŀģ æ´²
åıĹéĢģè¾¾ äºº
å½¼ æŃ¤
æĹłéļľç¢įçİ¯å¢ĥ å»ºè®¾
Ġtw o
æª ¬
èĲĿ åįľ
æŁł æª¬
r am
ç į
Ġ åĲĦ
Ġ ç¡®å®ļ
Ġ ä¿ĿæĮģ
Ġ æ°ĳçĶ¨èĪªç©ºåĻ¨
Ġ æĶ¿åºľéĩĩè´Ń
çļĦ èģĮåĬ¡
çļĦ åĪĳç½ļ
çļĦ äºĭæĥħ
æ³ķ æ¡Ī
åĴĮ åľ¨
åĴĮ ä¸Ģä¸ª
åĴĮ è´¨éĩı
åĴĮ è¡¨åĨ³
è¡Į ç¨ĭ
æľī ä»·
åĨ ¶
åºĶ åĮħæĭ¬
å½ĵ ä»Ĭ
ä¼ļ å¯¼èĩ´
æĪĸèĢħ çĽĳå¯Łæľºåħ³
åľ¨ è¿Ļ
åºĶå½ĵ è´£ä»¤
åºĶå½ĵ åĲ¬åıĸ
åħ¶ å®ŀ
ä¸º ä¸»ä½ĵ
æĺ¯ éĿŀå¸¸éĩįè¦ģçļĦ
æĿĥ å¨ģ
ä¸ī åĢįä»¥ä¸ĭçļĦç½ļæ¬¾
åı¯ä»¥ å°Ŀè¯ķ
æľ¬ äººæĪĸèĢħ
æľ¬ éĽĨä½ĵç»ıæµİç»Ħç»ĩ
åıĳ è¾¾
åĩº è¡Į
åħ¨ æĹ¥åĪ¶
åĬ¨ è¯į
äºĶ çĻ¾åħĥ
åĲĮ çº§äººæ°ĳæĶ¿åºľ
åĽ½å®¶ åľ¨
æīĢ ä½ľ
æīĢ è½½
çĶ± æµ·äºĭç®¡çĲĨæľºæŀĦ
å¾Ĺ åĪ©
åıĬ æīĢéĻĦ
å¹´ æĿ¥
è¡ĮæĶ¿ è¡Įä¸ºçļĦ
ä»£ æī£
æľºæŀĦ çŃī
ä½¿ åĳ½
è¿ĩ æ¸¡
è¿Ŀ ç«ł
ä¾Ŀæ³ķ æī§è¡ĮèģĮåĬ¡
ç»Ħç»ĩ å¯¹
ç»Ħç»ĩ åĪ¶å®ļ
è¢« æĭĴç»Ŀ
è¢« ä¾µæĿĥäºº
éľĢè¦ģ æıĲä¾Ľ
æıĲä¾Ľ æ³ķå¾ĭæı´åĬ©
æķĻ æĿĲ
éĽ ķ
æµ· å¤ĸ
éĿ¢ åĮħ
å¼ı èģĶè¿Ĳ
åĲį ä¸ĭ
ä¸įå¾Ĺ åĽł
ä¹¦ è®°
æĽ´ é«ĺ
å¼º çĥĪ
è®° å¿Ĩ
æĸ° æĹ¶ä»£
éķ¿ æĹ¶éĹ´
éĿŀ éĵ¶è¡Į
éĢī ä»»
éĢī æĭĶ
å¤ļ å¼ıèģĶè¿Ĳ
è´¢äº§ å®īåħ¨çļĦ
ä¿ĿéĻ© éĩĳé¢Ŀ
å¯¼ åĲĳ
è¦ģæ±Ĥ åĴĮ
æī§è¡Į æĥħåĨµ
æī§è¡Į åĪĳç½ļ
éģĵ çļĦ
å¤± èģĮ
æľĢ å°ı
ä¸Ńåįİäººæ°ĳåħ±åĴĮåĽ½ ä¸»å¸Ń
éĢļè¿ĩ å¯¹
è´§ ä¸»
è½¬ äº¤
éĵ Ģ
ĠåĽ½å®¶ ä¿ĿæĬ¤
ĠåĽ½å®¶ å®ĮåĸĦ
åı¯èĥ½ åŃĺåľ¨
ä¼ļè®® ä¸Ĭ
æİĴ éª¨
åĻ¨ å®ĺ
åħ·ä½ĵ æĿ¥è¯´
