{
  "version": "1.0",
  "truncation": null,
  "padding": null,
  "added_tokens": [
    {
      "id": 0,
      "content": "<|endoftext|>",
      "single_word": false,
      "lstrip": false,
      "rstrip": false,
      "normalized": false,
      "special": true
    },
    {
      "id": 1,
      "content": "<|im_start|>",
      "single_word": false,
      "lstrip": false,
      "rstrip": false,
      "normalized": false,
      "special": true
    },
    {
      "id": 2,
      "content": "<|im_end|>",
      "single_word": false,
      "lstrip": false,
      "rstrip": false,
      "normalized": false,
      "special": true
    },
    {
      "id": 3,
      "content": "<|object_ref_start|>",
      "single_word": false,
      "lstrip": false,
      "rstrip": false,
      "normalized": false,
      "special": true
    },
    {
      "id": 4,
      "content": "<|object_ref_end|>",
      "single_word": false,
      "lstrip": false,
      "rstrip": false,
      "normalized": false,
      "special": true
    },
    {
      "id": 5,
      "content": "<|box_start|>",
      "single_word": false,
      "lstrip": false,
      "rstrip": false,
      "normalized": false,
      "special": true
    },
    {
      "id": 6,
      "content": "<|box_end|>",
      "single_word": false,
      "lstrip": false,
      "rstrip": false,
      "normalized": false,
      "special": true
    },
    {
      "id": 7,
      "content": "<|quad_start|>",
      "single_word": false,
      "lstrip": false,
      "rstrip": false,
      "normalized": false,
      "special": true
    },
    {
      "id": 8,
      "content": "<|quad_end|>",
      "single_word": false,
      "lstrip": false,
      "rstrip": false,
      "normalized": false,
      "special": true
    },
    {
      "id": 9,
      "content": "<|vision_start|>",
      "single_word": false,
      "lstrip": false,
      "rstrip": false,
      "normalized": false,
      "special": true
    },
    {
      "id": 10,
      "content": "<|vision_end|>",
      "single_word": false,
      "lstrip": false,
      "rstrip": false,
      "normalized": false,
      "special": true
    },
    {
      "id": 11,
      "content": "<|vision_pad|>",
      "single_word": false,
      "lstrip": false,
      "rstrip": false,
      "normalized": false,
      "special": true
    },
    {
      "id": 12,
      "content": "<|image_pad|>",
      "single_word": false,
      "lstrip": false,
      "rstrip": false,
      "normalized": false,
      "special": true
    },
    {
      "id": 13,
      "content": "<|video_pad|>",
      "single_word": false,
      "lstrip": false,
      "rstrip": false,
      "normalized": false,
      "special": true
    },
    {
      "id": 14,
      "content": "<|audio_start|>",
      "single_word": false,
      "lstrip": false,
      "rstrip": false,
      "normalized": false,
      "special": true
    },
    {
      "id": 15,
      "content": "<|audio_end|>",
      "single_word": false,
      "lstrip": false,
      "rstrip": false,
      "normalized": false,
      "special": true
    },
    {
      "id": 16,
      "content": "<|audio_pad|>",
      "single_word": false,
      "lstrip": false,
      "rstrip": false,
      "normalized": false,
      "special": true
    },
    {
      "id": 17,
      "content": "<tts_pad>",
      "single_word": false,
      "lstrip": false,
      "rstrip": false,
      "normalized": false,
      "special": true
    },
    {
      "id": 18,
      "content": "<tts_text_bos>",
      "single_word": false,
      "lstrip": false,
      "rstrip": false,
      "normalized": false,
      "special": true
    },
    {
      "id": 19,
      "content": "<tts_text_eod>",
      "single_word": false,
      "lstrip": false,
      "rstrip": false,
      "normalized": false,
      "special": true
    },
    {
      "id": 20,
      "content": "<tts_text_bos_single>",
      "single_word": false,
      "lstrip": false,
      "rstrip": false,
      "normalized": false,
      "special": true
    },
    {
      "id": 21,
      "content": "<tool_call>",
      "single_word": false,
      "lstrip": false,
      "rstrip": false,
      "normalized": false,
      "special": false
    },
    {
      "id": 22,
      "content": "</tool_call>",
      "single_word": false,
      "lstrip": false,
      "rstrip": false,
      "normalized": false,
      "special": false
    },
    {
      "id": 23,
      "content": "<tool_response>",
      "single_word": false,
      "lstrip": false,
      "rstrip": false,
      "normalized": false,
      "special": false
    },
    {
      "id": 24,
      "content": "</tool_response>",
      "single_word": false,
      "lstrip": false,
      "rstrip": false,
      "normalized": false,
      "special": false
    },
    {
      "id": 25,
      "content": "<think>",
      "single_word": false,
      "lstrip": false,
      "rstrip": false,
      "normalized": false,
      "special": false
    },
    {
      "id": 26,
      "content": "</think>",
      "single_word": false,
      "lstrip": false,
      "rstrip": false,
      "normalized": false,
      "special": false
    },
    {
      "id": 27,
      "content": "<|buffer1|>",
      "single_word": false,
      "lstrip": false,
      "rstrip": false,
      "normalized": false,
      "special": false
    },
    {
      "id": 28,
      "content": "<|buffer2|>",
      "single_word": false,
      "lstrip": false,
      "rstrip": false,
      "normalized": false,
      "special": false
    },
    {
      "id": 29,
      "content": "<|buffer3|>",
      "single_word": false,
      "lstrip": false,
      "rstrip": false,
      "normalized": false,
      "special": false
    },
    {
      "id": 30,
      "content": "<|buffer4|>",
      "single_word": false,
      "lstrip": false,
      "rstrip": false,
      "normalized": false,
      "special": false
    },
    {
      "id": 31,
      "content": "<|buffer5|>",
      "single_word": false,
      "lstrip": false,
      "rstrip": false,
      "normalized": false,
      "special": false
    },
    {
      "id": 32,
      "content": "<|buffer6|>",
      "single_word": false,
      "lstrip": false,
      "rstrip": false,
      "normalized": false,
      "special": false
    },
    {
      "id": 33,
      "content": "<|buffer7|>",
      "single_word": false,
      "lstrip": false,
      "rstrip": false,
      "normalized": false,
      "special": false
    },
    {
      "id": 34,
      "content": "<|buffer8|>",
      "single_word": false,
      "lstrip": false,
      "rstrip": false,
      "normalized": false,
      "special": false
    },
    {
      "id": 35,
      "content": "<|buffer9|>",
      "single_word": false,
      "lstrip": false,
      "rstrip": false,
      "normalized": false,
      "special": false
    }
  ],
  "normalizer": null,
  "pre_tokenizer": {
    "type": "ByteLevel",
    "add_prefix_space": false,
    "trim_offsets": true,
    "use_regex": true
  },
  "post_processor": null,
  "decoder": {
    "type": "ByteLevel",
    "add_prefix_space": true,
    "trim_offsets": true,
    "use_regex": true
  },
  "model": {
    "type": "BPE",
    "dropout": null,
    "unk_token": null,
    "continuing_subword_prefix": null,
    "end_of_word_suffix": null,
    "fuse_unk": false,
    "byte_fallback": false,
    "ignore_merges": false,
    "vocab": {
      "<|endoftext|>": 0,
      "<|im_start|>": 1,
      "<|im_end|>": 2,
      "<|object_ref_start|>": 3,
      "<|object_ref_end|>": 4,
      "<|box_start|>": 5,
      "<|box_end|>": 6,
      "<|quad_start|>": 7,
      "<|quad_end|>": 8,
      "<|vision_start|>": 9,
      "<|vision_end|>": 10,
      "<|vision_pad|>": 11,
      "<|image_pad|>": 12,
      "<|video_pad|>": 13,
      "<|audio_start|>": 14,
      "<|audio_end|>": 15,
      "<|audio_pad|>": 16,
      "<tts_pad>": 17,
      "<tts_text_bos>": 18,
      "<tts_text_eod>": 19,
      "<tts_text_bos_single>": 20,
      "<tool_call>": 21,
      "</tool_call>": 22,
      "<tool_response>": 23,
      "</tool_response>": 24,
      "<think>": 25,
      "</think>": 26,
      "<|buffer1|>": 27,
      "<|buffer2|>": 28,
      "<|buffer3|>": 29,
      "<|buffer4|>": 30,
      "<|buffer5|>": 31,
      "<|buffer6|>": 32,
      "<|buffer7|>": 33,
      "<|buffer8|>": 34,
      "<|buffer9|>": 35,
      "!": 36,
      "\"": 37,
      "#": 38,
      "$": 39,
      "%": 40,
      "&": 41,
      "'": 42,
      "(": 43,
      ")": 44,
      "*": 45,
      "+": 46,
      ",": 47,
      "-": 48,
      ".": 49,
      "/": 50,
      "0": 51,
      "1": 52,
      "2": 53,
      "3": 54,
      "4": 55,
      "5": 56,
      "6": 57,
      "7": 58,
      "8": 59,
      "9": 60,
      ":": 61,
      ";": 62,
      "<": 63,
      "=": 64,
      ">": 65,
      "?": 66,
      "@": 67,
      "A": 68,
      "B": 69,
      "C": 70,
      "D": 71,
      "E": 72,
      "F": 73,
      "G": 74,
      "H": 75,
      "I": 76,
      "J": 77,
      "K": 78,
      "L": 79,
      "M": 80,
      "N": 81,
      "O": 82,
      "P": 83,
      "Q": 84,
      "R": 85,
      "S": 86,
      "T": 87,
      "U": 88,
      "V": 89,
      "W": 90,
      "X": 91,
      "Y": 92,
      "Z": 93,
      "[": 94,
      "\\": 95,
      "]": 96,
      "^": 97,
      "_": 98,
      "`": 99,
      "a": 100,
      "b": 101,
      "c": 102,
      "d": 103,
      "e": 104,
      "f": 105,
      "g": 106,
      "h": 107,
      "i": 108,
      "j": 109,
      "k": 110,
      "l": 111,
      "m": 112,
      "n": 113,
      "o": 114,
      "p": 115,
      "q": 116,
      "r": 117,
      "s": 118,
      "t": 119,
      "u": 120,
      "v": 121,
      "w": 122,
      "x": 123,
      "y": 124,
      "z": 125,
      "{": 126,
      "|": 127,
      "}": 128,
      "~": 129,
      "¡": 130,
      "¢": 131,
      "£": 132,
      "¤": 133,
      "¥": 134,
      "¦": 135,
      "§": 136,
      "¨": 137,
      "©": 138,
      "ª": 139,
      "«": 140,
      "¬": 141,
      "®": 142,
      "¯": 143,
      "°": 144,
      "±": 145,
      "²": 146,
      "³": 147,
      "´": 148,
      "µ": 149,
      "¶": 150,
      "·": 151,
      "¸": 152,
      "¹": 153,
      "º": 154,
      "»": 155,
      "¼": 156,
      "½": 157,
      "¾": 158,
      "¿": 159,
      "À": 160,
      "Á": 161,
      "Â": 162,
      "Ã": 163,
      "Ä": 164,
      "Å": 165,
      "Æ": 166,
      "Ç": 167,
      "È": 168,
      "É": 169,
      "Ê": 170,
      "Ë": 171,
      "Ì": 172,
      "Í": 173,
      "Î": 174,
      "Ï": 175,
      "Ð": 176,
      "Ñ": 177,
      "Ò": 178,
      "Ó": 179,
      "Ô": 180,
      "Õ": 181,
      "Ö": 182,
      "×": 183,
      "Ø": 184,
      "Ù": 185,
      "Ú": 186,
      "Û": 187,
      "Ü": 188,
      "Ý": 189,
      "Þ": 190,
      "ß": 191,
      "à": 192,
      "á": 193,
      "â": 194,
      "ã": 195,
      "ä": 196,
      "å": 197,
      "æ": 198,
      "ç": 199,
      "è": 200,
      "é": 201,
      "ê": 202,
      "ë": 203,
      "ì": 204,
      "í": 205,
      "î": 206,
      "ï": 207,
      "ð": 208,
      "ñ": 209,
      "ò": 210,
      "ó": 211,
      "ô": 212,
      "õ": 213,
      "ö": 214,
      "÷": 215,
      "ø": 216,
      "ù": 217,
      "ú": 218,
      "û": 219,
      "ü": 220,
      "ý": 221,
      "þ": 222,
      "ÿ": 223,
      "Ā": 224,
      "ā": 225,
      "Ă": 226,
      "ă": 227,
      "Ą": 228,
      "ą": 229,
      "Ć": 230,
      "ć": 231,
      "Ĉ": 232,
      "ĉ": 233,
      "Ċ": 234,
      "ċ": 235,
      "Č": 236,
      "č": 237,
      "Ď": 238,
      "ď": 239,
      "Đ": 240,
      "đ": 241,
      "Ē": 242,
      "ē": 243,
      "Ĕ": 244,
      "ĕ": 245,
      "Ė": 246,
      "ė": 247,
      "Ę": 248,
      "ę": 249,
      "Ě": 250,
      "ě": 251,
      "Ĝ": 252,
      "ĝ": 253,
      "Ğ": 254,
      "ğ": 255,
      "Ġ": 256,
      "ġ": 257,
      "Ģ": 258,
      "ģ": 259,
      "Ĥ": 260,
      "ĥ": 261,
      "Ħ": 262,
      "ħ": 263,
      "Ĩ": 264,
      "ĩ": 265,
      "Ī": 266,
      "ī": 267,
      "Ĭ": 268,
      "ĭ": 269,
      "Į": 270,
      "į": 271,
      "İ": 272,
      "ı": 273,
      "Ĳ": 274,
      "ĳ": 275,
      "Ĵ": 276,
      "ĵ": 277,
      "Ķ": 278,
      "ķ": 279,
      "ĸ": 280,
      "Ĺ": 281,
      "ĺ": 282,
      "Ļ": 283,
      "ļ": 284,
      "Ľ": 285,
      "ľ": 286,
      "Ŀ": 287,
      "ŀ": 288,
      "Ł": 289,
      "ł": 290,
      "Ń": 291,
      "ä¸": 292,
      "ï¼": 293,
      "ãĢ": 294,
      "äº": 295,
      "çļ": 296,
      "çļĦ": 297,
      "ï¼Į": 298,
      "åħ": 299,
      "ä»": 300,
      "æľ": 301,
      "å®": 302,
      "åı": 303,
      "ãĢĤ": 304,
      "ãĢģ": 305,
      "äºº": 306,
      "åĪ": 307,
      "åĬ": 308,
      "åį": 309,
      "çĶ": 310,
      "æĿ": 311,
      "åĽ": 312,
      "åĲ": 313,
      "æ³": 314,
      "ä½": 315,
      "ç»": 316,
      "æĪ": 317,
      "åº": 318,
      "å¤": 319,
      "æ³ķ": 320,
      "è¡": 321,
      "è¿": 322,
      "è®": 323,
      "åĴ": 324,
      "è¯": 325,
      "åľ": 326,
      "åĴĮ": 327,
      "ç¬": 328,
      "è´": 329,
      "ä¼": 330,
      "ç¬¬": 331,
      "æĸ": 332,
      "ä»¥": 333,
      "æĶ": 334,
      "å½": 335,
      "è§": 336,
      "è¡Į": 337,
      "å®ļ": 338,
      "æ°": 339,
      "èĢ": 340,
      "æľī": 341,
      "æī": 342,
      "æĿ¡": 343,
      "åĨ": 344,
      "éĻ": 345,
      "ä¸Ģ": 346,
      "åįģ": 347,
      "ä¹": 348,
      "åĽ½": 349,
      "çĽ": 350,
      "æĬ": 351,
      "æ°ĳ": 352,
      "åºĶ": 353,
      "ä¿": 354,
      "éĩ": 355,
      "èĢħ": 356,
      "å¾": 357,
      "å¯": 358,
      "éĢ": 359,
      "å¹": 360,
      "æĺ": 361,
      "åĳ": 362,
      "å½ĵ": 363,
      "æĪĸ": 364,
      "è§Ħ": 365,
      "æĹ": 366,
      "åħ³": 367,
      "æł": 368,
      "ç®": 369,
      "ä¾": 370,
      "åĩ": 371,
      "çĲ": 372,
      "ä¼ļ": 373,
      "éĹ": 374,
      "åĬ¡": 375,
      "çĶ¨": 376,
      "æķ": 377,
      "çĲĨ": 378,
      "åĮ": 379,
      "æĪĸèĢħ": 380,
      "å·": 381,
      "åı¯": 382,
      "åľ¨": 383,
      "ä¸ļ": 384,
      "ä¸į": 385,
      "åºĶå½ĵ": 386,
      "çº": 387,
      "å¼": 388,
      "æŀ": 389,
      "æĶ¿": 390,
      "èµ": 391,
      "ç®¡": 392,
      "çī": 393,
      "äºĭ": 394,
      "åħ¶": 395,
      "äººæ°ĳ": 396,
      "åŃ": 397,
      "çĶŁ": 398,
      "å¸": 399,
      "æİ": 400,
      "æį": 401,
      "å°": 402,
      "çŃ": 403,
      "ä¸º": 404,
      "ç½": 405,
      "è§Ħå®ļ": 406,
      "æľº": 407,
      "æĮ": 408,
      "ä¿Ŀ": 409,
      "å¯¹": 410,
      "ï¼Ľ": 411,
      "åĳĺ": 412,
      "ç§": 413,
      "ä¸Ń": 414,
      "å±": 415,
      "åħ¬": 416,
      "éĥ": 417,
      "¦ģ": 418,
      "å·¥": 419,
      "ä½ľ": 420,
      "ç«": 421,
      "äºĮ": 422,
      "æŃ": 423,
      "åĲĪ": 424,
      "äº§": 425,
      "æĺ¯": 426,
      "åľ°": 427,
      "æĢ": 428,
      "éĥ¨": 429,
      "è¦ģ": 430,
      "ï¼ī": 431,
      "ï¼Ī": 432,
      "æı": 433,
      "æĿĥ": 434,
      "é¢": 435,
      "ä¸ī": 436,
      "ä¸Ĭ": 437,
      "åı¯ä»¥": 438,
      "å®¶": 439,
      "ä»ĸ": 440,
      "èĥ": 441,
      "è´£": 442,
      "èĩ": 443,
      "æĸ¹": 444,
      "æĭ": 445,
      "ç»ı": 446,
      "å¤Ħ": 447,
      "æľ¬": 448,
      "ï¼ļ": 449,
      "åıĳ": 450,
      "éĹ¨": 451,
      "åĵ": 452,
      "æĪĲ": 453,
      "åĩº": 454,
      "æµ": 455,
      "åĪ¶": 456,
      "æıĲ": 457,
      "èĥ½": 458,
      "çŃī": 459,
      "æį®": 460,
      "åħ¨": 461,
      "ä¸ĭ": 462,
      "ä¸ª": 463,
      "æ¬": 464,
      "åĬ¨": 465,
      "æĥ": 466,
      "éĻ¢": 467,
      "çī©": 468,
      "åŁ": 469,
      "è®¾": 470,
      "éĥ¨éĹ¨": 471,
      "æĹ¶": 472,
      "äºĶ": 473,
      "çİ": 474,
      "æ²": 475,
      "æŁ": 476,
      "åĲĮ": 477,
      "èģ": 478,
      "å¹¶": 479,
      "ä¸»": 480,
      "æ±": 481,
      "è¿Ľ": 482,
      "ä¾Ŀ": 483,
      "åİ": 484,
      "ä»»": 485,
      "åģ": 486,
      "èĩª": 487,
      "è¯ģ": 488,
      "åĽ½å®¶": 489,
      "æīĢ": 490,
      "å®ī": 491,
      "æĸ½": 492,
      "ç®¡çĲĨ": 493,
      "çħ": 494,
      "ç¨": 495,
      "è¾": 496,
      "çĶ±": 497,
      "åĽĽ": 498,
      "å®ŀ": 499,
      "å¾ĭ": 500,
      "çº§": 501,
      "å¾Ĺ": 502,
      "æŀĦ": 503,
      "å»": 504,
      "åıĬ": 505,
      "çħ§": 506,
      "èµĦ": 507,
      "æĥħ": 508,
      "æľŁ": 509,
      "åħ¶ä»ĸ": 510,
      "åĵģ": 511,
      "åĪĨ": 512,
      "éĿ": 513,
      "å¦": 514,
      "æľīåħ³": 515,
      "çĻ": 516,
      "å¤§": 517,
      "ä½ĵ": 518,
      "å»º": 519,
      "éĢļ": 520,
      "çĽĳ": 521,
      "éĺ": 522,
      "å¹´": 523,
      "æ´": 524,
      "åŃ¦": 525,
      "å§": 526,
      "ä½į": 527,
      "åĪ©": 528,
      "éĩį": 529,
      "ç¤": 530,
      "æĬ¤": 531,
      "èģĮ": 532,
      "äºİ": 533,
      "è¯·": 534,
      "æ³ķå¾ĭ": 535,
      "è¡ĮæĶ¿": 536,
      "åįķ": 537,
      "éģ": 538,
      "èĤ": 539,
      "æ¬¾": 540,
      "è¡¨": 541,
      "åĢ": 542,
      "æł¹": 543,
      "åºľ": 544,
      "è®®": 545,
      "ä»£": 546,
      "æĶ¿åºľ": 547,
      "æĦ": 548,
      "æł¹æį®": 549,
      "ä»¶": 550,
      "ç»Ħ": 551,
      "äººåĳĺ": 552,
      "éľ": 553,
      "åıĸ": 554,
      "åĮº": 555,
      "å¥": 556,
      "æľºæŀĦ": 557,
      "åħ±": 558,
      "èĪ": 559,
      "å¢": 560,
      "ä½¿": 561,
      "è¿ĩ": 562,
      "åħŃ": 563,
      "å·¥ä½ľ": 564,
      "ä»¥ä¸Ĭ": 565,
      "æ¡": 566,
      "éĩĳ": 567,
      "äºĨ": 568,
      "é¡": 569,
      "æĪĳ": 570,
      "å¦Ĥ": 571,
      "ä¸İ": 572,
      "å¿": 573,
      "æľª": 574,
      "æ¸": 575,
      "åĨħ": 576,
      "çĸ": 577,
      "è½": 578,
      "æŁ¥": 579,
      "è¿Ŀ": 580,
      "ç«ł": 581,
      "çĽ¸": 582,
      "å§Ķ": 583,
      "åī": 584,
      "äº¤": 585,
      "æĸĩ": 586,
      "å¤ĸ": 587,
      "åıĹ": 588,
      "è¿Ľè¡Į": 589,
      "åĨ³": 590,
      "å®īåħ¨": 591,
      "æĶ¶": 592,
      "å¼Ģ": 593,
      "è°": 594,
      "æ±Ĥ": 595,
      "ä¿¡": 596,
      "ç¬¬äºĮ": 597,
      "éľĢ": 598,
      "æĺİ": 599,
      "èĲ": 600,
      "åįķä½į": 601,
      "ç¤¾": 602,
      "æĢ§": 603,
      "ä¾Ŀæ³ķ": 604,
      "ç«ĭ": 605,
      "åĲĳ": 606,
      "åĩĨ": 607,
      "æ¡Ī": 608,
      "ä¾Ľ": 609,
      "æĬ¥": 610,
      "ç»ĩ": 611,
      "äººæ°ĳæĶ¿åºľ": 612,
      "çĻ¾": 613,
      "ç»Ħç»ĩ": 614,
      "éĻ©": 615,
      "æģ": 616,
      "ç¡": 617,
      "çĿ": 618,
      "æłĩ": 619,
      "çŁ": 620,
      "ä¸ĥ": 621,
      "æľºåħ³": 622,
      "æ¯": 623,
      "åĬł": 624,
      "è¢": 625,
      "è´£ä»»": 626,
      "æī¿": 627,
      "ç¨ĭ": 628,
      "ç½ª": 629,
      "æ£": 630,
      "æĮī": 631,
      "ç½ļ": 632,
      "åĲİ": 633,
      "çĬ": 634,
      "è¢«": 635,
      "åĳĬ": 636,
      "ä¹ĭ": 637,
      "å¢ĥ": 638,
      "åĮĸ": 639,
      "è¡Įä¸º": 640,
      "ãĢĭ": 641,
      "ãĢĬ": 642,
      "åĪ°": 643,
      "æŀľ": 644,
      "æĹ¥": 645,
      "åĽł": 646,
      "ä»¥ä¸ĭ": 647,
      "éļ": 648,
      "è¿Ļ": 649,
      "èĲ¥": 650,
      "åı¸": 651,
      "æ´»": 652,
      "æĬĢ": 653,
      "éĺ²": 654,
      "è§£": 655,
      "åĽ½åĬ¡": 656,
      "å±ķ": 657,
      "æľ¬æ³ķ": 658,
      "æ£Ģ": 659,
      "åĽ½åĬ¡éĻ¢": 660,
      "åħ·": 661,
      "ç¬¬ä¸ī": 662,
      "è®¡": 663,
      "åĬĽ": 664,
      "æĦı": 665,
      "æ²»": 666,
      "æķ°": 667,
      "æİ¥": 668,
      "ç¡®": 669,
      "åħ«": 670,
      "è´¢": 671,
      "ç§į": 672,
      "ä»£è¡¨": 673,
      "ä¸»ç®¡": 674,
      "éľĢè¦ģ": 675,
      "æıĲä¾Ľ": 676,
      "ç»Ļ": 677,
      "å§Ķåĳĺ": 678,
      "æĮģ": 679,
      "å®¡": 680,
      "å°Ĩ": 681,
      "éĩĩ": 682,
      "ç¬¬ä¸Ģ": 683,
      "çİ°": 684,
      "ä½¿çĶ¨": 685,
      "æķĻ": 686,
      "éĶ": 687,
      "æĮīçħ§": 688,
      "çī¹": 689,
      "éĽ": 690,
      "äºĪ": 691,
      "ç¤¾ä¼ļ": 692,
      "åŁº": 693,
      "æľį": 694,
      "åĪĳ": 695,
      "è£": 696,
      "è¿Ĳ": 697,
      "è°ĥ": 698,
      "åķ": 699,
      "é«": 700,
      "ä¿ĿæĬ¤": 701,
      "å¸¸": 702,
      "é«ĺ": 703,
      "æµ·": 704,
      "åıį": 705,
      "é£": 706,
      "èĤ²": 707,
      "åĨµ": 708,
      "å§Ķåĳĺä¼ļ": 709,
      "æŃ£": 710,
      "åħ¬åı¸": 711,
      "æ°´": 712,
      "èĬ": 713,
      "çĿ£": 714,
      "ä»¬": 715,
      "å®³": 716,
      "ç¬¬åįģ": 717,
      "æľ¯": 718,
      "éĻĲ": 719,
      "åĨľ": 720,
      "æ¶": 721,
      "æĶ¯": 722,
      "ä¹Ŀ": 723,
      "éĹ´": 724,
      "åīį": 725,
      "çĽĬ": 726,
      "æģ¯": 727,
      "è¯¥": 728,
      "ä¼ģ": 729,
      "åĬ©": 730,
      "è¯ī": 731,
      "åħĥ": 732,
      "åķĨ": 733,
      "éĿ¢": 734,
      "çĽĳçĿ£": 735,
      "æ³ķéĻ¢": 736,
      "æĽ": 737,
      "çĶ³": 738,
      "ä¼ģä¸ļ": 739,
      "é¡¹": 740,
      "ç©": 741,
      "éĩı": 742,
      "æī§": 743,
      "çĬ¯": 744,
      "åħ¥": 745,
      "å°ı": 746,
      "å¸Ĥ": 747,
      "è´¹": 748,
      "æĻ": 749,
      "èį": 750,
      "åº¦": 751,
      "åįı": 752,
      "èµ·": 753,
      "å¤ĩ": 754,
      "ç³": 755,
      "çĶŁäº§": 756,
      "æĿ¥": 757,
      "åİŁ": 758,
      "åŃĲ": 759,
      "æĶ¹": 760,
      "éĢł": 761,
      "æĥħåĨµ": 762,
      "æĤ": 763,
      "å¼ı": 764,
      "éķ": 765,
      "ä»İ": 766,
      "åľº": 767,
      "çĶµ": 768,
      "åĲį": 769,
      "æĬĢæľ¯": 770,
      "ä¸ªäºº": 771,
      "è´Ł": 772,
      "ä¸įå¾Ĺ": 773,
      "ç¬¬åĽĽ": 774,
      "ä¿¡æģ¯": 775,
      "æĮĩ": 776,
      "è´¨": 777,
      "ç»ıèĲ¥": 778,
      "ä¹¦": 779,
      "åĲĦ": 780,
      "çĽ´": 781,
      "æľįåĬ¡": 782,
      "èĬĤ": 783,
      "éĹ®": 784,
      "ç¼": 785,
      "çİ¯": 786,
      "ï¼Ł": 787,
      "æĽ´": 788,
      "æĭħ": 789,
      "çŁ¥": 790,
      "ç³»": 791,
      "ä¸»ç®¡éĥ¨éĹ¨": 792,
      "ä¸ĵ": 793,
      "è§Ħå®ļçļĦ": 794,
      "åĮħ": 795,
      "ä¹ī": 796,
      "æİª": 797,
      "æ´»åĬ¨": 798,
      "çľ": 799,
      "åŁŁ": 800,
      "é¢ĺ": 801,
      "åĪĴ": 802,
      "åĪĹ": 803,
      "å¼º": 804,
      "çł": 805,
      "æİªæĸ½": 806,
      "åĬŀ": 807,
      "çĶ³è¯·": 808,
      "æº": 809,
      "ç»ĵ": 810,
      "ç±": 811,
      "çķ": 812,
      "éĻ¤": 813,
      "æķĻèĤ²": 814,
      "è®°": 815,
      "è¶": 816,
      "åĨĽ": 817,
      "éª": 818,
      "æįŁ": 819,
      "æĹł": 820,
      "æŃ¢": 821,
      "éĢĤ": 822,
      "çº¦": 823,
      "æķĪ": 824,
      "çĽ®": 825,
      "äººçļĦ": 826,
      "ç¬¬äºĶ": 827,
      "ç¬¬äºĮåįģ": 828,
      "åģ¿": 829,
      "æºĲ": 830,
      "çļĦè§Ħå®ļ": 831,
      "âĢ": 832,
      "ç®Ĺ": 833,
      "åįİ": 834,
      "åĲĪåĲĮ": 835,
      "åĮ»": 836,
      "åİ¿": 837,
      "å¤§ä¼ļ": 838,
      "é¢Ħ": 839,
      "æ®": 840,
      "éħ": 841,
      "æĸ°": 842,
      "éķ¿": 843,
      "éĿŀ": 844,
      "éĢī": 845,
      "äººæ°ĳæ³ķéĻ¢": 846,
      "åĢº": 847,
      "éĶĢ": 848,
      "ä¸ĩ": 849,
      "å¤ļ": 850,
      "éĩĩåıĸ": 851,
      "å»ºè®¾": 852,
      "ä¾Ŀçħ§": 853,
      "çĽ¸åħ³": 854,
      "åĪ«": 855,
      "è´¢äº§": 856,
      "åĿ": 857,
      "çĤ": 858,
      "ç¨İ": 859,
      "ä¸¥": 860,
      "åĪĻ": 861,
      "ç¥": 862,
      "ä¿ĿéĻ©": 863,
      "å¯¼": 864,
      "çĹ": 865,
      "çĦ": 866,
      "è¦ģæ±Ĥ": 867,
      "äºĽ": 868,
      "å¥½": 869,
      "è¿Ŀåıį": 870,
      "åĨ³å®ļ": 871,
      "èĢĮ": 872,
      "çĬ¯ç½ª": 873,
      "ä½Ĩ": 874,
      "é¢Ŀ": 875,
      "åľ°æĸ¹": 876,
      "ä¸Ńåįİ": 877,
      "å½¢": 878,
      "å¯Ł": 879,
      "ä¸ĩåħĥ": 880,
      "çİ¯å¢ĥ": 881,
      "ä½ł": 882,
      "Ġt": 883,
      "æŃ¤": 884,
      "ç§ĳ": 885,
      "åıĳå±ķ": 886,
      "æī¹": 887,
      "å¤į": 888,
      "è®¤": 889,
      "å¦Ĥæŀľ": 890,
      "å¤ĦçĲĨ": 891,
      "ç¬¬ä¸īåįģ": 892,
      "æł¼": 893,
      "æī§è¡Į": 894,
      "çĦ¶": 895,
      "æīĺ": 896,
      "åĴĮåĽ½": 897,
      "éĽĨ": 898,
      "å½±": 899,
      "éģĵ": 900,
      "ä»£è¡¨å¤§ä¼ļ": 901,
      "é¦": 902,
      "å¤±": 903,
      "çĹħ": 904,
      "åİ¿çº§": 905,
      "éĹ®é¢ĺ": 906,
      "ç¬¬åħŃ": 907,
      "èĮ": 908,
      "èī": 909,
      "äººæ°ĳåħ±": 910,
      "ä¸Ģä¸ª": 911,
      "æľĢ": 912,
      "ç»Ł": 913,
      "ä¸Ńåįİäººæ°ĳåħ±": 914,
      "ä¸Ńåįİäººæ°ĳåħ±åĴĮåĽ½": 915,
      "åºı": 916,
      "è¿Ŀæ³ķ": 917,
      "ä»ĺ": 918,
      "éĢļè¿ĩ": 919,
      "æ²¡": 920,
      "æĬķ": 921,
      "è´Łè´£": 922,
      "ä»¥åıĬ": 923,
      "ç±»": 924,
      "è´§": 925,
      "åľŁ": 926,
      "ä»·": 927,
      "äººæ°ĳä»£è¡¨å¤§ä¼ļ": 928,
      "ä»¤": 929,
      "å±¥": 930,
      "æĶ¾": 931,
      "åį±": 932,
      "å®ŀæĸ½": 933,
      "è·": 934,
      "æĤ¨": 935,
      "ä¸ĥæĿ¡": 936,
      "æ³ķè§Ħ": 937,
      "è£ģ": 938,
      "ä¹Ł": 939,
      "å±¥è¡Į": 940,
      "in": 941,
      "å¹³": 942,
      "åħ«æĿ¡": 943,
      "åŃĺ": 944,
      "éļľ": 945,
      "æĺĵ": 946,
      "æĸĻ": 947,
      "è®¸": 948,
      "ä¹ĿæĿ¡": 949,
      "ä¼ł": 950,
      "é¢Ĩ": 951,
      "ä¸ĢæĿ¡": 952,
      "åİ¿çº§ä»¥ä¸Ĭ": 953,
      "å¿ħ": 954,
      "åıĺ": 955,
      "æĿĳ": 956,
      "çĸĹ": 957,
      "å¤Ħç½ļ": 958,
      "åıĤ": 959,
      "åģ¥": 960,
      "èĮĥ": 961,
      "Ġa": 962,
      "ç½®": 963,
      "åĬ³": 964,
      "æ¬¡": 965,
      "ç¬¦": 966,
      "æŁĵ": 967,
      "åı£": 968,
      "ç¬¬åĽĽåįģ": 969,
      "è½¬": 970,
      "åĪ¤": 971,
      "å½ĵäºĭ": 972,
      "äºĮæĿ¡": 973,
      "è¿ĺ": 974,
      "åħ»": 975,
      "èº": 976,
      "æľĪ": 977,
      "ä½ķ": 978,
      "ä¸īæĿ¡": 979,
      "çĽĳçĿ£ç®¡çĲĨ": 980,
      "æĢ»": 981,
      "é£Ł": 982,
      "è®¼": 983,
      "he": 984,
      "è¯īè®¼": 985,
      "èº«": 986,
      "åĽĽæĿ¡": 987,
      "åĸ": 988,
      "è¾ĵ": 989,
      "èĪ¹": 990,
      "åĪ¶å®ļ": 991,
      "è®¾æĸ½": 992,
      "æī¿æĭħ": 993,
      "ç½ļæ¬¾": 994,
      "æł¸": 995,
      "åĪ¸": 996,
      "ä¸¥éĩį": 997,
      "æµģ": 998,
      "çĤ¹": 999,
      "æķħ": 1000,
      "ç¦": 1001,
      "æĸ¹å¼ı": 1002,
      "éĵ": 1003,
      "äºĶæĿ¡": 1004,
      "æµİ": 1005,
      "æ»": 1006,
      "ç¬¬ä¸ĢçĻ¾": 1007,
      "ç´": 1008,
      "ä¸ĭåĪĹ": 1009,
      "çĽ´æİ¥": 1010,
      "åħŃæĿ¡": 1011,
      "å±ŀ": 1012,
      "éªĮ": 1013,
      "åħ¨åĽ½": 1014,
      "ĠåĽ½å®¶": 1015,
      "åĬ³åĬ¨": 1016,
      "æ±¡": 1017,
      "æłĩåĩĨ": 1018,
      "ç¬¦åĲĪ": 1019,
      "ç»ıæµİ": 1020,
      "æİ¨": 1021,
      "èµĶ": 1022,
      "åı¯èĥ½": 1023,
      "æĢģ": 1024,
      "æī¹åĩĨ": 1025,
      "ç©¶": 1026,
      "ç¬¬äºĶåįģ": 1027,
      "æĿ¡ä»¶": 1028,
      "è¯Ħ": 1029,
      "ä¼ļè®®": 1030,
      "å½ĵäºĭäºº": 1031,
      "æĿĥåĪ©": 1032,
      "æľīåħ³éĥ¨éĹ¨": 1033,
      "æĪ·": 1034,
      "æ³¨": 1035,
      "ç»ĻäºĪ": 1036,
      "ä¿®": 1037,
      "æĪĳä»¬": 1038,
      "æ¶Ī": 1039,
      "æİ§": 1040,
      "éħį": 1041,
      "åĻ": 1042,
      "åĵį": 1043,
      "å°±": 1044,
      "èĤ¡": 1045,
      "åŁºéĩĳ": 1046,
      "çĻ»": 1047,
      "èµĶåģ¿": 1048,
      "è®©": 1049,
      "ä¿Ŀéļľ": 1050,
      "ç½ĳ": 1051,
      "åĴĮåħ¶ä»ĸ": 1052,
      "è¯ģåĪ¸": 1053,
      "re": 1054,
      "åºŃ": 1055,
      "è´£ä»¤": 1056,
      "éĢłæĪĲ": 1057,
      "çģ": 1058,
      "æıĲåĩº": 1059,
      "ä¸¾": 1060,
      "æµĭ": 1061,
      "åħĪ": 1062,
      "æİĴ": 1063,
      "ä¹īåĬ¡": 1064,
      "éĤ": 1065,
      "å½¹": 1066,
      "è¯·æ±Ĥ": 1067,
      "å½±åĵį": 1068,
      "ä»½": 1069,
      "åĽŀ": 1070,
      "å¸¸åĬ¡": 1071,
      "èį¯": 1072,
      "çĪ": 1073,
      "è§ĦåĪĴ": 1074,
      "èŃ": 1075,
      "çĻ»è®°": 1076,
      "åį«": 1077,
      "èģĮè´£": 1078,
      "å¸¸åĬ¡å§Ķåĳĺä¼ļ": 1079,
      "å¥³": 1080,
      "äº§åĵģ": 1081,
      "å®ļçļĦ": 1082,
      "èŃ¦": 1083,
      "æķĳ": 1084,
      "on": 1085,
      "åĮ»çĸĹ": 1086,
      "èĻ": 1087,
      "æķ´": 1088,
      "åĶ": 1089,
      "åıĬæĹ¶": 1090,
      "å±ħ": 1091,
      "å®Į": 1092,
      "æĬ¥åĳĬ": 1093,
      "è®¸åı¯": 1094,
      "ç¥¨": 1095,
      "ä¸ŃåĽ½": 1096,
      "ç¬¬ä¸ĥ": 1097,
      "æľīæĿĥ": 1098,
      "æĻº": 1099,
      "ç¾": 1100,
      "æīĭ": 1101,
      "æĴ": 1102,
      "å¸Ī": 1103,
      "å»ºç«ĭ": 1104,
      "è´Ń": 1105,
      "åĻ¨": 1106,
      "å·²": 1107,
      "å¸ĥ": 1108,
      "ĠĠ": 1109,
      "åıĳçĶŁ": 1110,
      "èµĦæºĲ": 1111,
      "å°ĳ": 1112,
      "åŀ": 1113,
      "åĪ©çĶ¨": 1114,
      "åħ¬åħ±": 1115,
      "æ²¡æľī": 1116,
      "çº³": 1117,
      "å½ķ": 1118,
      "éĻħ": 1119,
      "ç»Ń": 1120,
      "èĪª": 1121,
      "ç©º": 1122,
      "æ¸ħ": 1123,
      "åį«çĶŁ": 1124,
      "é£İ": 1125,
      "å¸®": 1126,
      "åľŁåľ°": 1127,
      "èĩªæ²»": 1128,
      "ä¾ĭ": 1129,
      "è¯Ĩ": 1130,
      "å¯Ĩ": 1131,
      "æĭ¬": 1132,
      "åĬłå¼º": 1133,
      "åħ·ä½ĵ": 1134,
      "ä¾µ": 1135,
      "ä¼ĺ": 1136,
      "åıĬåħ¶": 1137,
      "é©": 1138,
      "ç¬¬åħŃåįģ": 1139,
      "è¿Ĳè¾ĵ": 1140,
      "æ°Ķ": 1141,
      "æĿĥçĽĬ": 1142,
      "è½¦": 1143,
      "å¼Ģå±ķ": 1144,
      "åº·": 1145,
      "èģĮä¸ļ": 1146,
      "æ¡Īä»¶": 1147,
      "æ±¡æŁĵ": 1148,
      "å£": 1149,
      "äº¤éĢļ": 1150,
      "æĻºèĥ½": 1151,
      "åĮħæĭ¬": 1152,
      "å©": 1153,
      "åĲ¦": 1154,
      "è£ħ": 1155,
      "çī¹åĪ«": 1156,
      "ä½ľåĩº": 1157,
      "çľģ": 1158,
      "er": 1159,
      "è¿°": 1160,
      "åĸĦ": 1161,
      "ç²": 1162,
      "å®¹": 1163,
      "åĽ´": 1164,
      "æĶ¯æĮģ": 1165,
      "è¾ĸ": 1166,
      "ç¨ĭåºı": 1167,
      "ä¹ĭä¸Ģ": 1168,
      "ç»´": 1169,
      "å¹¿": 1170,
      "åįĸ": 1171,
      "è¾¾": 1172,
      "åĪ¶åº¦": 1173,
      "åĽłæŃ¤": 1174,
      "åħ¨åĽ½äººæ°ĳä»£è¡¨å¤§ä¼ļ": 1175,
      "æ£ĢæŁ¥": 1176,
      "çłĶ": 1177,
      "ä¹ł": 1178,
      "è§ģ": 1179,
      "æ·": 1180,
      "è¿½": 1181,
      "20": 1182,
      "åĬ±": 1183,
      "å¿ĥ": 1184,
      "å·±": 1185,
      "ä»İäºĭ": 1186,
      "ç¦»": 1187,
      "æł¡": 1188,
      "æĹ¶éĹ´": 1189,
      "èģĶ": 1190,
      "åħį": 1191,
      "ä¹Ī": 1192,
      "çĭ": 1193,
      "èĩ´": 1194,
      "èĩªå·±": 1195,
      "åĶ®": 1196,
      "æīĢå¾Ĺ": 1197,
      "éĢĤçĶ¨": 1198,
      "æľŁå¾": 1199,
      "æĥħèĬĤ": 1200,
      "åģ¥åº·": 1201,
      "èĭ": 1202,
      "çĶŁæĢģ": 1203,
      "ç¤º": 1204,
      "è·¯": 1205,
      "åĢºåĬ¡": 1206,
      "å®¢": 1207,
      "éĢĢ": 1208,
      "è¡ĮæĶ¿åĮº": 1209,
      "åģľ": 1210,
      "âĢĿ": 1211,
      "âĢľ": 1212,
      "æĥħå½¢": 1213,
      "åĪĳäºĭ": 1214,
      "ĴåĪĳ": 1215,
      "å¼ķ": 1216,
      "èĢĥ": 1217,
      "æľŁå¾ĴåĪĳ": 1218,
      "å®ĥ": 1219,
      "çĥ": 1220,
      "äº«": 1221,
      "ç§°": 1222,
      "è°ĥæŁ¥": 1223,
      "çº§äººæ°ĳæĶ¿åºľ": 1224,
      "åĭ": 1225,
      "åĩı": 1226,
      "en": 1227,
      "èĥ½åĬĽ": 1228,
      "æķ°æį®": 1229,
      "èİ": 1230,
      "å©ļ": 1231,
      "æ£Ģå¯Ł": 1232,
      "å¸®åĬ©": 1233,
      "è¯´": 1234,
      "è´¨éĩı": 1235,
      "çĸ«": 1236,
      "ä»²": 1237,
      "å²": 1238,
      "è®¾ç«ĭ": 1239,
      "æ¶ī": 1240,
      "æĶ¯ä»ĺ": 1241,
      "Ġthe": 1242,
      "çŃ¾": 1243,
      "ä¸ĩåħĥä»¥ä¸ĭ": 1244,
      "ä»²è£ģ": 1245,
      "æĪĸèĢħåħ¶ä»ĸ": 1246,
      "æĪĲå¹´": 1247,
      "æĦŁ": 1248,
      "åħ¬å®ī": 1249,
      "ç¦ģ": 1250,
      "åħ³ç³»": 1251,
      "æĬķèµĦ": 1252,
      "æľŁéĻĲ": 1253,
      "èĪ¶": 1254,
      "Ġs": 1255,
      "æĢ¥": 1256,
      "èĪ¹èĪ¶": 1257,
      "çĶŁæ´»": 1258,
      "æĸĩåĮĸ": 1259,
      "å¤©": 1260,
      "å¾ģ": 1261,
      "æĺ¯åĲ¦": 1262,
      "è¡¥": 1263,
      "åĪĽ": 1264,
      "éĩįè¦ģ": 1265,
      "åĨľä¸ļ": 1266,
      "at": 1267,
      "åĲĪæ³ķ": 1268,
      "åĽ¢": 1269,
      "è¿Ŀåıįæľ¬æ³ķ": 1270,
      "äº¤æĺĵ": 1271,
      "äºĪä»¥": 1272,
      "è¯Ń": 1273,
      "åŃĹ": 1274,
      "ç¡®å®ļ": 1275,
      "æ¸¯": 1276,
      "æıĲé«ĺ": 1277,
      "æĪ¿": 1278,
      "çĸ¾": 1279,
      "æ»¡": 1280,
      "éĩįå¤§": 1281,
      "ç¬¬åħ«": 1282,
      "æ¯ı": 1283,
      "æ¯Ķ": 1284,
      "èĮĥåĽ´": 1285,
      "è§Ĩ": 1286,
      "èī²": 1287,
      "èĳ": 1288,
      "ä¹°": 1289,
      "ç§ĳåŃ¦": 1290,
      "åĨľæĿĳ": 1291,
      "åįıè®®": 1292,
      "æĿĲ": 1293,
      "æįŁå¤±": 1294,
      "é¡»": 1295,
      "ä¸ĵä¸ļ": 1296,
      "è®¾å¤ĩ": 1297,
      "æľªæĪĲå¹´": 1298,
      "å§Ķæīĺ": 1299,
      "æľīæľŁå¾ĴåĪĳ": 1300,
      "éĥ½": 1301,
      "æľīåħ³è§Ħå®ļ": 1302,
      "å®Ī": 1303,
      "åĬŀçĲĨ": 1304,
      "éĴ": 1305,
      "éĢģ": 1306,
      "èįī": 1307,
      "æĹ¥èµ·": 1308,
      "é¼": 1309,
      "çķĻ": 1310,
      "åħ·æľī": 1311,
      "æ¸¸": 1312,
      "éĵ¶": 1313,
      "æĶ¹æŃ£": 1314,
      "ä¸ļåĬ¡": 1315,
      "äººå·¥": 1316,
      "åħ³äºİ": 1317,
      "åĢ¼": 1318,
      "ä½ı": 1319,
      "èĩªçĦ¶": 1320,
      "åľ°æĸ¹äººæ°ĳæĶ¿åºľ": 1321,
      "åį±éĻ©": 1322,
      "è¡ĮæĶ¿æ³ķè§Ħ": 1323,
      "æŀĦæĪĲ": 1324,
      "æĥ³": 1325,
      "éĺŁ": 1326,
      "æ°ĳäºĭ": 1327,
      "å®ĺ": 1328,
      "åīįæ¬¾": 1329,
      "ä»»ä½ķ": 1330,
      "éĵ¶è¡Į": 1331,
      "æĹħ": 1332,
      "å°ıæĺİ": 1333,
      "åį³": 1334,
      "çª": 1335,
      "åŁİ": 1336,
      "åĪ©çĽĬ": 1337,
      "ä½Ĩæĺ¯": 1338,
      "äºĭæķħ": 1339,
      "ä¸ŃçļĦ": 1340,
      "ç§Ł": 1341,
      "åŃ¦æł¡": 1342,
      "é£Łåĵģ": 1343,
      "åı¦": 1344,
      "æŁĲ": 1345,
      "is": 1346,
      "æįŁå®³": 1347,
      "è±": 1348,
      "æĭĴ": 1349,
      "ç¬¬ä¸ĥåįģ": 1350,
      "é¡¹çĽ®": 1351,
      "åħ±åĲĮ": 1352,
      "èİ·": 1353,
      "ä¸¤": 1354,
      "è´¹çĶ¨": 1355,
      "or": 1356,
      "æŃ¥": 1357,
      "èŀ": 1358,
      "æĹı": 1359,
      "ç¼´": 1360,
      "ç§»": 1361,
      "åıĸå¾Ĺ": 1362,
      "çĬ¶": 1363,
      "çł´": 1364,
      "åıĳçİ°": 1365,
      "åĨħå®¹": 1366,
      "äºĭé¡¹": 1367,
      "æĸ¹éĿ¢": 1368,
      "è®º": 1369,
      "ä¼Ļ": 1370,
      "æŀĹ": 1371,
      "çº¦å®ļ": 1372,
      "åĢºæĿĥ": 1373,
      "å¼Ģåıĳ": 1374,
      "ç¢": 1375,
      "ä¸ĢäºĽ": 1376,
      "åºĶå½ĵæĮīçħ§": 1377,
      "é¼ĵ": 1378,
      "an": 1379,
      "æİ¥åıĹ": 1380,
      "å¸Ĥåľº": 1381,
      "æİ§åĪ¶": 1382,
      "çłĶç©¶": 1383,
      "åĲĮæĹ¶": 1384,
      "èŀį": 1385,
      "éĶĢåĶ®": 1386,
      "çļĦç½ļæ¬¾": 1387,
      "åŁ¹": 1388,
      "åĬ¨çī©": 1389,
      "è¶ħ": 1390,
      "äºī": 1391,
      "è§Ĥ": 1392,
      "ä¸ĩåħĥä»¥ä¸Ĭ": 1393,
      "æĸŃ": 1394,
      "è®¡ç®Ĺ": 1395,
      "ç¼ĸ": 1396,
      "éĢļçŁ¥": 1397,
      "ä¸Ķ": 1398,
      "äºĮåįģ": 1399,
      "é¼ĵåĬ±": 1400,
      "åŃ¦ä¹ł": 1401,
      "ç»´æĬ¤": 1402,
      "å¢ŀ": 1403,
      "ä¿ĥ": 1404,
      "æĺ¯æĮĩ": 1405,
      "es": 1406,
      "çŃĸ": 1407,
      "åħ¬å®īæľºåħ³": 1408,
      "æĪĲåĳĺ": 1409,
      "ä»ĸäºº": 1410,
      "åİ¿çº§ä»¥ä¸Ĭäººæ°ĳæĶ¿åºľ": 1411,
      "äººå·¥æĻºèĥ½": 1412,
      "éĿŀæ³ķ": 1413,
      "è¯ģæį®": 1414,
      "å¿ħé¡»": 1415,
      "å®ŀè¡Į": 1416,
      "æļ": 1417,
      "èĢģ": 1418,
      "é»": 1419,
      "ä¸ľ": 1420,
      "å¹¶å¤Ħ": 1421,
      "ä¹¡": 1422,
      "æĦıè§ģ": 1423,
      "åŀĭ": 1424,
      "åĴĮä¸ªäºº": 1425,
      "å»ºè®®": 1426,
      "ç»Ī": 1427,
      "è®¢": 1428,
      "å·²ç»ı": 1429,
      "è®Ń": 1430,
      "å¿ħè¦ģ": 1431,
      "å±Ĭ": 1432,
      "è´§çī©": 1433,
      "ä¼°": 1434,
      "å·¥ç¨ĭ": 1435,
      "å¸¦": 1436,
      "ä¸įåĲĮ": 1437,
      "è¿ĩç¨ĭ": 1438,
      "æīĢæľī": 1439,
      "éĻĦ": 1440,
      "ç»§": 1441,
      "å®¶åºŃ": 1442,
      "å·¥ä½ľäººåĳĺ": 1443,
      "çĿĢ": 1444,
      "åºĶçĶ¨": 1445,
      "éģµ": 1446,
      "éģĹ": 1447,
      "çĽ¸åºĶ": 1448,
      "è¿Ŀæ³ķæīĢå¾Ĺ": 1449,
      "æ®µ": 1450,
      "è¯ģæĺİ": 1451,
      "åıĤåĬł": 1452,
      "ä¼¤": 1453,
      "è¶³": 1454,
      "çļĦè¡Įä¸º": 1455,
      "åĨį": 1456,
      "æĭĺ": 1457,
      "åĲĪä½ľ": 1458,
      "åħ¨åĽ½äººæ°ĳä»£è¡¨å¤§ä¼ļå¸¸åĬ¡å§Ķåĳĺä¼ļ": 1459,
      "Ġc": 1460,
      "åľºæīĢ": 1461,
      "éĽ¶": 1462,
      "æĬ¼": 1463,
      "é£İéĻ©": 1464,
      "èĩ³": 1465,
      "è¯Ħä¼°": 1466,
      "è®¡åĪĴ": 1467,
      "åĲĪä¼Ļ": 1468,
      "åģĩ": 1469,
      "ç¦ģæŃ¢": 1470,
      "00": 1471,
      "åĤ": 1472,
      "èį¯åĵģ": 1473,
      "æ®ĭ": 1474,
      "ç»ľ": 1475,
      "è¨": 1476,
      "èĩªæ²»åĮº": 1477,
      "åįĥ": 1478,
      "ç¾İ": 1479,
      "æĵ": 1480,
      "åħ¬æ°ĳ": 1481,
      "ç½ĳç»ľ": 1482,
      "åºŁ": 1483,
      "å®£": 1484,
      "ç§ģ": 1485,
      "äºĭä¸ļ": 1486,
      "æ°ĳæĹı": 1487,
      "çİĩ": 1488,
      "ä¹ĭæĹ¥èµ·": 1489,
      "åĲĪçĲĨ": 1490,
      "è¿Ļä¸ª": 1491,
      "ç¬¬ä¹Ŀ": 1492,
      "ä¼Ĺ": 1493,
      "äºĴ": 1494,
      "ç»ıèĲ¥èĢħ": 1495,
      "æĪĺ": 1496,
      "è¯¢": 1497,
      "çŃĶ": 1498,
      "æľŁéĹ´": 1499,
      "ä»»åĬ¡": 1500,
      "ä¸¥éĩįçļĦ": 1501,
      "äº§çĶŁ": 1502,
      "å¥½çļĦ": 1503,
      "ç¬¬äºĮçĻ¾": 1504,
      "æł·": 1505,
      "åį±å®³": 1506,
      "åİ¿çº§ä»¥ä¸Ĭåľ°æĸ¹äººæ°ĳæĶ¿åºľ": 1507,
      "é¥": 1508,
      "æ¯Ĵ": 1509,
      "ä»ĸä»¬": 1510,
      "åģļ": 1511,
      "å¤Ł": 1512,
      "ï¼Ľï¼Ī": 1513,
      "æĸ¹æ³ķ": 1514,
      "è°ĥè§£": 1515,
      "çº¿": 1516,
      "å¹´ä»¥ä¸ĭ": 1517,
      "åºĶæĢ¥": 1518,
      "æĴ¤": 1519,
      "ä¿Ŀè¯ģ": 1520,
      "al": 1521,
      "çĶµåŃĲ": 1522,
      "**": 1523,
      "åĦ": 1524,
      "å®¡æŁ¥": 1525,
      "ä¸įèĥ½": 1526,
      "é¢ĨåŁŁ": 1527,
      "æĿĲæĸĻ": 1528,
      "ä½İ": 1529,
      "çĶ±åĽ½åĬ¡éĻ¢": 1530,
      "è¡ĮæĶ¿éĥ¨éĹ¨": 1531,
      "æľīä¸ĭåĪĹ": 1532,
      "é¦Ļ": 1533,
      "å¯¹äºİ": 1534,
      "è¨Ģ": 1535,
      "å¤ĦåĪĨ": 1536,
      "åĨĽäºĭ": 1537,
      "çī¹åĪ«è¡ĮæĶ¿åĮº": 1538,
      "è¿ĻäºĽ": 1539,
      "åħ¸": 1540,
      "çĽ´è¾ĸ": 1541,
      "é¢Ħéĺ²": 1542,
      "åĦ¿": 1543,
      "æ¤": 1544,
      "æľīæķĪ": 1545,
      "è±¡": 1546,
      "çĽ´è¾ĸå¸Ĥ": 1547,
      "Ġp": 1548,
      "æħ": 1549,
      "èģĮåĬ¡": 1550,
      "åºĶè¯¥": 1551,
      "ä½ľä¸º": 1552,
      "çļĦäºº": 1553,
      "å¾Ī": 1554,
      "è®¤ä¸º": 1555,
      "ç²¾": 1556,
      "ĠåĪĻ": 1557,
      "æĸĩä»¶": 1558,
      "å¹´ä»¥ä¸ĭæľīæľŁå¾ĴåĪĳ": 1559,
      "äºĶåįģ": 1560,
      "ä¿ĥè¿Ľ": 1561,
      "ä¸»è¦ģ": 1562,
      "çĭ¬": 1563,
      "it": 1564,
      "æ£Ģå¯ŁéĻ¢": 1565,
      "æĭ©": 1566,
      "æī¿åĮħ": 1567,
      "éŁ": 1568,
      "çĶ¨äºİ": 1569,
      "éĥ¨åĪĨ": 1570,
      "å±ŀäºİ": 1571,
      "èĩªå·±çļĦ": 1572,
      "ä¾¿": 1573,
      "ä»£çĲĨ": 1574,
      "çķĮ": 1575,
      "çĬ¯ç½ªçļĦ": 1576,
      "å¦Ĥä½ķ": 1577,
      "åľ°åĮº": 1578,
      "éĻĲåĪ¶": 1579,
      "å¤ĸåĽ½": 1580,
      "åıª": 1581,
      "åĬŁ": 1582,
      "è¯ķ": 1583,
      "åĿı": 1584,
      "ç´ł": 1585,
      "çªģ": 1586,
      "ç¥ŀ": 1587,
      "æĻ®": 1588,
      "åı°": 1589,
      "å®ŀéĻħ": 1590,
      "æĺ¯ä¸Ģ": 1591,
      "åĨĻ": 1592,
      "äººæ°ĳæ£Ģå¯ŁéĻ¢": 1593,
      "çŁ¿": 1594,
      "æ¯į": 1595,
      "åıĤä¸İ": 1596,
      "è¿Ŀåıįæľ¬æ³ķè§Ħå®ļ": 1597,
      "æ³ķå®ļ": 1598,
      "è¾ĥ": 1599,
      "éģ¿": 1600,
      "èµĦéĩĳ": 1601,
      "è¿½ç©¶": 1602,
      "çļĦæĥħåĨµ": 1603,
      "è§£åĨ³": 1604,
      "ä¸īåįģ": 1605,
      "æ²³": 1606,
      "å±ħæ°ĳ": 1607,
      "çŃĳ": 1608,
      "èĤ¡ä¸ľ": 1609,
      "ç¬¬åħ«åįģ": 1610,
      "éĢīæĭ©": 1611,
      "éĽĨä½ĵ": 1612,
      "Ġo": 1613,
      "äººåºĶå½ĵ": 1614,
      "éļĲ": 1615,
      "Ġf": 1616,
      "è½»": 1617,
      "åŃĺåľ¨": 1618,
      "åĲĪæ³ķæĿĥçĽĬ": 1619,
      "éĤ£": 1620,
      "ing": 1621,
      "åĢĻ": 1622,
      "ä»Ģ": 1623,
      "åıĮ": 1624,
      "ä¾ĭå¦Ĥ": 1625,
      "ä¹ĭä¸ĢçļĦ": 1626,
      "ç»Ŀ": 1627,
      "åİŁåĪĻ": 1628,
      "Ġ=": 1629,
      "è´£ä»»äººåĳĺ": 1630,
      "éŁ³": 1631,
      "äºĭä»¶": 1632,
      "æı´": 1633,
      "åĤ¨": 1634,
      "è½½": 1635,
      "ç³»ç»Ł": 1636,
      "ç¡®ä¿Ŀ": 1637,
      "åķĨä¸ļ": 1638,
      "åĨĽäºº": 1639,
      "Ġb": 1640,
      "èĪªç©º": 1641,
      "æ¼": 1642,
      "çĽĳæĬ¤": 1643,
      "ç»ĵæŀľ": 1644,
      "ä»Ģä¹Ī": 1645,
      "æĿĥçļĦ": 1646,
      "åĳ½": 1647,
      "å¾ħ": 1648,
      "åİ»": 1649,
      "åĲĮæĦı": 1650,
      "ä¾Ŀçħ§æľ¬æ³ķ": 1651,
      "é¦ĸ": 1652,
      "åĬŀæ³ķ": 1653,
      "ä¸ĩåħĥä»¥ä¸ĭçļĦç½ļæ¬¾": 1654,
      "éĩĮ": 1655,
      "åħ¬å¼Ģ": 1656,
      "ä¸»ä¹ī": 1657,
      "èĥ½å¤Ł": 1658,
      "çľĭ": 1659,
      "ou": 1660,
      "åĨĮ": 1661,
      "æīĢåľ¨": 1662,
      "Ġw": 1663,
      "éĺ²æ²»": 1664,
      "åŁºæľ¬": 1665,
      "æ³ķå¾ĭè§Ħå®ļ": 1666,
      "æ¨": 1667,
      "æŀģ": 1668,
      "ä¹ĭéĹ´": 1669,
      "éĩĳèŀį": 1670,
      "æī£": 1671,
      "è½¬è®©": 1672,
      "ç»¼": 1673,
      "éĢīä¸¾": 1674,
      "å¼ºåĪ¶": 1675,
      "æ°ĳæ³ķ": 1676,
      "ç§ĺ": 1677,
      "åħħ": 1678,
      "åĲĦçº§äººæ°ĳæĶ¿åºľ": 1679,
      "åİĨ": 1680,
      "çĽĳçĿ£ç®¡çĲĨæľºæŀĦ": 1681,
      "äººæĪĸèĢħ": 1682,
      "åĪĳäºĭè´£ä»»": 1683,
      "è¶ħè¿ĩ": 1684,
      "éģµå®Ī": 1685,
      "èĥ½æºĲ": 1686,
      "ç§¯": 1687,
      "ä¹¦éĿ¢": 1688,
      "ç¢į": 1689,
      "ar": 1690,
      "çĽ´æİ¥è´£ä»»äººåĳĺ": 1691,
      "æľªæĪĲå¹´äºº": 1692,
      "å«": 1693,
      "åĽ¾": 1694,
      "Ġ1": 1695,
      "åºĶå½ĵåľ¨": 1696,
      "çĪ¶": 1697,
      "çĽĳæµĭ": 1698,
      "éļ¾": 1699,
      "æ¶Īè´¹": 1700,
      "æĸ¹æ¡Ī": 1701,
      "åįł": 1702,
      "çĶ¨æĪ·": 1703,
      "æĥħèĬĤä¸¥éĩįçļĦ": 1704,
      "æĭĴç»Ŀ": 1705,
      "å»ºçŃĳ": 1706,
      "çº¢": 1707,
      "çī©åĵģ": 1708,
      "æ²¡æĶ¶": 1709,
      "æĤ£": 1710,
      "le": 1711,
      "èµĦæĸĻ": 1712,
      "æ®ĭçĸ¾": 1713,
      "æľªç»ı": 1714,
      "åı¯ä»¥åĲĳ": 1715,
      "ç¯": 1716,
      "ç§ĳæĬĢ": 1717,
      "ion": 1718,
      "åŁ¹è®Ń": 1719,
      "æıĲèµ·": 1720,
      "é¦Ĩ": 1721,
      "çĮ": 1722,
      "çŁ¥è¯Ĩ": 1723,
      "æ°ĳæ³ķåħ¸": 1724,
      "çļĦåħ¶ä»ĸ": 1725,
      "å¯¼èĩ´": 1726,
      "æĸĩç«ł": 1727,
      "çī©çļĦ": 1728,
      "åĢį": 1729,
      "æ¤į": 1730,
      "çļĦæ³ķå¾ĭ": 1731,
      "èµł": 1732,
      "åĲ¬": 1733,
      "è¯Ŀ": 1734,
      "çľŁ": 1735,
      "æĮģæľī": 1736,
      "åįıåĬ©": 1737,
      "åĪ¤åĨ³": 1738,
      "åĮĸåŃ¦": 1739,
      "æ¬¡ä¼ļè®®": 1740,
      "ä¸Ģåįģ": 1741,
      "å®ĮæĪĲ": 1742,
      "æĬµ": 1743,
      "çĲĥ": 1744,
      "ä¸´": 1745,
      "éĶĻ": 1746,
      "ç¦»å©ļ": 1747,
      "åıĮæĸ¹": 1748,
      "äºĭå®ŀ": 1749,
      "å«Į": 1750,
      "æ¨¡": 1751,
      "è¿ĳ": 1752,
      "å¾ĭå¸Ī": 1753,
      "å½¢å¼ı": 1754,
      "åºĶå½ĵä¾Ŀæ³ķ": 1755,
      "æĹ¥åĨħ": 1756,
      "èµĶåģ¿è´£ä»»": 1757,
      "æĲ": 1758,
      "é¦Ļæ¸¯": 1759,
      "è¡Įä¸ļ": 1760,
      "å¸Ń": 1761,
      "ä¾Ŀæį®": 1762,
      "åĮºåŁŁ": 1763,
      "æİĪ": 1764,
      "æ³¨åĨĮ": 1765,
      "è®°å½ķ": 1766,
      "åĽŃ": 1767,
      "çĽĳå¯Ł": 1768,
      "ĠåĽ½åĬ¡éĻ¢": 1769,
      "åºĶå½ĵåıĬæĹ¶": 1770,
      "èģĮå·¥": 1771,
      "å¼ł": 1772,
      "çļĦä¸»ç®¡": 1773,
      "å®ŀçİ°": 1774,
      "æ£ĢéªĮ": 1775,
      "é¢Ĩå¯¼": 1776,
      "åĽ½éĻħ": 1777,
      "å¤Ħç½®": 1778,
      "æĿİ": 1779,
      "Ġm": 1780,
      "ä¹Ĳ": 1781,
      "Ġin": 1782,
      "å¹²": 1783,
      "ç®¡çĲĨéĥ¨éĹ¨": 1784,
      "äººåĳĺåĴĮåħ¶ä»ĸ": 1785,
      "åĳ¨": 1786,
      "éģĩ": 1787,
      "æ¶īåıĬ": 1788,
      "è¡Įä½¿": 1789,
      "çļĦåĨ³å®ļ": 1790,
      "æĴ¤éĶĢ": 1791,
      "ic": 1792,
      "åįķä½įåĴĮä¸ªäºº": 1793,
      "è§£éĻ¤": 1794,
      "æīį": 1795,
      "çĸĳ": 1796,
      "æĮĩå¯¼": 1797,
      "éĿŀå¸¸": 1798,
      "Ġd": 1799,
      "ä¸Ģæĸ¹": 1800,
      "åı¸æ³ķ": 1801,
      "èĻļ": 1802,
      "æµ·äºĭ": 1803,
      "æ°ĳçĶ¨": 1804,
      "ä¸Ńå¤": 1805,
      "èİ·å¾Ĺ": 1806,
      "æŃ»": 1807,
      "å¹´ä»¥ä¸Ĭ": 1808,
      "çĶŁæĢģçİ¯å¢ĥ": 1809,
      "ç»ĦæĪĲ": 1810,
      "Ġan": 1811,
      "çĶŁäº§ç»ıèĲ¥": 1812,
      "åĩıå°ĳ": 1813,
      "éļı": 1814,
      "ä¸ºäºĨ": 1815,
      "å¦ĩ": 1816,
      "åıĹåĪ°": 1817,
      "èı": 1818,
      "åĵª": 1819,
      "ä¼ļåĲĮ": 1820,
      "çĽ´æİ¥è´Łè´£": 1821,
      "éĤ®": 1822,
      "çº³ç¨İ": 1823,
      "è¡Įä¸ºçļĦ": 1824,
      "ä¸Ńå¤®": 1825,
      "çĶŁçī©": 1826,
      "åķĨåĵģ": 1827,
      "æĹłæ³ķ": 1828,
      "çĪ±": 1829,
      "èµĦæł¼": 1830,
      "æŀĲ": 1831,
      "å¤ĦäºĶ": 1832,
      "æ¹": 1833,
      "Ġ\\": 1834,
      "æįĲ": 1835,
      "åģľæŃ¢": 1836,
      "è¯¯": 1837,
      "è®¸åı¯è¯ģ": 1838,
      "åħ¬å¸ĥ": 1839,
      "å¿Ĺ": 1840,
      "éĻ¤å¤ĸ": 1841,
      "äº²": 1842,
      "çĽ´æİ¥è´Łè´£çļĦä¸»ç®¡": 1843,
      "åı·": 1844,
      "è¾¹": 1845,
      "æĸĩçī©": 1846,
      "è´¢æĶ¿": 1847,
      "çļĦæĿĥåĪ©": 1848,
      "æĢĿ": 1849,
      "åĿļ": 1850,
      "è®¾è®¡": 1851,
      "çĶµå½±": 1852,
      "äººåĳĺåĴĮåħ¶ä»ĸçĽ´æİ¥è´£ä»»äººåĳĺ": 1853,
      "æĦ¿": 1854,
      "å£°": 1855,
      "å¨": 1856,
      "çºł": 1857,
      "å·¥åħ·": 1858,
      "ä¿ĿæĮģ": 1859,
      "è¯į": 1860,
      "åĽ½å®¶æľīåħ³è§Ħå®ļ": 1861,
      "æµģåŁŁ": 1862,
      "èģĮæĿĥ": 1863,
      "å±Ĭåħ¨åĽ½äººæ°ĳä»£è¡¨å¤§ä¼ļå¸¸åĬ¡å§Ķåĳĺä¼ļ": 1864,
      "é¢Ħç®Ĺ": 1865,
      "ä»·æł¼": 1866,
      "åĪĨæŀĲ": 1867,
      "åŃ¦çĶŁ": 1868,
      "è§ĦèĮĥ": 1869,
      "è¯´æĺİ": 1870,
      "è¿½ç©¶åĪĳäºĭè´£ä»»": 1871,
      "ç§ĺå¯Ĩ": 1872,
      "æľºåĪ¶": 1873,
      "çĪ¶æ¯į": 1874,
      "åĲĹ": 1875,
      "çģ¾": 1876,
      "æ·±": 1877,
      "å¯¹åħ¶": 1878,
      "è¿ĩç¨ĭä¸Ń": 1879,
      "ed": 1880,
      "å§ĭ": 1881,
      "åħ¬åı¸çļĦ": 1882,
      "åıĺæĽ´": 1883,
      "äº«æľī": 1884,
      "æĮ¥": 1885,
      "çº§äººæ°ĳä»£è¡¨å¤§ä¼ļ": 1886,
      "æĺİç¡®": 1887,
      "Ġof": 1888,
      "æ¢": 1889,
      "åĮĸåŃ¦åĵģ": 1890,
      "æľŁè´§": 1891,
      "è¢«åĳĬ": 1892,
      "æĶ¿çŃĸ": 1893,
      "æµ·åħ³": 1894,
      "çĶ¨äºº": 1895,
      "ç´¢": 1896,
      "è´£ä»¤æĶ¹æŃ£": 1897,
      "å¦ĩå¥³": 1898,
      "10": 1899,
      "ç®Ģ": 1900,
      "ä¹Łåı¯ä»¥": 1901,
      "æķĳåĬ©": 1902,
      "æĭį": 1903,
      "æ¶Īè´¹èĢħ": 1904,
      "è´¦": 1905,
      "ä¿®æĶ¹": 1906,
      "èĻĳ": 1907,
      "ç¾¤": 1908,
      "æĳ": 1909,
      "è¶Ĭ": 1910,
      "åĲįç§°": 1911,
      "æŀĦæĪĲçĬ¯ç½ªçļĦ": 1912,
      "ç»Łä¸Ģ": 1913,
      "çĽ¸åºĶçļĦ": 1914,
      "ä¼ļè®¡": 1915,
      "ä»·åĢ¼": 1916,
      "çĽ´æİ¥è´Łè´£çļĦä¸»ç®¡äººåĳĺåĴĮåħ¶ä»ĸçĽ´æİ¥è´£ä»»äººåĳĺ": 1917,
      "èī¯": 1918,
      "ç²¾ç¥ŀ": 1919,
      "åĽ½éĺ²": 1920,
      "å®īåħ¨çĶŁäº§": 1921,
      "è£ģå®ļ": 1922,
      "éĢĶ": 1923,
      "ç¬¬ä¹Ŀåįģ": 1924,
      "æ³ķäºº": 1925,
      "èĮĥåĽ´åĨħ": 1926,
      "å½Ĵ": 1927,
      "åĽ½å®¶å®īåħ¨": 1928,
      "äºĨè§£": 1929,
      "å¿«": 1930,
      "å°±ä¸ļ": 1931,
      "çĶ¨äººåįķä½į": 1932,
      "çł´åĿı": 1933,
      "è¡ĮæĶ¿æľºåħ³": 1934,
      "æ´ĭ": 1935,
      "£äºĭ": 1936,
      "è¯ģä¹¦": 1937,
      "åŁİå¸Ĥ": 1938,
      "äº¡": 1939,
      "ä¾Ŀæ³ķç»ĻäºĪ": 1940,
      "åĨľæ°ĳ": 1941,
      "ä¼łæŁĵ": 1942,
      "å£«": 1943,
      "è°ĥæķ´": 1944,
      "èģĮä¸ļçĹħ": 1945,
      "é»Ħ": 1946,
      "åĢºæĿĥäºº": 1947,
      "æī¿è¿Ĳ": 1948,
      "åĴĮç¤¾ä¼ļ": 1949,
      "æ¾": 1950,
      "åĪĨéħį": 1951,
      "å¤ĩæ¡Ī": 1952,
      "éī": 1953,
      "åĽłä¸º": 1954,
      "éī´": 1955,
      "éĩĬ": 1956,
      "åĬ³åĬ¨èĢħ": 1957,
      "æĭĺå½¹": 1958,
      "å½ĵåľ°": 1959,
      "ent": 1960,
      "æ´¾": 1961,
      "è¡ĮæĶ¿ä¸»ç®¡éĥ¨éĹ¨": 1962,
      "å®¡åĪ¤": 1963,
      "æĿĳæ°ĳ": 1964,
      "æĹħæ¸¸": 1965,
      "åŃĲå¥³": 1966,
      "éªĹ": 1967,
      "æĿ¡ä»¶çļĦ": 1968,
      "æħĪ": 1969,
      "om": 1970,
      "å®īæİĴ": 1971,
      "æľĢé«ĺ": 1972,
      "å¼Ĥ": 1973,
      "å°Ħ": 1974,
      "çĽ®æłĩ": 1975,
      "åĿĩ": 1976,
      "å¤įè®®": 1977,
      "ç¯ĩ": 1978,
      "Ġè¿Ŀåıįæľ¬æ³ķè§Ħå®ļ": 1979,
      "éķĩ": 1980,
      "çĽ®çļĦ": 1981,
      "çĸ¾çĹħ": 1982,
      "èĳ£äºĭ": 1983,
      "æħĪåĸĦ": 1984,
      "æĻ¯": 1985,
      "ä¼łæŁĵçĹħ": 1986,
      "åĽº": 1987,
      "æĭĽ": 1988,
      "åī¯": 1989,
      "å®¡çĲĨ": 1990,
      "äºĭåĬ¡": 1991,
      "åįıåķĨ": 1992,
      "æį¢": 1993,
      "å±Ĥ": 1994,
      "èĳĹ": 1995,
      "ç»Ĩ": 1996,
      "åĪĨç±»": 1997,
      "å¿ħè¦ģçļĦ": 1998,
      "as": 1999,
      "å¤Ħä¸ī": 2000,
      "Ġto": 2001,
      "åı¦æľī": 2002,
      "æ´»åĬ¨çļĦ": 2003,
      "åıĳå¸ĥ": 2004,
      "åı¥": 2005,
      "èµ·è¯ī": 2006,
      "è¿ŀ": 2007,
      "åĮºçļĦ": 2008,
      "çĽĳçĿ£æ£ĢæŁ¥": 2009,
      "æ³¨æĦı": 2010,
      "äººåľ¨": 2011,
      "è®¾ç½®": 2012,
      "è¿Ŀæ³ķè¡Įä¸º": 2013,
      "ç»¼åĲĪ": 2014,
      "åįĩ": 2015,
      "äººç±»": 2016,
      "åĩºèµĦ": 2017,
      "æ®Ĭ": 2018,
      "è´Ńä¹°": 2019,
      "å¤´": 2020,
      "å»¶": 2021,
      "äºīè®®": 2022,
      "åĩºåı£": 2023,
      "è¯Ńè¨Ģ": 2024,
      "çī¹æ®Ĭ": 2025,
      "çĽ´è¾ĸå¸Ĥäººæ°ĳæĶ¿åºľ": 2026,
      "èĢĥèĻĳ": 2027,
      "ç»ĪæŃ¢": 2028,
      "é¦Ļæ¸¯çī¹åĪ«è¡ĮæĶ¿åĮº": 2029,
      "ç¡Ģ": 2030,
      "åŁºç¡Ģ": 2031,
      "åĲ«": 2032,
      "æ±ĩ": 2033,
      "--": 2034,
      "èĲ½": 2035,
      "Ġæľ¬æ³ķ": 2036,
      "éĩİ": 2037,
      "å®ļæľŁ": 2038,
      "èº«ä»½": 2039,
      "æľīä¸ĭåĪĹæĥħå½¢": 2040,
      "æĭįåįĸ": 2041,
      "åĿļæĮģ": 2042,
      "æīĵ": 2043,
      "çĶŁæĪĲ": 2044,
      "å·¥ä½ľçļĦ": 2045,
      "å¤«": 2046,
      "ä¸ĸ": 2047,
      "åħ·å¤ĩ": 2048,
      "ç¼ĸåĪ¶": 2049,
      "èĪ¬": 2050,
      "æĸĩæľ¬": 2051,
      "å®£ä¼ł": 2052,
      "å®ª": 2053,
      "åįıè°ĥ": 2054,
      "è¡ĮæĶ¿åĮºåŁŁ": 2055,
      "åĥ": 2056,
      "èµĦäº§": 2057,
      "ä¼ĺåħĪ": 2058,
      "å°½": 2059,
      "æ¾³": 2060,
      "å®¡è®¡": 2061,
      "åģ¥åħ¨": 2062,
      "åĬŁèĥ½": 2063,
      "çłģ": 2064,
      "æĮīçħ§è§Ħå®ļ": 2065,
      "äººåı¯ä»¥": 2066,
      "ç¤¾ä¼ļä¿ĿéĻ©": 2067,
      "çı": 2068,
      "ç«łç¨ĭ": 2069,
      "æķ°é¢Ŀ": 2070,
      "åı²": 2071,
      "å¹¶ä¸Ķ": 2072,
      "ä¿¡æīĺ": 2073,
      "è¾©": 2074,
      "èĬ±": 2075,
      "ä¸įç¬¦åĲĪ": 2076,
      "çº·": 2077,
      "ç«Ļ": 2078,
      "ä½ĵç³»": 2079,
      "æłĩçļĦ": 2080,
      "çĬ¶åĨµ": 2081,
      "éĻį": 2082,
      "åĢŁ": 2083,
      "æİ¢": 2084,
      "æ¯ģ": 2085,
      "å¤Ħç½ļéĩĳ": 2086,
      "é¤": 2087,
      "æľīåħ³çļĦ": 2088,
      "å¢ĥåĨħ": 2089,
      "å¹³åı°": 2090,
      "æİĴæĶ¾": 2091,
      "æĴŃ": 2092,
      "çªģåıĳ": 2093,
      "æ¾³éĹ¨": 2094,
      "æľºåĻ¨": 2095,
      "ä¸ĵéĹ¨": 2096,
      "æĺ¾": 2097,
      "ç®¡è¾ĸ": 2098,
      "éĩįçĤ¹": 2099,
      "æī¾": 2100,
      "å±±": 2101,
      "æµ·æ´ĭ": 2102,
      "æŃ¤å¤ĸ": 2103,
      "å¹¿åĳĬ": 2104,
      "èįīåİŁ": 2105,
      "Ġn": 2106,
      "ç»ıæµİç»Ħç»ĩ": 2107,
      "ç»§ç»Ń": 2108,
      "æ°ĳçĶ¨èĪªç©º": 2109,
      "å®ªæ³ķ": 2110,
      "ç®¡åĪ¶": 2111,
      "ä»ĭ": 2112,
      "åĥı": 2113,
      "æ²¹": 2114,
      "ç½ªçļĦ": 2115,
      "çĽĳçĿ£ç®¡çĲĨéĥ¨éĹ¨": 2116,
      "æ®ĭçĸ¾äºº": 2117,
      "æĭħä¿Ŀ": 2118,
      "æµ·ä¸Ĭ": 2119,
      "çº¦å®ļçļĦ": 2120,
      "ä¸ªæľĪ": 2121,
      "``": 2122,
      "èĦ": 2123,
      "å±Ģ": 2124,
      "å¦»": 2125,
      "æıı": 2126,
      "ä¾Ŀæ³ķè¿½ç©¶åĪĳäºĭè´£ä»»": 2127,
      "å¢ĥå¤ĸ": 2128,
      "çŁ¥éģĵ": 2129,
      "è¯Ĭ": 2130,
      "é¤Ĳ": 2131,
      "èīº": 2132,
      "çºłçº·": 2133,
      "æ¸Ķ": 2134,
      "ä¸ĢèĪ¬": 2135,
      "æ³ķå¾ĭè´£ä»»": 2136,
      "åıĹçĲĨ": 2137,
      "æī§æ³ķ": 2138,
      "ç»§æī¿": 2139,
      "è´¢åĬ¡": 2140,
      "æĽ´åĬł": 2141,
      "æĵħ": 2142,
      "æ°´å¹³": 2143,
      "åĲĬ": 2144,
      "ç»ĥ": 2145,
      "åį±éĻ©åĮĸåŃ¦åĵģ": 2146,
      "åĩł": 2147,
      "åĽĽåįģ": 2148,
      "èĹ": 2149,
      "æįŁå¤±çļĦ": 2150,
      "AI": 2151,
      "è¿Ļç§į": 2152,
      "ç¬¬äºĮç«ł": 2153,
      "éĻĲæľŁ": 2154,
      "Ġåľ¨": 2155,
      "Ġ|": 2156,
      "åĽ½æľī": 2157,
      "åĳ³": 2158,
      "åºĶå½ĵåĲĳ": 2159,
      "æķħæĦı": 2160,
      "Ġ2": 2161,
      "èĩªçĶ±": 2162,
      "åĪĳæ³ķ": 2163,
      "åľ°çļĦ": 2164,
      "ç¬¬ä¸īç«ł": 2165,
      "å®ĥä»¬": 2166,
      "çĥŃ": 2167,
      "å·¥ä¼ļ": 2168,
      "ç¬¬åĽĽç«ł": 2169,
      "ç§ĳåŃ¦æĬĢæľ¯": 2170,
      "Ġå¯¹": 2171,
      "Ġis": 2172,
      "æķ£": 2173,
      "çºª": 2174,
      "éĢĢå½¹": 2175,
      "å°ģ": 2176,
      "åħī": 2177,
      "åĲĬéĶĢ": 2178,
      "ä¸ªäººä¿¡æģ¯": 2179,
      "åĪĽæĸ°": 2180,
      "äººèº«": 2181,
      "æī¶": 2182,
      "æ¸¡": 2183,
      "Ġe": 2184,
      "éĩĩçĶ¨": 2185,
      "æīĭç»Ń": 2186,
      "ac": 2187,
      "åı¯ä»¥å¸®åĬ©": 2188,
      "æĬµæĬ¼": 2189,
      "éĴ±": 2190,
      "Ġand": 2191,
      "åĩºçİ°": 2192,
      "æľªæĿ¥": 2193,
      "ç«ĭåį³": 2194,
      "åĩĨç¡®": 2195,
      "åİŁåĽł": 2196,
      "éī´å®ļ": 2197,
      "ç¬¬ä¸Ģç«ł": 2198,
      "ä»½é¢Ŀ": 2199,
      "å¥ĸ": 2200,
      "æĤ¨çļĦ": 2201,
      "åĽ°": 2202,
      "æĹ¥ç¬¬åįģ": 2203,
      "è¯īè®¼æ³ķ": 2204,
      "å¾·": 2205,
      "åĪĨä¹ĭ": 2206,
      "ä½ĵèĤ²": 2207,
      "é¥®": 2208,
      "ç¿": 2209,
      "ç¬¬äºĶç«ł": 2210,
      "ä»į": 2211,
      "è´¸": 2212,
      "é©¶": 2213,
      "ä¸¤ä¸ª": 2214,
      "©åºı": 2215,
      "ç§©åºı": 2216,
      "æŃ¦": 2217,
      "æĶ¶åĪ°": 2218,
      "èıľ": 2219,
      "çĲĨçĶ±": 2220,
      "å¼ĥ": 2221,
      "ç«ŀ": 2222,
      "åħŃåįģ": 2223,
      "æĽ´å¥½": 2224,
      "åħ¶ä¸Ń": 2225,
      "éľ²": 2226,
      "19": 2227,
      "åĭŁ": 2228,
      "ä½ľä¸ļ": 2229,
      "æľ¬è¡ĮæĶ¿åĮºåŁŁ": 2230,
      "çĽĳæĬ¤äºº": 2231,
      "ĠæĢ»": 2232,
      "éĩĳé¢Ŀ": 2233,
      "ä¸ĩåħĥä»¥ä¸ĭç½ļæ¬¾": 2234,
      "æĺŁ": 2235,
      "åºĶå½ĵå°Ĩ": 2236,
      "èŃ¦å¯Ł": 2237,
      "éĩİçĶŁ": 2238,
      "æľīä¸ĭåĪĹæĥħå½¢ä¹ĭä¸ĢçļĦ": 2239,
      "æĵħèĩª": 2240,
      "æĬĹ": 2241,
      "æķ°éĩı": 2242,
      "èĹı": 2243,
      "ro": 2244,
      "çļĦäººåĳĺ": 2245,
      "ç®¡çĲĨäºº": 2246,
      "ç®¡çĲĨæľºæŀĦ": 2247,
      "Ġ-": 2248,
      "çķ¥": 2249,
      "çķľ": 2250,
      "è¡¥åģ¿": 2251,
      "è´¸æĺĵ": 2252,
      "çİ¯å¢ĥä¿ĿæĬ¤": 2253,
      "èŃ¦åĳĬ": 2254,
      "ĠéĻĦ": 2255,
      "ä½łçļĦ": 2256,
      "æİ¨å¹¿": 2257,
      "èĭĹ": 2258,
      "æļ´": 2259,
      "å¯»": 2260,
      "éĢŁ": 2261,
      "åĪ¶ä½ľ": 2262,
      "ç»Ļåĩº": 2263,
      "çī¹å®ļ": 2264,
      "éĩĩåıĸæİªæĸ½": 2265,
      "å¢ŀåĬł": 2266,
      "åĬ¿": 2267,
      "è®¤å®ļ": 2268,
      "ç´§": 2269,
      "è¡Ķ": 2270,
      "å°Ĭ": 2271,
      "um": 2272,
      "å¤§çļĦ": 2273,
      "ä¸»ä½ĵ": 2274,
      "åĲ¸": 2275,
      "ä¸ĵåĪ©": 2276,
      "åºŁçī©": 2277,
      "ç§¯æŀģ": 2278,
      "æľºåĬ¨": 2279,
      "æĺ¯ä¸Ģä¸ª": 2280,
      "çī¹ç§į": 2281,
      "è¯Ħä»·": 2282,
      "æįĲèµł": 2283,
      "éĶ®": 2284,
      "åĩºå¢ĥ": 2285,
      "å®¢æĪ·": 2286,
      "çŃ¹": 2287,
      "æ²Ļ": 2288,
      "æ²»å®ī": 2289,
      "åĬłå¼ºå¯¹": 2290,
      "åĵªäºĽ": 2291,
      "çģ«": 2292,
      "ä¾µçĬ¯": 2293,
      "å«Įçĸĳ": 2294,
      "çļĦåħ·ä½ĵ": 2295,
      "æ¡£": 2296,
      "åĸľ": 2297,
      "ä»¥å¤ĸ": 2298,
      "ç¬¬åħŃç«ł": 2299,
      "æıĲèµ·è¯īè®¼": 2300,
      "æ£Ģçĸ«": 2301,
      "ç¬¬ä¸Ģåįĥ": 2302,
      "èĻļåģĩ": 2303,
      "åĲİæŀľ": 2304,
      "çİ¯ä¿Ŀ": 2305,
      "éĵģ": 2306,
      "äººä»¬": 2307,
      "æĿĥäºº": 2308,
      "æĽ´å¥½åľ°": 2309,
      "et": 2310,
      "èģĺ": 2311,
      "åĨľä¸ļåĨľæĿĳ": 2312,
      "å¤«å¦»": 2313,
      "ä¸»å¸Ń": 2314,
      "åħ¬åĬ¡": 2315,
      "ç»ĵåĲĪ": 2316,
      "éģ¿åħį": 2317,
      "åıĭ": 2318,
      "åĪĩ": 2319,
      "è´·": 2320,
      "è´Łè´£äºº": 2321,
      "æŃ»äº¡": 2322,
      "åħ¬åĳĬ": 2323,
      "æłĩå¿Ĺ": 2324,
      "ç¼´çº³": 2325,
      "æııè¿°": 2326,
      "ä¼ª": 2327,
      "éĩĩè´Ń": 2328,
      "åĲĪæł¼": 2329,
      "éĢĤå½ĵ": 2330,
      "çł´äº§": 2331,
      "åİĨåı²": 2332,
      "èª": 2333,
      "æ¬¢": 2334,
      "æľīåħ³æ³ķå¾ĭ": 2335,
      "æĶ¶åħ¥": 2336,
      "çī¹ç§įè®¾å¤ĩ": 2337,
      "äº¤ä»ĺ": 2338,
      "ä¾µå®³": 2339,
      "å²ģ": 2340,
      "æĥħåĨµä¸ĭ": 2341,
      "æįķ": 2342,
      "åıĳè¡Į": 2343,
      "æ±Ł": 2344,
      "ç¤¾åĮº": 2345,
      "æģ¢": 2346,
      "æıĲäº¤": 2347,
      "æ¤įçī©": 2348,
      "è§Ĵ": 2349,
      "çī©è´¨": 2350,
      "æģ¢å¤į": 2351,
      "il": 2352,
      "è´Łæľī": 2353,
      "åĲĦç§į": 2354,
      "ç±į": 2355,
      "æĸ°çļĦ": 2356,
      "å®ĮåĸĦ": 2357,
      "æľºåĬ¨è½¦": 2358,
      "å¤ĸäº¤": 2359,
      "æĭħä»»": 2360,
      "ä¸¥æł¼": 2361,
      "æ¶Īéĺ²": 2362,
      "æļĤ": 2363,
      "æ¸©": 2364,
      "åĽ¢ä½ĵ": 2365,
      "æĭĺçķĻ": 2366,
      "éĩİçĶŁåĬ¨çī©": 2367,
      "ä½ľçĶ¨": 2368,
      "ot": 2369,
      "åħĭ": 2370,
      "åºĶå½ĵæł¹æį®": 2371,
      "åħ¬çĽĬ": 2372,
      "å¥¹": 2373,
      "æģĲ": 2374,
      "æķ°åŃĹ": 2375,
      "æĶ¹åıĺ": 2376,
      "èº«ä½ĵ": 2377,
      "å¼ķæ¸¡": 2378,
      "éĤ£ä¹Ī": 2379,
      "st": 2380,
      "ä¼ĳ": 2381,
      "äº§ä¸ļ": 2382,
      "èĢģå¹´": 2383,
      "Ġ$": 2384,
      "ä¸ĬçļĦ": 2385,
      "éľĩ": 2386,
      "æĶ¶éĽĨ": 2387,
      "éľĢæ±Ĥ": 2388,
      "Ġre": 2389,
      "äº«åıĹ": 2390,
      "éĢļå¸¸": 2391,
      "æ´Ĺ": 2392,
      "æ¼Ķ": 2393,
      "åĽ½å®¶æľºåħ³": 2394,
      "ç»Łè®¡": 2395,
      "å¨ģ": 2396,
      "Ġh": 2397,
      "å°ļ": 2398,
      "åı¯ä»¥éĢļè¿ĩ": 2399,
      "è§ī": 2400,
      "éļľç¢į": 2401,
      "é£Łåĵģå®īåħ¨": 2402,
      "çļĦåİŁåĪĻ": 2403,
      "å±ĭ": 2404,
      "åĨľäº§åĵģ": 2405,
      "im": 2406,
      "æľĽ": 2407,
      "åºĶå½ĵå¯¹": 2408,
      "äºĭä¸ļåįķä½į": 2409,
      "Ġæł¹æį®": 2410,
      "çģŃ": 2411,
      "è¿Ķ": 2412,
      "æĬļ": 2413,
      "éħ¬": 2414,
      "æ²»çĲĨ": 2415,
      "æ²»çĸĹ": 2416,
      "åĢºåĬ¡äºº": 2417,
      "åħ´": 2418,
      "äººåĳĺçļĦ": 2419,
      "å¼Ģå§ĭ": 2420,
      "æĪĸèĢħä¸ªäºº": 2421,
      "å¹¼": 2422,
      "æĬĢèĥ½": 2423,
      "èģĶç³»": 2424,
      "éĩĳèŀįæľºæŀĦ": 2425,
      "Ġ(": 2426,
      "åı¯ä»¥åľ¨": 2427,
      "çĩ": 2428,
      "Ġ**": 2429,
      "èĤ¡ä»½": 2430,
      "ä»£çĲĨäºº": 2431,
      "ä¿Ŀå¯Ĩ": 2432,
      "ç«¥": 2433,
      "éĺ»": 2434,
      "é¾": 2435,
      "ä»ħ": 2436,
      "æĪĲç«ĭ": 2437,
      "å¾ĹåĪ°": 2438,
      "è¡ĮæĶ¿å¤įè®®": 2439,
      "æī¿æĭħèµĶåģ¿è´£ä»»": 2440,
      "äºĨä¸Ģ": 2441,
      "åįĥåħĥ": 2442,
      "é¸": 2443,
      "åı¬": 2444,
      "åı¯ä»¥æł¹æį®": 2445,
      "çĶ±äºİ": 2446,
      "æĮĩå®ļ": 2447,
      "ç¼º": 2448,
      "¨è¯¢": 2449,
      "åĴ¨è¯¢": 2450,
      "ä¸Ĭè¿°": 2451,
      "ç¬¬ä¸ĢçĻ¾éĽ¶": 2452,
      "çĶ²": 2453,
      "é©»": 2454,
      "åīįæ¬¾è§Ħå®ļ": 2455,
      "å¾ª": 2456,
      "åħ«åįģ": 2457,
      "ç¬¬ä¸ĢçĻ¾ä¸Ģåįģ": 2458,
      "æķĳæı´": 2459,
      "æī¿è¿Ĳäºº": 2460,
      "ä¿®å¤į": 2461,
      "å¾ģæĶ¶": 2462,
      "èģĶåĲĪ": 2463,
      "çľŁå®ŀ": 2464,
      "æķĪçİĩ": 2465,
      "çĸ«èĭĹ": 2466,
      "æ²¡æĶ¶è¿Ŀæ³ķæīĢå¾Ĺ": 2467,
      "é«ĺçº§": 2468,
      "åķĨæłĩ": 2469,
      "éĴĪ": 2470,
      "Ġ3": 2471,
      "åį°": 2472,
      "ä¸Ĭå¸Ĥ": 2473,
      "è½¬ç§»": 2474,
      "çĶ³è¯·äºº": 2475,
      "èģĮè´£çļĦ": 2476,
      "èĭ±": 2477,
      "æĪ¿å±ĭ": 2478,
      "åķĨä¸ļéĵ¶è¡Į": 2479,
      "è¡¨çİ°": 2480,
      "ä½¿çĶ¨çļĦ": 2481,
      "æĶ¾å°Ħ": 2482,
      "æİ¨åĬ¨": 2483,
      "æĤ£èĢħ": 2484,
      "å¯¹æĸ¹": 2485,
      "åħ¬ä¼Ĺ": 2486,
      "åĳĬçŁ¥": 2487,
      "æ¸¯åı£": 2488,
      "ä¸ĢçĻ¾": 2489,
      "æŃĮ": 2490,
      "æıĲä¾ĽçļĦ": 2491,
      "ç¬Ķ": 2492,
      "è§ĦåĪĻ": 2493,
      "è®¢ç«ĭ": 2494,
      "çŃīæĸ¹éĿ¢": 2495,
      "æĹ¥æľŁ": 2496,
      "ç¬¬ä¸Ģæ¬¾": 2497,
      "åĲĪåĲĮçļĦ": 2498,
      "æĸ½è¡Į": 2499,
      "é»Ħæ²³": 2500,
      "å¾Ģ": 2501,
      "éĢ¾": 2502,
      "ä¼ªéĢł": 2503,
      "iv": 2504,
      "å¤ª": 2505,
      "åįķä½įçļĦ": 2506,
      "éĺ²æŃ¢": 2507,
      "çŃ¾è®¢": 2508,
      "æĽ´å¤ļ": 2509,
      "å¡": 2510,
      "çĽĳäºĭ": 2511,
      "ä¹Ŀåįģ": 2512,
      "æĪĲæŀľ": 2513,
      "å¿µ": 2514,
      "ä¹ĭéĹ´çļĦ": 2515,
      "Ġ+": 2516,
      "åħ³éĶ®": 2517,
      "å¯¹çĽ´æİ¥è´Łè´£çļĦä¸»ç®¡äººåĳĺåĴĮåħ¶ä»ĸçĽ´æİ¥è´£ä»»äººåĳĺ": 2518,
      "ä»ĸçļĦ": 2519,
      "åĢįä»¥ä¸ĭ": 2520,
      "åĽłç´ł": 2521,
      "çº³åħ¥": 2522,
      "çĶ·": 2523,
      "åºĶå¯¹": 2524,
      "éĩįè¦ģçļĦ": 2525,
      "Ġl": 2526,
      "Ġåİ¿çº§ä»¥ä¸Ĭäººæ°ĳæĶ¿åºľ": 2527,
      "åįģäºĶ": 2528,
      "æīĢç§°": 2529,
      "è´¢çī©": 2530,
      "æįŁå®³çļĦ": 2531,
      "æ¡£æ¡Ī": 2532,
      "åºĵ": 2533,
      "æĸ½å·¥": 2534,
      "éħįåĲĪ": 2535,
      "ä¸¾æĬ¥": 2536,
      "ĠĠĠĠ": 2537,
      "é»ĳ": 2538,
      "æľīéĻĲ": 2539,
      "ä½ľåĵģ": 2540,
      "è§Ħå®ļçļĦåħ¶ä»ĸ": 2541,
      "æĹłæķĪ": 2542,
      ">ï¼ļ": 2543,
      "éģĹäº§": 2544,
      "æĵį": 2545,
      "æĬ¢": 2546,
      "å¹³çŃī": 2547,
      "æ¸ħç®Ĺ": 2548,
      "ä¸ĸçķĮ": 2549,
      "ç§Łäºº": 2550,
      "ä¸įäºĪ": 2551,
      "åķĨåĬ¡": 2552,
      "æī§ä¸ļ": 2553,
      "ä»¥åıĬåħ¶ä»ĸ": 2554,
      "å¾ħéģĩ": 2555,
      "å·¥ä¸ļ": 2556,
      "ä¸Ĭçº§": 2557,
      "çİ©": 2558,
      "åľ°æĸ¹åĲĦçº§äººæ°ĳæĶ¿åºľ": 2559,
      "æ¾³éĹ¨çī¹åĪ«è¡ĮæĶ¿åĮº": 2560,
      "è¯Ī": 2561,
      "åĳĺå·¥": 2562,
      "æıĲåıĸ": 2563,
      "æ£Ģæµĭ": 2564,
      "è¯ģåĪ¸çĽĳçĿ£ç®¡çĲĨæľºæŀĦ": 2565,
      "åĲĪä¼Ļä¼ģä¸ļ": 2566,
      "çĽĳç®¡": 2567,
      "ä¸ĥåįģ": 2568,
      "æŃ£å½ĵ": 2569,
      "é¢Ħå¤ĩ": 2570,
      "å»ºç«ĭåģ¥åħ¨": 2571,
      "id": 2572,
      "å®ľ": 2573,
      "ä¿Ŀç®¡": 2574,
      "åĪĨåĪ«": 2575,
      "èĲ¥ä¸ļ": 2576,
      "æĭĴä¸į": 2577,
      "ä¸įåĲĮçļĦ": 2578,
      "åĲĪä½ľç¤¾": 2579,
      "Ġ\"": 2580,
      "å¯¹å¤ĸ": 2581,
      "æŃ£ç¡®": 2582,
      "åĮ»çĸĹæľºæŀĦ": 2583,
      "çļĦæĥħåĨµä¸ĭ": 2584,
      "æı´åĬ©": 2585,
      "æīĢåľ¨åľ°": 2586,
      "ä¸įæĸŃ": 2587,
      "è¿Ľåı£": 2588,
      "èĥģ": 2589,
      "èĩªåĬ¨": 2590,
      "è¾Ĩ": 2591,
      "çİ°ä»£": 2592,
      "å¾®": 2593,
      "åĦ¿ç«¥": 2594,
      "12": 2595,
      "çļĦè¦ģæ±Ĥ": 2596,
      "æī©": 2597,
      "æ¿": 2598,
      "çĶ¨åľ°": 2599,
      "çĲĨè§£": 2600,
      "å§»": 2601,
      "è¡¨ç¤º": 2602,
      "æŃ£å¸¸": 2603,
      "çĮ®": 2604,
      "æľīåħ¶ä»ĸ": 2605,
      "éĽĨä½ĵç»ıæµİç»Ħç»ĩ": 2606,
      "éĢ¾æľŁ": 2607,
      "åĬ¨äº§": 2608,
      "ä»¥ä¸ĭæĺ¯": 2609,
      "çĬ¯ç½ªå«Įçĸĳ": 2610,
      "ç¬¬ä¸ĥç«ł": 2611,
      "ĠT": 2612,
      "æľ¨": 2613,
      "ä¸įè¶³": 2614,
      "ç¨³": 2615,
      "éĢĤåºĶ": 2616,
      "éĽĨä¸Ń": 2617,
      "åı¯èĥ½ä¼ļ": 2618,
      "çļĦè´¢äº§": 2619,
      "è¡ĮæĶ¿å¤Ħç½ļ": 2620,
      "æĢ§åĴĮ": 2621,
      "é«ĺçŃī": 2622,
      "éĢģè¾¾": 2623,
      "å¯¹è±¡": 2624,
      "æĢ§çļĦ": 2625,
      "ç¨İåĬ¡": 2626,
      "æĮģæľīäºº": 2627,
      "èµ°": 2628,
      "èĥĮ": 2629,
      "éģĵè·¯": 2630,
      "å±ħä½ı": 2631,
      "éŁ³ä¹Ĳ": 2632,
      "ec": 2633,
      "åºĶå½ĵç¬¦åĲĪ": 2634,
      "è¿Ľåħ¥": 2635,
      "éģŃ": 2636,
      "ç»ĵç®Ĺ": 2637,
      "åıĺåĮĸ": 2638,
      "åĽŀçŃĶ": 2639,
      "å©ļå§»": 2640,
      "çŁŃ": 2641,
      "ä»İèĢĮ": 2642,
      "é©¾": 2643,
      "çĩĥ": 2644,
      "Ġæ³ķå¾ĭè´£ä»»": 2645,
      "æĪı": 2646,
      "åĲĦçº§": 2647,
      "æľĢåĲİ": 2648,
      "ä¿®æŃ£": 2649,
      "æ²»å®īç®¡çĲĨ": 2650,
      "æģĲæĢ": 2651,
      "è¯»": 2652,
      "èįĲ": 2653,
      "ç»ŁçŃ¹": 2654,
      "åĽ¢éĺŁ": 2655,
      "æģĲæĢĸ": 2656,
      "æĶ¿æ²»": 2657,
      "ä¹°åįĸ": 2658,
      "éĶĻè¯¯": 2659,
      "çļĦå®īåħ¨": 2660,
      "æĿ¡æ¬¾": 2661,
      "éĩįæĸ°": 2662,
      "æĬ¥éħ¬": 2663,
      "ä¿ĿéĻ©äºº": 2664,
      "ç²®": 2665,
      "æľŁéĻĲåĨħ": 2666,
      "è¡ĮæĶ¿æ³ķè§ĦçļĦè§Ħå®ļ": 2667,
      "åŁİä¹¡": 2668,
      "å®¡æī¹": 2669,
      "çĶ³æĬ¥": 2670,
      "åĲĦèĩª": 2671,
      "ï¼ģ": 2672,
      "è§£éĩĬ": 2673,
      "èĢĥæł¸": 2674,
      "æĪĴ": 2675,
      "æŀª": 2676,
      "æīĭæ®µ": 2677,
      "ç«ŀäºī": 2678,
      "ç¤¾ä¼ļä¸»ä¹ī": 2679,
      "è¿Ĳè¡Į": 2680,
      "Ġth": 2681,
      "æĪĳä»¬çļĦ": 2682,
      "çļĦåıĳå±ķ": 2683,
      "æĶ¶è´Ń": 2684,
      "å·¥èµĦ": 2685,
      "çŃīæĸ¹å¼ı": 2686,
      "è¡¨åĨ³": 2687,
      "åĲĳäººæ°ĳæ³ķéĻ¢": 2688,
      "ç¬¬åįģåħ«æĿ¡": 2689,
      "æļ´åĬĽ": 2690,
      "æĶ¾å°ĦæĢ§": 2691,
      "th": 2692,
      "çĭ¬ç«ĭ": 2693,
      "çīĩ": 2694,
      "æĥł": 2695,
      "æ´ª": 2696,
      "é¦ĸåħĪ": 2697,
      "å¹¼åĦ¿": 2698,
      "åıĪ": 2699,
      "éĢĲ": 2700,
      "åİĭ": 2701,
      "çŁ³": 2702,
      "äº¤æµģ": 2703,
      "æķĪåĬĽ": 2704,
      "æİ¨è¿Ľ": 2705,
      "åĮ»çĸĹåį«çĶŁ": 2706,
      "å»ºè®¾é¡¹çĽ®": 2707,
      "çŃĶæ¡Ī": 2708,
      "ä¾¦": 2709,
      "åľ°çĤ¹": 2710,
      "ç»ıè´¹": 2711,
      "çĻ½": 2712,
      "è°¢": 2713,
      "ç¬¬ä¸īçĻ¾": 2714,
      "è¯ĨåĪ«": 2715,
      "æĻ®éĢļ": 2716,
      "Ġy": 2717,
      "æ»¥": 2718,
      "è¾¾åĪ°": 2719,
      "åį¡": 2720,
      "çĽĸ": 2721,
      "å·®": 2722,
      "åħ¬è·¯": 2723,
      "ä¸Ĭä¸Ģ": 2724,
      "åĨ³è®®": 2725,
      "æľįåĬ¡çļĦ": 2726,
      "è®¸å¤ļ": 2727,
      "èªī": 2728,
      "ä¸Ģå®ļ": 2729,
      "åĨľæ°ĳä¸ĵä¸ļ": 2730,
      "èĭ¥": 2731,
      "ä¾¿åĪ©": 2732,
      "æ¸Ķä¸ļ": 2733,
      "çļĦéĹ®é¢ĺ": 2734,
      "çİĭ": 2735,
      "éĿĴ": 2736,
      "ç»ĻäºĪèŃ¦åĳĬ": 2737,
      "ä¾µæĿĥ": 2738,
      "é¢Ħå¤ĩå½¹": 2739,
      "åı¤": 2740,
      "éĹŃ": 2741,
      "æ´ģ": 2742,
      "è´£ä»¤éĻĲæľŁ": 2743,
      "å²¸": 2744,
      "éĢĢå½¹åĨĽäºº": 2745,
      "åįĹ": 2746,
      "çĶ¨éĢĶ": 2747,
      "å¤Ħåįģ": 2748,
      "200": 2749,
      "201": 2750,
      "çŃ¾åĲį": 2751,
      "åĪ¶éĢł": 2752,
      "åīĤ": 2753,
      "ä¾Ŀçħ§æ³ķå¾ĭ": 2754,
      "æľīä¸ĭåĪĹè¡Įä¸º": 2755,
      "åĸľæ¬¢": 2756,
      "å¯Į": 2757,
      "ç¡®è®¤": 2758,
      "åĲĪä¼Ļäºº": 2759,
      "çĶµåŃĲåķĨåĬ¡": 2760,
      "ç¬¬åįģä¸ĥæĿ¡": 2761,
      "ç¬¬åįģåħŃæĿ¡": 2762,
      "åľŁåľ°æī¿åĮħ": 2763,
      "åĪĽéĢł": 2764,
      "ç´§æĢ¥": 2765,
      "ç¬¬ä¸īæĿ¡": 2766,
      "æ¸¸æĪı": 2767,
      "è¢«åĳĬäºº": 2768,
      "éĵģè·¯": 2769,
      "åª": 2770,
      "è¯ģä»¶": 2771,
      "åħ¥å¢ĥ": 2772,
      "æī£æĬ¼": 2773,
      "é©¾é©¶": 2774,
      "åĨľæ°ĳä¸ĵä¸ļåĲĪä½ľç¤¾": 2775,
      "è¯¦": 2776,
      "æĢİ": 2777,
      "åħ¨éĥ¨": 2778,
      "éĺħ": 2779,
      "ç¬¬åįģåĽĽæĿ¡": 2780,
      "çĦ¶åĲİ": 2781,
      "å®¡è®®": 2782,
      "ç¬¬äºĮåįģæĿ¡": 2783,
      "å¤ļç§į": 2784,
      "èģĶç½ĳ": 2785,
      "ä½Ļ": 2786,
      "éĢĥ": 2787,
      "æŃ£åľ¨": 2788,
      "ä¸´æĹ¶": 2789,
      "éĻĨ": 2790,
      "æĬĬ": 2791,
      "æĪĲä¸º": 2792,
      "åĨħçļĦ": 2793,
      "æĦıè¯Ĩ": 2794,
      "çİ°åľº": 2795,
      "ç¬¬åįģæĿ¡": 2796,
      "æķħäºĭ": 2797,
      "çĭĹ": 2798,
      "åįıä¼ļ": 2799,
      "ä¸ŃåĽ½äººæ°ĳ": 2800,
      "ĠS": 2801,
      "å®¤": 2802,
      "ç¦½": 2803,
      "te": 2804,
      "ä¸Ģç§į": 2805,
      "ç®¡çĲĨäººåĳĺ": 2806,
      "ç¬¬åįģä¹ĿæĿ¡": 2807,
      "ç¬¬åįģäºĮæĿ¡": 2808,
      "çĶ¨çļĦ": 2809,
      "å¹¶å¤Ħç½ļéĩĳ": 2810,
      "å¹´åº¦": 2811,
      "åī²": 2812,
      "ç¬¬åĽĽæĿ¡": 2813,
      "çĪĨ": 2814,
      "çĥŁ": 2815,
      "åĮºçļĦå¸Ĥ": 2816,
      "ĠA": 2817,
      "è®¾åĮºçļĦå¸Ĥ": 2818,
      "çĻ¾åĪĨä¹ĭ": 2819,
      "ç¦ı": 2820,
      "è½¦è¾Ĩ": 2821,
      "æĺ¯ä¸Ģç§į": 2822,
      "è´·æ¬¾": 2823,
      "èĢģå¹´äºº": 2824,
      "æľ¬çº§äººæ°ĳä»£è¡¨å¤§ä¼ļ": 2825,
      "ç¬¬åįģäºĶæĿ¡": 2826,
      "æ³Ľ": 2827,
      "è®¨": 2828,
      "çīĪ": 2829,
      "ç¬¬äºĮåįģäºĮæĿ¡": 2830,
      "åħ»èĢģ": 2831,
      "ä¸Ģç¯ĩ": 2832,
      "èĩªè¡Į": 2833,
      "éĺ³": 2834,
      "åıĹæīĺ": 2835,
      "åŁºäºİ": 2836,
      "ä¼łç»Ł": 2837,
      "ce": 2838,
      "ol": 2839,
      "è¥": 2840,
      "ç½²": 2841,
      "æĭĨ": 2842,
      "ç¬¬ä¸īäºº": 2843,
      "ç¼ĵ": 2844,
      "æ¹¿": 2845,
      "ç¬¬äºĮåįģä¸ĢæĿ¡": 2846,
      "è¾ĵåħ¥": 2847,
      "ĠåĽ½å®¶é¼ĵåĬ±": 2848,
      "ç¥¨æį®": 2849,
      "è¯ĬæĸŃ": 2850,
      "å¥ĸåĬ±": 2851,
      "ĥåľ": 2852,
      "æĮª": 2853,
      "èĪŀ": 2854,
      "ç¬¬åįģä¸ĢæĿ¡": 2855,
      "çĽ¸åħ³çļĦ": 2856,
      "ä¼ļåĲĮåĽ½åĬ¡éĻ¢": 2857,
      "çļĦæĺ¯": 2858,
      "çĶŁåĳ½": 2859,
      "æĹ¶åĢĻ": 2860,
      "çħ¤": 2861,
      "è´¢äº§çļĦ": 2862,
      "çĦ¶èĢĮ": 2863,
      "åŀĥåľ": 2864,
      "ation": 2865,
      "åīįæ¬¾è§Ħå®ļçļĦ": 2866,
      "å°Ĭéĩį": 2867,
      "åªĴ": 2868,
      "åŀĥåľ¾": 2869,
      "æī°": 2870,
      "æīĢéľĢ": 2871,
      "ä¾ĽåºĶ": 2872,
      "å²Ĺ": 2873,
      "åĽ°éļ¾": 2874,
      "è¯¦ç»Ĩ": 2875,
      "åĴĮæĶ¯æĮģ": 2876,
      "ä¼¼": 2877,
      "å¸ģ": 2878,
      "åİĤ": 2879,
      "æľºæŀĦçļĦ": 2880,
      "ç¬¬åįģä¸īæĿ¡": 2881,
      "æĬķåħ¥": 2882,
      "åŁºéĩĳä»½é¢Ŀ": 2883,
      "202": 2884,
      "å¼ķå¯¼": 2885,
      "æ¯Ķä¾ĭ": 2886,
      "é¾Ħ": 2887,
      "åĩ»": 2888,
      "æĢ§è´¨": 2889,
      "åŁºå±Ĥ": 2890,
      "æĮĩæĮ¥": 2891,
      "æĹħå®¢": 2892,
      "ç¬¬ä¹ĿæĿ¡": 2893,
      "åĩŃ": 2894,
      "åŃ©": 2895,
      "åľ°éľĩ": 2896,
      "ç¬¬äºĶæĿ¡": 2897,
      "ä¸Ģæ¬¡": 2898,
      "åĪĨåŃĲ": 2899,
      "æĮīçħ§åĽ½å®¶æľīåħ³è§Ħå®ļ": 2900,
      "æ±¡æŁĵéĺ²æ²»": 2901,
      "åħ³äºİä¿®æĶ¹": 2902,
      "æĵįä½ľ": 2903,
      "éĻĪ": 2904,
      "ä½¿çĶ¨æĿĥ": 2905,
      "é£ŀ": 2906,
      "ä½ıæīĢ": 2907,
      "èĩªçĦ¶èµĦæºĲ": 2908,
      "ä¾Ŀæ³ķç»ĻäºĪå¤ĦåĪĨ": 2909,
      "ur": 2910,
      "ç»ıè¿ĩ": 2911,
      "ç¬¬äºĮæĿ¡": 2912,
      "æĬ¥åĽ½åĬ¡éĻ¢": 2913,
      "å£¤": 2914,
      "çĬ¯ç½ªå«Įçĸĳäºº": 2915,
      "è¥¿": 2916,
      "ç¬¬åħŃæĿ¡": 2917,
      "æİ¨èįĲ": 2918,
      "ä¾¦æŁ¥": 2919,
      "ç¬¬ä¸ĥæĿ¡": 2920,
      "èģļ": 2921,
      "éĢĤåĲĪ": 2922,
      "ç¬¬äºĮåįģä¸ĥæĿ¡": 2923,
      "ç¬¬äºĮåįģåħ«æĿ¡": 2924,
      "ç¬¬äºĮåįģä¹ĿæĿ¡": 2925,
      "åĬ³åĬ¨åĲĪåĲĮ": 2926,
      "è¾¾æĪĲ": 2927,
      "æ¯ıä¸ª": 2928,
      "å¸¦æĿ¥": 2929,
      "äº²å±ŀ": 2930,
      "çļĦå½±åĵį": 2931,
      "æĿ¡çº¦": 2932,
      "æĪĸèĢħæĭĺå½¹": 2933,
      "åħ¨ä½ĵ": 2934,
      "å®īåħ¨çļĦ": 2935,
      "å°Ĩåħ¶": 2936,
      "æ®ĸ": 2937,
      "æŀĹä¸ļ": 2938,
      "åĪĿ": 2939,
      "ä¸įåı¯": 2940,
      "åĽ½å®¶è§Ħå®ļ": 2941,
      "å®īç½®": 2942,
      "å§ĵ": 2943,
      "æĮģç»Ń": 2944,
      "å·¨": 2945,
      "ç»ĵæŀĦ": 2946,
      "å¤Ħä¸īå¹´ä»¥ä¸ĭæľīæľŁå¾ĴåĪĳ": 2947,
      "åı¥åŃĲ": 2948,
      "è¡Ģ": 2949,
      "æłĳ": 2950,
      "å¸Į": 2951,
      "ç»Ħç»ĩçļĦ": 2952,
      "æ¢°": 2953,
      "ç²®é£Ł": 2954,
      "ç»ĺ": 2955,
      "ç¬¬åħ«æĿ¡": 2956,
      "è¡Įä¸ºäºº": 2957,
      "ç±³": 2958,
      "ç¬¬äºĮåįģåħŃæĿ¡": 2959,
      "ç¿»": 2960,
      "ow": 2961,
      "ĠC": 2962,
      "ä¸įæĺ¯": 2963,
      "çīĮ": 2964,
      "æĶ¶çĽĬ": 2965,
      "æµ·åŁŁ": 2966,
      "ç¬¬ä¸ĢçĻ¾äºĮåįģ": 2967,
      "éĵ¶è¡Įä¸ļ": 2968,
      "åĢįä»¥ä¸Ĭ": 2969,
      "çķľç¦½": 2970,
      "ig": 2971,
      "èħ": 2972,
      "èµģ": 2973,
      "åıĬåħ¶ä»ĸ": 2974,
      "ç¡®å®ļçļĦ": 2975,
      "æķĻå¸Ī": 2976,
      "åľŁå£¤": 2977,
      "ç§Łèµģ": 2978,
      "æĲľ": 2979,
      "èĢķ": 2980,
      "æĭŁ": 2981,
      "åıĳæĮ¥": 2982,
      "æĥħæĦŁ": 2983,
      "éĺ²æĬ¤": 2984,
      "åĨĽéĺŁ": 2985,
      "ç¬¬äºĮåįģä¸īæĿ¡": 2986,
      "æłĩåĩĨçļĦ": 2987,
      "æ·»": 2988,
      "çªģåıĳäºĭä»¶": 2989,
      "æĪĳçļĦ": 2990,
      "åĩĨå¤ĩ": 2991,
      "æİ¥åĪ°": 2992,
      "è®¡ç®Ĺæľº": 2993,
      "èµĦæľ¬": 2994,
      "çī¹çĤ¹": 2995,
      "åŁ¹åħ»": 2996,
      "åĤ¨åŃĺ": 2997,
      "æ¬¡ä¼ļè®®éĢļè¿ĩ": 2998,
      "ç»¿": 2999,
      "åºĶå½ĵéģµå®Ī": 3000,
      "ç¬¬ä¸īåįģæĿ¡": 3001,
      "å¹¿æ³Ľ": 3002,
      "èİ·åıĸ": 3003,
      "åĨĽäºĭå§Ķåĳĺä¼ļ": 3004,
      "ä¸Ńå¤®åĨĽäºĭå§Ķåĳĺä¼ļ": 3005,
      "éģŃåıĹ": 3006,
      "åł": 3007,
      "åħ¬å¹³": 3008,
      "åĲĳç¤¾ä¼ļ": 3009,
      "ut": 3010,
      "ĠI": 3011,
      "æ³Ħ": 3012,
      "æ³ķå®ĺ": 3013,
      "ä¸»é¢ĺ": 3014,
      "ç¬¬äºĮåįģäºĶæĿ¡": 3015,
      "æ±¡æŁĵçī©": 3016,
      "é»Ħæ²³æµģåŁŁ": 3017,
      "çĶ±åİ¿çº§ä»¥ä¸Ĭäººæ°ĳæĶ¿åºľ": 3018,
      "ä»ĺæ¬¾": 3019,
      "è´£ä»¤åģľæŃ¢": 3020,
      "ä»ĸä»¬çļĦ": 3021,
      "éĤ®æĶ¿": 3022,
      "æĿĳæ°ĳå§Ķåĳĺä¼ļ": 3023,
      "è¾©æĬ¤": 3024,
      "Ġg": 3025,
      "çĽĹ": 3026,
      "åı¯ä»¥éĩĩåıĸ": 3027,
      "åĽ½å®¶ç§ĺå¯Ĩ": 3028,
      "ç¬¬ä¸ĢæĿ¡": 3029,
      "ä¸ĵçĶ¨": 3030,
      "è®¾æĸ½çļĦ": 3031,
      "åħµ": 3032,
      "åĵģç§į": 3033,
      "åħļ": 3034,
      "è¯Ĺ": 3035,
      "æĺł": 3036,
      "ç®¡éģĵ": 3037,
      "åĬĽéĩı": 3038,
      "è¯ģåĪ¸äº¤æĺĵ": 3039,
      "æ¶īå«Į": 3040,
      "åĴĮç®¡çĲĨ": 3041,
      "ä¹Ļ": 3042,
      "åĳ¢": 3043,
      "åĩºåħ·": 3044,
      "ä¸ĭéĿ¢": 3045,
      "åįķä½įåºĶå½ĵ": 3046,
      "ç¬¬ä¸īåįģä¸ĢæĿ¡": 3047,
      "åĨľæĿĳéĽĨä½ĵç»ıæµİç»Ħç»ĩ": 3048,
      "çĶŁæĢģçİ¯å¢ĥä¸»ç®¡éĥ¨éĹ¨": 3049,
      "qu": 3050,
      "ãĢĪ": 3051,
      "ãĢī": 3052,
      "æĿŁ": 3053,
      "éĿ©": 3054,
      "è¿ĲåĬ¨": 3055,
      "è®¤è¯ģ": 3056,
      "åĭ¤": 3057,
      "åı¦æľīè§Ħå®ļçļĦ": 3058,
      "æľĭ": 3059,
      "æĭĸ": 3060,
      "æľ¬ç½ª": 3061,
      "ä¼ģä¸ļçļĦ": 3062,
      "ç¬¬ä¸īåįģä¸īæĿ¡": 3063,
      "æĬķè¯ī": 3064,
      "åħħåĪĨ": 3065,
      "æ·»åĬł": 3066,
      "å¦Ĥå®ŀ": 3067,
      "ç¬¬äºĮåįģåĽĽæĿ¡": 3068,
      "åį«çĶŁåģ¥åº·": 3069,
      "è®Ńç»ĥ": 3070,
      "ä¿¡çĶ¨": 3071,
      "ç«ĭæ³ķ": 3072,
      "è¿ĲèĲ¥": 3073,
      "äº¤éĢļè¿Ĳè¾ĵ": 3074,
      "ä»»ä½ķåįķä½įåĴĮä¸ªäºº": 3075,
      "åĨľä¸ļåĨľæĿĳä¸»ç®¡éĥ¨éĹ¨": 3076,
      "è§Ħç«ł": 3077,
      "ä¼łæĴŃ": 3078,
      "Ġ5": 3079,
      "éĢĴ": 3080,
      "é¡¾": 3081,
      "ç¨ĭåº¦": 3082,
      "åĲİçļĦ": 3083,
      "è¿Ļæł·": 3084,
      "è¶£": 3085,
      "åıĳå±ķè§ĦåĪĴ": 3086,
      "è£ģåĨ³": 3087,
      "el": 3088,
      "æĿĥéĻĲ": 3089,
      "ç³ĸ": 3090,
      "èįīæ¡Ī": 3091,
      "ç¾¤ä¼Ĺ": 3092,
      "æŃ¦è£ħ": 3093,
      "if": 3094,
      "æĶ¹åĸĦ": 3095,
      "æ¿Ģ": 3096,
      "å¸ĮæľĽ": 3097,
      "æ¦": 3098,
      "å·¥ä¼¤": 3099,
      "çī©èµĦ": 3100,
      "åıĹçĽĬ": 3101,
      "ers": 3102,
      "æĬļåħ»": 3103,
      "us": 3104,
      "çļĦçĽ¸åħ³": 3105,
      "çļĦéĻ¤å¤ĸ": 3106,
      "è¯·éĹ®": 3107,
      "ç¨İæ¬¾": 3108,
      "éĢĤçĶ¨æľ¬æ³ķ": 3109,
      "å¢ŀå¼º": 3110,
      "è¿Ķè¿ĺ": 3111,
      "ä¸įåıĹ": 3112,
      "çŁ«": 3113,
      "éĻįä½İ": 3114,
      "éĨ": 3115,
      "å°Ŀ": 3116,
      "æ¬º": 3117,
      "æ²Ł": 3118,
      "éª¤": 3119,
      "æĬķèµĦèĢħ": 3120,
      "åģļå¥½": 3121,
      "çļĦæĸ¹å¼ı": 3122,
      "çİ°åľ¨": 3123,
      "ç¬¬ä¸īåįģä¸ĥæĿ¡": 3124,
      "ç¬¬ä¸īåįģäºĮæĿ¡": 3125,
      "æŃ¥éª¤": 3126,
      "éļĲç§ģ": 3127,
      "åĽºä½ĵ": 3128,
      "ul": 3129,
      "Â·": 3130,
      "å½ĵçĦ¶": 3131,
      "çĶ¨æ°´": 3132,
      "æ³ķå¾ĭæı´åĬ©": 3133,
      "æ¸ħåģ¿": 3134,
      "å»ºçŃĳçī©": 3135,
      "ä»İä¸ļ": 3136,
      "éħĴ": 3137,
      "æľĭåıĭ": 3138,
      "è´´": 3139,
      "ä¸Ģä¸ĭ": 3140,
      "åħ¬æŃ£": 3141,
      "åĮ»åŃ¦": 3142,
      "åĭŁéĽĨ": 3143,
      "å¨ģèĥģ": 3144,
      "æīĢæľīæĿĥ": 3145,
      "éĥ¨éĺŁ": 3146,
      "æĪĳåĽ½": 3147,
      "åĬłåħ¥": 3148,
      "ç¬¬ä¸īåįģåĽĽæĿ¡": 3149,
      "æ»¡è¶³": 3150,
      "çŀ": 3151,
      "éĹ»": 3152,
      "å¯¹è¯Ŀ": 3153,
      "åħ¬åĽŃ": 3154,
      "åħ¨éĿ¢": 3155,
      "æĢ»ä¹ĭ": 3156,
      "å¿ĥçĲĨ": 3157,
      "åĭĺ": 3158,
      "æĮªçĶ¨": 3159,
      "am": 3160,
      "à°": 3161,
      "çļĦä¿¡æģ¯": 3162,
      "åĪĹåħ¥": 3163,
      "ç®Ĺæ³ķ": 3164,
      "è§Ĩä¸º": 3165,
      "é²": 3166,
      "æĿĤ": 3167,
      "å¹¶åľ¨": 3168,
      "èĤī": 3169,
      "æŁ¥å°ģ": 3170,
      "æ¶ĪéĻ¤": 3171,
      "åħ¬åħ±åį«çĶŁ": 3172,
      "ir": 3173,
      "çļĦæĹ¶éĹ´": 3174,
      "æīĢä»¥": 3175,
      "ç®¡çĲĨåĴĮ": 3176,
      "æģ¶": 3177,
      "æĶ¹æŃ£çļĦ": 3178,
      "äºĴèģĶç½ĳ": 3179,
      "é¢Ħéĺ²æİ§åĪ¶": 3180,
      "åĬŀæ³ķçĶ±åĽ½åĬ¡éĻ¢": 3181,
      "è§¦": 3182,
      "è¯ģåĪ¸åħ¬åı¸": 3183,
      "åħ¬åħ±åĪ©çĽĬ": 3184,
      "å§Ķæīĺäºº": 3185,
      "åģļåĩº": 3186,
      "è¿ľ": 3187,
      "ä¸įå±¥è¡Į": 3188,
      "ç¬¬ä¸īåįģäºĶæĿ¡": 3189,
      "åĩıè½»": 3190,
      "èīºæľ¯": 3191,
      "éĺ²èĮĥ": 3192,
      "åĮħè£ħ": 3193,
      "éķ¿æ±Ł": 3194,
      "ç¬¬ä¸īåįģä¹ĿæĿ¡": 3195,
      "æĥ³è¦ģ": 3196,
      "çĳ": 3197,
      "è¡ĮåĬ¨": 3198,
      "å²Ľ": 3199,
      "æ¯Ķå¦Ĥ": 3200,
      "åªĴä½ĵ": 3201,
      "çļĦå·¥ä½ľ": 3202,
      "åĨ»": 3203,
      "é¡º": 3204,
      "åĳ¨å²ģ": 3205,
      "å»¶éķ¿": 3206,
      "åħ¬åĬ¡åĳĺ": 3207,
      "éĴĪå¯¹": 3208,
      "çļĦåįķä½į": 3209,
      "ä»Ĭ": 3210,
      "ä¹ħ": 3211,
      "æµª": 3212,
      "éĢļæĬ¥": 3213,
      "æĹ¥å¸¸": 3214,
      "ç§įåŃĲ": 3215,
      "çĶµä¿¡": 3216,
      "åĲĦçº§äººæ°ĳä»£è¡¨å¤§ä¼ļ": 3217,
      "å®Įæķ´": 3218,
      "æ»¥çĶ¨": 3219,
      "è¡ĮæĶ¿è®¸åı¯": 3220,
      "é¡¿": 3221,
      "è¿Ŀçº¦": 3222,
      "å¼ĢæĶ¾": 3223,
      "ç»ĻæĪĳ": 3224,
      "åĲįä¹ī": 3225,
      "ç¬¬ä¸īåįģåħŃæĿ¡": 3226,
      "åħĪçĶŁ": 3227,
      "ç¬¬åħ«ç«ł": 3228,
      "æĭ¥": 3229,
      "å¤Ħä»¥": 3230,
      "æīĢè¿°": 3231,
      "åĨĽå®ĺ": 3232,
      "ç¬¬åĽĽåįģæĿ¡": 3233,
      "çļĦæĦıè§ģ": 3234,
      "ç¨İæĶ¶": 3235,
      "ç¬¬ä¸īåįģåħ«æĿ¡": 3236,
      "äº§çĶŁçļĦ": 3237,
      "è´¦æĪ·": 3238,
      "æĭĽæłĩ": 3239,
      "åĨĴ": 3240,
      "ä¸»ä»»": 3241,
      "æ½": 3242,
      "æĹħè¡Į": 3243,
      "å±Ĭæ»¡": 3244,
      "```": 3245,
      "Ġä¸ºäºĨ": 3246,
      "åºĶå½ĵèĩª": 3247,
      "åı¯ä»¥ä¾Ŀæ³ķ": 3248,
      "çĶµè§Ĩ": 3249,
      "å®£åĳĬ": 3250,
      "çº³ç¨İäºº": 3251,
      "ç»į": 3252,
      "èĬĤèĥ½": 3253,
      "æ¬¡ä¿®æŃ£": 3254,
      "è®¾ç«ĭçļĦ": 3255,
      "ä»ĭç»į": 3256,
      "æĮĳ": 3257,
      "ç»ıéªĮ": 3258,
      "çŃīçº§": 3259,
      "åİħ": 3260,
      "åĨ³çŃĸ": 3261,
      "ä¾Ŀçħ§æľ¬æ³ķè§Ħå®ļ": 3262,
      "æİĪäºĪ": 3263,
      "çļĦåºĶçĶ¨": 3264,
      "åĽ½åĬ¡éĻ¢è¯ģåĪ¸çĽĳçĿ£ç®¡çĲĨæľºæŀĦ": 3265,
      "çĽĳå¯Łæľºåħ³": 3266,
      "ä¸Ģèµ·": 3267,
      "ä¸įæľį": 3268,
      "æľ¬çº§äººæ°ĳæĶ¿åºľ": 3269,
      "åī§": 3270,
      "å½¢æĪĲ": 3271,
      "åĪ¶å®ļæľ¬æ³ķ": 3272,
      "å±Ĭåħ¨åĽ½äººæ°ĳä»£è¡¨å¤§ä¼ļå¸¸åĬ¡å§Ķåĳĺä¼ļç¬¬åįģ": 3273,
      "çģ¾å®³": 3274,
      "çıŃ": 3275,
      "æŀªæĶ¯": 3276,
      "éĻĪè¿°": 3277,
      "æĸ¯": 3278,
      "ä¸ļä¸»": 3279,
      "åĽ½å®¶é¼ĵåĬ±": 3280,
      "æ£®": 3281,
      "æķĻåŃ¦": 3282,
      "éĢłæĪĲçļĦ": 3283,
      "æ°Ķè±¡": 3284,
      "æ¹ĸ": 3285,
      "ç»©": 3286,
      "è¯º": 3287,
      "æĥ©": 3288,
      "çº§ä»¥ä¸Ĭ": 3289,
      "æľªæĮīçħ§è§Ħå®ļ": 3290,
      "è´¿": 3291,
      "å®¡æł¸": 3292,
      "è¦ģæ±ĤçļĦ": 3293,
      "ç±»åŀĭ": 3294,
      "åĻª": 3295,
      "å±ħæ°ĳå§Ķåĳĺä¼ļ": 3296,
      "è§Ĵèī²": 3297,
      "å¹¼åĦ¿åĽŃ": 3298,
      "čĊ": 3299,
      "ä¸ĢåĲį": 3300,
      "åĽ½æ°ĳ": 3301,
      "ä¿ĿåŃĺ": 3302,
      "å½ĵäºĭäººçļĦ": 3303,
      "éģµå¾ª": 3304,
      "ç¨³å®ļ": 3305,
      "æľīåĪ©": 3306,
      "æıĲè¯·": 3307,
      "Ġæľ¬æ³ķèĩª": 3308,
      "Ġå½ķ": 3309,
      "çļĦéĩįè¦ģ": 3310,
      "äººæīį": 3311,
      "æ³ķæ²»": 3312,
      "å¤§æ°Ķ": 3313,
      "è¢«åĪ¤": 3314,
      "è¡Įä¸ºèĥ½åĬĽ": 3315,
      "åģľä¸ļ": 3316,
      "æľªæĪĲå¹´äººçļĦ": 3317,
      "çŁ«æŃ£": 3318,
      "30": 3319,
      "åįĬ": 3320,
      "ä¸Ģèĩ´": 3321,
      "å¹´åĨħ": 3322,
      "æľºæŀĦåºĶå½ĵ": 3323,
      "è·¨": 3324,
      "ä¼ĺæĥł": 3325,
      "çļĦæľīåħ³è§Ħå®ļ": 3326,
      "ä¹±": 3327,
      "åĪĨåī²": 3328,
      "æ³ķå¾ĭæ³ķè§Ħ": 3329,
      "åĢĴ": 3330,
      "èĤ¡ç¥¨": 3331,
      "å¹´ä»¥ä¸ĬæľīæľŁå¾ĴåĪĳ": 3332,
      "æĢİä¹Ī": 3333,
      "è®²": 3334,
      "è¯ģäºº": 3335,
      "æĶ¶åıĸ": 3336,
      "ä¼ĺåĮĸ": 3337,
      "çĸ¾çĹħé¢Ħéĺ²æİ§åĪ¶": 3338,
      "åĢŁæ¬¾": 3339,
      "æľºåĻ¨åŃ¦ä¹ł": 3340,
      "å²Ĺä½į": 3341,
      "ä¾Ŀæ³ķå±¥è¡Į": 3342,
      "åĪĳç½ļ": 3343,
      "å®³äºº": 3344,
      "æ¹¿åľ°": 3345,
      "čĊč": 3346,
      "è¯·æł¹æį®": 3347,
      "é¢Ħæ¡Ī": 3348,
      "åĿĢ": 3349,
      "ç¬¬åĽĽåįģåĽĽæĿ¡": 3350,
      "åĬ³åĬ¨äºīè®®": 3351,
      "éĢĢè¿ĺ": 3352,
      "æ°ĳçĶ¨èĪªç©ºåĻ¨": 3353,
      "Ġyou": 3354,
      "æĿ¡ä¾ĭ": 3355,
      "æŃ§": 3356,
      "æľīåħ³ä¸»ç®¡éĥ¨éĹ¨": 3357,
      "æİªæĸ½çļĦ": 3358,
      "ç¬¬åĽĽåįģäºĮæĿ¡": 3359,
      "ç¬¬åĽĽåįģä¸īæĿ¡": 3360,
      "ç¬¬åĽĽåįģäºĶæĿ¡": 3361,
      "ç»¼ä¸Ĭ": 3362,
      "ĊĠĠ": 3363,
      "çļĦéľĢè¦ģ": 3364,
      "æĸ°éĹ»": 3365,
      "ç©ºéĹ´": 3366,
      "æīįèĥ½": 3367,
      "æ´ĹéĴ±": 3368,
      "æ³Ħéľ²": 3369,
      "ä¸įåĬ¨äº§": 3370,
      "åħ¬è¯ģ": 3371,
      "è´£ä»»çļĦ": 3372,
      "å°ıçº¢": 3373,
      "åıĬåħ¶æľīåħ³éĥ¨éĹ¨": 3374,
      "å¾Īå¤ļ": 3375,
      "æħĪåĸĦç»Ħç»ĩ": 3376,
      "ä¸§": 3377,
      "ä¸ĢæŃ¥": 3378,
      "æĪĲæľ¬": 3379,
      "åħ±äº«": 3380,
      "å®³åħ³ç³»": 3381,
      "è¿«": 3382,
      "åľ¨ä¸ŃåĽ½": 3383,
      "åĩºçļĦ": 3384,
      "åĪĨå·¥": 3385,
      "æıĲä¾ĽèĢħ": 3386,
      "éĿ¢ä¸´": 3387,
      "åĿĹ": 3388,
      "ä»ĵ": 3389,
      "è¡¡": 3390,
      "è´¡": 3391,
      "å®ŀéªĮ": 3392,
      "ç¬¬åĽĽåįģä¸ĥæĿ¡": 3393,
      "åħ·ä½ĵçļĦ": 3394,
      "èĩ´ä½¿": 3395,
      "æľīä¸ĭåĪĹè¡Įä¸ºä¹ĭä¸ĢçļĦ": 3396,
      "åĲĮä¸Ģ": 3397,
      "åŃ¦ä½į": 3398,
      "æī§çħ§": 3399,
      "åĢºåĪ¸": 3400,
      "å®¶åºŃæķĻèĤ²": 3401,
      "å®ŀéĻħæĥħåĨµ": 3402,
      "Ġfor": 3403,
      "å¯»æ±Ĥ": 3404,
      "un": 3405,
      "é±": 3406,
      "Ġ4": 3407,
      "æ°ĳæĶ¿": 3408,
      "ç¬¬åĽĽåįģåħ«æĿ¡": 3409,
      "å¤Ħä¸īå¹´ä»¥ä¸Ĭ": 3410,
      "ä¹ĺ": 3411,
      "å¦¨": 3412,
      "ç¬¬åĽĽåįģä¸ĢæĿ¡": 3413,
      "æĹ¥èµ·æĸ½è¡Į": 3414,
      "çĬ¶æĢģ": 3415,
      "åĻªå£°": 3416,
      "ç»¼ä¸ĬæīĢè¿°": 3417,
      "è´¡çĮ®": 3418,
      "æĬ½": 3419,
      "æ¶²": 3420,
      "çĶµåĬĽ": 3421,
      "éĤ®ä»¶": 3422,
      "å§ĵåĲį": 3423,
      "é±¼": 3424,
      "åĲ¨": 3425,
      "è¯ĳ": 3426,
      "è¿ĩéĶĻ": 3427,
      "å·¥ä½ľä¸Ń": 3428,
      "æĢ»ä½ĵ": 3429,
      "éĢłæĪĲä¸¥éĩį": 3430,
      "æīĭæľº": 3431,
      "Ġäººæ°ĳæ³ķéĻ¢": 3432,
      "å®Ĺ": 3433,
      "åĮĹ": 3434,
      "ç¬¬äºĶåįģæĿ¡": 3435,
      "åĽ¾ä¹¦": 3436,
      "æ±ĩç¥¨": 3437,
      "èĵ": 3438,
      "æĪĲåĬŁ": 3439,
      "èģĮå®Ī": 3440,
      "æİĪæĿĥ": 3441,
      "ç¤¾åĮºçŁ«æŃ£": 3442,
      "åĺ": 3443,
      "æ°¸": 3444,
      "é¢ĳ": 3445,
      "æķĪæŀľ": 3446,
      "æ£®æŀĹ": 3447,
      "è¯ļ": 3448,
      "å¾Ħ": 3449,
      "çĶŁæķĪ": 3450,
      "çŃīçŃī": 3451,
      "æŁ¥è¯¢": 3452,
      "æĮĩå®ļçļĦ": 3453,
      "åħ»æ®ĸ": 3454,
      "ç¨İåĬ¡æľºåħ³": 3455,
      "èµĽ": 3456,
      "ç¬¬åĽĽåįģåħŃæĿ¡": 3457,
      "æµĭç»ĺ": 3458,
      "åįłçĶ¨": 3459,
      "æ¨¡åŀĭ": 3460,
      "å¼Ĥè®®": 3461,
      "è´£ä»¤éĻĲæľŁæĶ¹æŃ£": 3462,
      "èĶ": 3463,
      "ç»ıå¸¸": 3464,
      "åģ¶": 3465,
      "ç¬¬äºĮæ¬¾": 3466,
      "èµ·æĿ¥": 3467,
      "è·µ": 3468,
      "å®£ä¼łæķĻèĤ²": 3469,
      "éĺ»ç¢į": 3470,
      "ä»¥ä¾¿": 3471,
      "åºĶå½ĵéĩĩåıĸ": 3472,
      "åĪ¶åĵģ": 3473,
      "åħ¨çĲĥ": 3474,
      "èĩªæĦ¿": 3475,
      "æľªæĮīçħ§": 3476,
      "èį£": 3477,
      "ç¬¬åĽĽçĻ¾": 3478,
      "ç¬¬åĽĽåįģä¹ĿæĿ¡": 3479,
      "é«ĺçŃīåŃ¦æł¡": 3480,
      "æĮĳæĪĺ": 3481,
      "æĿ¾": 3482,
      "è°Ī": 3483,
      "ç»Ħç»ĩåĴĮä¸ªäºº": 3484,
      "ç¼Ķ": 3485,
      "ç½ĳç«Ļ": 3486,
      "èĪªéģĵ": 3487,
      "ä¸°": 3488,
      "å·ŀ": 3489,
      "ä¸¾åĬŀ": 3490,
      "åį«çĶŁè¡ĮæĶ¿éĥ¨éĹ¨": 3491,
      "Ġst": 3492,
      "éĥ½æĺ¯": 3493,
      "ä¼¤å®³": 3494,
      "è¯ĪéªĹ": 3495,
      "åĽ½æ°ĳç»ıæµİ": 3496,
      "ä¸Ģæ®µ": 3497,
      "åĩĢ": 3498,
      "åºĶå½ĵçĶ±": 3499,
      "å¿½": 3500,
      "ç½ļéĩĳ": 3501,
      "çİ¯å¢ĥå½±åĵį": 3502,
      "éĹ®é¢ĺçļĦ": 3503,
      "åĤ¨å¤ĩ": 3504,
      "åĲ¬åıĸ": 3505,
      "ct": 3506,
      "åĬª": 3507,
      "ä¼į": 3508,
      "åįģå¹´ä»¥ä¸ĭæľīæľŁå¾ĴåĪĳ": 3509,
      "æĪĸèĢħä¸į": 3510,
      "å¼Ĭ": 3511,
      "çĽ¸åĲĮ": 3512,
      "ä¹ĭåīį": 3513,
      "è®°è½½": 3514,
      "è¡¥åħħ": 3515,
      "æľĢé«ĺäººæ°ĳæ³ķéĻ¢": 3516,
      "åŃ©åŃĲ": 3517,
      "æ¦Ĥ": 3518,
      "çŀĴ": 3519,
      "çĨ": 3520,
      "çļĦæĸĩç«ł": 3521,
      "åĴĮæľįåĬ¡": 3522,
      "åºĶå½ĵç«ĭåį³": 3523,
      "ä¿Ŀåģ¥": 3524,
      "è¡¨è¾¾": 3525,
      "çĽ¸äºĴ": 3526,
      "ä¼ģä¸ļäºĭä¸ļåįķä½į": 3527,
      "æľĢç»Ī": 3528,
      "ä¸ĩåħĥä»¥ä¸ĬäºĶåįģ": 3529,
      "æ¥": 3530,
      "ä¸½": 3531,
      "çļĦåĲĪæ³ķæĿĥçĽĬ": 3532,
      "å¤º": 3533,
      "åħ³æ³¨": 3534,
      "æİ¥ç§į": 3535,
      "æīĺè¿Ĳ": 3536,
      "æ°ĳäºĭè¯īè®¼æ³ķ": 3537,
      "çªĥ": 3538,
      "åĬªåĬĽ": 3539,
      "ad": 3540,
      "ï¼ļï¼Ī": 3541,
      "è¿ĩå¤±": 3542,
      "è¿ĳäº²å±ŀ": 3543,
      "éķ¿æ±ŁæµģåŁŁ": 3544,
      "##": 3545,
      "$$": 3546,
      "è¿ģ": 3547,
      "ç¬¬äºĮèĬĤ": 3548,
      "åĳĬè¯ī": 3549,
      "ith": 3550,
      "éļĲæĤ£": 3551,
      "ä¼Ĳ": 3552,
      "ä¸Ģä½į": 3553,
      "äº§æĿĥ": 3554,
      "æľ¬çº§": 3555,
      "ä½įç½®": 3556,
      "ç»Ħç»ĩå¼Ģå±ķ": 3557,
      "åİ¿çº§äººæ°ĳæĶ¿åºľ": 3558,
      "ç¬¬ä¸ĢåįĥéĽ¶": 3559,
      "æ²ŁéĢļ": 3560,
      "è¯¾": 3561,
      "æľ¬æ³ķè§Ħå®ļçļĦ": 3562,
      "æĿ¥æºĲ": 3563,
      "ä¸įå¾Ĺè¶ħè¿ĩ": 3564,
      "è¿ĿåıįäºĨ": 3565,
      "æĪĸèĢħåħ¶": 3566,
      "åŃ£": 3567,
      "èĩªä¸»": 3568,
      "æįŁåĿı": 3569,
      "é¢Ħæµĭ": 3570,
      "æĤ¨åı¯ä»¥": 3571,
      "ç¬¬äºĶåįģä¸ĢæĿ¡": 3572,
      "ä½ľåĩºçļĦ": 3573,
      "å°Ŀè¯ķ": 3574,
      "è§Ħæ¨¡": 3575,
      "åħ±æľī": 3576,
      "åĨ»ç»ĵ": 3577,
      "æı¡": 3578,
      "ä»¥ä¸ĬçļĦ": 3579,
      "åĮ»å¸Ī": 3580,
      "ç¬¬äºĶåįģäºĮæĿ¡": 3581,
      "ç¬¬äºĶåįģåħŃæĿ¡": 3582,
      "æ°ĳäºĭè¡Įä¸ºèĥ½åĬĽ": 3583,
      "è½½æĺİ": 3584,
      "çļĦåĨħå®¹": 3585,
      "å¤ı": 3586,
      "æİĮ": 3587,
      "ç»Ħç»ĩå®ŀæĸ½": 3588,
      "é©¬": 3589,
      "è¯¢éĹ®": 3590,
      "ç¿»è¯ĳ": 3591,
      "èĽ": 3592,
      "éº": 3593,
      "åĴĮæľīåħ³": 3594,
      "å¯Ħ": 3595,
      "åºĶå½ĵåĬłå¼º": 3596,
      "æŀ¶": 3597,
      "ç«¯": 3598,
      "æľ¬äºº": 3599,
      "æ±½": 3600,
      "æĺİçŁ¥": 3601,
      "ç¬¬ä¸ĢèĬĤ": 3602,
      "å°ıæĿİ": 3603,
      "çĥĪ": 3604,
      "æ°ĳäºĭè´£ä»»": 3605,
      "æŃ§è§Ĩ": 3606,
      "ĠåĲĦçº§äººæ°ĳæĶ¿åºľ": 3607,
      "çļĦæ¡Īä»¶": 3608,
      "ç®¡æİ§": 3609,
      "æľºæ¢°": 3610,
      "åĽ½å®¶è§Ħå®ļçļĦ": 3611,
      "éĿł": 3612,
      "å¤§éĩı": 3613,
      "ä¿ĿæĬ¤åĴĮ": 3614,
      "åĮ»çĶŁ": 3615,
      "ç¬¬äºĶåįģä¸ĥæĿ¡": 3616,
      "å®¢è§Ĥ": 3617,
      "åĩŃè¯ģ": 3618,
      "åĽºä½ĵåºŁçī©": 3619,
      "ay": 3620,
      "ç¹": 3621,
      "Ġare": 3622,
      "æĪĳä»¬åı¯ä»¥": 3623,
      "åĢĻéĢī": 3624,
      "åĩ½": 3625,
      "æĪĸèĢħåľ¨": 3626,
      "çī©ä¸ļ": 3627,
      "è¿Ľåĩºåı£": 3628,
      "çĶ±çľģ": 3629,
      "æ°´åľŁ": 3630,
      "ly": 3631,
      "çļĦçĬ¯ç½ª": 3632,
      "åºĶå½ĵç»ı": 3633,
      "æľ¬åįķä½į": 3634,
      "åĪ¶æŃ¢": 3635,
      "åĨħéĥ¨": 3636,
      "ç¤¾äº¤": 3637,
      "æī¿ç§Łäºº": 3638,
      "æī¬": 3639,
      "åºĶå½ĵä¸İ": 3640,
      "æ´»åĬ¨ä¸Ń": 3641,
      "å¦ĤæŀľæĤ¨": 3642,
      "äººå·¥æĻºèĥ½æĬĢæľ¯": 3643,
      "çļĦä¸Ģ": 3644,
      "äºĮçĻ¾": 3645,
      "åĪ°äºĨ": 3646,
      "æī§è¡ĮçļĦ": 3647,
      "æīĺç®¡": 3648,
      "åĨľæĿĳåľŁåľ°æī¿åĮħ": 3649,
      "æľŁè´§äº¤æĺĵ": 3650,
      "æĽ´å¤ļçļĦ": 3651,
      "ç¦ıåĪ©": 3652,
      "è®¨è®º": 3653,
      "åį¸": 3654,
      "åºĹ": 3655,
      "æ°ĳä¸»": 3656,
      "åĮĸçļĦ": 3657,
      "ç»ĵè®º": 3658,
      "æī¹åĩĨçļĦ": 3659,
      "åıĳçĶŁçļĦ": 3660,
      "åıĬåħ¶å·¥ä½ľäººåĳĺ": 3661,
      "ç»§æī¿äºº": 3662,
      "å·§": 3663,
      "ä¸ŃåĮ»": 3664,
      "ä¸Ĭè¯ī": 3665,
      "æıĲåįĩ": 3666,
      "å¹´çļĦ": 3667,
      "ç½ªçĬ¯": 3668,
      "èĬĤçº¦": 3669,
      "ç¬¬äºĶåįģåħ«æĿ¡": 3670,
      "ç¬¬äºĶåįģä¸īæĿ¡": 3671,
      "ç§»åĬ¨": 3672,
      "Ġ\\(": 3673,
      "è¿ŀå¸¦": 3674,
      "ä»¥å¤ĸçļĦ": 3675,
      "åĴĮä½¿çĶ¨": 3676,
      "åĽ½ç±į": 3677,
      "ä¾µåįł": 3678,
      "èĢķåľ°": 3679,
      "æĬ«": 3680,
      "æĪĸèĢħæľīåħ¶ä»ĸ": 3681,
      "æĸĩæĺİ": 3682,
      "æĶ¶åħ»": 3683,
      "æī¿è¯º": 3684,
      "åŁºéĩĳç®¡çĲĨäºº": 3685,
      "ä¹īåĬ¡çļĦ": 3686,
      "åĪĳäºĭè¯īè®¼æ³ķ": 3687,
      "æīĢæľīçļĦ": 3688,
      "åħ¶è§Ħå®ļ": 3689,
      "æĥ¯": 3690,
      "æĹ¥ä»¥ä¸ĭ": 3691,
      "åŃĺæ¬¾": 3692,
      "æİ¨çĲĨ": 3693,
      "åĽŀéģ¿": 3694,
      "èĻ½": 3695,
      "çĸ«æĥħ": 3696,
      "çŃ¾åıĳ": 3697,
      "çĭ¬èµĦ": 3698,
      "æµ·äºĭæ³ķéĻ¢": 3699,
      "åıĹæīĺäºº": 3700,
      "ç¹ģ": 3701,
      "Ġä¸Ńåįİäººæ°ĳåħ±åĴĮåĽ½": 3702,
      "æľºä¼ļ": 3703,
      "å¥Ĺ": 3704,
      "æľįåĬ¡æıĲä¾ĽèĢħ": 3705,
      "ç¬¬äºĶåįģäºĶæĿ¡": 3706,
      "æ¡Īä»¶çļĦ": 3707,
      "ç®¡çĲĨåĪ¶åº¦": 3708,
      "æĸĩä¹¦": 3709,
      "æĬ¥éĢģ": 3710,
      "åĬłå·¥": 3711,
      "éĴŁ": 3712,
      "æĪĺçķ¥": 3713,
      "æĭī": 3714,
      "æ¬ł": 3715,
      "æīĢåĪĹ": 3716,
      "å¹´é¾Ħ": 3717,
      "åħŃä¸ªæľĪ": 3718,
      "ç§įç±»": 3719,
      "è´¢æĶ¿éĥ¨éĹ¨": 3720,
      "Ġv": 3721,
      "å¾ĩ": 3722,
      "ä¼ļåĳĺ": 3723,
      "å¹¶å°Ĩ": 3724,
      "æ°´è¡ĮæĶ¿ä¸»ç®¡éĥ¨éĹ¨": 3725,
      "ç§ĳçłĶ": 3726,
      "ç¬¬ä¸ĢçĻ¾ä¸īåįģ": 3727,
      "æłĩåĩĨåĴĮ": 3728,
      "èĩªæ²»åľ°æĸ¹": 3729,
      "æ£Ģå¯Łå®ĺ": 3730,
      "å¿ħè¦ģæĹ¶": 3731,
      "è´§çī©çļĦ": 3732,
      "åĴĮæ³ķå¾ĭ": 3733,
      "åľ°çĲĥ": 3734,
      "æ··": 3735,
      "èĲ½å®ŀ": 3736,
      "15": 3737,
      "èĴ": 3738,
      "çļĦä¹īåĬ¡": 3739,
      "æķ´é¡¿": 3740,
      "æ¯Ķè¾ĥ": 3741,
      "æĢĿæĥ³": 3742,
      "å¾ĩç§ģ": 3743,
      "èĸ": 3744,
      "çļĦéĥ¨éĹ¨": 3745,
      "äººæ°ĳèŃ¦å¯Ł": 3746,
      "æľ¬æĿ¡": 3747,
      "è¿ĽæŃ¥": 3748,
      "æĪĳæĥ³": 3749,
      "æĶ¶è´¹": 3750,
      "é«ĺæķĪ": 3751,
      "å¤ļå°ĳ": 3752,
      "ç¬¬äºĶåįģåĽĽæĿ¡": 3753,
      "æĪĳä»¬éľĢè¦ģ": 3754,
      "ä½ıå®": 3755,
      "éļıçĿĢ": 3756,
      "åĢįä»¥ä¸ĭçļĦç½ļæ¬¾": 3757,
      "ä¸°å¯Į": 3758,
      "äººåĴĮ": 3759,
      "æ³Ĭ": 3760,
      "ä¸Ńå°ı": 3761,
      "æĹ¶æķĪ": 3762,
      "éģĵå¾·": 3763,
      "ç¬¬ä¸ĢçĻ¾åĽĽåįģ": 3764,
      "éħįå¤ĩ": 3765,
      "å¤©æ°Ķ": 3766,
      "ç¾İåĽ½": 3767,
      "æĲº": 3768,
      "èĳ£äºĭä¼ļ": 3769,
      "åį«çĶŁåģ¥åº·ä¸»ç®¡éĥ¨éĹ¨": 3770,
      "å¦¥": 3771,
      "å¤įæĿĤ": 3772,
      "Ġas": 3773,
      "éªĮæĶ¶": 3774,
      "å°±æĺ¯": 3775,
      "ä¿Ŀéļľæ³ķ": 3776,
      "ç¬¬åħŃåįģäºĮæĿ¡": 3777,
      "åĨĻä¸Ģç¯ĩ": 3778,
      "åħ¬åħ±åį«çĶŁäºĭä»¶": 3779,
      "åĽ½æ°ĳç»ıæµİåĴĮç¤¾ä¼ļ": 3780,
      "é¢ľ": 3781,
      "æľ¬ç«ł": 3782,
      "åĢ¾": 3783,
      "ä¹Łæĺ¯": 3784,
      "çĻ»è®°çļĦ": 3785,
      "æľīæĿĥè¦ģæ±Ĥ": 3786,
      "éĥ½æľī": 3787,
      "æĻ®åıĬ": 3788,
      "é¤Ĳåİħ": 3789,
      "ä¸»å¸ŃåĽ¢": 3790,
      "em": 3791,
      "åĲĪå¹¶": 3792,
      "åĩºåĶ®": 3793,
      "å¥ĩ": 3794,
      "å°Ĩä¼ļ": 3795,
      "åĪ¤æĸŃ": 3796,
      "ä¸¾è¡Į": 3797,
      "å¯Ĩçłģ": 3798,
      "çŃĸçķ¥": 3799,
      "ĠP": 3800,
      "èĢħçļĦ": 3801,
      "æ°ĳæĹıèĩªæ²»åľ°æĸ¹": 3802,
      "åĲĥ": 3803,
      "ä¸Ģä»½": 3804,
      "åįģåŃĹ": 3805,
      "æľºåľº": 3806,
      "æıĲåīį": 3807,
      "è¾ŀ": 3808,
      "æĹłéļľç¢į": 3809,
      "ç¬¬åħŃåįģæĿ¡": 3810,
      "äº¤éĢļäºĭæķħ": 3811,
      "æī¶æĮģ": 3812,
      "Ġå½ĵäºĭäºº": 3813,
      "åĨ²": 3814,
      "çĶ±åħ¬å®īæľºåħ³": 3815,
      "å®ŀè·µ": 3816,
      "ä¹¡æĿĳ": 3817,
      "000": 3818,
      "çº¢åįģåŃĹ": 3819,
      "æĺ¾èĳĹ": 3820,
      "è¸": 3821,
      "è¡ĮæĶ¿ç®¡çĲĨéĥ¨éĹ¨": 3822,
      "å¼Ģéĩĩ": 3823,
      "èģĮè´£åĪĨå·¥": 3824,
      "æ¸ħæ´ģ": 3825,
      "ç¬¬åħŃåįģä¸ĢæĿ¡": 3826,
      "ä¹łæĥ¯": 3827,
      "åķĨä¸ļç§ĺå¯Ĩ": 3828,
      "åĲİæŀľçļĦ": 3829,
      "ä¸§å¤±": 3830,
      "çļĦäººæ°ĳä»£è¡¨å¤§ä¼ļ": 3831,
      "çļĦåŁºæľ¬": 3832,
      "ä¸įä»ħ": 3833,
      "ä¸Ńå¿ĥ": 3834,
      "å¤ĦäºĮ": 3835,
      "èµĦè´¨": 3836,
      "å¦Ĥä¸ĭ": 3837,
      "æ¯ķ": 3838,
      "ä¸ĵé¡¹": 3839,
      "âĢĿï¼Į": 3840,
      "ç®Ģåįķ": 3841,
      "èĪŀå¼Ĭ": 3842,
      "åī©": 3843,
      "è¶ĭ": 3844,
      "çļĦè§Ħå®ļå¤Ħç½ļ": 3845,
      "å»ºè®¾çĶ¨åľ°": 3846,
      "ç¬¬äºĶåįģä¹ĿæĿ¡": 3847,
      "äº§åĵģçļĦ": 3848,
      "å¸ĥå±Ģ": 3849,
      "åľ°åĮºçļĦ": 3850,
      "æ¼ı": 3851,
      "èģĮä¸ļçĹħåį±å®³": 3852,
      "æī¾åĪ°": 3853,
      "ä¸ĢåĢįä»¥ä¸Ĭ": 3854,
      "åĮ¿": 3855,
      "æĸĩåŃ¦": 3856,
      "åľ°æĸ¹åĲĦçº§äººæ°ĳä»£è¡¨å¤§ä¼ļ": 3857,
      "æľĢè¿ĳ": 3858,
      "è´¨éĩıå®īåħ¨": 3859,
      "ä¸ĩåħĥä»¥ä¸ĬäºĮåįģ": 3860,
      "æĳĦ": 3861,
      "åºĬ": 3862,
      "åı¯ä»¥å¯¹": 3863,
      "çŃīéĥ¨éĹ¨": 3864,
      "åī¥": 3865,
      "æĹłæľŁå¾ĴåĪĳ": 3866,
      "ç¬¬åħŃåįģä¸īæĿ¡": 3867,
      "ä¸ĩåħĥä»¥ä¸Ĭåįģ": 3868,
      "199": 3869,
      "å¤ªéĺ³": 3870,
      "æĭ¥æľī": 3871,
      "æĹ©": 3872,
      "åºĶå½ĵä¾Ŀçħ§": 3873,
      "äººæ°ĳè°ĥè§£": 3874,
      "å·¥èīº": 3875,
      "è¾ħ": 3876,
      "åĪ©å®³åħ³ç³»": 3877,
      "æĸĩåŃĹ": 3878,
      "æİ¥æĶ¶": 3879,
      "æĶ¹è¿Ľ": 3880,
      "åĮħåĲ«": 3881,
      "ĠåĽ½å®¶å»ºç«ĭ": 3882,
      "åŁºéĩĳçļĦ": 3883,
      "éĢłæĪĲæįŁå¤±çļĦ": 3884,
      "èĩªçĦ¶è¯Ńè¨Ģ": 3885,
      "ist": 3886,
      "and": 3887,
      "æīĢæľīäºº": 3888,
      "éļĲçŀĴ": 3889,
      "å¤ĦäºĶå¹´ä»¥ä¸ĭæľīæľŁå¾ĴåĪĳ": 3890,
      "åħ±äº§": 3891,
      "æĺİæĺ¾": 3892,
      "ä¸»ç®¡æľºåħ³": 3893,
      "åħ¬åı¸ç«łç¨ĭ": 3894,
      "æĿ¥è¯´": 3895,
      "çĥ¤": 3896,
      "å¦¥åĸĦ": 3897,
      "ç°": 3898,
      "çīĽ": 3899,
      "æĺ¯åľ¨": 3900,
      "æĺ¯ä»Ģä¹Ī": 3901,
      "å¹¶åĲĳ": 3902,
      "å¹³åĿĩ": 3903,
      "æİĴåºı": 3904,
      "èį¯åĵģçĽĳçĿ£ç®¡çĲĨéĥ¨éĹ¨": 3905,
      "éĢ¾æľŁä¸į": 3906,
      "èĽĭ": 3907,
      "æĹ¥ä»¥ä¸ĭæĭĺçķĻ": 3908,
      "é¢ľèī²": 3909,
      "çĵ": 3910,
      "è®¯": 3911,
      "äººåĳĺåĴĮ": 3912,
      "ä¸İåħ¶": 3913,
      "çĶŁäº§ç»ıèĲ¥èĢħ": 3914,
      "æĿ¥è¶Ĭ": 3915,
      "ç§ĳæĻ®": 3916,
      "é¢Ĩåıĸ": 3917,
      "åºĶæĢ¥é¢Ħæ¡Ī": 3918,
      "è¶ĬæĿ¥è¶Ĭ": 3919,
      "æ°ĳæĶ¿éĥ¨éĹ¨": 3920,
      "æİĮæı¡": 3921,
      "å¾ĩç§ģèĪŀå¼Ĭ": 3922,
      "æĪĸåħ¶ä»ĸ": 3923,
      "è¿Ļæĺ¯": 3924,
      "æĶ¹éĢł": 3925,
      "æī¹è¯Ħ": 3926,
      "æľīæĿĥåĲĳ": 3927,
      "èĢĥè¯ķ": 3928,
      "å®Ŀ": 3929,
      "æĬĺ": 3930,
      "ä»¥ä¸ĭç½ļæ¬¾": 3931,
      "çī¹å¾ģ": 3932,
      "çĻ»è®°æľºåħ³": 3933,
      "âĢĿãĢĤ": 3934,
      "æĥħå½¢çļĦ": 3935,
      "å°ļæľª": 3936,
      "åįļ": 3937,
      "åĬ¨æ¤įçī©": 3938,
      "çĶ±åİ¿çº§ä»¥ä¸Ĭåľ°æĸ¹äººæ°ĳæĶ¿åºľ": 3939,
      "ç¤¾ä¼ļç»Ħç»ĩ": 3940,
      "æł¸è®¾æĸ½": 3941,
      "å°ĳäºİ": 3942,
      "æ¸ħåįķ": 3943,
      "æī¶åħ»": 3944,
      "åįĥåħĥä»¥ä¸Ĭ": 3945,
      "èĲ¥ä¸ļæī§çħ§": 3946,
      "åºĶå½ĵåĬłå¼ºå¯¹": 3947,
      "éļĶ": 3948,
      "åıįæ´ĹéĴ±": 3949,
      "ä¸ĵå®¶": 3950,
      "ä»·æ¬¾": 3951,
      "ç²ī": 3952,
      "ä»²è£ģåĳĺ": 3953,
      "Ġcon": 3954,
      "åıªæľī": 3955,
      "é«ĺçº§ç®¡çĲĨäººåĳĺ": 3956,
      "æ»¥çĶ¨èģĮæĿĥ": 3957,
      "æľīåĪ©äºİ": 3958,
      "äººæķ°": 3959,
      "çĶ»": 3960,
      "è¿Ľä¸ĢæŃ¥": 3961,
      "çłĶç©¶å¼Ģåıĳ": 3962,
      "èĳĹä½ľ": 3963,
      "æĲºå¸¦": 3964,
      "50": 3965,
      "od": 3966,
      "çĶ°": 3967,
      "ä½ĵéªĮ": 3968,
      "æ°´åŁŁ": 3969,
      "æĤī": 3970,
      "res": 3971,
      "éĺŁä¼į": 3972,
      "åºĶçĶ¨ç¨ĭåºı": 3973,
      "æ±½è½¦": 3974,
      "è¶ĭåĬ¿": 3975,
      "ĠF": 3976,
      "æľīå®³": 3977,
      "ä¸įèī¯": 3978,
      "åºĶå½ĵäºĪä»¥": 3979,
      "å°Ķ": 3980,
      "æµ·å²Ľ": 3981,
      "å°ıè¯´": 3982,
      "åĲĦç±»": 3983,
      "æķĻèĤ²è¡ĮæĶ¿éĥ¨éĹ¨": 3984,
      "åħĪè¿Ľ": 3985,
      "ç§»éĢģ": 3986,
      "å±Ĭåħ¨åĽ½äººæ°ĳä»£è¡¨å¤§ä¼ļå¸¸åĬ¡å§Ķåĳĺä¼ļç¬¬äºĮåįģ": 3987,
      "åı¬å¼Ģ": 3988,
      "Ġor": 3989,
      "èĲ¥åĪ©": 3990,
      "éĽĩ": 3991,
      "æľįåĬ¡æľºæŀĦ": 3992,
      "çĤ¸": 3993,
      "åĨ³å®ļçļĦ": 3994,
      "ç§ĳåŃ¦çłĶç©¶": 3995,
      "åºĶå½ĵæĮīçħ§è§Ħå®ļ": 3996,
      "Ġbe": 3997,
      "éļ¾ä»¥": 3998,
      "åĩłä¸ª": 3999,
      "çİ©å¿½": 4000,
      "æ½ľ": 4001,
      "Ġ0": 4002,
      "åı¶": 4003,
      "åĪ»": 4004,
      "åĴĮåĽ½åĬ¡éĻ¢": 4005,
      "å¤Ħä¸Ģ": 4006,
      "æķ°åŃ¦": 4007,
      "åıįæĺł": 4008,
      "æķĻèĤ²åĴĮ": 4009,
      "æĶ¾å¼ĥ": 4010,
      "æł¸å¿ĥ": 4011,
      "èĩªçĦ¶äºº": 4012,
      "çŁ¿å±±": 4013,
      "æ²»å®īç®¡çĲĨå¤Ħç½ļ": 4014,
      "åĺ±": 4015,
      "çİ©å¿½èģĮå®Ī": 4016,
      "äº¬": 4017,
      "åı¯ä»¥è¦ģæ±Ĥ": 4018,
      "åĪĨä¸º": 4019,
      "åįķä½įæĪĸèĢħä¸ªäºº": 4020,
      "æ¶¦": 4021,
      "ate": 4022,
      "æŀĹæľ¨": 4023,
      "åºĶå½ĵæĮīçħ§åĽ½å®¶æľīåħ³è§Ħå®ļ": 4024,
      "å¯¹åħ¶çĽ´æİ¥è´Łè´£çļĦä¸»ç®¡äººåĳĺåĴĮåħ¶ä»ĸçĽ´æİ¥è´£ä»»äººåĳĺ": 4025,
      "åĴĸ": 4026,
      "æĹĹ": 4027,
      "æĪĸèĢħä»¥": 4028,
      "ä¸įä¼ļ": 4029,
      "åºĶå½ĵæī¿æĭħ": 4030,
      "åĩºç§Ł": 4031,
      "æľīåħ³æľºåħ³": 4032,
      "çĽ¸éĢĤåºĶ": 4033,
      "åķ¡": 4034,
      "æĽ²": 4035,
      "åĪĴå®ļ": 4036,
      "ä½łåı¯ä»¥": 4037,
      "çģµ": 4038,
      "æİĪæĿĥçļĦ": 4039,
      "äºĭåĬ¡æīĢ": 4040,
      "ä»¥ä¸ĭæĺ¯ä¸ĢäºĽ": 4041,
      "å®ĹæķĻ": 4042,
      "ge": 4043,
      "Ġr": 4044,
      "ä¸Ģå®¶": 4045,
      "åĽ½å®¶åħ¬åĽŃ": 4046,
      "ä¿ĿæĬ¤æ³ķ": 4047,
      "éĻĲé¢Ŀ": 4048,
      "æĶ¯åĩº": 4049,
      "å»ºè®¾å·¥ç¨ĭ": 4050,
      "å®Įåħ¨": 4051,
      "å¹¿æĴŃ": 4052,
      "çªģåıĳåħ¬åħ±åį«çĶŁäºĭä»¶": 4053,
      "ke": 4054,
      "Ġx": 4055,
      "è¿Ļç¯ĩ": 4056,
      "æµ·èŃ¦": 4057,
      "è¡¥åĬ©": 4058,
      "åı¦å¤ĸ": 4059,
      "çģŃå¤±": 4060,
      "ver": 4061,
      "åħ³éĹŃ": 4062,
      "çĲĨäºĭ": 4063,
      "åı¯ä»¥å¹¶å¤Ħ": 4064,
      "ç¤¼": 4065,
      "ç¤¾ä¼ļåĽ¢ä½ĵ": 4066,
      "æĻĭ": 4067,
      "ç»ıèĲ¥æĿĥ": 4068,
      "æł¸åĩĨ": 4069,
      "ç§»äº¤": 4070,
      "ä»¥ç¡®ä¿Ŀ": 4071,
      "ä¸įæ»¡": 4072,
      "å¹¶å¯¹": 4073,
      "åĽ½å®¶å·¥ä½ľäººåĳĺ": 4074,
      "è´¹çļĦ": 4075,
      "ä¸įå¾Ĺä»¥": 4076,
      "int": 4077,
      "åģ¥åº·çļĦ": 4078,
      "æĦŁåĪ°": 4079,
      "æľŁéĻĲå±Ĭæ»¡": 4080,
      "åĨįçĶŁ": 4081,
      "æĭĨéĻ¤": 4082,
      "é£ŀè¡Į": 4083,
      "ç»¿èī²": 4084,
      "åĴĸåķ¡": 4085,
      "ld": 4086,
      "ä»»èģĮ": 4087,
      "åıĸä¿Ŀ": 4088,
      "ç«ĭæ¡Ī": 4089,
      "å»ºè®¾åįķä½į": 4090,
      "æī¹åĩĨåĲİ": 4091,
      "æĶ¯æĮģåĴĮ": 4092,
      "åĲĪçĲĨçļĦ": 4093,
      "æµ·äºĭç®¡çĲĨæľºæŀĦ": 4094,
      "ä¸ĵéĹ¨å§Ķåĳĺä¼ļ": 4095,
      "é¥®é£Ł": 4096,
      "éĵ¶è¡Įä¸ļçĽĳçĿ£ç®¡çĲĨæľºæŀĦ": 4097,
      "yth": 4098,
      "ĠB": 4099,
      "æĹ¢": 4100,
      "éĺ²æ´ª": 4101,
      "æľ¬æ³ķæīĢç§°": 4102,
      "çī¹èī²": 4103,
      "å¦Ĥæŀľä½ł": 4104,
      "æİ§åĳĬ": 4105,
      "çŁ¿äº§": 4106,
      "é¸¡": 4107,
      "ch": 4108,
      "çļĦä¼ģä¸ļ": 4109,
      "çļĦæĹ¶åĢĻ": 4110,
      "å½©": 4111,
      "çī§": 4112,
      "çĶŁèĤ²": 4113,
      "ä¸ºåħ¶": 4114,
      "éĩįæķ´": 4115,
      "åĩĨäºĪ": 4116,
      "éķ¿æľŁ": 4117,
      "çĭ±": 4118,
      "æĪ¿äº§": 4119,
      "åįłæľī": 4120,
      "ç»ĦæĪĲäººåĳĺ": 4121,
      "çī¹ç§įè®¾å¤ĩå®īåħ¨": 4122,
      "æ³ķåºŃ": 4123,
      "æĸĹ": 4124,
      "ä»»åħį": 4125,
      "è½¬åĮĸ": 4126,
      "èµłä¸İ": 4127,
      "éĢĶå¾Ħ": 4128,
      "åĲĪæł¼çļĦ": 4129,
      "åī¥å¤º": 4130,
      "çļĦæľīåħ³": 4131,
      "åľ°ä½į": 4132,
      "éĿĻ": 4133,
      "æ³ķå¾ĭçļĦåĨ³å®ļ": 4134,
      "æŁ¥éĺħ": 4135,
      "è´Łæĭħ": 4136,
      "çĽ®å½ķ": 4137,
      "é¢ĦèŃ¦": 4138,
      "å¤ļæł·": 4139,
      "åŁºéĩĳæīĺç®¡": 4140,
      "éĤ»": 4141,
      "éģĹåĺ±": 4142,
      "å¿«éĢŁ": 4143,
      "æŃ¦åĻ¨": 4144,
      "åŁºéĩĳä»½é¢ĿæĮģæľīäºº": 4145,
      "ä»İä¸ļäººåĳĺ": 4146,
      "åĽ¾ä¹¦é¦Ĩ": 4147,
      "The": 4148,
      "rac": 4149,
      "ãģ": 4150,
      "åħģ": 4151,
      "åºķ": 4152,
      "æĸ¹åı¯": 4153,
      "åĪĨéĴŁ": 4154,
      "è½¯": 4155,
      "çĽ¸ç»ĵåĲĪ": 4156,
      "éĢīæ°ĳ": 4157,
      "æĬķæłĩ": 4158,
      "èĤ¡ä¸ľä¼ļ": 4159,
      "ä¼ļè®¡å¸Ī": 4160,
      "æļĤåģľ": 4161,
      "åıĹçĽĬäºº": 4162,
      "åĩ½æķ°": 4163,
      "Ġè¿Ŀåıįæľ¬æ³ķ": 4164,
      "è¡¨æĺİ": 4165,
      "æĻļ": 4166,
      "çĤŃ": 4167,
      "è¿ĺæĺ¯": 4168,
      "å¤ĸåĽ½äºº": 4169,
      "åĢĻå®¡": 4170,
      "èģĮä¸ļçĹħéĺ²æ²»": 4171,
      "æİ¢ç´¢": 4172,
      "çī©ä¸ļæľįåĬ¡": 4173,
      "è¸ª": 4174,
      "åıĸä¿ĿåĢĻå®¡": 4175,
      "ython": 4176,
      "è¡Ĺ": 4177,
      "éĢ®": 4178,
      "åĩºè®©": 4179,
      "æľªèĥ½": 4180,
      "çĽ¸å¯¹": 4181,
      "ä»£è¡¨äºº": 4182,
      "ç»Ļä»ĺ": 4183,
      "æ°´èµĦæºĲ": 4184,
      "æĥħåĨµçļĦ": 4185,
      "ä¿¡æģ¯çļĦ": 4186,
      "å¤įåĪ¶": 4187,
      "éĵ¾": 4188,
      "éĢĤçĶ¨äºİ": 4189,
      "éĢīä¸¾å§Ķåĳĺä¼ļ": 4190,
      "åŁºç¡Ģè®¾æĸ½": 4191,
      "ä»įçĦ¶": 4192,
      "ç¬¬ä¸Ģåįĥä¸ĢçĻ¾": 4193,
      "æī©å¤§": 4194,
      "11": 4195,
      "åħ¼": 4196,
      "åĨ°": 4197,
      "ç»ıåĽ½åĬ¡éĻ¢": 4198,
      "ä¸»å¼ł": 4199,
      "åĵģçīĮ": 4200,
      "åĪĹè¡¨": 4201,
      "åºĶæĢ¥æķĳæı´": 4202,
      "ä½İäºİ": 4203,
      "çĽĳå¯Łå§Ķåĳĺä¼ļ": 4204,
      "ä»»ä½ķåįķä½įåĴĮä¸ªäººä¸įå¾Ĺ": 4205,
      "æŃ¦è£ħèŃ¦å¯Ł": 4206,
      "é²ľ": 4207,
      "é¡ºåºı": 4208,
      "åģľä¸ļæķ´é¡¿": 4209,
      "çļĦæĸ¹æ³ķ": 4210,
      "åĲ§": 4211,
      "å¤ľ": 4212,
      "æĪĸèĢħæľª": 4213,
      "åľ¨ä¸Ńåįİäººæ°ĳåħ±åĴĮåĽ½": 4214,
      "ä¸ŃæŃ¢": 4215,
      "éĢļä¿¡": 4216,
      "æŁ¥å¤Ħ": 4217,
      "ãĢĭãĢģ": 4218,
      "åİŁåĳĬ": 4219,
      "åĬŀäºĭ": 4220,
      "æıĲåĩºçļĦ": 4221,
      "ç¬¬åħŃåįģäºĶæĿ¡": 4222,
      "end": 4223,
      "ä½ıæĪ¿": 4224,
      "å¼ĢåıĳåĪ©çĶ¨": 4225,
      "çıį": 4226,
      "igh": 4227,
      "éĢ®æįķ": 4228,
      "ä¸įæŃ£å½ĵ": 4229,
      "çº§äººæ°ĳæ³ķéĻ¢": 4230,
      "è¿Ŀåıįæ²»å®īç®¡çĲĨ": 4231,
      "ä¸ĩåħĥçļĦ": 4232,
      "æľĢä½İ": 4233,
      "éħįåģ¶": 4234,
      "è£ħå¤ĩ": 4235,
      "éģĹä¼ł": 4236,
      "Ġthat": 4237,
      "åħģè®¸": 4238,
      "è¡ĮæĿİ": 4239,
      "åĩºçīĪ": 4240,
      "æł¹æį®è¯¥": 4241,
      "çİ°å½¹": 4242,
      "è¿Ŀåıįæ³ķå¾ĭ": 4243,
      "åıĤçħ§": 4244,
      "è¯ģåĪ¸æ³ķ": 4245,
      "ä»²è£ģå§Ķåĳĺä¼ļ": 4246,
      "å¾ģæ±Ĥ": 4247,
      "ä¸īåįģæĹ¥åĨħ": 4248,
      "çĮ«": 4249,
      "çĪ¶æ¯įæĪĸèĢħåħ¶ä»ĸ": 4250,
      "æĳĺ": 4251,
      "æĭĺå½¹æĪĸèĢħ": 4252,
      "å·¨å¤§": 4253,
      "Ġ8": 4254,
      "Ġon": 4255,
      "çļĦæĬĢæľ¯": 4256,
      "ç®±": 4257,
      "åıĳæĺİ": 4258,
      "åĩºç§Łäºº": 4259,
      "åĬ¨åĳĺ": 4260,
      "åĲįçļĦ": 4261,
      "æĢ»ç»ĵ": 4262,
      "æ»©": 4263,
      "ç»ıæµİç¤¾ä¼ļ": 4264,
      "ç¬¬åħŃåįģåĽĽæĿ¡": 4265,
      "å¼ķèµ·": 4266,
      "ç¬¬ä¹Ŀç«ł": 4267,
      "èī¯å¥½çļĦ": 4268,
      "æłĩçļĦçī©": 4269,
      "æĢ»ä½ĵè§ĦåĪĴ": 4270,
      "æ°¸ä¹ħ": 4271,
      "29": 4272,
      "çļĦç»Ħç»ĩ": 4273,
      "èĢĹ": 4274,
      "åºĶå½ĵå»ºç«ĭ": 4275,
      "å¹¶åı¯ä»¥": 4276,
      "æĬĢå·§": 4277,
      "è§£æķ£": 4278,
      "éľĢè¦ģæ³¨æĦı": 4279,
      "æµ·åķĨ": 4280,
      "æ¯Ĵåĵģ": 4281,
      "çļĦç®¡çĲĨ": 4282,
      "æ°§": 4283,
      "æľīä»Ģä¹Ī": 4284,
      "å¯¹åįķä½į": 4285,
      "å·¥åķĨ": 4286,
      "ä¿ĿéĻ©åħ¬åı¸": 4287,
      "é£Łçī©": 4288,
      "æī¿æĭħè´£ä»»": 4289,
      "ç¬¬ä¸ĢçĻ¾äºĶåįģ": 4290,
      "å°ĳæķ°": 4291,
      "æĶ¯ä»ĺçļĦ": 4292,
      "çĶŁäº§ç»ıèĲ¥åįķä½į": 4293,
      "xt": 4294,
      "åĴĮåĽ½å®¶": 4295,
      "ä¸įåĨį": 4296,
      "ä¿Ŀåħ¨": 4297,
      "è¦ģä»¶": 4298,
      "æ²¿": 4299,
      "åĬ©äºİ": 4300,
      "ç¬¬äºĶçĻ¾": 4301,
      "è·Ł": 4302,
      "Ġpro": 4303,
      "Ġnum": 4304,
      "å¤Ħä¸īå¹´ä»¥ä¸ĭæľīæľŁå¾ĴåĪĳæĪĸèĢħæĭĺå½¹": 4305,
      "os": 4306,
      "Ġ6": 4307,
      "çļĦä»£è¡¨": 4308,
      "æĪª": 4309,
      "è´µ": 4310,
      "ä¸įè¦ģ": 4311,
      "çº¸": 4312,
      "ä¿ĿçķĻ": 4313,
      "ç§Ģ": 4314,
      "æľ¬æ¡Ī": 4315,
      "åĩºåįĸ": 4316,
      "éģ£": 4317,
      "è°į": 4318,
      "ç¬¬ä¸īèĬĤ": 4319,
      "å¤ļä¸ª": 4320,
      "è¯ģåĪ¸æĬķèµĦ": 4321,
      "çŃ¾ç½²": 4322,
      "ä¸»è¦ģè´Łè´£äºº": 4323,
      "åħ±äº§åħļ": 4324,
      "Ġhe": 4325,
      "è´«": 4326,
      "æľīåĵªäºĽ": 4327,
      "æĢĢ": 4328,
      "èĩªèº«": 4329,
      "éĹ´è°į": 4330,
      "æĪ¿åľ°": 4331,
      "ä¸ĵä¸ļæĬĢæľ¯": 4332,
      "Ġwith": 4333,
      "AIæĬĢæľ¯": 4334,
      "æµªè´¹": 4335,
      "åĴĮä¹īåĬ¡": 4336,
      "æ³ķå¾ĭä¿ĿæĬ¤": 4337,
      "å¼ĢåºŃ": 4338,
      "ä¹ĭåĲİ": 4339,
      "æĮĩæłĩ": 4340,
      "éª¨": 4341,
      "è·Ŀ": 4342,
      "è½¬æį¢": 4343,
      "è¿ĺåı¯ä»¥": 4344,
      "ä¸ŃåĽ½åħ±äº§åħļ": 4345,
      "åįıè®®çļĦ": 4346,
      "çªģåĩº": 4347,
      "åĳ½ä»¤": 4348,
      "æŀĹä¸ļèįīåİŁ": 4349,
      "èį£èªī": 4350,
      "çŁ¿äº§èµĦæºĲ": 4351,
      "æµ·åķĨæ³ķ": 4352,
      "__": 4353,
      "ãĢĲ": 4354,
      "è¾±": 4355,
      "å¥¶": 4356,
      "å±¥è¡ĮèģĮè´£": 4357,
      "èº«å¿ĥ": 4358,
      "è¿Ļç§įæĥħåĨµä¸ĭ": 4359,
      "éĢĤå½ĵçļĦ": 4360,
      "åľŁå£¤æ±¡æŁĵ": 4361,
      "èĻ½çĦ¶": 4362,
      "pp": 4363,
      "çĽĲ": 4364,
      "æīĢå±ŀ": 4365,
      "éĿ¢ç§¯": 4366,
      "ç¨İçİĩ": 4367,
      "ç¬¬åħŃåįģä¸ĥæĿ¡": 4368,
      "ä»²è£ģåºŃ": 4369,
      "ä¹¦éĿ¢éĢļçŁ¥": 4370,
      "çĶŁçī©å®īåħ¨": 4371,
      "éªĹåıĸ": 4372,
      "èģĮè´£çļĦéĥ¨éĹ¨": 4373,
      "ĠThe": 4374,
      "ç¼Ķç»ĵ": 4375,
      "ãĢĳ": 4376,
      "ãĢĤâĢĿ": 4377,
      "å½°": 4378,
      "éĻ·": 4379,
      "ä¸ĢçĽ´": 4380,
      "ä¸İåħ¶ä»ĸ": 4381,
      "è½®": 4382,
      "æ£Ģä¸¾": 4383,
      "æķĻèĤ²æľºæŀĦ": 4384,
      "æľīåħ³éĥ¨éĹ¨åĴĮ": 4385,
      "ç¬¬åħŃåįģåħŃæĿ¡": 4386,
      "æ°ĶåĢĻ": 4387,
      "est": 4388,
      "é¥°": 4389,
      "è¾ĥå¤§": 4390,
      "åı¯ä»¥åĲĳäººæ°ĳæ³ķéĻ¢": 4391,
      "å¿ĹæĦ¿": 4392,
      "åĳĬè¯īæĪĳ": 4393,
      "28": 4394,
      "ç£": 4395,
      "çŃīæİªæĸ½": 4396,
      "åŃ¦åīį": 4397,
      "è¿Ľè¡Įè°ĥæŁ¥": 4398,
      "åħĥç´ł": 4399,
      "å°ıæĹ¶": 4400,
      "èĢĮä¸Ķ": 4401,
      "æł¸å®īåħ¨": 4402,
      "ä¸¥éĩįæĥħèĬĤ": 4403,
      "çĶŁæĢģç³»ç»Ł": 4404,
      "ç§ĳæĬĢæĪĲæŀľ": 4405,
      "æ³ķäººæĪĸèĢħåħ¶ä»ĸ": 4406,
      "è¯·æł¹æį®ä¸ĭéĿ¢": 4407,
      "ä¸ŃåĮ»èį¯": 4408,
      "ç°¿": 4409,
      "nt": 4410,
      "æĿ¡è§Ħå®ļ": 4411,
      "åı¯æĮģç»Ń": 4412,
      "ä¸Ńä»ĭ": 4413,
      "é¢ģ": 4414,
      "éĺ¶": 4415,
      "æ³ķå¾ĭæķĪåĬĽ": 4416,
      "æ¸ł": 4417,
      "åħ¬åı¸æ³ķ": 4418,
      "èģĮè´£èĮĥåĽ´åĨħ": 4419,
      "ç¬¬åħŃåįģä¹ĿæĿ¡": 4420,
      "ort": 4421,
      "ä¼¤äº¡": 4422,
      "åı¸æ³ķæľºåħ³": 4423,
      "åįģäºĶæĹ¥åĨħ": 4424,
      "éĢĲæŃ¥": 4425,
      "èĩªçĦ¶è¯Ńè¨Ģå¤ĦçĲĨ": 4426,
      "çļĦçĶŁäº§": 4427,
      "åĬ£": 4428,
      "åĴĮå·¥ä½ľ": 4429,
      "æľīåĬ©äºİ": 4430,
      "ï¼īï¼Į": 4431,
      "ä¸ªæĢ§": 4432,
      "éĻ¢éķ¿": 4433,
      "åĬĽåĴĮ": 4434,
      "æĦıæĢĿ": 4435,
      "çĶ³è¯ī": 4436,
      "ç©¿": 4437,
      "èµĶåģ¿è¯·æ±Ĥ": 4438,
      "ç¬¬ä¸ĥåįģä¸ĢæĿ¡": 4439,
      "å®¶åºŃæļ´åĬĽ": 4440,
      "ĠE": 4441,
      "ĠåĽł": 4442,
      "äºļ": 4443,
      "æĿ¿": 4444,
      "åĪ©æ¶¦": 4445,
      "è¿Ľè¡Įå®¡æŁ¥": 4446,
      "è¿Ļä¸Ģ": 4447,
      "ç§įæ¤į": 4448,
      "æĽ´æį¢": 4449,
      "æĸĩåĮĸéģĹäº§": 4450,
      "åı¦è¡Į": 4451,
      "æī£ç¼´": 4452,
      "æ·±åº¦": 4453,
      "æ¢¦": 4454,
      "ive": 4455,
      "æŃ£å½ĵçĲĨçĶ±": 4456,
      "ä¸įæľįçļĦ": 4457,
      "æĬ«éľ²": 4458,
      "è¿Ļç¯ĩæĸĩç«ł": 4459,
      "æĪ¿åľ°äº§": 4460,
      "Ġit": 4461,
      "æĿ¯": 4462,
      "ä¹³": 4463,
      "æ°ĳèĲ¥": 4464,
      "æĭ¨": 4465,
      "åıĳåĮħ": 4466,
      "åħ¨æ°ĳ": 4467,
      "çĿ£ä¿ĥ": 4468,
      "åľºæĻ¯": 4469,
      "åĲĪåĲĮä¸Ń": 4470,
      "ä¸Ńåįİæ°ĳæĹı": 4471,
      "å¹³è¡¡": 4472,
      "æī¿æĭħæ°ĳäºĭè´£ä»»": 4473,
      "ĠåĽ½å®¶å¯¹": 4474,
      "ç¬¬åħŃåįģåħ«æĿ¡": 4475,
      "è£ħç½®": 4476,
      "åħįéĻ¤": 4477,
      "ä¸ĩåħĥä»¥ä¸ĬäºĶ": 4478,
      "åºŁå¼ĥ": 4479,
      "æľīæķĪçļĦ": 4480,
      "Ġ'": 4481,
      "çļĦè´£ä»»": 4482,
      "å¹ķ": 4483,
      "å¹¶æıĲä¾Ľ": 4484,
      "çĽĳçĭ±": 4485,
      "æł¹æį®çĽ¸åħ³": 4486,
      "è¢«è¯·æ±Ĥ": 4487,
      "è§£æĶ¾": 4488,
      "è£Ĥ": 4489,
      "åį±åıĬ": 4490,
      "åĬ³åĬ¡": 4491,
      "å©´": 4492,
      "çĶŁæĢģä¿ĿæĬ¤": 4493,
      "ç¬¬ä¹ĿçĻ¾": 4494,
      "çŁ¥è¯Ĩäº§æĿĥ": 4495,
      "åħ»èĢģä¿ĿéĻ©": 4496,
      "av": 4497,
      "ob": 4498,
      "og": 4499,
      "äººå¯¹": 4500,
      "ä¸īä¸ª": 4501,
      "è®¾å®ļ": 4502,
      "æŁ¥éªĮ": 4503,
      "åĪ°æľŁ": 4504,
      "éĽĦ": 4505,
      "ç¤¾ä¼ļæķĳåĬ©": 4506,
      "å¸¸è§ģ": 4507,
      "èģĮä¸ļæķĻèĤ²": 4508,
      "ä¹¡éķĩ": 4509,
      "è¯ģæĺİæĸĩä»¶": 4510,
      "çĮİ": 4511,
      "æ±¡æŁĵçī©æİĴæĶ¾": 4512,
      "åľ¨ä¸ŃåĽ½å¢ĥåĨħ": 4513,
      "åĬ«": 4514,
      "åı¯åĨįçĶŁ": 4515,
      "ä¸įéľĢè¦ģ": 4516,
      "ä¸įå½±åĵį": 4517,
      "åºĶå½ĵç»ĻäºĪ": 4518,
      "èµ¡": 4519,
      "æĺ¯çļĦ": 4520,
      "ä¸»æĮģ": 4521,
      "å®īè£ħ": 4522,
      "æĮīçħ§åĽ½åĬ¡éĻ¢": 4523,
      "è¿ĲçĶ¨": 4524,
      "åĿĲ": 4525,
      "çİ¯å¢ĥæ±¡æŁĵ": 4526,
      "æ¯ıä¸ªäºº": 4527,
      "åıĤåĬłçļĦ": 4528,
      "é¥²": 4529,
      "çļĦçĽ¸åħ³è§Ħå®ļ": 4530,
      "å®ļç½ª": 4531,
      "åŃķ": 4532,
      "æĮĤ": 4533,
      "ç®¡çĲĨçļĦ": 4534,
      "è¢«ä¿ĿéĻ©äºº": 4535,
      "æĶ¹éĿ©": 4536,
      "çĹĩ": 4537,
      "å¤©çļĦ": 4538,
      "åĪĽä¸ļ": 4539,
      "ç»´æĬ¤åĽ½å®¶å®īåħ¨": 4540,
      "æŃ»åĪĳ": 4541,
      "å¯»æī¾": 4542,
      "åĨľäº§åĵģè´¨éĩıå®īåħ¨": 4543,
      "å¾ªçİ¯": 4544,
      "å¯¹å¤ĸè´¸æĺĵ": 4545,
      "çĪĨçĤ¸": 4546,
      "ri": 4547,
      "è¦": 4548,
      "ä»ĸäººçļĦ": 4549,
      "åĲįå½ķ": 4550,
      "æ·«": 4551,
      "åįĥåħĥä»¥ä¸ĭç½ļæ¬¾": 4552,
      "çĽĳäºĭä¼ļ": 4553,
      "æģĲæĢĸä¸»ä¹ī": 4554,
      "èĶ¬": 4555,
      "æĭĺå½¹æĪĸèĢħç®¡åĪ¶": 4556,
      "¹æŀľ": 4557,
      "åĴĮç»Ħç»ĩ": 4558,
      "å¹´è½»": 4559,
      "è¡¨å½°": 4560,
      "è¢«æī§è¡Į": 4561,
      "åĲįåįķ": 4562,
      "éķ¿å®ĺ": 4563,
      "åħ¬åħ±æĸĩåĮĸ": 4564,
      "èĭ¹æŀľ": 4565,
      "è§ĤçĤ¹": 4566,
      "ç¬¬äºĮçĻ¾éĽ¶": 4567,
      "åºĶæĢ¥å¤Ħç½®": 4568,
      "æľīæķĪæİªæĸ½": 4569,
      "ç²¾ç¥ŀéļľç¢į": 4570,
      "Ġæľ¬æ³ķæīĢç§°": 4571,
      "çĭ¬èµĦä¼ģä¸ļ": 4572,
      "ä¸²": 4573,
      "åĨ·": 4574,
      "è¦ģçº¦": 4575,
      "å¹¶æł¹æį®": 4576,
      "è¾ĳ": 4577,
      "è¡ĮæĶ¿éķ¿å®ĺ": 4578,
      "å°ıçİĭ": 4579,
      "çĶµè¯Ŀ": 4580,
      "ä¾Ŀçħ§åīįæ¬¾è§Ħå®ļ": 4581,
      "æĿĥåĪ©çļĦ": 4582,
      "çģ¯": 4583,
      "å¼ºåĪ¶æĢ§": 4584,
      "è´¢åĬ¡ä¼ļè®¡": 4585,
      "çļĦåįķä½įåĴĮä¸ªäºº": 4586,
      "ä¼¦": 4587,
      "ä¾¨": 4588,
      "æĪĸèĢħåįķ": 4589,
      "åľ¨è¿Ļç§įæĥħåĨµä¸ĭ": 4590,
      "æĪĲç»©": 4591,
      "éĩįå¤į": 4592,
      "ä»£è¡¨çļĦ": 4593,
      "é¦Ī": 4594,
      "æł¸å®ŀ": 4595,
      "ice": 4596,
      "å®¡è®¡æľºåħ³": 4597,
      "æĹ¥ç¬¬åįģä¸ī": 4598,
      "é©»åĨĽ": 4599,
      "åĲĳäººæ°ĳæ³ķéĻ¢æıĲèµ·è¯īè®¼": 4600,
      "éĻĨåľ°": 4601,
      "èµ¡åħ»": 4602,
      "æ³¢": 4603,
      "åĴĮå®īåħ¨": 4604,
      "åĴĮçĽ¸åħ³": 4605,
      "è´®": 4606,
      "åľ¨è¿Ļä¸ª": 4607,
      "å®¶å±ŀ": 4608,
      "æľīåħ³åįķä½į": 4609,
      "ä¸ĥå¹´ä»¥ä¸ĭæľīæľŁå¾ĴåĪĳ": 4610,
      "æĽ¿": 4611,
      "æĬķä¿Ŀ": 4612,
      "å®ŀæĸ½çļĦ": 4613,
      "åı£å²¸": 4614,
      "èĪ¹åĳĺ": 4615,
      "æµģè¡Į": 4616,
      "å¼ºåĪ¶æī§è¡Į": 4617,
      "åĲ¸å¼ķ": 4618,
      "æĪĴæ¯Ĵ": 4619,
      "ãĢĭãĢģãĢĬ": 4620,
      "çļĦæ´»åĬ¨": 4621,
      "ä¸ºæĤ¨": 4622,
      "æĹ¥ä»¥ä¸Ĭ": 4623,
      "çľ¼": 4624,
      "çĹħåİŁ": 4625,
      "ç¬¬åħŃçĻ¾": 4626,
      "è¿Ŀæ³ķçĬ¯ç½ª": 4627,
      "è´§å¸ģ": 4628,
      "åıĺéĢł": 4629,
      "ç¬¬ä¸ĢçĻ¾ä¸ĥåįģ": 4630,
      "è¡ĮæĶ¿æ³ķè§Ħè§Ħå®ļ": 4631,
      "åŁİéķĩ": 4632,
      "èģĮåĬ¡çļĦ": 4633,
      "åĭŁæįĲ": 4634,
      "èĶ¬èıľ": 4635,
      "25": 4636,
      "éŃ": 4637,
      "åį´": 4638,
      "æĿĢ": 4639,
      "åºĶå½ĵéĩĩåıĸæİªæĸ½": 4640,
      "åħ¬èģĮ": 4641,
      "åıĳåĩº": 4642,
      "åıĳæĶ¾": 4643,
      "æĪĲçļĦ": 4644,
      "ä»£çłģ": 4645,
      "å°ıå¼ł": 4646,
      "åĲĦé¡¹": 4647,
      "ç»ĵå©ļ": 4648,
      "ç»´ä¿®": 4649,
      "åĪĽä½ľ": 4650,
      "æĸ¹éĿ¢çļĦ": 4651,
      "è¯ģåĪ¸äº¤æĺĵæīĢ": 4652,
      "æ¸łéģĵ": 4653,
      "è§£æĶ¾åĨĽ": 4654,
      "åı¯åĨįçĶŁèĥ½æºĲ": 4655,
      "pl": 4656,
      "ĠW": 4657,
      "çļĦå·¥ä½ľäººåĳĺ": 4658,
      "åħĳ": 4659,
      "äººåı£": 4660,
      "åĴĮåıĳå±ķ": 4661,
      "åħ³ç¨İ": 4662,
      "æĿĥåĬĽ": 4663,
      "åĩºç¥¨": 4664,
      "è¿ĻéĩĮ": 4665,
      "è®¡éĩı": 4666,
      "çĶŁäº§ä¼ģä¸ļ": 4667,
      "ç»ĵæĿŁ": 4668,
      "åĨĽè¡Ķ": 4669,
      "åĲĪåĲĮçº¦å®ļ": 4670,
      "ä¿®è®¢": 4671,
      "ä¹īåĬ¡äºº": 4672,
      "åľŁåľ°ä½¿çĶ¨æĿĥ": 4673,
      "èĥ½åĬĽçļĦ": 4674,
      "ä¹°åıĹ": 4675,
      "æŁĲä¸ª": 4676,
      "é¡¹çĽ®çļĦ": 4677,
      "å¤ĸäº¤éĥ¨": 4678,
      "èĭ±éĽĦ": 4679,
      "å¦¨ç¢į": 4680,
      "çļ®": 4681,
      "å¯¹è¯¥": 4682,
      "ï¼ļâĢľ": 4683,
      "å¹´éĻĲ": 4684,
      "è¡ĮæĶ¿è¡Įä¸º": 4685,
      "ä»£ä¸º": 4686,
      "æľºæŀĦåĴĮ": 4687,
      "æĪĳä¼ļ": 4688,
      "è°ģ": 4689,
      "æłĩè¯Ĩ": 4690,
      "æıĲä¾ĽäºĨ": 4691,
      "é¢ĺçĽ®": 4692,
      "æµģç¨ĭ": 4693,
      "åĽŀæĶ¶": 4694,
      "åĮ»çĸĹä¿ĿéĻ©": 4695,
      "çľģçº§äººæ°ĳæĶ¿åºľ": 4696,
      "äºĭæķħçļĦ": 4697,
      "ç¬¬ä¸ĥåįģåĽĽæĿ¡": 4698,
      "æĪĺäºī": 4699,
      "æ°ĳçĶ¨èĪªç©ºä¸»ç®¡éĥ¨éĹ¨": 4700,
      "çħ¤çĤŃ": 4701,
      "è¯¾ç¨ĭ": 4702,
      "SS": 4703,
      "ï¼ĮãĢĬ": 4704,
      "åĲ¯": 4705,
      "æĿ¡æĸĩ": 4706,
      "åľ¨åĮ»çĸĹ": 4707,
      "æĪĳåı¯ä»¥": 4708,
      "æĦıä¹ī": 4709,
      "åĤ¬": 4710,
      "åıªèĥ½": 4711,
      "æ³¨åĨĮèµĦæľ¬": 4712,
      "----": 4713,
      "çĶŁæĪĲä¸Ģä¸ª": 4714,
      "ç¬Ķå½ķ": 4715,
      "èĩªçĦ¶èµĦæºĲä¸»ç®¡éĥ¨éĹ¨": 4716,
      "èģļä¼Ĺ": 4717,
      "pt": 4718,
      "ĦæĸŃ": 4719,
      "çļĦèĪ¹èĪ¶": 4720,
      "åºĶå½ĵä¸º": 4721,
      "ç½¢": 4722,
      "çŃīä¿¡æģ¯": 4723,
      "è°ĭ": 4724,
      "æĢ§åĪ«": 4725,
      "é«ĺåİŁ": 4726,
      "æĽ´å¥½çļĦ": 4727,
      "çĤ¼": 4728,
      "å¤±ä¸ļ": 4729,
      "ç¬¬ä¸ĢçĻ¾åħ«åįģ": 4730,
      "ç»ıæµİåıĳå±ķ": 4731,
      "ä¹īåĬ¡æķĻèĤ²": 4732,
      "åŀĦæĸŃ": 4733,
      "æ¹ĸæ³Ĭ": 4734,
      "éļĶç¦»": 4735,
      "æ©": 4736,
      "çļĦäº§åĵģ": 4737,
      "çļĦè¯ģæį®": 4738,
      "è¯±": 4739,
      "å·¥åİĤ": 4740,
      "ä¸īä¸ªæľĪ": 4741,
      "ä»»æľŁ": 4742,
      "æ³ķå¾ĭè§Ħå®ļçļĦ": 4743,
      "åįķè¯į": 4744,
      "æĶ¿åºľéĩĩè´Ń": 4745,
      "ç¡®æľī": 4746,
      "åıįåºĶ": 4747,
      "èŀįèµĦ": 4748,
      "å¹¶å¤ĦæĪĸèĢħåįķ": 4749,
      "éļıæĹ¶": 4750,
      "æĺİç¡®çļĦ": 4751,
      "æľºåĻ¨äºº": 4752,
      "å¤«å¦»åħ±åĲĮ": 4753,
      "è´£ä»¤åģľæŃ¢è¿Ŀæ³ķè¡Įä¸º": 4754,
      "åı¦æľīè§Ħå®ļçļĦéĻ¤å¤ĸ": 4755,
      "åĮĹäº¬": 4756,
      "çº¢åįģåŃĹä¼ļ": 4757,
      "åĩºç¤º": 4758,
      "çĶ±åħ¶": 4759,
      "åĪĨäº«": 4760,
      "æİ¥è§¦": 4761,
      "åħ·ä½ĵæĥħåĨµ": 4762,
      "æĥħèĬĤçī¹åĪ«": 4763,
      "ç¬¬ä¸ĥåįģæĿ¡": 4764,
      "å¦Ĥä½ķå¤ĦçĲĨ": 4765,
      "æ³ķå®ļç¨ĭåºı": 4766,
      "åı¸æ³ķåįıåĬ©": 4767,
      "çĨŁ": 4768,
      "çĥĪå£«": 4769,
      "åĢĻéĢīäºº": 4770,
      "ä½ıå®ħ": 4771,
      "ä¸Ńå°ıä¼ģä¸ļ": 4772,
      "27": 4773,
      "æľīåīįæ¬¾": 4774,
      "éĢı": 4775,
      "æįŀ": 4776,
      "åĲĮçº§": 4777,
      "å¿ł": 4778,
      "å±ķç¤º": 4779,
      "ç¡®å®ŀ": 4780,
      "åıįé¦Ī": 4781,
      "æĽ¾": 4782,
      "åįıä½ľ": 4783,
      "æ®´": 4784,
      "è¾ĵåĩº": 4785,
      "éħįç½®": 4786,
      "å½±åĵįçļĦ": 4787,
      "ç¬¬ä¸ĥåįģä¸īæĿ¡": 4788,
      "ç¢³": 4789,
      "æľŁè´§çĽĳçĿ£ç®¡çĲĨæľºæŀĦ": 4790,
      "èī¯å¥½": 4791,
      "æ´¾åĩº": 4792,
      "è¿ŀç»Ń": 4793,
      "ä¼ĳæģ¯": 4794,
      "ä¸Ĭå¸Ĥè®¸åı¯": 4795,
      "æĲľç´¢": 4796,
      "çļĦçĶŁæ´»": 4797,
      "åı«": 4798,
      "åįģäºĮ": 4799,
      "ä¾®": 4800,
      "ä¸Ńæĸĩ": 4801,
      "æł¹æį®å®ªæ³ķ": 4802,
      "æ¸Ĳ": 4803,
      "çĶŁäº§èĢħ": 4804,
      "æĸ°å»º": 4805,
      "ä¾Ŀçħ§æľīåħ³æ³ķå¾ĭ": 4806,
      "æ³ķè§ĦçļĦè§Ħå®ļ": 4807,
      "è¿ĺæľī": 4808,
      "èĪ¹éķ¿": 4809,
      "åĪ¶å®ļçļĦ": 4810,
      "ä»²è£ģæľºæŀĦ": 4811,
      "è¡¥è´´": 4812,
      "é¢ĨåŁŁçļĦ": 4813,
      "å·¥ä½ľçļĦéĥ¨éĹ¨": 4814,
      "å¡«": 4815,
      "åĽ¢éĺŁæĪĲåĳĺ": 4816,
      "æī°ä¹±": 4817,
      "æ·»åĬłåīĤ": 4818,
      "çº§ä»¥ä¸Ĭäººæ°ĳæĶ¿åºľ": 4819,
      "æµ·èŃ¦æľºæŀĦ": 4820,
      "çļĦæ°´": 4821,
      "çļĦå»ºè®®": 4822,
      "æľīè¶£": 4823,
      "ä¸Ģäºº": 4824,
      "çĲĨè®º": 4825,
      "è¯ģçļĦ": 4826,
      "æ¶Ĥ": 4827,
      "æĹłè®º": 4828,
      "æłĩåĩĨåĮĸ": 4829,
      "éĢĢä¼ĳ": 4830,
      "å®ĥçļĦ": 4831,
      "å¸ĤåľºçĽĳçĿ£ç®¡çĲĨéĥ¨éĹ¨": 4832,
      "åĨįæ¬¡": 4833,
      "çŃĶå¤į": 4834,
      "ç¬¬äºĮçĻ¾ä¸Ģåįģ": 4835,
      "éļĲåĮ¿": 4836,
      "çĽĳå¯Łå®ĺ": 4837,
      "æĹ¥ç¬¬åįģäºĮ": 4838,
      "åı¬éĽĨ": 4839,
      "é¢Ħå¤ĩå½¹äººåĳĺ": 4840,
      "è¿ŀå¸¦è´£ä»»": 4841,
      "æİ¨çĲĨè¿ĩç¨ĭ": 4842,
      "ä¾®è¾±": 4843,
      "ain": 4844,
      "se": 4845,
      "ªæ±¡": 4846,
      "Ġä»İäºĭ": 4847,
      "çļĦæķ°æį®": 4848,
      "ä¸Ģå¹´": 4849,
      "åºĶçº³ç¨İ": 4850,
      "è¡ĮæĶ¿å¤ĦåĪĨ": 4851,
      "åıĹæ³ķå¾ĭä¿ĿæĬ¤": 4852,
      "ç¤¾ä¼ļåħ¬åħ±åĪ©çĽĬ": 4853,
      "åŁºåľ°": 4854,
      "çİ¯å¢ĥè´¨éĩı": 4855,
      "Ġal": 4856,
      "æ³¨éĶĢ": 4857,
      "æ°ĳäºĭè¯īè®¼": 4858,
      "åı¦ä¸Ģæĸ¹": 4859,
      "è±Ĩ": 4860,
      "ç´łè´¨": 4861,
      "åĽ¾åĥı": 4862,
      "æĹħæ¸¸èĢħ": 4863,
      "åĽºå®ļ": 4864,
      "æģĲæĢĸæ´»åĬ¨": 4865,
      "Ġåİ¿çº§ä»¥ä¸Ĭåľ°æĸ¹äººæ°ĳæĶ¿åºľ": 4866,
      "æľīäºĽ": 4867,
      "ä¹ı": 4868,
      "åĳ¼": 4869,
      "æıĲç¤º": 4870,
      "ä¸»è§Ĥ": 4871,
      "å»ºéĢł": 4872,
      "åĪ©æģ¯": 4873,
      "è®®æ¡Ī": 4874,
      "ä½¿å¾Ĺ": 4875,
      "æµ·åįĹ": 4876,
      "ç³»åĪĹ": 4877,
      "åıĺå¾Ĺ": 4878,
      "è®©äºº": 4879,
      "æİĴæ±¡": 4880,
      "åħ¬åħ±åľºæīĢ": 4881,
      "åħ·ä½ĵåĬŀæ³ķçĶ±åĽ½åĬ¡éĻ¢": 4882,
      "ä¼ĺç§Ģ": 4883,
      "å®¹æĺĵ": 4884,
      "å¹¶å¤Ħä»¥": 4885,
      "çĶµåŃĲçŃ¾åĲį": 4886,
      "åħ¬å¼ĢåĭŁéĽĨ": 4887,
      "æ¨¡å¼ı": 4888,
      "é¸Ł": 4889,
      "æŃ£ç¡®çļĦ": 4890,
      "åŁİä¹¡è§ĦåĪĴ": 4891,
      "ä¼ļåĲĮåĽ½åĬ¡éĻ¢æľīåħ³éĥ¨éĹ¨": 4892,
      "è¦Ĩ": 4893,
      "',": 4894,
      "ab": 4895,
      "Ĳå¾ħ": 4896,
      "è¡£": 4897,
      "åºĶç¨İ": 4898,
      "åģı": 4899,
      "æľŁæ»¡": 4900,
      "éĩĳçļĦ": 4901,
      "è§£æķĳ": 4902,
      "ä½łå¥½": 4903,
      "èĻĲå¾ħ": 4904,
      "ç¬¬ä¸ĥçĻ¾": 4905,
      "ä¼ĺåĬ¿": 4906,
      "é©³": 4907,
      "æ£Ģå¯Łéķ¿": 4908,
      "ç¬¬ä¸ĥåįģäºĮæĿ¡": 4909,
      "ä¿Ŀè¯ģäºº": 4910,
      "ä¸´åºĬ": 4911,
      "è§£éĻ¤åĲĪåĲĮ": 4912,
      "çĪ±æĥħ": 4913,
      "åĽ½éĺ²äº¤éĢļ": 4914,
      "æ¯ģæįŁ": 4915,
      "Ġex": 4916,
      "èĳĹä½ľæĿĥ": 4917,
      "å°ĳæķ°æ°ĳæĹı": 4918,
      "ment": 4919,
      "num": 4920,
      "äººä½ĵ": 4921,
      "åĴĮæĬĢæľ¯": 4922,
      "æľīç»Ħç»ĩ": 4923,
      "åħ¬ç¤º": 4924,
      "åıĳèµ·": 4925,
      "çŃīçļĦ": 4926,
      "åĮºåĨħ": 4927,
      "åīįæıĲ": 4928,
      "æĽ´æĸ°": 4929,
      "ä½łéľĢè¦ģ": 4930,
      "ĠåĽ½å®¶å®ŀè¡Į": 4931,
      "çĸ«çĹħ": 4932,
      "æ¶īæ¡Ī": 4933,
      "ç½ĳç»ľå®īåħ¨": 4934,
      "æ°ĳæĹıä¹¡": 4935,
      "çĪ±åĽ½": 4936,
      "åĢºæĿĥäººä¼ļè®®": 4937,
      "æ¶Īéĺ²æķĳæı´": 4938,
      "çĶµä¿¡ç½ĳç»ľ": 4939,
      "ä¸¥éĩįæĥħèĬĤçļĦ": 4940,
      "é¢ģåıĳ": 4941,
      "Ġé¦Ļæ¸¯çī¹åĪ«è¡ĮæĶ¿åĮº": 4942,
      "è´¯": 4943,
      "æĶ»": 4944,
      "è¡Įé©¶": 4945,
      "ä¸Ģçº§": 4946,
      "åºĶå½ĵåħ·å¤ĩ": 4947,
      "ï¼īãĢģ": 4948,
      "æĦıåĳ³": 4949,
      "çī¹å®ļçļĦ": 4950,
      "æĥħèĬĤè¾ĥ": 4951,
      "åĪ©çĽĬçļĦ": 4952,
      "å¢ŀåĢ¼": 4953,
      "ä¸Ńå¤®äººæ°ĳæĶ¿åºľ": 4954,
      "èĦĳ": 4955,
      "èģĶåĲĪä¼ļ": 4956,
      "éĿĴèĹı": 4957,
      "æľ¬çº§äººæ°ĳä»£è¡¨å¤§ä¼ļå¸¸åĬ¡å§Ķåĳĺä¼ļ": 4958,
      "ç«ĭæ³ķä¼ļ": 4959,
      "éĢłæĪĲä¸¥éĩįåĲİæŀľçļĦ": 4960,
      "ç½¢åħį": 4961,
      "±ä¹Ĳ": 4962,
      "æ°ĳåĬŀ": 4963,
      "æĶ¿åĬ¡": 4964,
      "å¹¶è¦ģæ±Ĥ": 4965,
      "éĢļçĶ¨": 4966,
      "ä½łèĥ½": 4967,
      "çĽĳçĿ£ç®¡çĲĨèģĮè´£çļĦéĥ¨éĹ¨": 4968,
      "åº·å¤į": 4969,
      "åĢºåĬ¡äººçļĦ": 4970,
      "çĭ¬çī¹": 4971,
      "Ġwh": 4972,
      "æ´¾éģ£": 4973,
      "å¼Ĥå¸¸": 4974,
      "åħ¬çĽĬäºĭä¸ļ": 4975,
      "çĥŁèįī": 4976,
      "è¾©æĬ¤äºº": 4977,
      "ç¤¾äº¤åªĴä½ĵ": 4978,
      "åĨ²çªģ": 4979,
      "æĻĭåįĩ": 4980,
      "æĳĺè¦ģ": 4981,
      "æĦıåĳ³çĿĢ": 4982,
      "éĿĴèĹıé«ĺåİŁ": 4983,
      "åĽ½åĨħ": 4984,
      "ä¸įè¶ħè¿ĩ": 4985,
      "åºĶå½ĵç»Ħç»ĩ": 4986,
      "ï¼īãĢĤ": 4987,
      "æĸ¹åĲĳ": 4988,
      "äºĶå¹´": 4989,
      "è¢«å®³äºº": 4990,
      "åĪ°è¾¾": 4991,
      "çİ°å®ŀ": 4992,
      "çĽ®åīį": 4993,
      "å¤įæł¸": 4994,
      "æĿĥåĪ©äºº": 4995,
      "åħ³ç³»çļĦ": 4996,
      "è§Ĩé¢ĳ": 4997,
      "æŁĲäºĽ": 4998,
      "ç¬¬äºĮçĻ¾äºĮåįģ": 4999,
      "å½¢å¼ıçļĦ": 5000,
      "åĽ½éĺ²æķĻèĤ²": 5001,
      "éĺħè¯»": 5002,
      "è¿Ŀçº¦è´£ä»»": 5003,
      "éº»": 5004,
      "åº§": 5005,
      "æĿ¡çļĦè§Ħå®ļ": 5006,
      "çĽĺ": 5007,
      "åľ°çĲĨ": 5008,
      "çŃīæ´»åĬ¨": 5009,
      "èĩªæĪĳ": 5010,
      "åĽ½å®¶æłĩåĩĨ": 5011,
      "ç»Ħç»ĩæĪĸèĢħä¸ªäºº": 5012,
      "æĶ¾æĿ¾": 5013,
      "æİĴéĻ¤": 5014,
      "äº¤éĢļå®īåħ¨": 5015,
      "åĨľä¸ļæĬĢæľ¯": 5016,
      "åĨľä¸ļæľºæ¢°": 5017,
      "è¯ŃéŁ³": 5018,
      "åıĸå¾ĹçļĦ": 5019,
      "ess": 5020,
      "æ³ķå®ļä»£è¡¨äºº": 5021,
      "æīĢåľ¨åľ°çļĦ": 5022,
      "åķĨåĵģæĪĸèĢħ": 5023,
      "---": 5024,
      "ä»ĵåĤ¨": 5025,
      "æŃ¦è£ħèŃ¦å¯Łéĥ¨éĺŁ": 5026,
      "çĶµä¿¡ç½ĳç»ľè¯ĪéªĹ": 5027,
      "æĪĸèĢħåĽ½åĬ¡éĻ¢": 5028,
      "ä¸ºä¸»": 5029,
      "åı¯ä»¥çĶ±": 5030,
      "æĸ¹ä¾¿": 5031,
      "ç»ıåĬŀ": 5032,
      "å¹¶ä¸į": 5033,
      "æĥħæĬ¥": 5034,
      "æĬ¤çħ§": 5035,
      "æŃ£å¼ı": 5036,
      "ä¾Ŀçħ§åħ¶è§Ħå®ļ": 5037,
      "å¤ĦçĲĨçļĦ": 5038,
      "æĪ·åı£": 5039,
      "æļĸ": 5040,
      "å¿ħè¦ģæİªæĸ½": 5041,
      "æ¤Ĵ": 5042,
      "Ġwe": 5043,
      "èĥĮæĻ¯": 5044,
      "åĮ»çĸĹåį«çĶŁæľºæŀĦ": 5045,
      "åįĬæķ°": 5046,
      "è½¯ä»¶": 5047,
      "æ³ķäººæĪĸèĢħåħ¶ä»ĸç»Ħç»ĩ": 5048,
      "'s": 5049,
      "èľ": 5050,
      "ĠL": 5051,
      "Ġåħ¬åı¸": 5052,
      "å·´": 5053,
      "åı¯ä»¥çĶ³è¯·": 5054,
      "è¿Ľå¢ĥ": 5055,
      "æ¬¾é¡¹": 5056,
      "çº¦æĿŁ": 5057,
      "éħ±": 5058,
      "è¿Ŀåıįè§Ħå®ļ": 5059,
      "èĪªè¡Į": 5060,
      "åĪĳäºĭåı¸æ³ķåįıåĬ©": 5061,
      "ä¸ĩåħĥä»¥ä¸Ĭä¸ĢçĻ¾": 5062,
      "ç¼ĸåĨĻ": 5063,
      "è¿Ŀæ³ķæīĢå¾ĹçļĦ": 5064,
      "è¿Ŀæ³ķæīĢå¾Ĺä¸ĢåĢįä»¥ä¸Ĭ": 5065,
      "èĩ³å°ĳ": 5066,
      "ä¹ĭæĹ¥èµ·åįģäºĶæĹ¥åĨħ": 5067,
      "Ġ10": 5068,
      "åı¸æ³ķè¡ĮæĶ¿éĥ¨éĹ¨": 5069,
      "åı¯ä»¥å¸®åĬ©æĤ¨": 5070,
      "æľªæĿ¥çļĦ": 5071,
      "æľ¬è¡ĮæĶ¿åĮºåŁŁçļĦ": 5072,
      "æľ¬è¡ĮæĶ¿åĮºåŁŁåĨħ": 5073,
      "æŃ»äº¡çļĦ": 5074,
      "èĩªåĬ¨åĮĸ": 5075,
      "èµ°ç§ģ": 5076,
      "è¯¦ç»ĨçļĦ": 5077,
      "çĽĹçªĥ": 5078,
      "å¤Ħä¸īå¹´ä»¥ä¸Ĭä¸ĥå¹´ä»¥ä¸ĭæľīæľŁå¾ĴåĪĳ": 5079,
      "ĠH": 5080,
      "è¿¹": 5081,
      "åĴĮè§£": 5082,
      "æĿĥåĴĮ": 5083,
      "æĪĲéķ¿": 5084,
      "å¹¶æĮīçħ§": 5085,
      "åĪĨæĶ¯": 5086,
      "ä½ĵçļĦ": 5087,
      "åıĹè´¿": 5088,
      "éĢĤéĩı": 5089,
      "åľ°æĸ¹åĲĦçº§": 5090,
      "æĿ¡ä»¶åĴĮ": 5091,
      "å¹¶å¤ĦäºĶ": 5092,
      "èıĮ": 5093,
      "ill": 5094,
      "èĤ¡ä»½æľīéĻĲ": 5095,
      "çĩĥæĸĻ": 5096,
      "çĽĸç«ł": 5097,
      "å¤Ħåįģå¹´ä»¥ä¸ĬæľīæľŁå¾ĴåĪĳ": 5098,
      "è¾ħåĬ©": 5099,
      "ight": 5100,
      "Ġå¦Ĥæŀľ": 5101,
      "Ġæľīä¸ĭåĪĹæĥħå½¢ä¹ĭä¸ĢçļĦ": 5102,
      "ç§ĭ": 5103,
      "åıĳç¥¨": 5104,
      "å¹¶å¯¹åħ¶çĽ´æİ¥è´Łè´£çļĦä¸»ç®¡äººåĳĺåĴĮåħ¶ä»ĸçĽ´æİ¥è´£ä»»äººåĳĺ": 5105,
      "éĶħ": 5106,
      "æĢ»é¢Ŀ": 5107,
      "ç¬¬ä¸ĢçĻ¾åħŃåįģ": 5108,
      "é£İæł¼": 5109,
      "æ¯ıå¹´": 5110,
      "ä¸ļåĬ¡çļĦ": 5111,
      "åĲĮæĹ¶ä¹Ł": 5112,
      "å¨±ä¹Ĳ": 5113,
      "ç»ĥä¹ł": 5114,
      "åħ¬çĽĬæĢ§": 5115,
      "å¤ĦäºĶå¹´ä»¥ä¸ĭæľīæľŁå¾ĴåĪĳæĪĸèĢħæĭĺå½¹": 5116,
      "éĺ¶æ®µ": 5117,
      "çļĦåľ°æĸ¹": 5118,
      "çļĦä¸»è¦ģ": 5119,
      "åĴĮæľīåħ³éĥ¨éĹ¨": 5120,
      "åı¯éĿł": 5121,
      "ä¸įå±ŀäºİ": 5122,
      "éĥ¨æ³ķå¾ĭçļĦåĨ³å®ļ": 5123,
      "åĪĨä¹ĭä¸Ģ": 5124,
      "å¤§åŀĭ": 5125,
      "è¿ĿèĥĮ": 5126,
      "çĿ¡": 5127,
      "æĮīæĹ¶": 5128,
      "ç»Ļå®ļçļĦ": 5129,
      "èįĴ": 5130,
      "ä¸ªäººçĭ¬èµĦä¼ģä¸ļ": 5131,
      "æ±¡æ°´": 5132,
      "å¥³æĢ§": 5133,
      "äº¤éĢļå·¥åħ·": 5134,
      "ç¦»å¼Ģ": 5135,
      "æĹ¶éĹ´åĴĮ": 5136,
      "åħįçĸ«": 5137,
      "åĨĽäºĭè®¾æĸ½": 5138,
      "æĸĩçī©ä¿ĿæĬ¤": 5139,
      "æľĢé«ĺäººæ°ĳæ£Ģå¯ŁéĻ¢": 5140,
      "ç»ĻåĩºçŃĶæ¡Ī": 5141,
      "æ¬ºéªĹ": 5142,
      "ç»ıæµİç¤¾ä¼ļåıĳå±ķ": 5143,
      "è·Ŀç¦»": 5144,
      "sw": 5145,
      "ue": 5146,
      "çļĦè¯īè®¼": 5147,
      "æĺ¥": 5148,
      "ä¸įå½ĵ": 5149,
      "å°¾": 5150,
      "åĽ½å®¶çļĦ": 5151,
      "èĲ¥éĶĢ": 5152,
      "éĺ²ç©º": 5153,
      "æĦıæĦ¿": 5154,
      "æĮīçħ§èģĮè´£åĪĨå·¥": 5155,
      "æĬĢæľ¯è§ĦèĮĥ": 5156,
      "çŁ¥æĤī": 5157,
      "åģľäº§": 5158,
      "åĭĩ": 5159,
      "èĥ½åĬĽåĴĮ": 5160,
      "æķ°æį®çļĦ": 5161,
      "å¤©çĦ¶": 5162,
      "Ġby": 5163,
      "æīĢåľ¨åįķä½į": 5164,
      "ä¼ļåĲĮæľīåħ³éĥ¨éĹ¨": 5165,
      "çİ°ä»£åĮĸ": 5166,
      "ä¸ŃåĽ½äººæ°ĳéĵ¶è¡Į": 5167,
      "åī¥å¤ºæĶ¿æ²»": 5168,
      "è¡Ĺéģĵ": 5169,
      "24": 5170,
      "ure": 5171,
      "Ġç¦ģæŃ¢": 5172,
      "æľīçļĦ": 5173,
      "æ´²": 5174,
      "æįŁæ¯ģ": 5175,
      "èį¯çī©": 5176,
      "æķ´æĶ¹": 5177,
      "åĻ¨æĿĲ": 5178,
      "ä¹¦éĿ¢å½¢å¼ı": 5179,
      "ä»·åĢ¼çļĦ": 5180,
      "æ¸©åº¦": 5181,
      "é©»å¤ĸ": 5182,
      "åħ³éĶ®è¯į": 5183,
      "æľīéĻĲè´£ä»»": 5184,
      "ect": 5185,
      "åİĭåĬĽ": 5186,
      "ĠD": 5187,
      "æ³¥": 5188,
      "è¿Ł": 5189,
      "å½»": 5190,
      "åĲĪéĢĤ": 5191,
      "åıĸæ¶Ī": 5192,
      "å®¡äººæ°ĳæ³ķéĻ¢": 5193,
      "æĶ¯ç¥¨": 5194,
      "åįıå®ļ": 5195,
      "çİ¯å¢ĥçļĦ": 5196,
      "è®¤åı¯": 5197,
      "åĪ¤å¤Ħ": 5198,
      "æµģå¤±": 5199,
      "ç¬¬åħ«çĻ¾": 5200,
      "åį³åı¯": 5201,
      "ç¬¬ä¸ĥåįģä¸ĥæĿ¡": 5202,
      "ç§ĳæĬĢåĪĽæĸ°": 5203,
      "æĲŃ": 5204,
      "èµĦæł¼çļĦ": 5205,
      "åħ´è¶£": 5206,
      "è¢«åĪ¤å¤Ħ": 5207,
      "å¤Ħä¸īå¹´ä»¥ä¸Ĭåįģå¹´ä»¥ä¸ĭæľīæľŁå¾ĴåĪĳ": 5208,
      "èĵĿ": 5209,
      "çİ¯å¢ĥå½±åĵįè¯Ħä»·": 5210,
      ";(": 5211,
      "frac": 5212,
      "çļĦéĥ¨åĪĨ": 5213,
      "åį·": 5214,
      "è´ªæ±¡": 5215,
      "è§Ī": 5216,
      "éĻª": 5217,
      "åĽ½åľŁ": 5218,
      "æķı": 5219,
      "äººæ°ĳå¸ģ": 5220,
      "åı¯ä»¥æĮīçħ§": 5221,
      "å¤§åŃ¦": 5222,
      "äºĨä¸Ģä¸ª": 5223,
      "æµĭè¯ķ": 5224,
      "æķ´ä¸ª": 5225,
      "ç¬¬ä¸ĥåįģåħŃæĿ¡": 5226,
      "åģĩéĩĬ": 5227,
      "ity": 5228,
      "èĪªç©ºåĻ¨": 5229,
      "çºłæŃ£": 5230,
      "æĬ¢åĬ«": 5231,
      "éĩįæķ´è®¡åĪĴ": 5232,
      "op": 5233,
      "}{": 5234,
      "çļĦä½¿çĶ¨": 5235,
      "çļĦåŁºç¡Ģ": 5236,
      "æĭĲ": 5237,
      "ç»ıåİĨ": 5238,
      "å¹¶ä¾Ŀæ³ķ": 5239,
      "çĸı": 5240,
      "èĲ¥åħ»": 5241,
      "æĥħåĨµåĴĮ": 5242,
      "åıĺåįĸ": 5243,
      "åı¯èĥ½å½±åĵį": 5244,
      "èģĮä¸ļåį«çĶŁ": 5245,
      "éĻĦåĬł": 5246,
      "çľĭåĪ°": 5247,
      "Ġ\\)": 5248,
      "æĸĩçī©è¡ĮæĶ¿éĥ¨éĹ¨": 5249,
      "å¡ĳ": 5250,
      "ä¸Ĭä¸Ģçº§": 5251,
      "ä¾µæĿĥè´£ä»»": 5252,
      "è¯ĹæŃĮ": 5253,
      "è®¿": 5254,
      "åºĶå½ĵæľī": 5255,
      "äºĭçĶ±": 5256,
      "è¿Ľè¡ĮçļĦ": 5257,
      "æĢ§èĥ½": 5258,
      "æłĩçŃ¾": 5259,
      "åįıåĲĮ": 5260,
      "ç¼©": 5261,
      "å»ºè®¾åĴĮ": 5262,
      "ç±»åĪ«": 5263,
      "æ¶ĪçģŃ": 5264,
      "æıĲåĩºçĶ³è¯·": 5265,
      "å°ĳå¹´": 5266,
      "åĽ½éĻħæĿ¡çº¦": 5267,
      "åŃ¦çĶŁçļĦ": 5268,
      "æĬµæĬ¼æĿĥ": 5269,
      "å°ļä¸į": 5270,
      "å¯¹çĽ´æİ¥è´Łè´£çļĦä¸»ç®¡äººåĳĺåĴĮåħ¶ä»ĸçĽ´æİ¥è´£ä»»äººåĳĺä¾Ŀæ³ķç»ĻäºĪå¤ĦåĪĨ": 5271,
      "ä»Ĭå¤©": 5272,
      "è¯ģåĪ¸æĬķèµĦåŁºéĩĳ": 5273,
      "æ°ĳèĲ¥ç»ıæµİç»Ħç»ĩ": 5274,
      ".\"": 5275,
      "Ġ`": 5276,
      "çļĦåĲįç§°": 5277,
      "æĪĸèĢħè¢«": 5278,
      "åħ¬å¼Ģåıĳ": 5279,
      "åĲĪè®®": 5280,
      "åľ°ä¸ĭ": 5281,
      "å¹¶éĩĩåıĸ": 5282,
      "åįķçĭ¬": 5283,
      "éģį": 5284,
      "è¿Ľè¡ĮçĽĳçĿ£æ£ĢæŁ¥": 5285,
      "æĶ¶åĽŀ": 5286,
      "å¼ĢéĻ¤": 5287,
      "å°ıç»Ħ": 5288,
      "åľŁåľ°åĪ©çĶ¨": 5289,
      "åĪĽå»º": 5290,
      "ç¬¬ä¸ĥåįģåħ«æĿ¡": 5291,
      "èº«ä»½è¯ģ": 5292,
      "è¯ĬçĸĹ": 5293,
      "é¥®çĶ¨æ°´": 5294,
      "åĲĦèĩªçļĦ": 5295,
      "è´®åŃĺ": 5296,
      "MO": 5297,
      "å³": 5298,
      "æĩ": 5299,
      "è¿İ": 5300,
      "ä»¥åīį": 5301,
      "æĪĸèĢħä½¿çĶ¨": 5302,
      "åºĶå½ĵéģµå¾ª": 5303,
      "åı¯ä»¥å°Ĩ": 5304,
      "åĩºåºŃ": 5305,
      "æµĵ": 5306,
      "æĶ¶æĶ¯": 5307,
      "åīįä¸¤": 5308,
      "åħ¬åħ±å®īåħ¨": 5309,
      "ç©ºæ°Ķ": 5310,
      "äº¤éĢļç®¡çĲĨéĥ¨éĹ¨": 5311,
      "é£İéĻ©è¯Ħä¼°": 5312,
      "ç¬¬äºĮçĻ¾ä¸īåįģ": 5313,
      "**:": 5314,
      "çļĦæ³ķå¾ĭéĹ®é¢ĺ": 5315,
      "åĩºèµĦäºº": 5316,
      "çĪ¶æ¯įæĪĸèĢħåħ¶ä»ĸçĽĳæĬ¤äºº": 5317,
      "çļĦå¦ĩå¥³": 5318,
      "æľīæīĢ": 5319,
      "çĽ²": 5320,
      "åħ¶æ¬¡": 5321,
      "å¹¶åıĬæĹ¶": 5322,
      "èµĦåĬ©": 5323,
      "åħ¶ä»ĸæľīåħ³éĥ¨éĹ¨": 5324,
      "æĶ¶è´§": 5325,
      "æĺİçļĦ": 5326,
      "èĲ¥è¿Ĳ": 5327,
      "æıĲä¾Ľå¿ħè¦ģçļĦ": 5328,
      "æ°´æºĲ": 5329,
      "è´¨è¯¢": 5330,
      "è·ĳ": 5331,
      "å¿ħéľĢ": 5332,
      "å¯ĨåĪĩ": 5333,
      "èģĮä¸ļåŃ¦æł¡": 5334,
      "ence": 5335,
      "ç¡®å®ļéĹ®é¢ĺ": 5336,
      "çķĻç½®": 5337,
      "ç¬¬ä¸ĥåįģäºĶæĿ¡": 5338,
      "æ®µèĲ½": 5339,
      "æł·çļĦ": 5340,
      "æĴ¤èģĮ": 5341,
      "åĨĽäºĭæľºåħ³": 5342,
      "æĢĿèĢĥ": 5343,
      "çĶµåŃĲåķĨåĬ¡å¹³åı°": 5344,
      "æ°´åľŁä¿ĿæĮģ": 5345,
      "åĨĻä¸Ģç¯ĩåħ³äºİ": 5346,
      "æ°ĳæĹıèĩªæ²»åľ°æĸ¹çļĦ": 5347,
      "åĲĪè®®åºŃ": 5348,
      "MOSS": 5349,
      "100": 5350,
      "è²": 5351,
      "Ġåħ¬å®īæľºåħ³": 5352,
      "çļĦåĪ¤åĨ³": 5353,
      "ç»ª": 5354,
      "çĶ¨åĵģ": 5355,
      "ä½ľè¯ģ": 5356,
      "çĽĳæİ§": 5357,
      "æł¹æį®æ³ķå¾ĭè§Ħå®ļ": 5358,
      "å®īåħ¨äºĭæķħ": 5359,
      "æ¯Ľ": 5360,
      "ç¤¾ä¼ļçļĦ": 5361,
      "ä¾Ŀçħ§åīįæ¬¾": 5362,
      "æī§è¡ĮèģĮåĬ¡": 5363,
      "é¢Ĩäºĭ": 5364,
      "ä¸ĭåĪĹæĿ¡ä»¶": 5365,
      "å±ħçķĻ": 5366,
      "çº¦å®ļæĪĸèĢħ": 5367,
      "ä¼¤æ®ĭ": 5368,
      "åį±å®³åĽ½å®¶å®īåħ¨": 5369,
      "æħ¢": 5370,
      "çºªå¿µ": 5371,
      "åĪĨä¹ĭäºĮ": 5372,
      "çŃīæĸ¹éĿ¢çļĦ": 5373,
      "è°¢è°¢": 5374,
      "æ¦Ĥå¿µ": 5375,
      "è¿·": 5376,
      "ä»¥åĨħ": 5377,
      "ä¸Ģå®ļçļĦ": 5378,
      "æĪĸèĢħéĩĩåıĸ": 5379,
      "ä¸Ńæľī": 5380,
      "åľ°åĿĢ": 5381,
      "ï¼ļãĢĬ": 5382,
      "ä¸»åĬ¨": 5383,
      "çĶ±äººæ°ĳæ³ķéĻ¢": 5384,
      "éĢļè¡Į": 5385,
      "éĺ¿": 5386,
      "è¡ĮæĶ¿è¯īè®¼": 5387,
      "è¢ĭ": 5388,
      "åĮ»éĻ¢": 5389,
      "çĽ¸åħ³éĥ¨éĹ¨": 5390,
      "ç¬¬ä¸ĢçĻ¾ä¹Ŀåįģ": 5391,
      "è¯·æ±ĤåĽ½": 5392,
      "è¿½åģ¿": 5393,
      "å°ıæĺİçļĦ": 5394,
      "è´¹çĶ¨çļĦ": 5395,
      "Ġcan": 5396,
      "åºĶæĢ¥ç®¡çĲĨéĥ¨éĹ¨": 5397,
      "ä»£çĲĨäººçļĦ": 5398,
      "è¯ķéªĮ": 5399,
      "ç¥ŀç»ı": 5400,
      "å¼ºåĪ¶æİªæĸ½": 5401,
      "æµ·äºĭè¯·æ±Ĥ": 5402,
      "å¹´ä»¥ä¸Ĭåįģå¹´ä»¥ä¸ĭæľīæľŁå¾ĴåĪĳ": 5403,
      "åħµå½¹": 5404,
      "æ¥¼": 5405,
      "éģĹä¼łèµĦæºĲ": 5406,
      "æŀĹä¸ļèįīåİŁä¸»ç®¡éĥ¨éĹ¨": 5407,
      "\\)": 5408,
      "rom": 5409,
      "Ġ9": 5410,
      "åħ½": 5411,
      "ä¸īåĪĨä¹ĭäºĮ": 5412,
      "è¿ĩåįĬæķ°": 5413,
      "ç¬¬ä¸Ģé¡¹": 5414,
      "æĶ¹å»º": 5415,
      "è¿Ŀæ³ķè¡Įä¸ºçļĦ": 5416,
      "åŃĺåĤ¨": 5417,
      "ĠåĽ½å®¶åĬłå¼º": 5418,
      "èĤ¡æĿĥ": 5419,
      "åĪ©çĶ¨èģĮåĬ¡": 5420,
      "è´¹çĶ¨çĶ±": 5421,
      "è¡Įä¸ļåįıä¼ļ": 5422,
      "åı¦æľīçº¦å®ļçļĦ": 5423,
      "å®ĥä»¬çļĦ": 5424,
      "æįķæįŀ": 5425,
      "åĢįä»¥ä¸ĭç½ļæ¬¾": 5426,
      "è¯·æł¹æį®ä¸ĭéĿ¢çļĦæ³ķå¾ĭéĹ®é¢ĺ": 5427,
      "ç¡®å®ļéĹ®é¢ĺåĪĨç±»": 5428,
      "è¯·æł¹æį®ä¸ĭéĿ¢çļĦæ³ķå¾ĭéĹ®é¢ĺç¡®å®ļéĹ®é¢ĺåĪĨç±»": 5429,
      "Ġåħ¨åĽ½äººæ°ĳä»£è¡¨å¤§ä¼ļ": 5430,
      "Ġä»»ä½ķ": 5431,
      "ä¸Ŀ": 5432,
      "å®½": 5433,
      "ä¸Ģé¦ĸ": 5434,
      "äºĭåħĪ": 5435,
      "åľ°æ³ķå¾ĭ": 5436,
      "ä¸Ĭä¸ĭ": 5437,
      "æĸ¹éĴĪ": 5438,
      "åĩºè´¨": 5439,
      "æľŁçļĦ": 5440,
      "æĬ¥éģĵ": 5441,
      "é«ĺçļĦ": 5442,
      "éħ¸": 5443,
      "äººæ°ĳæ³ķéĻ¢åºĶå½ĵ": 5444,
      "ç¥ĸ": 5445,
      "æĢ»éĩı": 5446,
      "her": 5447,
      "åŁºéĩĳç®¡çĲĨ": 5448,
      "éĤĢ": 5449,
      "è¿Ĳè¾ĵä¼ģä¸ļ": 5450,
      "ä¸ĩåħĥä»¥ä¸ĭç½ļéĩĳ": 5451,
      "æĺ¯åĲ¦æľī": 5452,
      "æŁĲåħ¬åı¸": 5453,
      "our": 5454,
      "å¹²æī°": 5455,
      "å®ªæ³ķåĴĮæ³ķå¾ĭ": 5456,
      "æĭĴä¸įæĶ¹æŃ£çļĦ": 5457,
      "éĨī": 5458,
      "ä¸ĩåħĥä»¥ä¸ĬäºĶåįģä¸ĩåħĥä»¥ä¸ĭçļĦç½ļæ¬¾": 5459,
      "æ··åĲĪ": 5460,
      "åħ¬å¼Ģåıĳè¡Į": 5461,
      "åīįä¸¤æ¬¾": 5462,
      "èĨ": 5463,
      "Ġå°Ĩ": 5464,
      "Ġçľģ": 5465,
      "Ġä¸ĢèĪ¬": 5466,
      "åľ¨çº¿": 5467,
      "åı¯ä»¥è¯·æ±Ĥ": 5468,
      "æĬ¥è¯·": 5469,
      "å§Ķåĳĺéķ¿": 5470,
      "åŃĺç»Ń": 5471,
      "æ»ŀ": 5472,
      "åĴĮåħ¶ä»ĸç»Ħç»ĩ": 5473,
      "Ġsu": 5474,
      "è§Ĩè§ī": 5475,
      "è®ºè¯ģ": 5476,
      "ans": 5477,
      "èĢģå¸Ī": 5478,
      "è§£åĨ³æĸ¹æ¡Ī": 5479,
      "ç¬¬åħ«åįģä¸ĢæĿ¡": 5480,
      "è¯´æĺİä¹¦": 5481,
      "ä»·åĢ¼è§Ĥ": 5482,
      "ase": 5483,
      "ä¿¡æīĺè´¢äº§": 5484,
      "Ġne": 5485,
      "åĽ½å®¶æľºåħ³å·¥ä½ľäººåĳĺ": 5486,
      "è§īå¾Ĺ": 5487,
      "###": 5488,
      "éľĢè¦ģæ³¨æĦıçļĦæĺ¯": 5489,
      "ter": 5490,
      "ĠçĶ¨äººåįķä½į": 5491,
      "æľīæ¯Ĵ": 5492,
      "ä¸Ńæłĩ": 5493,
      "åı¯ä»¥ä½¿çĶ¨": 5494,
      "åıĳç»Ļ": 5495,
      "éĢļè®¯": 5496,
      "èĤ¥": 5497,
      "æĢ§æ³ķè§Ħ": 5498,
      "æĬ¥ç»ı": 5499,
      "ç½ªåĲį": 5500,
      "ç»ıèĲ¥çļĦ": 5501,
      "åĲĪåĲĮçº¦å®ļçļĦ": 5502,
      "éĶĢæ¯ģ": 5503,
      "ä¿ĿéĻ©çĽĳçĿ£ç®¡çĲĨæľºæŀĦ": 5504,
      "çĦ¦": 5505,
      "åĪ¤å¤Ħç½ļéĩĳ": 5506,
      "è´Ńçī©": 5507,
      "åŀ¦": 5508,
      "èĩªæ²»å·ŀ": 5509,
      "åĢºåĬ¡çļĦ": 5510,
      "Ġsp": 5511,
      "å¾ģçĶ¨": 5512,
      "äºĴçĽ¸": 5513,
      "ä»»åĬ¡çļĦ": 5514,
      "åī¯æľ¬": 5515,
      "ä¾ĽåºĶåķĨ": 5516,
      "èħĲ": 5517,
      "åĲĳç¤¾ä¼ļåħ¬å¸ĥ": 5518,
      "çĸ¾çĹħé¢Ħéĺ²æİ§åĪ¶éĥ¨éĹ¨": 5519,
      "ĠèĪ¹èĪ¶": 5520,
      "åĴĮå»ºè®®": 5521,
      "æĹ¨": 5522,
      "èĥľ": 5523,
      "åĵº": 5524,
      "åĵĪ": 5525,
      "èĥ½åĲ¦": 5526,
      "æ²ī": 5527,
      "æł¹æį®éľĢè¦ģ": 5528,
      "åĨ³ç®Ĺ": 5529,
      "æıĲä¾ĽæľįåĬ¡": 5530,
      "æıĲä¾Ľæĭħä¿Ŀ": 5531,
      "çĶ³è¯·ä»²è£ģ": 5532,
      "çĶ³è¯·ä¹ĭæĹ¥èµ·": 5533,
      "å¤ļæ¬¡": 5534,
      "èĮ¶": 5535,
      "æľĢå¤§": 5536,
      "æ³¨éĩį": 5537,
      "æµĭéĩı": 5538,
      "æ¸ħæĻ": 5539,
      "åľŁåľ°çļĦ": 5540,
      "ä¾µæĿĥäºº": 5541,
      "æĿĥçĽĬä¿Ŀéļľæ³ķ": 5542,
      "å®¢ä½ĵ": 5543,
      "çĥ§": 5544,
      "åĬ¨çī©çĸ«çĹħ": 5545,
      "åŃ¦ä¹łåĴĮ": 5546,
      "å®¶åºŃæĪĲåĳĺ": 5547,
      "Ġcom": 5548,
      "ç¾İä¸½": 5549,
      "é¢Ħéĺ²åĴĮ": 5550,
      "åĲĪæ³ķæĿĥçĽĬçļĦ": 5551,
      "å¹²é¢Ħ": 5552,
      "çºªå¾ĭ": 5553,
      "ä¸ĩåħĥä»¥ä¸ĬäºĮåįģä¸ĩåħĥä»¥ä¸ĭçļĦç½ļæ¬¾": 5554,
      "swer": 5555,
      "Ġ7": 5556,
      "ĠR": 5557,
      "çļĦæįŁå¤±": 5558,
      "åºĶå½ĵçŁ¥éģĵ": 5559,
      "åĩºåħ¥å¢ĥ": 5560,
      "åģ·": 5561,
      "åĽ½å®¶åĪ©çĽĬ": 5562,
      "æŀĦå»º": 5563,
      "å¥ı": 5564,
      "ä¾Ŀæ³ķå¯¹": 5565,
      "ä¿ĿæĬ¤æİªæĸ½": 5566,
      "åĲįé¢Ŀ": 5567,
      "åĲĦæĸ¹": 5568,
      "çķħ": 5569,
      "æĸ°åŀĭ": 5570,
      "ä¾Ŀçħ§æ³ķå¾ĭè§Ħå®ļ": 5571,
      "åıĺçĽ¸": 5572,
      "è¿Ĳè¾ĵå·¥åħ·": 5573,
      "å»ºè®®æĤ¨": 5574,
      "æ³ķå®ļä»£çĲĨäºº": 5575,
      "éģĩåĪ°": 5576,
      "ä¼łæŁĵçĹħçĸ«æĥħ": 5577,
      "Ġnot": 5578,
      "èĩªçĶ±è´¸æĺĵ": 5579,
      "éĵ¶è¡Įä¸ļéĩĳèŀįæľºæŀĦ": 5580,
      "å·¥ä¼¤ä¿ĿéĻ©": 5581,
      "æ¬ºè¯Ī": 5582,
      "å½ĵçĦ¶åı¯ä»¥": 5583,
      "ãĢĤãĢĬ": 5584,
      "ä¸įèµ·è¯ī": 5585,
      "äººæ°ĳéĺ²ç©º": 5586,
      "æİĺ": 5587,
      "èĩªå¾ĭ": 5588,
      "åĪĨå¸ĥ": 5589,
      "æł¹æį®ä¸ŃåĽ½": 5590,
      "éĺ²æİ§": 5591,
      "ä¿ĿæĬ¤çļĦ": 5592,
      "åº¦åĴĮ": 5593,
      "åİŁå§ĭ": 5594,
      "ç¬¬åĽĽèĬĤ": 5595,
      "ä¿¡æģ¯åĮĸ": 5596,
      "æĸ°æĬĢæľ¯": 5597,
      "ç±»ä¼¼": 5598,
      "ç´¯": 5599,
      "äº§åĵģè´¨éĩı": 5600,
      "èŃ¦ç¤º": 5601,
      "éĶĢåĶ®çļĦ": 5602,
      "å¢ŀéķ¿": 5603,
      "çī©åĵģçļĦ": 5604,
      "è¾¹éĺ²": 5605,
      "åı¥è¯Ŀ": 5606,
      "ç¼ºä¹ı": 5607,
      "åĪ©å®³åħ³ç³»äºº": 5608,
      "åĵºä¹³": 5609,
      "hn": 5610,
      "ore": 5611,
      "åĪĬ": 5612,
      "å·¦": 5613,
      "ä¸ŃæıĲåıĸ": 5614,
      "ç»ıçĲĨ": 5615,
      "æľŁåĨħ": 5616,
      "ä¾ĽçĶµ": 5617,
      "ç»Ħç»ĩåĴĮ": 5618,
      "ç»Ļå®ļ": 5619,
      "æķĪçĽĬ": 5620,
      "å»ºè®¾çļĦ": 5621,
      "çĽ¸åħ³ä¿¡æģ¯": 5622,
      "åĽ¢ç»ĵ": 5623,
      "åį±éĻ©åºŁçī©": 5624,
      "æĥ³æ³ķ": 5625,
      "ant": 5626,
      "åŁºæľ¬åĮ»çĸĹä¿ĿéĻ©": 5627,
      "ç»Łä¸ĢçļĦ": 5628,
      "æĹ¥ç¬¬åįģä¸Ģ": 5629,
      "éĶĻè¯¯çļĦ": 5630,
      "ä¸Ģæ¬¡æĢ§": 5631,
      "éĤĢè¯·": 5632,
      "äººåĬĽ": 5633,
      "ä»¥åĲİ": 5634,
      "åĽ½æĹĹ": 5635,
      "å¼±": 5636,
      "çħ§é¡¾": 5637,
      "çĽ¸åħ³æ³ķå¾ĭ": 5638,
      "èĮĦ": 5639,
      "ä¾ĭåŃĲ": 5640,
      "éĿŀæ³ķäºº": 5641,
      "è°ĥè§£åįıè®®": 5642,
      "ould": 5643,
      "æ²¡æĶ¶è´¢äº§": 5644,
      "æľªç»ıæī¹åĩĨ": 5645,
      "æľ¬è¡ĮæĶ¿åĮºåŁŁåĨħçļĦ": 5646,
      "åĩºå¢ĥåħ¥å¢ĥ": 5647,
      "ide": 5648,
      "ä¸ŃåĽ½äººæ°ĳè§£æĶ¾åĨĽ": 5649,
      "åĽ°éļ¾çļĦ": 5650,
      "æ¿ĢåĬ±": 5651,
      "åĽ½æ°ĳç»ıæµİåĴĮç¤¾ä¼ļåıĳå±ķ": 5652,
      "åĤ¬åĳĬ": 5653,
      "æĥħèĬĤçī¹åĪ«ä¸¥éĩįçļĦ": 5654,
      "çĪ±åĽ½ä¸»ä¹ī": 5655,
      "è´¯å½»": 5656,
      "Al": 5657,
      "åĪł": 5658,
      "ç»ĳ": 5659,
      "æ°ı": 5660,
      "æľīè¿Ŀæ³ķæīĢå¾ĹçļĦ": 5661,
      "çĶ¨çĶµ": 5662,
      "ä¸ºçĽ®çļĦ": 5663,
      "å®¶å±ħ": 5664,
      "æľ¬ç½ªçļĦ": 5665,
      "è¿Ľåĩºå¢ĥ": 5666,
      "åĽ½å®¶å¯¹": 5667,
      "æľªåıĸå¾Ĺ": 5668,
      "ä¾Ŀæ³ķæī¿æĭħèµĶåģ¿è´£ä»»": 5669,
      "ãĢĭï¼Į": 5670,
      "åĬĽçļĦ": 5671,
      "éĩĩéĽĨ": 5672,
      "è´ŁéĿ¢": 5673,
      "åĬŀæ¡Ī": 5674,
      "èµĶåģ¿æįŁå¤±": 5675,
      "å®Įæ¯ķ": 5676,
      "ä¼ĺå¾ħ": 5677,
      "è¯ģæį®è¯ģæĺİ": 5678,
      "çŃĶè¾©": 5679,
      "ç¬¬äºĮçĻ¾åħŃåįģ": 5680,
      "åĳ¨åĽ´": 5681,
      "åĳ¨è¾¹": 5682,
      "æĦ¿æĦı": 5683,
      "æĳĬ": 5684,
      "åı¦æľīè§Ħå®ļ": 5685,
      "ç»ĵç®ĹæľºæŀĦ": 5686,
      "å·¨å¤§çļĦ": 5687,
      "çĸ¾çĹħé¢Ħéĺ²æİ§åĪ¶æľºæŀĦ": 5688,
      "æ½ľåľ¨": 5689,
      "å¯¹åįķä½įåĪ¤å¤Ħç½ļéĩĳ": 5690,
      "Ġåľ°æĸ¹åĲĦçº§äººæ°ĳæĶ¿åºľ": 5691,
      "çļĦäºĭé¡¹": 5692,
      "å®ł": 5693,
      "ä¸ĢåĪĩ": 5694,
      "è§Ħç¨ĭ": 5695,
      "æĪĸèĢħéĻĲåĪ¶": 5696,
      "å¼¹": 5697,
      "æĮĸ": 5698,
      "åĩºå¸Ń": 5699,
      "éĻ¢æł¡": 5700,
      "åĪĨç«ĭ": 5701,
      "ä½¿åħ¶": 5702,
      "æľªæĮī": 5703,
      "åıĹå®³äºº": 5704,
      "è¿Ľè¡ĮçĽĳçĿ£": 5705,
      "éĽ¨": 5706,
      "ä¸įå¾Ĺä»İäºĭ": 5707,
      "ä¸Ńåįİäººæ°ĳåħ±åĴĮåĽ½å¢ĥåĨħ": 5708,
      "éĢłæĪĲæįŁå®³çļĦ": 5709,
      "è£ħåį¸": 5710,
      "èŀįåĲĪ": 5711,
      "åħ¬æ°ĳçļĦ": 5712,
      "198": 5713,
      "text": 5714,
      "2021": 5715,
      "æľ¬æĿ¡ç¬¬ä¸Ģæ¬¾": 5716,
      "å¢ŀåĢ¼ç¨İ": 5717,
      "16": 5718,
      "lo": 5719,
      "çļĦæĥħå½¢": 5720,
      "åĴĮåľ°æĸ¹": 5721,
      "ä¼´": 5722,
      "ä¸ºä»Ģä¹Ī": 5723,
      "ä½ĵåĪ¶": 5724,
      "åŃ¦æľ¯": 5725,
      "æľªå±¥è¡Į": 5726,
      "èĲ¨": 5727,
      "æī¿è®¤": 5728,
      "åĽ½åĬ¡éĻ¢æľīåħ³éĥ¨éĹ¨": 5729,
      "æ°´æŀľ": 5730,
      "è¯¥åħ¬åı¸": 5731,
      "çĶ³è¯·ä¹¦": 5732,
      "Ġtr": 5733,
      "Ġat": 5734,
      "è´£ä»¤åħ¶": 5735,
      "è¡¥æķĳ": 5736,
      "æ¯ĶèµĽ": 5737,
      "è¶³å¤Ł": 5738,
      "æĴ¤åĽŀ": 5739,
      "è§£åĨ³éĹ®é¢ĺ": 5740,
      "ç¬¬åħ«åįģæĿ¡": 5741,
      "æķĳåĬ©æĸ¹": 5742,
      "çĽ¸éĢĤåºĶçļĦ": 5743,
      "æĭĲåįĸ": 5744,
      "èĩªçĶ±è´¸æĺĵæ¸¯": 5745,
      "åı³": 5746,
      "åĴĮçľģ": 5747,
      "æĭ¿": 5748,
      "åĽ½å®¶æľīåħ³": 5749,
      "èģĮèĥ½": 5750,
      "å®īåħ¨åĴĮ": 5751,
      "åĪĳæľŁ": 5752,
      "ä»İéĩį": 5753,
      "ç¨İé¢Ŀ": 5754,
      "è®¤è¯Ĩ": 5755,
      "ä¸ĭåĪĹäºĭé¡¹": 5756,
      "èĩªæ²»åİ¿": 5757,
      "èĪ¹èĪ¶çļĦ": 5758,
      "æ°ĳäºĭæ³ķå¾ĭ": 5759,
      "è¿Ŀæ³ķæīĢå¾Ĺä¸įè¶³": 5760,
      "åºŁçī©çļĦ": 5761,
      "ç¬¬åħ«åįģäºĮæĿ¡": 5762,
      "çĶ¨æĪ·çļĦ": 5763,
      "çģ«çģ¾": 5764,
      "éĩİçĶŁåĬ¨çī©ä¿ĿæĬ¤": 5765,
      "ä¸Ĭå¸Ĥåħ¬åı¸": 5766,
      "å·®å¼Ĥ": 5767,
      "åī§æ¯Ĵ": 5768,
      "æīĺè¿Ĳäºº": 5769,
      "åī©ä½Ļ": 5770,
      "ä¸ĩåħĥä»¥ä¸Ĭåįģä¸ĩåħĥä»¥ä¸ĭçļĦç½ļæ¬¾": 5771,
      "æµ·åįĹèĩªçĶ±è´¸æĺĵæ¸¯": 5772,
      "è¯ģåĪ¸æĬķèµĦåŁºéĩĳæ³ķ": 5773,
      "Ġä¸ĢèĪ¬è§Ħå®ļ": 5774,
      "ĠM": 5775,
      "Ġæ¾³éĹ¨çī¹åĪ«è¡ĮæĶ¿åĮº": 5776,
      "ģåħį": 5777,
      "çļĦåĢºåĬ¡": 5778,
      "ä½³": 5779,
      "ä»¥åħ¶": 5780,
      "éĢĻ": 5781,
      "åľ¨ä¸Ģèµ·": 5782,
      "äºĭæĥħ": 5783,
      "æĪĲä¸ºäºĨ": 5784,
      "çŃīæĥħåĨµ": 5785,
      "äºĶæĹ¥åĨħ": 5786,
      "æĥħç»ª": 5787,
      "æĪĳè®¤ä¸º": 5788,
      "åıįæģĲæĢĸä¸»ä¹ī": 5789,
      "éĿŀçī©è´¨": 5790,
      "ä½łä»¬": 5791,
      "æĬķç¥¨": 5792,
      "æĴŀ": 5793,
      "æ±¡æŁĵçİ¯å¢ĥ": 5794,
      "é£Łåĵģæ·»åĬłåīĤ": 5795,
      "åºĶå½ĵåıĬæĹ¶åĲĳ": 5796,
      "å¹²æ¶ī": 5797,
      "è¾¹å¢ĥ": 5798,
      "ç¾¤ä½ĵ": 5799,
      "éĩĬæĶ¾": 5800,
      "æľīç»Ħç»ĩçĬ¯ç½ª": 5801,
      "ä»ª": 5802,
      "äººå£«": 5803,
      "ä¸Ģé¡¹": 5804,
      "æį·": 5805,
      "ä½ľæĪĺ": 5806,
      "å¹¶çĶ±": 5807,
      "ä¸»æĿĥ": 5808,
      "ä½įäºİ": 5809,
      "è°ĵ": 5810,
      "è¢«è°ĥæŁ¥": 5811,
      "éĺ²çĸ«": 5812,
      "çİ°éĩĳ": 5813,
      "ç¬¬åįģç«ł": 5814,
      "åĨľçĶ°": 5815,
      "åĲįåŃĹ": 5816,
      "çĶ³è¯·çļĦ": 5817,
      "éĻ¤äºĨ": 5818,
      "èĢĮè¨Ģ": 5819,
      "æł¼å¼ı": 5820,
      "æµģåĬ¨": 5821,
      "è¿Ĳè¾ĵçļĦ": 5822,
      "ä½ľåĩºåĨ³å®ļ": 5823,
      "æīĢå¾Ĺç¨İ": 5824,
      "æĬķèµĦäºº": 5825,
      "è±ģåħį": 5826,
      "Ġch": 5827,
      "åıªè¦ģ": 5828,
      "æ²³éģĵ": 5829,
      "ç§ĺä¹¦": 5830,
      "æ¹¾": 5831,
      "å£°æĺİ": 5832,
      "ä¸įåı¯æĬĹ": 5833,
      "å¯¹è¯ĿåĨħå®¹": 5834,
      "æ°´åľŁæµģå¤±": 5835,
      "åĽ½æ°ĳç»ıæµİåĴĮç¤¾ä¼ļåıĳå±ķè§ĦåĪĴ": 5836,
      "åĢ¾åĢĴ": 5837,
      "ç®ĢåįķçļĦ": 5838,
      "èĭ±éĽĦçĥĪå£«": 5839,
      "ear": 5840,
      "pr": 5841,
      "Ġåİ¿çº§ä»¥ä¸Ĭ": 5842,
      "ä¸Ļ": 5843,
      "çļĦçĶµå½±": 5844,
      "æľīæľ¬æ³ķ": 5845,
      "æľīå¾Īå¤ļ": 5846,
      "åºĶå½ĵæī¿æĭħèµĶåģ¿è´£ä»»": 5847,
      "å¤Ħäºİ": 5848,
      "çŃīæľīåħ³éĥ¨éĹ¨": 5849,
      "çŃīåĽłç´ł": 5850,
      "ä¸ªä½ĵ": 5851,
      "åŃ¦åİĨ": 5852,
      "éĩĳå±ŀ": 5853,
      "åĲįèªī": 5854,
      "æĮĩä»¤": 5855,
      "æĹłæŃ£å½ĵçĲĨçĶ±": 5856,
      "å¤Ħç½ļçļĦ": 5857,
      "åĬ³åĬ¨æ³ķ": 5858,
      "æĬ¥åĳĬçļĦ": 5859,
      "ĠĠĊ": 5860,
      "å¸®æĪĳ": 5861,
      "äº¤éĢļä¸»ç®¡éĥ¨éĹ¨": 5862,
      "åĪĳäºĭæ¡Īä»¶": 5863,
      "éĶĢåĶ®é¢Ŀ": 5864,
      "ä¸įåĲĮæĦı": 5865,
      "ç¬¬äºĮçĻ¾äºĶåįģ": 5866,
      "çĽĳæĬ¤äººçļĦ": 5867,
      "ount": 5868,
      "èİ·å¾ĹçļĦ": 5869,
      "ä¾Ŀæ³ķç»ĻäºĪæ²»å®īç®¡çĲĨå¤Ħç½ļ": 5870,
      "è´Łæľīè´£ä»»çļĦ": 5871,
      "å¥¹çļĦ": 5872,
      "éĤ®æĶ¿ä¼ģä¸ļ": 5873,
      "æ¥ļ": 5874,
      "æĶ¿åĬ¡å¤ĦåĪĨ": 5875,
      "éĿŀçī©è´¨æĸĩåĮĸéģĹäº§": 5876,
      "18": 5877,
      "æ³¡": 5878,
      "åºĶå½ĵåĮħæĭ¬": 5879,
      "èµĤ": 5880,
      "æĺ¯çĶ±": 5881,
      "ä¸īå¹´": 5882,
      "æĭ¼": 5883,
      "åĽ½å®¶æĪĸèĢħ": 5884,
      "åĵģè´¨": 5885,
      "æľīåħ³äººåĳĺ": 5886,
      "è¯·æ³¨æĦı": 5887,
      "æ³ķå¾ĭä¾Ŀæį®": 5888,
      "èĪĴ": 5889,
      "åıĹéĽĩ": 5890,
      "è¿Ľè¡Įæ£ĢæŁ¥": 5891,
      "æĮģç¥¨": 5892,
      "ç¤¾ä¼ļåĬĽéĩı": 5893,
      "çĬ¯åīįæ¬¾": 5894,
      "åº¦çļĦ": 5895,
      "åĬŀåħ¬": 5896,
      "åıĳå±ķçļĦ": 5897,
      "è´§åĢ¼": 5898,
      "æĪĳä»¬åºĶè¯¥": 5899,
      "åŁºéĩĳè´¢äº§": 5900,
      "æ¸ħæ¥ļ": 5901,
      "æ·ĺ": 5902,
      "æľŁéĻĲçļĦ": 5903,
      "æĺ¯åĲ¦åı¯ä»¥": 5904,
      "é¼ł": 5905,
      "èĩªçĦ¶çģ¾å®³": 5906,
      "ç¬¬ä¸ĥåįģä¹ĿæĿ¡": 5907,
      "ä¿ĥè¿Ľæ³ķ": 5908,
      "å®ŀéĻħæİ§åĪ¶": 5909,
      "æĺ¾ç¤º": 5910,
      "èĦ±": 5911,
      "æĪĲç«ĭçļĦ": 5912,
      "èĥģè¿«": 5913,
      "éĢ¾æľŁæľª": 5914,
      "åĪĿæŃ¥": 5915,
      "æģ¶åĬ£": 5916,
      "æ°§åĮĸ": 5917,
      "è´«åĽ°": 5918,
      "è¢«æī§è¡Įäºº": 5919,
      "æ¸ħæĻ°": 5920,
      "è´§åĢ¼éĩĳé¢Ŀ": 5921,
      "ep": 5922,
      "èļ": 5923,
      "Ġä»¥": 5924,
      "çļĦä»»åĬ¡": 5925,
      "æľ«": 5926,
      "åºĶå½ĵè½½æĺİ": 5927,
      "ä¸ĭçļĦ": 5928,
      "çī©ç§į": 5929,
      "åĢĳ": 5930,
      "åıĹåģ¿": 5931,
      "ç¬¬äºĮæ¬¡ä¿®æŃ£": 5932,
      "æī¿ç§Ł": 5933,
      "åĨľèį¯": 5934,
      "çĶŁæ´»çļĦ": 5935,
      "æŀĹåľ°": 5936,
      "åºĶå½ĵæĮīçħ§åĽ½åĬ¡éĻ¢": 5937,
      "ç¯¡": 5938,
      "è¯¯å¯¼": 5939,
      "ç»ĨèĬĤ": 5940,
      "éĻįçº§": 5941,
      "ä¸ªäººä¿¡æģ¯å¤ĦçĲĨ": 5942,
      "ĊĠĠĠ": 5943,
      "å¦¨å®³": 5944,
      "èĸª": 5945,
      "éĢ¾æľŁä¸įæĶ¹æŃ£çļĦ": 5946,
      "åĩºåįĸäºº": 5947,
      "ç¼Ķç»ĵæĪĸèĢħ": 5948,
      "æ·±åº¦åŃ¦ä¹ł": 5949,
      "åĨľä¸ļæĬĢæľ¯æİ¨å¹¿": 5950,
      "iz": 5951,
      "Ġun": 5952,
      "çļĦé£İéĻ©": 5953,
      "ä»°": 5954,
      "åĴĮå¤ĦçĲĨ": 5955,
      "åĴĮå¹³": 5956,
      "å¾½": 5957,
      "å½ĵåīį": 5958,
      "å½ĵåľº": 5959,
      "åĪĨçº§": 5960,
      "ç¬¬äºĮé¡¹": 5961,
      "ç¬¬ä¸Ģæ¬¡ä¿®æŃ£": 5962,
      "ä¹¦çļĦ": 5963,
      "éĿŀæĶ¿åºľ": 5964,
      "ä¿ĿéĻ©è´¹": 5965,
      "æĤ¨éľĢè¦ģ": 5966,
      "æī¿æĭħè¿ŀå¸¦è´£ä»»": 5967,
      "æµģè½¬": 5968,
      "æ¶Īæ¯Ĵ": 5969,
      "æķ´ä½ĵ": 5970,
      "åĻ¨åħ·": 5971,
      "åĨľä¸ļçĶŁäº§ç»ıèĲ¥": 5972,
      "åŃĹç¬¦": 5973,
      "ç§Łéĩĳ": 5974,
      "**ï¼ļ": 5975,
      "ç¬¬åħ«åįģä¸īæĿ¡": 5976,
      "å¤ĦäºĶå¹´ä»¥ä¸Ĭåįģå¹´ä»¥ä¸ĭæľīæľŁå¾ĴåĪĳ": 5977,
      "åĩºåı£ç®¡åĪ¶": 5978,
      "èĵĦ": 5979,
      "æĪĸèĢħä»¥åħ¶ä»ĸ": 5980,
      "æī£ç¼´ä¹īåĬ¡äºº": 5981,
      "å¹¶å¤ĦæĪĸèĢħåįķå¤Ħç½ļéĩĳ": 5982,
      "åĪłéĻ¤": 5983,
      "ç¯¡æĶ¹": 5984,
      "500": 5985,
      "è¿ħ": 5986,
      "åĴĮæĸĩåĮĸ": 5987,
      "å¾¡": 5988,
      "çºµ": 5989,
      "ä¸ĭçº§": 5990,
      "ä¸ĭæĿ¥": 5991,
      "æ±ģ": 5992,
      "å¾Ĺåĩº": 5993,
      "æľīåħ³åįķä½įåĴĮä¸ªäºº": 5994,
      "æŁ¥æĺİ": 5995,
      "çĽ¸å½ĵ": 5996,
      "ä»¥ä¸ĭæİªæĸ½": 5997,
      "é«ĺè´¨éĩı": 5998,
      "å¸Ĥè¾ĸ": 5999,
      "åİŁæĸĻ": 6000,
      "ä¸įå¾Ĺåľ¨": 6001,
      "çłĤ": 6002,
      "è¿ĺéľĢè¦ģ": 6003,
      "ĠåĽ½å®¶æĶ¯æĮģ": 6004,
      "åĬ³åĬ¨è¡ĮæĶ¿éĥ¨éĹ¨": 6005,
      "ä¿®å»º": 6006,
      "æľīæĿĥå¯¹": 6007,
      "è¿½æ±Ĥ": 6008,
      "æĦŁè°¢": 6009,
      "è¡ĮæĶ¿æ³ķè§Ħè§Ħå®ļçļĦåħ¶ä»ĸ": 6010,
      "æĪĲåĳĺå¤§ä¼ļ": 6011,
      "è¿Ŀæ³ķæīĢå¾ĹæĪĸèĢħ": 6012,
      "ç§ģèĩª": 6013,
      "çĶµåŃĲéĤ®ä»¶": 6014,
      "çļĦäººèº«": 6015,
      "çŁ¿ä¸ļ": 6016,
      "ç¬¬åħ«åįģåĽĽæĿ¡": 6017,
      "åħħæ»¡": 6018,
      "art": 6019,
      "çŁ¥è¯ĨåĴĮ": 6020,
      "å¼łåħĪçĶŁ": 6021,
      "è¯Ńè¨ĢæĸĩåŃĹ": 6022,
      "åĲ«ä¹ī": 6023,
      "åįıè°ĥæľºåĪ¶": 6024,
      "ç¤¾ä¼ļä¿ĿéĻ©ç»ıåĬŀ": 6025,
      "å°Ĭä¸¥": 6026,
      "ä»¥å¤ĸçļĦåħ¶ä»ĸ": 6027,
      "èģĺçĶ¨": 6028,
      "imes": 6029,
      "åįģäºĶæĹ¥ä»¥ä¸ĭæĭĺçķĻ": 6030,
      "åĭĺæŁ¥": 6031,
      "åĳ¨å²ģçļĦ": 6032,
      "ä¹°åıĹäºº": 6033,
      "åĽ½åľŁç©ºéĹ´": 6034,
      "ber": 6035,
      "äºĳ": 6036,
      "çļĦæİªæĸ½": 6037,
      "çļĦé¢Ĩå¯¼": 6038,
      "ãĢĤ-": 6039,
      "åĴĮä¿ĿæĬ¤": 6040,
      "åĩ¡": 6041,
      "æĪĲäº¤": 6042,
      "çŃīäºĭé¡¹": 6043,
      "åĲĮçŃī": 6044,
      "æģ¤": 6045,
      "è´¢çī©çļĦ": 6046,
      "ç»Ļä»ĸäºº": 6047,
      "æµ·æįŁ": 6048,
      "åıįå¯¹": 6049,
      "åĪĴåĪĨ": 6050,
      "æĹłå®³": 6051,
      "å¤ļçļĦ": 6052,
      "å¤ļæķ°": 6053,
      "åıĤèĢĥ": 6054,
      "è§ĦåĪĴåĴĮ": 6055,
      "å¸¸åĬ¡å§Ķåĳĺä¼ļä¼ļè®®": 6056,
      "åħ¬åħ±åĽ¾ä¹¦é¦Ĩ": 6057,
      "åħįè´¹": 6058,
      "åĨįå®¡": 6059,
      "æ¼«": 6060,
      "åĽ½éĺ²åĬ¨åĳĺ": 6061,
      "å½ĵåľ°çļĦ": 6062,
      "åĲ«æľī": 6063,
      "å¢ĥå¤ĸéĿŀæĶ¿åºľ": 6064,
      "ç³ĸæŀľ": 6065,
      "ç¾¤ä¼ĹæĢ§": 6066,
      "å¤Ħä»¥ç½ļæ¬¾": 6067,
      "è®²è¿°": 6068,
      "å¼Ĥè®®çļĦ": 6069,
      "çļĦçĬ¯ç½ªåĪĨåŃĲ": 6070,
      "å°ļä¸įæŀĦæĪĲçĬ¯ç½ªçļĦ": 6071,
      "ªèĮĦ": 6072,
      "åĪļ": 6073,
      "çĶļ": 6074,
      "åĴĮå®ĮåĸĦ": 6075,
      "ä¼½": 6076,
      "èĢĲ": 6077,
      "åįģä¸Ģ": 6078,
      "å¹»": 6079,
      "å¹ħ": 6080,
      "æĹ§": 6081,
      "åºĶå½ĵåĪ¶å®ļ": 6082,
      "ç½Ĺ": 6083,
      "ä¸Ńèį¯": 6084,
      "å·¥äºº": 6085,
      "ä½ľèĢħ": 6086,
      "é¢Ĺ": 6087,
      "æĹ¶çļĦ": 6088,
      "èģĬ": 6089,
      "æī¿åħĳ": 6090,
      "ç¬¬ä¸īé¡¹": 6091,
      "éĢĤå®ľ": 6092,
      "é¢Ĩé¦Ĩ": 6093,
      "æł¸æŁ¥": 6094,
      "æľīæĿĥè¯·æ±Ĥ": 6095,
      "è·¯çº¿": 6096,
      "éĢĢåĩºçİ°": 6097,
      "æ¶īå¤ĸ": 6098,
      "çĶŁæ´»ä¸Ń": 6099,
      "æ¯ıä¸Ģ": 6100,
      "æĪĲåĳĺçļĦ": 6101,
      "å®£å¸ĥ": 6102,
      "åĨĽäººä¿ĿéĻ©": 6103,
      "äººæĪĸèĢħåħ¶": 6104,
      "å¿«éĢĴ": 6105,
      "act": 6106,
      "å©ļå§»åħ³ç³»": 6107,
      "æīĢéľĢçļĦ": 6108,
      "æĹħè¡Įç¤¾": 6109,
      "ä¾Ŀæ³ķå±¥è¡ĮèģĮè´£": 6110,
      "æ¸ħæ´ģçĶŁäº§": 6111,
      "çĲĨäºĭä¼ļ": 6112,
      "å®ļç½ªå¤Ħç½ļ": 6113,
      "è´¢åĬ¡ä¼ļè®¡æĬ¥åĳĬ": 6114,
      "éĢĢåĩºçİ°å½¹": 6115,
      "ve": 6116,
      "Ġä¸º": 6117,
      "çļĦåİŁåĽł": 6118,
      "åĪº": 6119,
      "å®ļä¹ī": 6120,
      "å¯¿": 6121,
      "æĪĸèĢħå¯¹": 6122,
      "åºĶå½ĵåĿļæĮģ": 6123,
      "æıĴ": 6124,
      "ä»»åĳ½": 6125,
      "çĽĳè§Ĩ": 6126,
      "æ´ŀ": 6127,
      "åĢ¡": 6128,
      "å·¥ä½ľæľºæŀĦ": 6129,
      "ä¾Ŀæ³ķäº«æľī": 6130,
      "ä¹ĭå¤ĸ": 6131,
      "åİŁçĬ¶": 6132,
      "æĬĢæľ¯åĴĮ": 6133,
      "çĶ³è¯·è¡ĮæĶ¿å¤įè®®": 6134,
      "æº¯": 6135,
      "ä½łè®¤ä¸º": 6136,
      "ä¼łæī¿": 6137,
      "ä¼łè¾ĵ": 6138,
      "ĠåĽ½å®¶å»ºç«ĭåģ¥åħ¨": 6139,
      "åı¯èĥ½éľĢè¦ģ": 6140,
      "è®©æĪĳä»¬": 6141,
      "åıĳçĶŁéĩįå¤§": 6142,
      "èģĮä¸ļåŁ¹è®Ń": 6143,
      "å®¹åĻ¨": 6144,
      "ç»´æĮģ": 6145,
      "èĳ±": 6146,
      "å°ıæĺİåľ¨": 6147,
      "æįŁå®³èµĶåģ¿": 6148,
      "è§Ĥå¯Ł": 6149,
      "ä¸ĩåħĥä»¥ä¸ĬçļĦ": 6150,
      "ç»Īç»ĵ": 6151,
      "è¯´æĺİçĲĨçĶ±": 6152,
      "èģĺä»»": 6153,
      "æ±Łæ²³": 6154,
      "å¼ķæ¸¡è¯·æ±Ĥ": 6155,
      "æķĪçİĩåĴĮ": 6156,
      "é»ĳåľŁåľ°": 6157,
      "tep": 6158,
      "ç¼ĵåĪĳ": 6159,
      "çĳľ": 6160,
      "æ²¿æµ·": 6161,
      "åī¥å¤ºæĶ¿æ²»æĿĥåĪ©": 6162,
      "ef": 6163,
      "nd": 6164,
      "ple": 6165,
      "é¹": 6166,
      "Ġå¯¹äºİ": 6167,
      "çŃīçĽ¸åħ³": 6168,
      "å¹¶åħ¬å¸ĥ": 6169,
      "è¿ĩåİ»": 6170,
      "è½¨": 6171,
      "ä¿¡åı·": 6172,
      "ä¾Ľæ°´": 6173,
      "è¢«æ£ĢæŁ¥": 6174,
      "è¢«çĶ³è¯·äºº": 6175,
      "æľįä»İ": 6176,
      "ç»ıèĲ¥æ´»åĬ¨": 6177,
      "çĽ´åĪ°": 6178,
      "çľł": 6179,
      "åĬŀåŃ¦": 6180,
      "ä¸ĭåĪĹæĥħå½¢": 6181,
      "æİ§èĤ¡": 6182,
      "éħįå¥Ĺ": 6183,
      "æķĳæ²»": 6184,
      "åħ¬åħ±æľįåĬ¡": 6185,
      "æ¯ıå¤©": 6186,
      "æľªæĪĲå¹´åŃĲå¥³": 6187,
      "ç¼´è´¹": 6188,
      "éĶĢåĶ®èĢħ": 6189,
      "åĲĪä¼Ļåįıè®®": 6190,
      "çĶµåŃĲè®¤è¯ģ": 6191,
      "é¢Ħéĺ²æľªæĪĲå¹´äºº": 6192,
      "ions": 6193,
      "ical": 6194,
      "è´¦ç°¿": 6195,
      "å®īåħ¨çĶŁäº§æ³ķ": 6196,
      "è¡¨çİ°ä¸º": 6197,
      "çĶ·å¥³": 6198,
      "æĪĴä¸¥": 6199,
      "åħ¨ä½ĵä¼ļè®®": 6200,
      "éĨĴ": 6201,
      "ult": 6202,
      "åºĶå½ĵèĩªæĶ¶åĪ°": 6203,
      "åŁºéĩĳæīĺç®¡äºº": 6204,
      "ä¸Ĭå¸Ĥè®¸åı¯æĮģæľīäºº": 6205,
      "ç»ĳæŀ¶": 6206,
      "ä»İéĩįå¤Ħç½ļ": 6207,
      "çĶļèĩ³": 6208,
      "çĳľä¼½": 6209,
      "AN": 6210,
      "ike": 6211,
      "Ġåħ¬æ°ĳ": 6212,
      "ĺæī¬": 6213,
      "æľĿ": 6214,
      "äººæł¼": 6215,
      "çī²": 6216,
      "äºĮå¹´": 6217,
      "åıĳéĢģ": 6218,
      "çŃīå·¥ä½ľ": 6219,
      "æł¹æį®ä»¥ä¸Ĭ": 6220,
      "å·¥ä½ľéľĢè¦ģ": 6221,
      "ä»¥ä¸ĭçļĦç½ļæ¬¾": 6222,
      "åķĨæĬķèµĦ": 6223,
      "æĬĢæľ¯çļĦ": 6224,
      "ä¸ªäººçļĦ": 6225,
      "åĨĽäººçļĦ": 6226,
      "ä¾Ŀçħ§åĪĳæ³ķ": 6227,
      "ä¹Łæľī": 6228,
      "è¯īè®¼æĹ¶æķĪ": 6229,
      "è´£ä»¤åģľä¸ļæķ´é¡¿": 6230,
      "ä¸ŃåĽ½åħ¬æ°ĳ": 6231,
      "æīĭæľ¯": 6232,
      "æ²¡æľīè¿Ŀæ³ķæīĢå¾ĹæĪĸèĢħ": 6233,
      "èĩ´äºº": 6234,
      "çº¦å®ļä¸į": 6235,
      "è¿Ļä¸ªéĹ®é¢ĺ": 6236,
      "æħİ": 6237,
      "èµĦæĸĻçļĦ": 6238,
      "å¾ĭå¸ĪäºĭåĬ¡æīĢ": 6239,
      "åĮºåŁŁåĨħ": 6240,
      "åĽ½å®¶å®īåħ¨æľºåħ³": 6241,
      "æīĵåĩ»": 6242,
      "Ġ||": 6243,
      "ä¸ĵåĪ©æĿĥ": 6244,
      "ç»Łè®¡è°ĥæŁ¥": 6245,
      "çħ¤çŁ¿": 6246,
      "2022": 6247,
      "è¯ļä¿¡": 6248,
      "çªģåĩºè´¡çĮ®": 6249,
      "åīįæıĲä¸ĭ": 6250,
      "å¢ĥå¤ĸéĿŀæĶ¿åºľç»Ħç»ĩ": 6251,
      "Jo": 6252,
      "lu": 6253,
      "ĠG": 6254,
      "ĠçĶ³è¯·": 6255,
      "çļĦè´¹çĶ¨": 6256,
      "çļĦæķħäºĭ": 6257,
      "æĿ°": 6258,
      "ä¿Ĺ": 6259,
      "æĪĸèĢħæľī": 6260,
      "åľ¨æŃ¤": 6261,
      "åºĶå½ĵä»¥": 6262,
      "å¼ĺæī¬": 6263,
      "åľ°åĪ¶": 6264,
      "å¤§å°ı": 6265,
      "åĮºåĴĮ": 6266,
      "å·¥ä½ľä¸»ç®¡éĥ¨éĹ¨": 6267,
      "è¿Ŀè§Ħ": 6268,
      "æĶ¶åıĹ": 6269,
      "æıĲä¾ĽèĻļåģĩ": 6270,
      "æĮīçħ§åĽ½å®¶è§Ħå®ļ": 6271,
      "æľįçİ°å½¹": 6272,
      "çĤĴ": 6273,
      "è¯ģåĪ¸çĻ»è®°": 6274,
      "åħĪè¡Į": 6275,
      "èĻ«": 6276,
      "èµĦæºĲçļĦ": 6277,
      "æĦŁè§ī": 6278,
      "åĪĽæĦı": 6279,
      "åı¦ä¸Ģ": 6280,
      "æļĹ": 6281,
      "æĸĩä»¶åĴĮ": 6282,
      "è¾ĥå¤§çļĦ": 6283,
      "ç¦»å©ļåĲİ": 6284,
      "æĬĹè¯ī": 6285,
      "æĬļæģ¤": 6286,
      "åŁİä¹¡å»ºè®¾": 6287,
      "éĢĲæ¸Ĳ": 6288,
      "èĭ¥å¹²": 6289,
      "ĠåĽ½å®¶é¼ĵåĬ±åĴĮæĶ¯æĮģ": 6290,
      "è¡Ģæ¶²": 6291,
      "åĨĴéĻ©": 6292,
      "æ°ĶåĢĻåıĺåĮĸ": 6293,
      "è°ĭåıĸ": 6294,
      "åıĳèµ·äºº": 6295,
      "æľīéĻĲè´£ä»»åħ¬åı¸": 6296,
      "è¡¥æķĳæİªæĸ½": 6297,
      "ä¸įåı¯æĬĹåĬĽ": 6298,
      "Tom": 6299,
      "ies": 6300,
      "åĴĮåĪ©çĽĬ": 6301,
      "åĽ½çķĮ": 6302,
      "åºĶæĶ¶": 6303,
      "æĪĸèĢħéĩįå¤§": 6304,
      "ç»ıåħ¸": 6305,
      "åĩºçĶŁ": 6306,
      "çī©æĿĥ": 6307,
      "æ±°": 6308,
      "èĤĸ": 6309,
      "æŁ¥çľĭ": 6310,
      "åĬłå¤§": 6311,
      "æĹ¥åīį": 6312,
      "ç¤¾ä¼ļä¿Ŀéļľ": 6313,
      "æĤ¬": 6314,
      "ä¿¡æģ¯ç³»ç»Ł": 6315,
      "ç»ıèĲ¥è®¸åı¯è¯ģ": 6316,
      "åģ¥èº«": 6317,
      "è¿ĺæ¬¾": 6318,
      "åĨľä¸ļçĶŁäº§": 6319,
      "åħ±åĲĮæµ·æįŁ": 6320,
      "ä¸ĩåħĥä»¥ä¸ĬäºĮçĻ¾": 6321,
      "å·¥ç¨ĭå»ºè®¾": 6322,
      "ç¬¬åħ«åįģä¹ĿæĿ¡": 6323,
      "å»ºçŃĳå·¥ç¨ĭ": 6324,
      "æ³¨åĨĮåķĨæłĩ": 6325,
      "æ·±åħ¥": 6326,
      "è´¦æ¬¾": 6327,
      "æī§æ³ķæľºæŀĦ": 6328,
      "åĲĬéĶĢèĲ¥ä¸ļæī§çħ§": 6329,
      "é¾Ļ": 6330,
      "è¡ĮæĶ¿å¤įè®®æľºåħ³": 6331,
      "æĢİä¹ĪåĬŀ": 6332,
      "è¿Ŀåıįæ²»å®īç®¡çĲĨè¡Įä¸ºçļĦ": 6333,
      "ä¸ªæĢ§åĮĸ": 6334,
      "èĤ¡ä»½æľīéĻĲåħ¬åı¸": 6335,
      "æ·ĺæ±°": 6336,
      "åľ°åĪ¶å®ľ": 6337,
      "Ġå¤ĸåĽ½": 6338,
      "Ġus": 6339,
      "çļĦçĽĳçĿ£ç®¡çĲĨ": 6340,
      "ç¬ĳ": 6341,
      "æľīä¸Ģä¸ª": 6342,
      "å°¼": 6343,
      "å°ĺ": 6344,
      "ä¿Ŀåį«": 6345,
      "æı½": 6346,
      "å¹¶äºĪä»¥": 6347,
      "èĩªæĶ¶åĪ°": 6348,
      "çħ®": 6349,
      "è¡¨æ¼Ķ": 6350,
      "åĽłåľ°åĪ¶å®ľ": 6351,
      "å®¡å®ļ": 6352,
      "çİ°è±¡": 6353,
      "éĿ¢å¯¹": 6354,
      "è´ŁåĢº": 6355,
      "ä¸įå¾ĹæĭĴç»Ŀ": 6356,
      "çĽ´èĩ³": 6357,
      "åģ¿è¿ĺ": 6358,
      "åĨ³å®ļä¹¦": 6359,
      "ä¸Ģä¸ªæľĪ": 6360,
      "åı£å¤´": 6361,
      "ç»ĻäºĪè¡¨å½°": 6362,
      "æıĲåĩºæĦıè§ģ": 6363,
      "åıĳçĶŁæ³ķå¾ĭæķĪåĬĽ": 6364,
      "èĩªæ²»æľºåħ³": 6365,
      "é£İéĻ©ç®¡æİ§": 6366,
      "ç¾İé£Ł": 6367,
      "all": 6368,
      "å®¡æŁ¥åĴĮ": 6369,
      "é¢Ħéĺ²æİ¥ç§į": 6370,
      "æĻ®éģį": 6371,
      "åı°æ¹¾": 6372,
      "ç¬¬åħ«åįģäºĶæĿ¡": 6373,
      "äººåºĶå½ĵåľ¨": 6374,
      "è½»çļĦ": 6375,
      "æľŁè´§ç»ıèĲ¥": 6376,
      "æī¿è¿ĲäººçļĦ": 6377,
      "è¡Ķæİ¥": 6378,
      "ç¨İæĶ¶ä¼ĺæĥł": 6379,
      "æ²¡æľīè¿Ŀæ³ķæīĢå¾ĹæĪĸèĢħè¿Ŀæ³ķæīĢå¾Ĺä¸įè¶³": 6380,
      "14": 6381,
      "çĴ": 6382,
      "Ġle": 6383,
      "ä¸¢": 6384,
      "ãĢĤ\\": 6385,
      "ä¸įæĪĲçļĦ": 6386,
      "æīĢç»Ļ": 6387,
      "çĶ±åĽ½å®¶": 6388,
      "å·¥ä½ľåĴĮ": 6389,
      "æľªåıĬæĹ¶": 6390,
      "åĨħå¹ķ": 6391,
      "é«ĺåº¦": 6392,
      "å¼ºè¿«": 6393,
      "éĩĩåıĸæľīæķĪæİªæĸ½": 6394,
      "èĢĮä¸įæĺ¯": 6395,
      "æĶ¾åľ¨": 6396,
      "ä¹Łä¼ļ": 6397,
      "ç¬¦åĲĪæĿ¡ä»¶çļĦ": 6398,
      "èĮĥåĽ´åĴĮ": 6399,
      "èī²çļĦ": 6400,
      "è®¾å¤ĩåĴĮ": 6401,
      "ord": 6402,
      "äºĭé¡¹çļĦ": 6403,
      "è´§çī©è¿Ĳè¾ĵ": 6404,
      "ä¹ĭæĹ¥èµ·ä¸īåįģæĹ¥åĨħ": 6405,
      "è°ĥè§£ä¹¦": 6406,
      "åŁºæľ¬åħ»èĢģä¿ĿéĻ©": 6407,
      "ç®Ģæĺĵ": 6408,
      "èĮĥåĽ´åĨħçļĦ": 6409,
      "è®¤å®ļä¸º": 6410,
      "æįĲèµłäºº": 6411,
      "ç¼´çº³çļĦ": 6412,
      "é£Łåĵģå®īåħ¨çĽĳçĿ£ç®¡çĲĨéĥ¨éĹ¨": 6413,
      "å¾®çĶŁçī©": 6414,
      "åłĨ": 6415,
      "éĿ©åĳ½": 6416,
      "ä¿¡çĶ¨åį¡": 6417,
      "äº¤éĢļè¿Ĳè¾ĵä¸»ç®¡éĥ¨éĹ¨": 6418,
      "ç¤¾åĮºçŁ«æŃ£å¯¹è±¡": 6419,
      "è¾ŀèģĮ": 6420,
      "åĬŀäºĭå¤Ħ": 6421,
      "å·¥åķĨè¡ĮæĶ¿ç®¡çĲĨéĥ¨éĹ¨": 6422,
      "æ°ĳåĬŀåŃ¦æł¡": 6423,
      "çŁ¥æĤīçļĦ": 6424,
      "åľŁåľ°åĪ©çĶ¨æĢ»ä½ĵè§ĦåĪĴ": 6425,
      "å®łçī©": 6426,
      "Ø§": 6427,
      "Ġ*": 6428,
      "ĠN": 6429,
      "Ġk": 6430,
      "äº®": 6431,
      "çļĦé£Łåĵģ": 6432,
      "åĴĮäººæ°ĳ": 6433,
      "æľīåºı": 6434,
      "æĪĸèĢħæĹłæľŁå¾ĴåĪĳ": 6435,
      "æĪĸèĢħåıĺçĽ¸": 6436,
      "ä¸įè¿ĩ": 6437,
      "å¯¹è¢«": 6438,
      "æĿĥå±ŀ": 6439,
      "ï¼ļ-": 6440,
      "ç®¡çĲĨåĬŀæ³ķ": 6441,
      "æŀĦçŃĳ": 6442,
      "åĪĨè£Ĥ": 6443,
      "è¯·ç»Ļåĩº": 6444,
      "åĮºåĪ«": 6445,
      "å·¥ä½ľæĹ¶éĹ´": 6446,
      "ç¬¬ä¸īæ¬¾": 6447,
      "éľĢè¦ģçļĦ": 6448,
      "ä¿¡æģ¯åħ±äº«": 6449,
      "å½ĵäºĭäººå¯¹": 6450,
      "å±ħæīĢ": 6451,
      "çłĶåıĳ": 6452,
      "è¯ŃçļĦ": 6453,
      "åį³ä½¿": 6454,
      "ä¸¤ç§į": 6455,
      "åĢºæĿĥåĢºåĬ¡": 6456,
      "æīĢæľīåĪ¶": 6457,
      "ç¬¬åħ«åįģåħŃæĿ¡": 6458,
      "æ¶Īè´¹èĢħæĿĥçĽĬ": 6459,
      "ä¼łæŁĵçĹħéĺ²æ²»": 6460,
      "ĠĠĠĠĠĠ": 6461,
      "éĢĥéģ¿": 6462,
      "è·Łè¸ª": 6463,
      "åı¯æĮģç»Ńåıĳå±ķ": 6464,
      "ç²¾ç¥ŀéļľç¢įæĤ£èĢħ": 6465,
      "è¡ĹéģĵåĬŀäºĭå¤Ħ": 6466,
      "åĲĪéĢĤçļĦ": 6467,
      "å¡ĳæĸĻ": 6468,
      "éĿŀæ³ķäººç»Ħç»ĩ": 6469,
      "23": 6470,
      "ap": 6471,
      "low": 6472,
      "åĹ": 6473,
      "Ġ20": 6474,
      "å®ĩ": 6475,
      "æľīåģ¿": 6476,
      "åı¯ä»¥éĢīæĭ©": 6477,
      "åĬ¨æĢģ": 6478,
      "ç®¡çĲĨæľºåħ³": 6479,
      "è¡¨éĿ¢": 6480,
      "åĢĭ": 6481,
      "ä¿¡ä»°": 6482,
      "ç¤¾ä¼ļç§©åºı": 6483,
      "çķªèĮĦ": 6484,
      "éĻ¤éĿŀ": 6485,
      "æĹłåģ¿": 6486,
      "åľ°æĸ¹æĢ§æ³ķè§Ħ": 6487,
      "æĢ»çĲĨ": 6488,
      "æĸ¹å¼ıåĴĮ": 6489,
      "éĵħ": 6490,
      "è®©æĪĳ": 6491,
      "åĴĮåħ¶ä»ĸæľīåħ³éĥ¨éĹ¨": 6492,
      "å½ķåĥı": 6493,
      "æ°Ķä½ĵ": 6494,
      "åŁ¹èĤ²": 6495,
      "é¼ĵåĬ±åĴĮæĶ¯æĮģ": 6496,
      "ç»´æĬ¤èĩªå·±çļĦ": 6497,
      "æĺ¯æĮĩåľ¨": 6498,
      "åºĶçĶ¨äºİ": 6499,
      "çº¿è·¯": 6500,
      "Ġpr": 6501,
      "è¿½ç©¶æ³ķå¾ĭè´£ä»»": 6502,
      "åĵªä¸ª": 6503,
      "èģĮä¸ļçĹħéĺ²æĬ¤": 6504,
      "è¿ĶåĽŀ": 6505,
      "ä¾µæĿĥè¡Įä¸º": 6506,
      "éĺ³åħī": 6507,
      "äº¤éĢļè¿Ĳè¾ĵå·¥åħ·": 6508,
      "åĬ³åĬ¨äºīè®®ä»²è£ģå§Ķåĳĺä¼ļ": 6509,
      "ä¼ļè®¡å¸ĪäºĭåĬ¡æīĢ": 6510,
      "çıįè´µ": 6511,
      "å¿ĹæĦ¿èĢħ": 6512,
      "åºŁå¼ĥçī©": 6513,
      "åħ¬èģĮäººåĳĺ": 6514,
      "é©³åĽŀ": 6515,
      "çļĦæī§è¡Į": 6516,
      "ãĢģâĢľ": 6517,
      "å¹¸": 6518,
      "äºĮçº§": 6519,
      "çŃīé¢ĨåŁŁ": 6520,
      "ä¸»äºº": 6521,
      "æīĢè°ĵ": 6522,
      "ç®¡çĲĨæ³ķ": 6523,
      "éĢļèĪª": 6524,
      "å§Ĩ": 6525,
      "éĩįä¼¤": 6526,
      "å¤ĸåķĨæĬķèµĦ": 6527,
      "åıĹä¼¤": 6528,
      "éĶ»": 6529,
      "åıįåŀĦæĸŃ": 6530,
      "ä¼ģä¸ļçł´äº§": 6531,
      "ä¸įå¾ĹåĲĳ": 6532,
      "æĮĩç¤º": 6533,
      "åĲĦä¸ª": 6534,
      "æĹłåħ³": 6535,
      "è´¢äº§å®īåħ¨": 6536,
      "è¿ĺåºĶå½ĵ": 6537,
      "éªĮè¯ģ": 6538,
      "æ¶ĪèĢĹ": 6539,
      "ä¿Ŀéļľæİªæĸ½": 6540,
      "æ±¡æŁĵçī©çļĦ": 6541,
      "ç§ģäºº": 6542,
      "ä¿Ŀè¯ģéĩĳ": 6543,
      "ä¾Ŀæį®æľ¬æ³ķ": 6544,
      "èĳĹåĲįçļĦ": 6545,
      "çŁ¥éģĵæĪĸèĢħ": 6546,
      "éī´å®ļäºº": 6547,
      "åķĨä¸ļéĵ¶è¡Įæ³ķ": 6548,
      "è®¢ç«ĭçļĦ": 6549,
      "åŃ¦åīįæķĻèĤ²": 6550,
      "åĪĨæĶ¯æľºæŀĦ": 6551,
      "çĶµåŃĲåķĨåĬ¡å¹³åı°ç»ıèĲ¥èĢħ": 6552,
      "åŃĺç»ŃæľŁéĹ´": 6553,
      "26": 6554,
      "bers": 6555,
      "Ġen": 6556,
      "çļĦæĿ¡ä»¶": 6557,
      "ï¼ĮâĢľ": 6558,
      "è´¥": 6559,
      "çĽĪ": 6560,
      "è§Ħå¾ĭ": 6561,
      "åºĶå½ĵéĢļè¿ĩ": 6562,
      "èµı": 6563,
      "æĮ¯": 6564,
      "ä¸Ĭçº§äººæ°ĳæĶ¿åºľ": 6565,
      "åıĳè¡¨": 6566,
      "æ±Ľ": 6567,
      "å¤§åĪ©": 6568,
      "çĽ¸ä¿¡": 6569,
      "ä¿¡ä»»": 6570,
      "ç»Ļä½ł": 6571,
      "ç¬¬ä¸Ģå®¡": 6572,
      "éĻĲäºİ": 6573,
      "åķĨæ£Ģ": 6574,
      "ä¿¡æģ¯åĴĮ": 6575,
      "æĶ¾åħ¥": 6576,
      "è®¾æĸ½åĴĮ": 6577,
      "éĢłæĪĲä»ĸäºº": 6578,
      "åĪ¶åº¦åĴĮ": 6579,
      "éĢĢåĩº": 6580,
      "æĸĩåĮĸåĴĮ": 6581,
      "æĺ¯åĲ¦ç¬¦åĲĪ": 6582,
      "äºĭæķħéļĲæĤ£": 6583,
      "ç¢°": 6584,
      "å£°éŁ³": 6585,
      "ç§ĳåŃ¦æĬĢæľ¯çłĶç©¶å¼Ģåıĳ": 6586,
      "åĲ¸æ¯Ĵ": 6587,
      "ç¼ºéĻ·": 6588,
      "æĹłæķĪçļĦ": 6589,
      "ç§Łèµģçī©": 6590,
      "æģ¶æĦı": 6591,
      "äººæ°ĳè°ĥè§£å§Ķåĳĺä¼ļ": 6592,
      "æ°¸ä¹ħæĢ§": 6593,
      "ä¸ĩåħĥä»¥ä¸Ĭä¸ĢçĻ¾ä¸ĩåħĥä»¥ä¸ĭçļĦç½ļæ¬¾": 6594,
      "é¢Ħéĺ²æľªæĪĲå¹´äººçĬ¯ç½ª": 6595,
      "John": 6596,
      "éĶ»çĤ¼": 6597,
      "oc": 6598,
      "put": 6599,
      "é½": 6600,
      "Ġè¡ĮæĶ¿æľºåħ³": 6601,
      "çļĦæĢ»": 6602,
      "çļĦæľŁéĻĲ": 6603,
      "çļĦè´§çī©": 6604,
      "æ³ķæĿ¡": 6605,
      "å¼Ł": 6606,
      "å¯¹åľ¨": 6607,
      "åľ°å½¹": 6608,
      "èĥŀ": 6609,
      "å¹¶æ²¡æľī": 6610,
      "è¾£": 6611,
      "å®ŀçĶ¨": 6612,
      "å§Ĳ": 6613,
      "ä¸İä»ĸäºº": 6614,
      "æıĲä¾Ľæľīåħ³": 6615,
      "æĽ´åĩĨç¡®": 6616,
      "éĽĨä¼ļ": 6617,
      "ä¿®çĲĨ": 6618,
      "åıĬåħ¶å¸¸åĬ¡å§Ķåĳĺä¼ļ": 6619,
      "æ¡Īä»¶ä¸Ń": 6620,
      "Ġsh": 6621,
      "æ¸¸è¡Į": 6622,
      "æŀĦæĪĲè¿Ŀåıįæ²»å®īç®¡çĲĨè¡Įä¸ºçļĦ": 6623,
      "æ¤įè¢«": 6624,
      "ç®Ģç§°": 6625,
      "æľīä¸ĭåĪĹæĥħå½¢ä¹ĭä¸Ģ": 6626,
      "åĽ½æľīèµĦäº§": 6627,
      "åĲ¸æĶ¶": 6628,
      "å¯¹æĸ¹å½ĵäºĭäºº": 6629,
      "åľŁåľ°æī¿åĮħç»ıèĲ¥æĿĥ": 6630,
      "ä½ıæīĢåľ°": 6631,
      "ä¹¡éķĩäººæ°ĳæĶ¿åºľ": 6632,
      "é©»å¤ĸå¤ĸäº¤": 6633,
      "ä¾Ŀçħ§åīįæ¬¾çļĦè§Ħå®ļå¤Ħç½ļ": 6634,
      "åı¦æľīçº¦å®ļçļĦéĻ¤å¤ĸ": 6635,
      "çŁ¥éģĵæĪĸèĢħåºĶå½ĵçŁ¥éģĵ": 6636,
      "Ġä½¿çĶ¨": 6637,
      "ï¼ħ": 6638,
      "çļĦäººæ°ĳæĶ¿åºľ": 6639,
      "çļĦä¿ĿæĬ¤": 6640,
      "çļĦç»ĵæŀľ": 6641,
      "åĴĮå®ŀæĸ½": 6642,
      "åĴĮç¨ĭåºı": 6643,
      "æĪĸèĢħéĥ¨åĪĨ": 6644,
      "æĪĸèĢħåĩıè½»": 6645,
      "åľ¨åħ¶": 6646,
      "ä¸įåħ·æľī": 6647,
      "åŃ¤": 6648,
      "ï¼ļ```": 6649,
      "å®ŀçī©": 6650,
      "ä½ĵçİ°": 6651,
      "éĢļéģĵ": 6652,
      "å¥ĭ": 6653,
      "æľªä¾Ŀæ³ķ": 6654,
      "ç½ªè¡Į": 6655,
      "çĬ¬": 6656,
      "åĽ½åĬ¡éĻ¢æľŁè´§çĽĳçĿ£ç®¡çĲĨæľºæŀĦ": 6657,
      "æĦıå¤ĸ": 6658,
      "ç¡®éľĢ": 6659,
      "åķĬ": 6660,
      "åİŁåŃĲ": 6661,
      "ä¸įå¾Ĺå¯¹": 6662,
      "è´¨æĬ¼": 6663,
      "ä¸ĵèģĮ": 6664,
      "é¢ĦæĬ¥": 6665,
      "ä¿ĿéĻ©éĩĳ": 6666,
      "åı£åĳ³": 6667,
      "è¯Ħå®¡": 6668,
      "æľīæĿĥæĭĴç»Ŀ": 6669,
      "èİī": 6670,
      "éĩįå¤§æįŁå¤±çļĦ": 6671,
      "è¶ħåĩº": 6672,
      "è¶³ä»¥": 6673,
      "ç¾İåĳ³": 6674,
      "ä¹ĭæĹ¥èµ·è®¡ç®Ĺ": 6675,
      "äº§çĶŁäºĨ": 6676,
      "ç¬¬äºĮçĻ¾ä¹Ŀåįģ": 6677,
      "åĨĽäºĭç¦ģ": 6678,
      "æĸĩä»¶çļĦ": 6679,
      "æľªæĪĲå¹´äººä¿ĿæĬ¤æ³ķ": 6680,
      "ç»¼åĲĪåĪ©çĶ¨": 6681,
      "ä¸ĸçºª": 6682,
      "æ²ĻåĮĸ": 6683,
      "çļĦåħ·ä½ĵç½ªåĲį": 6684,
      "åį°ç«ł": 6685,
      "2018": 6686,
      "æĭĸå»¶": 6687,
      "æ¯ķä¸ļ": 6688,
      "åįļçī©": 6689,
      "åŁºéĩĳä»½é¢ĿæĮģæľīäººå¤§ä¼ļ": 6690,
      "åĳ¼åĲ¸": 6691,
      "æ°ĳäºĭæ³ķå¾ĭè¡Įä¸º": 6692,
      "17": 6693,
      "Bob": 6694,
      "ĠO": 6695,
      "çļĦä¸ªäºº": 6696,
      "å®ģ": 6697,
      "ä¸Ģå¹´åĨħ": 6698,
      "åľ¨è¯¥": 6699,
      "åºĶå½ĵä¸¥æł¼": 6700,
      "çĶŁåŃĺ": 6701,
      "åħ¬è¯ī": 6702,
      "ï¼īï¼ļ": 6703,
      "çŃīä¸»ç®¡éĥ¨éĹ¨": 6704,
      "æĹ¶ä»£": 6705,
      "ç®¡çĲĨå·¥ä½ľ": 6706,
      "å®ŀè´¨": 6707,
      "çĽĳå¤ĸ": 6708,
      "åŃ¦ä¼ļ": 6709,
      "ä»¥ä¸ĭæĺ¯ä¸Ģ": 6710,
      "æ¶µ": 6711,
      "çĶ³è¯·åĲİ": 6712,
      "è¿ĿåıįåĽ½å®¶è§Ħå®ļ": 6713,
      "èĢĮä¸į": 6714,
      "åĬ³åĬ¨æĬ¥éħ¬": 6715,
      "è´£ä»¤åģľäº§": 6716,
      "è®¸åı¯çļĦ": 6717,
      "å½ķéŁ³": 6718,
      "æĹ¶éĹ´åĨħ": 6719,
      "ç¤ºå¨ģ": 6720,
      "æŀĦæĪĲçĬ¯ç½ª": 6721,
      "ä»»ä½ķç»Ħç»ĩæĪĸèĢħä¸ªäºº": 6722,
      "è¶ħè¶Ĭ": 6723,
      "åıªæĺ¯": 6724,
      "Ġma": 6725,
      "å°½éĩı": 6726,
      "åı¯ä»¥å¸®åĬ©ä½ł": 6727,
      "èģĺè¯·": 6728,
      "æī§ä¸ļè¯ģä¹¦": 6729,
      "æĲľæŁ¥": 6730,
      "é¡¾éĹ®": 6731,
      "è¯·æł¹æį®æīĢç»Ļ": 6732,
      "æľ¬ç«łè§Ħå®ļ": 6733,
      "è¢«è¯·æ±Ĥå¼ķæ¸¡": 6734,
      "éĻĨåľ°åĽ½çķĮ": 6735,
      "æĬķä¿Ŀäºº": 6736,
      "ç¤¾ä¼ļä¿ĿéĻ©ç»ıåĬŀæľºæŀĦ": 6737,
      "è¯·æł¹æį®æīĢç»ĻçļĦåħ·ä½ĵç½ªåĲį": 6738,
      "Ġäººæ°ĳæ£Ģå¯ŁéĻ¢": 6739,
      "çļĦåħ¬åı¸": 6740,
      "éĢ»": 6741,
      "åħ³èģĶ": 6742,
      "æĪĸèĢħæ²¡æĶ¶è´¢äº§": 6743,
      "å·Ŀ": 6744,
      "åºĶå½ĵè¿Ľè¡Į": 6745,
      "åĩºæĿ¥": 6746,
      "çŃīæľįåĬ¡": 6747,
      "è¿ĩåº¦": 6748,
      "æĪĳåľ¨": 6749,
      "è¿Ľè¡ĮäºĨ": 6750,
      "æĶ¶èĹı": 6751,
      "è¿Ļæĺ¯ä¸Ģä¸ª": 6752,
      "æľ¬æ³ķè§Ħå®ļ": 6753,
      "åĽ½åĬ¡éĻ¢éĵ¶è¡Įä¸ļçĽĳçĿ£ç®¡çĲĨæľºæŀĦ": 6754,
      "ä»£è¡¨åĽ¢": 6755,
      "éĽ·": 6756,
      "æ°´åĪ©": 6757,
      "æĻĤ": 6758,
      "ç»ıèĲ¥ä¼ģä¸ļ": 6759,
      "èĬĤæ°´": 6760,
      "åĨĽçĶ¨": 6761,
      "æĹłæ°ĳäºĭè¡Įä¸ºèĥ½åĬĽ": 6762,
      "âĢĶ": 6763,
      "ç¨İçļĦ": 6764,
      "å±¥è¡ĮçļĦ": 6765,
      "ine": 6766,
      "åı£æĦŁ": 6767,
      "é£ŁçĶ¨": 6768,
      "åı¯èĥ½æĺ¯": 6769,
      "å¥³èģĮå·¥": 6770,
      "è°ĥæŁ¥å¤ĦçĲĨ": 6771,
      "çŃ¾è¯ģ": 6772,
      "æ»¡åįģ": 6773,
      "éĩįå¤§äºĭé¡¹": 6774,
      "åĲĪçĲĨåĪ©çĶ¨": 6775,
      "æī¿åĮħæĸ¹": 6776,
      "èµĦéĩĳçļĦ": 6777,
      "ç¬¬åħ«åįģä¸ĥæĿ¡": 6778,
      "æŀģç«¯": 6779,
      "åĲ¬è¯ģ": 6780,
      "ç¦»å©ļæĹ¶": 6781,
      "æ³¨åĨĮä¼ļè®¡å¸Ī": 6782,
      "æ£ĢéªĮæľºæŀĦ": 6783,
      "çĸĳä¼¼": 6784,
      "æ·±åĪ»": 6785,
      "ä¾Ŀæ³ķç»ĻäºĪè¡ĮæĶ¿å¤ĦåĪĨ": 6786,
      "ç¤¾ä¼ļä¿ĿéĻ©è´¹": 6787,
      "è¢«åĪ¤åĪĳ": 6788,
      "çİ¯å¢ĥå½±åĵįæĬ¥åĳĬ": 6789,
      "åħŃä¸ªæľĪåĨħ": 6790,
      "èģĮä¸ļçĹħéĺ²æ²»æ³ķ": 6791,
      "å·¨å¤§æĪĸèĢħæľīåħ¶ä»ĸ": 6792,
      "è¦ĨçĽĸ": 6793,
      "èĪĴéĢĤ": 6794,
      "çĬ¯åīįæ¬¾ç½ªçļĦ": 6795,
      "åįļçī©é¦Ĩ": 6796,
      "ere": 6797,
      "Ġè®¾ç«ĭ": 6798,
      "çļĦç¨ĭåºı": 6799,
      "æľīçĿĢ": 6800,
      "æľīçī¹æ®Ĭ": 6801,
      "ä¸įåħ·å¤ĩ": 6802,
      "ä¸įè®¾åĮºçļĦå¸Ĥ": 6803,
      "ä¸įåĲĪæł¼çļĦ": 6804,
      "åı¯ä»¥ä»İ": 6805,
      "åı¯ä»¥åĨ³å®ļ": 6806,
      "æıĲåĲį": 6807,
      "è¾¨": 6808,
      "éĩįçļĦ": 6809,
      "èĤ¤": 6810,
      "è®®ç¨ĭ": 6811,
      "ä½¿é¦Ĩ": 6812,
      "æĬ¥å¤į": 6813,
      "ä¸»ç®¡æľºæŀĦ": 6814,
      "è§Ħå®ļçļĦè¡Įä¸º": 6815,
      "å¼ºè°ĥ": 6816,
      "æķĻèĤ²æķĻåŃ¦": 6817,
      "æĹłçº¿": 6818,
      "åĽŀå¤į": 6819,
      "æĻºèĥ½å®¶å±ħ": 6820,
      "å¸®åĬ©æĤ¨": 6821,
      "ç§»æ°ĳ": 6822,
      "æĿĲæĸĻçļĦ": 6823,
      "å®ŀéĻħéľĢè¦ģ": 6824,
      "ç¬¬åħ«åįģåħ«æĿ¡": 6825,
      "éĽĨä½ĵæīĢæľīçļĦ": 6826,
      "é¦ĸæ¬¡": 6827,
      "çľŁæŃ£": 6828,
      "ich": 6829,
      "æ³ķäººåĴĮåħ¶ä»ĸç»Ħç»ĩ": 6830,
      "ä¸¤ä¸ªä»¥ä¸Ĭ": 6831,
      "çİ¯å¢ĥä¿ĿæĬ¤ä¸»ç®¡éĥ¨éĹ¨": 6832,
      "å®¢æĪ·çļĦ": 6833,
      "ime": 6834,
      "èĭ±æĸĩ": 6835,
      "æī©å»º": 6836,
      "åı¤ä»£": 6837,
      "è°ĪåĪ¤": 6838,
      "ress": 6839,
      "æĹ¥ç¬¬åįģä¸īå±Ĭåħ¨åĽ½äººæ°ĳä»£è¡¨å¤§ä¼ļå¸¸åĬ¡å§Ķåĳĺä¼ļ": 6840,
      "åľ¨åĮ»çĸĹé¢ĨåŁŁ": 6841,
      "å¤«å¦»åħ±åĲĮè´¢äº§": 6842,
      "æĶ»åĩ»": 6843,
      "è¯¦ç»ĨçļĦæİ¨çĲĨè¿ĩç¨ĭ": 6844,
      "åī§æ¯ĴåĮĸåŃ¦åĵģ": 6845,
      "31": 6846,
      "are": 6847,
      "Ġç»ıèĲ¥èĢħ": 6848,
      "çĶ¨å·¥": 6849,
      "æĪĸèĢħåı¯èĥ½": 6850,
      "æĪĸèĢħæĴ¤éĶĢ": 6851,
      "ä¸įéĶĻ": 6852,
      "ä¸įå®ľ": 6853,
      "åºĶå½ĵä¼ĺåħĪ": 6854,
      "ä¿Ŀå®Ī": 6855,
      "å¹¶ä¸º": 6856,
      "å¹¶ç»ı": 6857,
      "æľªä½ľ": 6858,
      "ç»Ħç»ĩç¼ĸåĪ¶": 6859,
      "åľºåľ°": 6860,
      "çĶµæĸĩ": 6861,
      "éĢīé¡¹": 6862,
      "å½¢è±¡": 6863,
      "é¢Ĩæµ·": 6864,
      "è®¾æĸ½å»ºè®¾": 6865,
      "ä¸ĭåĪĹæİªæĸ½": 6866,
      "æĥħèĬĤä¸¥éĩį": 6867,
      "å§ĶæīĺçļĦ": 6868,
      "Ġfrom": 6869,
      "æī£éĻ¤": 6870,
      "ç¬¬ä¹Ŀåįģä¸ĢæĿ¡": 6871,
      "å®¡åĪ¤äººåĳĺ": 6872,
      "ç¤¾ä¼ļä¿ĿéĻ©åŁºéĩĳ": 6873,
      "ach": 6874,
      "èģĶç³»æľºåħ³": 6875,
      "ä¸Ĭä¸Ģçº§äººæ°ĳæĶ¿åºľ": 6876,
      "å¿ĥçĲĨåģ¥åº·": 6877,
      "æ³ķæ²»å®£ä¼łæķĻèĤ²": 6878,
      "å®ŀéªĮå®¤": 6879,
      "ä¹ĭåĲİåĨį": 6880,
      "éŃĶ": 6881,
      "è¿Ŀæ³ķæīĢå¾Ĺä¸ĢåĢįä»¥ä¸ĬäºĶ": 6882,
      "åºĶæĶ¶è´¦æ¬¾": 6883,
      "ire": 6884,
      "çļĦçĽĳçĿ£": 6885,
      "çļĦè´¨éĩı": 6886,
      "çļĦçī©åĵģ": 6887,
      "åįģæĹ¥åĨħ": 6888,
      "ä¸įçŁ¥éģĵ": 6889,
      "åħ¬ç§¯": 6890,
      "åı¯ä»¥å§Ķæīĺ": 6891,
      "èĩªä¿¡": 6892,
      "åŃ¦ç§ĳ": 6893,
      "è°İ": 6894,
      "ä¾Ŀæ³ķåºĶå½ĵ": 6895,
      "æłĩæĺİ": 6896,
      "éĺ²å¾¡": 6897,
      "ä¼ģä¸ļäºĭä¸ļ": 6898,
      "ä¾Ŀçħ§æľīåħ³": 6899,
      "è®¤çľŁ": 6900,
      "æ³ķè§ĦåĴĮ": 6901,
      "æĢģåº¦": 6902,
      "ä¸ŃåĽ½çļĦ": 6903,
      "å®¢æľį": 6904,
      "å¼ķåıĳ": 6905,
      "æķ°æį®å®īåħ¨": 6906,
      "æķ°æį®çĶµæĸĩ": 6907,
      "ated": 6908,
      "èĩªçĦ¶ä¿ĿæĬ¤": 6909,
      "è¡ĮæĶ¿æ³ķè§ĦåĴĮ": 6910,
      "ç¬¬äºĮçĻ¾åħ«åįģ": 6911,
      "æĺ¯ä¸Ģéĥ¨": 6912,
      "åıĮæĸ¹å½ĵäºĭäºº": 6913,
      "å¤ĦäºĶæĹ¥ä»¥ä¸Ĭ": 6914,
      "æĺİç¡®è§Ħå®ļ": 6915,
      "äºīè®®çļĦ": 6916,
      "Ġequ": 6917,
      "çķľçī§": 6918,
      "ç»Ļåĩºåħ¶": 6919,
      "æ¬¢è¿İ": 6920,
      "æľºåĬ¨è½¦é©¾é©¶": 6921,
      "æļĤäºĪ": 6922,
      "åĲĦèĩªèģĮè´£èĮĥåĽ´åĨħ": 6923,
      "æĬ½æŁ¥": 6924,
      "ä¸ĩåħĥä»¥ä¸Ĭåįģä¸ĩåħĥä»¥ä¸ĭç½ļæ¬¾": 6925,
      "è½¬æį¢ä¸º": 6926,
      "æ®´æīĵ": 6927,
      "éĩįæķ´è®¡åĪĴèįīæ¡Ī": 6928,
      "å³°": 6929,
      "print": 6930,
      "èĤĸåĥı": 6931,
      "à¤": 6932,
      "çļĦç¤¾ä¼ļ": 6933,
      "çļĦå°ı": 6934,
      "åºĦ": 6935,
      "åı¯è¡Į": 6936,
      "åħ¬çº¦": 6937,
      "æŁĶ": 6938,
      "æ±ī": 6939,
      "å»ī": 6940,
      "èģĮä½į": 6941,
      "åıĸè¯ģ": 6942,
      "é¡µ": 6943,
      "äº¤çĶ±": 6944,
      "åįķä½įåĴĮ": 6945,
      "æĦıå¤§åĪ©": 6946,
      "éĩĩçŁ¿": 6947,
      "åķĨå®¶": 6948,
      "åİŁåĪ¤åĨ³": 6949,
      "æķĳçģ¾": 6950,
      "è¿½æº¯": 6951,
      "æīĢå¾ĹçļĦ": 6952,
      "èĭ¦": 6953,
      "ç§°ä¸º": 6954,
      "ä»²è£ģåįıè®®": 6955,
      "æĦŁæĥħ": 6956,
      "æĺ¯åĲ¦éľĢè¦ģ": 6957,
      "åŃĹæ¯į": 6958,
      "å®ĺæĸ¹": 6959,
      "ä»»ä½ķç»Ħç»ĩåĴĮä¸ªäºº": 6960,
      "orm": 6961,
      "äººå·¥æĻºèĥ½çļĦ": 6962,
      "éģĹå¼ĥ": 6963,
      "è¶³é¢Ŀ": 6964,
      "è¯Ħä¼°æľºæŀĦ": 6965,
      "ç¬¬äºĮçĻ¾åĽĽåįģ": 6966,
      "åĲ¬èµ·æĿ¥": 6967,
      "æĮĩå¯¼åĴĮ": 6968,
      "éļıæľº": 6969,
      "æĢĿç»´": 6970,
      "åĪĨæŀĲåĴĮ": 6971,
      "å½ĵåľ°äººæ°ĳæĶ¿åºľ": 6972,
      "èĳ£äºĭéķ¿": 6973,
      "è¿ŀæİ¥": 6974,
      "äººèº«å®īåħ¨": 6975,
      "åĩĨç¡®æĢ§": 6976,
      "ä¸ŃåĽ½äººæ°ĳæŃ¦è£ħèŃ¦å¯Łéĥ¨éĺŁ": 6977,
      "åĭĺæİ¢": 6978,
      "ç¿»è¯ĳæĪĲ": 6979,
      "èĲ¥åĪ©æĢ§": 6980,
      "éĻªå®¡": 6981,
      "äººåĬĽèµĦæºĲ": 6982,
      "æĹłå®³åĮĸ": 6983,
      "è¯·ç»Ļåĩºè¯¦ç»ĨçļĦæİ¨çĲĨè¿ĩç¨ĭ": 6984,
      "ä¹ĭåĲİåĨįç»ĻåĩºçŃĶæ¡Ī": 6985,
      "è¯·ç»Ļåĩºè¯¦ç»ĨçļĦæİ¨çĲĨè¿ĩç¨ĭä¹ĭåĲİåĨįç»ĻåĩºçŃĶæ¡Ī": 6986,
      "Python": 6987,
      "age": 6988,
      "his": 6989,
      "ia": 6990,
      "python": 6991,
      "ĠåŃ¦æł¡": 6992,
      "Ġqu": 6993,
      "åĴĮè°": 6994,
      "æ°Ľ": 6995,
      "åºĶæł¹æį®": 6996,
      "æİī": 6997,
      "æľ¬éĥ¨éĹ¨": 6998,
      "å¹¶æľª": 6999,
      "å¦Ī": 7000,
      "ä¸İè¯¥": 7001,
      "å¿ĺ": 7002,
      "æī¿åıĹ": 7003,
      "æī¿éĶĢ": 7004,
      "è°ĥåº¦": 7005,
      "è°ĥèĬĤ": 7006,
      "ä¸įå¾Ĺå°ĳäºİ": 7007,
      "åĲĦéĥ¨éĹ¨": 7008,
      "ç±ĥ": 7009,
      "æĸ°åĵģç§į": 7010,
      "è¦ģæ±Ĥåħ¶": 7011,
      "æľĢéĩįè¦ģçļĦ": 7012,
      "ä»¤äºº": 7013,
      "æĻºæħ": 7014,
      "çľģçº§": 7015,
      "èİĵ": 7016,
      "åĲĪæ³ķçļĦ": 7017,
      "åħ±åĲĮä½ĵ": 7018,
      "åľºæīĢçļĦ": 7019,
      "åģĩè®¾": 7020,
      "ç»Łä¸Ģé¢Ĩå¯¼": 7021,
      "ç¬¬ä¹ĿåįģæĿ¡": 7022,
      "åī¯ä¸»å¸Ń": 7023,
      "ç»ŁçŃ¹åįıè°ĥ": 7024,
      "å¸¦æĿ¥äºĨ": 7025,
      "åĩºåħ·çļĦ": 7026,
      "ä¸ĩåħĥä»¥ä¸ĬäºĶåįģä¸ĩåħĥä»¥ä¸ĭç½ļæ¬¾": 7027,
      "èĴľ": 7028,
      "æľīå®³çī©è´¨": 7029,
      "åħ¬å¼ĢåĭŁéĽĨåŁºéĩĳçļĦ": 7030,
      "çĭ¬çī¹çļĦ": 7031,
      "æĪĸèĢħéĩĩåıĸåħ¶ä»ĸ": 7032,
      "æľŁè´§ç»ıèĲ¥æľºæŀĦ": 7033,
      "æļĤäºĪçĽĳå¤ĸ": 7034,
      "æĻºæħ§": 7035,
      "ib": 7036,
      "à®": 7037,
      "ĠÃ": 7038,
      "çļĦå®ŀæĸ½": 7039,
      "æĹĭ": 7040,
      "åºĶå½ĵå®ļæľŁ": 7041,
      "èµĮ": 7042,
      "å¸Ĳ": 7043,
      "åı¯ä»¥è®©": 7044,
      "åı¯ä»¥çĶ¨äºİ": 7045,
      "æľ¬ä¹¦": 7046,
      "çŃīåĨħå®¹": 7047,
      "çİĽ": 7048,
      "å¹¶æĬ¥": 7049,
      "å¤§éĻĨ": 7050,
      "èĪį": 7051,
      "æĪĳå°Ĩ": 7052,
      "åĮĸå·¥": 7053,
      "ç§įè´¨": 7054,
      "ä»£è¡¨æľºæŀĦ": 7055,
      "çĶµèĦĳ": 7056,
      "ind": 7057,
      "è¯īè®¼è¯·æ±Ĥ": 7058,
      "æĸ¹å¼ıçļĦ": 7059,
      "é¡»ç»ı": 7060,
      "åį±éĻ©çī©åĵģ": 7061,
      "åĲĪçĲĨæľŁéĻĲåĨħ": 7062,
      "çĪ¶äº²": 7063,
      "çļĦåħ¶ä»ĸæĥħå½¢": 7064,
      "è®¸åı¯è¯ģä»¶": 7065,
      "å½Ĵå±ŀ": 7066,
      "åĪĨéħįæĸ¹æ¡Ī": 7067,
      "æģ¢å¤įåİŁçĬ¶": 7068,
      "åĴ¨è¯¢ä¸ĵä¸ļ": 7069,
      "çĶ²åħ¬åı¸": 7070,
      "éĢļæĬ¥æī¹è¯Ħ": 7071,
      "ç±»åŀĭçļĦ": 7072,
      "è¯ļå®ŀ": 7073,
      "ç»ıå¸¸å±ħæīĢ": 7074,
      "ä¸Ģæ®µå¯¹è¯Ŀ": 7075,
      "åıĤåĬłçļĦåĽ½éĻħæĿ¡çº¦": 7076,
      "æĥħèĬĤè¾ĥè½»çļĦ": 7077,
      "ç®Ģæĺĵç¨ĭåºı": 7078,
      "99": 7079,
      "ç·": 7080,
      "çļĦæķĻèĤ²": 7081,
      "çĶľ": 7082,
      "åĴĮä¸į": 7083,
      "åĮĢ": 7084,
      "æĪĸèĢħçĶ±": 7085,
      "æĪĸèĢħéĿŀæ³ķ": 7086,
      "å¼¥": 7087,
      "èĥ¡": 7088,
      "çŃīæ³ķå¾ĭ": 7089,
      "å®ŀæĹ¶": 7090,
      "åĪĨåĮħ": 7091,
      "æ´¥": 7092,
      "æī¿æı½": 7093,
      "ä¹ĭæĹ¥": 7094,
      "æ²»æ²Ļ": 7095,
      "éĩĩä¼Ĳ": 7096,
      "æĽ´æŃ£": 7097,
      "çĽ¸åħ³è§Ħå®ļ": 7098,
      "æĢ»çļĦ": 7099,
      "ĠåĽ½å®¶æľºåħ³": 7100,
      "ä¼ļè®®çļĦ": 7101,
      "one": 7102,
      "ç¾ģ": 7103,
      "åıĳçĶŁäºĨ": 7104,
      "èģĮä¸ļæĬĢèĥ½": 7105,
      "è£ħé¥°": 7106,
      "ä»²è£ģè£ģåĨ³": 7107,
      "æĦŁåıĹ": 7108,
      "äº¤æĺĵçļĦ": 7109,
      "ç»´æĬ¤åĽ½å®¶": 7110,
      "é¥¼": 7111,
      "é¦ĸè¦ģ": 7112,
      "åŁ¹è®ŃåĴĮ": 7113,
      "æĬµè§¦": 7114,
      "Ġme": 7115,
      "éĿŀå¸¸éĩįè¦ģçļĦ": 7116,
      "å¦ĩå¥³èģĶåĲĪä¼ļ": 7117,
      "entence": 7118,
      "æİ¢è®¨": 7119,
      "æµ·æ´ĭçİ¯å¢ĥ": 7120,
      "èº«ä½ĵåģ¥åº·": 7121,
      "èĭ±è¯Ń": 7122,
      "ç¨³å®ļçļĦ": 7123,
      "åĲĳäººæ°ĳæ³ķéĻ¢èµ·è¯ī": 7124,
      "è´¿èµĤ": 7125,
      "è§Ĵèī²ä¿¡æģ¯": 7126,
      "èĸĦ": 7127,
      "æĦıæĢĿè¡¨ç¤º": 7128,
      "å¸¸è§ģçļĦ": 7129,
      "çĿ¡çľł": 7130,
      "ä¼ģä¸ļçł´äº§æ³ķ": 7131,
      "):": 7132,
      "com": 7133,
      "ie": 7134,
      "ile": 7135,
      "ºçī²": 7136,
      "Ġç»ı": 7137,
      "Ġè¢«": 7138,
      "å®«": 7139,
      "è¡į": 7140,
      "æľīä¸Ģ": 7141,
      "ä¼ļæľŁéĹ´": 7142,
      "æĪĸèĢħåĲĳ": 7143,
      "åºĶå½ĵæıĲä¾Ľ": 7144,
      "çº½": 7145,
      "èµĸ": 7146,
      "çīŁ": 7147,
      "çīºçī²": 7148,
      "åħ¬å¼ı": 7149,
      "åıĳçĶµ": 7150,
      "æıĲåĪ°": 7151,
      "æıĲåŃĺ": 7152,
      "å¹¶ç¡®ä¿Ŀ": 7153,
      "è¿Ľå±ķ": 7154,
      "æĬ¥è¡¨": 7155,
      "åĪ°åľº": 7156,
      "è¿ĻæĦıåĳ³çĿĢ": 7157,
      "éĺ²æ±Ľ": 7158,
      "æĿ¥èĩª": 7159,
      "ä¸ĵæ³¨": 7160,
      "çĹĽ": 7161,
      "èī¾": 7162,
      "è·³": 7163,
      "æĺĵçĩĥ": 7164,
      "è¯īè®¼ä»£çĲĨäºº": 7165,
      "ç½ĳä¿¡": 7166,
      "é©±": 7167,
      "æ¯ıå±Ĭ": 7168,
      "ang": 7169,
      "å¹¶å¤Ħåįģ": 7170,
      "çº¿ç´¢": 7171,
      "éĤ£äºĽ": 7172,
      "åĪ¤åĨ³ä¹¦": 7173,
      "æĿİåħĪçĶŁ": 7174,
      "Ġint": 7175,
      "æ¶īåıĬåĪ°": 7176,
      "å»¶æľŁ": 7177,
      "ä¼ĺåħĪçº§": 7178,
      "éĢŁåº¦": 7179,
      "çİ©å®¶": 7180,
      "urn": 7181,
      "è§Ħç«łåĪ¶åº¦": 7182,
      "æĥ©ç½ļ": 7183,
      "æĺİçŁ¥æĺ¯": 7184,
      "é¥²åħ»": 7185,
      "Alice": 7186,
      "æĮģç¥¨äºº": 7187,
      "äºı": 7188,
      "æĹ¦": 7189,
      "æķĮ": 7190,
      "ä¸įåĪ©": 7191,
      "å°º": 7192,
      "æĭĵ": 7193,
      "æľ¬èº«": 7194,
      "æıĲåįķ": 7195,
      "è¯ģè¨Ģ": 7196,
      "æīĢéĻĦ": 7197,
      "çº§åĪ«": 7198,
      "è¿Ŀçºª": 7199,
      "æĶ¶ä¹°": 7200,
      "æģĭ": 7201,
      "æ£Ĵ": 7202,
      "åĬĽåº¦": 7203,
      "éľĢè¦ģæł¹æį®": 7204,
      "éľĢè¦ģè¿Ľè¡Į": 7205,
      "è¿Ĳä½ľ": 7206,
      "åīįå¾Ģ": 7207,
      "åĪĹåĩº": 7208,
      "äººçļĦåĲĪæ³ķæĿĥçĽĬ": 7209,
      "çĤİ": 7210,
      "çĽĳçĿ£ç®¡çĲĨçļĦéĥ¨éĹ¨": 7211,
      "æµģéĢļ": 7212,
      "åĶ¤": 7213,
      "æĻºèĥ½åĮĸ": 7214,
      "è£ħä¿®": 7215,
      "ç¤ºèĮĥ": 7216,
      "çĶŁæ´»åŀĥåľ¾": 7217,
      "å¼ĢåıĳåĴĮ": 7218,
      "è®¡åĪĴçĶŁèĤ²": 7219,
      "æĪĺæĹ¶": 7220,
      "è®¤ä¸ºæĺ¯": 7221,
      "æ¼ł": 7222,
      "å¹²éĥ¨": 7223,
      "åı·çłģ": 7224,
      "å½Ĵè¿ĺ": 7225,
      "éķĩçļĦäººæ°ĳä»£è¡¨å¤§ä¼ļ": 7226,
      "ç¿Ĵ": 7227,
      "row": 7228,
      "çļĦåħ·ä½ĵåĬŀæ³ķ": 7229,
      "é«ĺçº§äººæ°ĳæ³ķéĻ¢": 7230,
      "çĶ·æĸ¹": 7231,
      "Ġthis": 7232,
      "è¡¨åĨ³æĿĥ": 7233,
      "çİ°åľºæ£ĢæŁ¥": 7234,
      "åŃ¦ä½įæİĪäºĪ": 7235,
      "å¤§éĩıçļĦ": 7236,
      "èĴ¸": 7237,
      "æł¸è®¾æĸ½èĲ¥è¿Ĳ": 7238,
      "æĪªçķĻ": 7239,
      "æĲŃéħį": 7240,
      "ä¾Ŀçħ§åĪĳæ³ķæľīåħ³è§Ħå®ļ": 7241,
      "éĵħç¬Ķ": 7242,
      "yp": 7243,
      "à±": 7244,
      "éŀ": 7245,
      "Ġäººæ°ĳ": 7246,
      "çļĦèĥ½åĬĽ": 7247,
      "äººä¸İ": 7248,
      "å®ļä»·": 7249,
      "ä¸įå°ĳäºİ": 7250,
      "æıĲè®®": 7251,
      "å¹¶ä¸İ": 7252,
      "å¹¶è¿Ľè¡Į": 7253,
      "æ±¤": 7254,
      "çĶ±æľīåħ³ä¸»ç®¡éĥ¨éĹ¨": 7255,
      "å¥¥": 7256,
      "æ¡Ĩ": 7257,
      "äº¤æį¢": 7258,
      "æ¡Īä¾ĭ": 7259,
      "è¿ĲéĢģ": 7260,
      "ä¸ĵåįĸ": 7261,
      "è§Ħå®ļçļĦæĿĥéĻĲ": 7262,
      "æĹłäºº": 7263,
      "ä½Ĩåľ¨": 7264,
      "å½¢çĬ¶": 7265,
      "åıĳå±ķåĴĮ": 7266,
      "Ġad": 7267,
      "æī¿æĭħçĽ¸åºĶçļĦ": 7268,
      "éĵº": 7269,
      "æİ¨éĢī": 7270,
      "æķ´çĲĨ": 7271,
      "å¾ģå¾Ĺ": 7272,
      "æĪ¿åŃĲ": 7273,
      "æŀĦæĪĲæľ¬ç½ª": 7274,
      "åºŁæŃ¢": 7275,
      "å±ħæ°ĳèº«ä»½è¯ģ": 7276,
      "çĽĳæµĭåĴĮ": 7277,
      "å»ºçŃĳæĸ½å·¥": 7278,
      "æĮģæľīçļĦ": 7279,
      "å¼łä¸ī": 7280,
      "çĶŁæĢģçİ¯å¢ĥä¿ĿæĬ¤": 7281,
      "å®¡åĪ¤åĳĺ": 7282,
      "çłģå¤´": 7283,
      "èĦļ": 7284,
      "ç¬¬ä¸ĢåįĥäºĮçĻ¾": 7285,
      "çł´äº§è´¢äº§": 7286,
      "æĹłéļľç¢įè®¾æĸ½": 7287,
      "åįĥåħĥä»¥ä¸ĬäºĶ": 7288,
      "å¤ļæł·æĢ§": 7289,
      "ç£ģ": 7290,
      "åħ¬åħ±æĸĩåĮĸæľįåĬ¡": 7291,
      "ä¼¦çĲĨ": 7292,
      "ç¥ŀç»ıç½ĳç»ľ": 7293,
      "è¿ħéĢŁ": 7294,
      "ä¸ĩåħĥä»¥ä¸ĬäºĮçĻ¾ä¸ĩåħĥä»¥ä¸ĭçļĦç½ļæ¬¾": 7295,
      "éĻªå®¡åĳĺ": 7296,
      "ç¾ģæĬ¼": 7297,
      "ip": 7298,
      "Ġj": 7299,
      "Ġä¼ģä¸ļ": 7300,
      "Ġä¸ĭåĪĹ": 7301,
      "çļĦæĥħæĦŁ": 7302,
      "åĴĮæī§è¡Į": 7303,
      "åľ¨æľªæĿ¥": 7304,
      "èµĭ": 7305,
      "äºĭå®ľ": 7306,
      "ä¸ºçĶ±": 7307,
      "ä¸ŃçŃī": 7308,
      "èĥ½éĩı": 7309,
      "åĲĮå±ħ": 7310,
      "åĽ½å®¶åıĳå±ķè§ĦåĪĴ": 7311,
      "åĬłå¿«": 7312,
      "æķ°çļĦ": 7313,
      "æĥħåĨµè¿Ľè¡Į": 7314,
      "åĲįè¯į": 7315,
      "æľįåĬ¡åĴĮ": 7316,
      "çİ¯èĬĤ": 7317,
      "è§Ħå®ļçļĦç¨ĭåºı": 7318,
      "å¼ºåĮĸ": 7319,
      "å¦Ĥæŀľä¸Ģä¸ª": 7320,
      "çĹħäºº": 7321,
      "åıĺéĩı": 7322,
      "è¯Ħè®º": 7323,
      "æıĲåĩºä¹¦éĿ¢": 7324,
      "æķ´æ²»": 7325,
      "ç©ºä¸Ń": 7326,
      "è®¾å¤ĩçļĦ": 7327,
      "ise": 7328,
      "ç¼´ç¨İæ¬¾": 7329,
      "ç¼ĸéĢł": 7330,
      "ç¾İå¥½": 7331,
      "çº¢èī²": 7332,
      "æĤ£æľī": 7333,
      "æıĲèµ·è¡ĮæĶ¿è¯īè®¼": 7334,
      "æ³¨åĨĮçļĦ": 7335,
      "è¡Įä½¿èģĮæĿĥ": 7336,
      "çĶŁäº§ç»ıèĲ¥æ´»åĬ¨": 7337,
      "ç¬¬ä¹Ŀåįģä¸īæĿ¡": 7338,
      "ç¬¬ä¹ĿåįģåĽĽæĿ¡": 7339,
      "å¤ĩæ¡ĪçļĦ": 7340,
      "çıł": 7341,
      "åį±éĻ©åĮĸåŃ¦åĵģçļĦ": 7342,
      "ä½ľä¸ļçļĦ": 7343,
      "éĺ»æĮ": 7344,
      "çľŁå®ŀæĢ§": 7345,
      "å¯¹å¤ĸèģĶç³»æľºåħ³": 7346,
      "å»ºè®¾é¡¹çĽ®çļĦ": 7347,
      "çĻ¾åĪĨä¹ĭäºĶåįģ": 7348,
      "ç¥¨æį®æ³ķ": 7349,
      "åłĤ": 7350,
      "æľŁè´§äº¤æĺĵåľºæīĢ": 7351,
      "ä½ıå®¿": 7352,
      "äººåĳĺåĴĮçĽ´æİ¥è´£ä»»äººåĳĺ": 7353,
      "å¹¿æĴŃçĶµè§Ĩ": 7354,
      "æ¢¦æĥ³": 7355,
      "å¤Ħåįģå¹´ä»¥ä¸ĬæľīæľŁå¾ĴåĪĳæĪĸèĢħæĹłæľŁå¾ĴåĪĳ": 7356,
      "æķıæĦŁ": 7357,
      "çĽĳè§Ĩå±ħä½ı": 7358,
      "éĢ»è¾ĳ": 7359,
      "è°İæĬ¥": 7360,
      "æĢ»çļĦæĿ¥è¯´": 7361,
      "é¦ĸè¦ģåĪĨåŃĲ": 7362,
      ").": 7363,
      "..": 7364,
      "13": 7365,
      "60": 7366,
      "ag": 7367,
      "ff": 7368,
      "ial": 7369,
      "turn": 7370,
      "ĊĠ": 7371,
      "ĠåĲĳ": 7372,
      "çļĦäºĭå®ŀ": 7373,
      "ãĢĤ(": 7374,
      "åĳĪ": 7375,
      "åĩī": 7376,
      "åľ¨æī§è¡Į": 7377,
      "ä¸įåĪ°": 7378,
      "å¯¹æľīåħ³": 7379,
      "å±ı": 7380,
      "éĥ¨ä»¶": 7381,
      "æľ¬åįķä½įçļĦ": 7382,
      "ï¼ļãĢĲ": 7383,
      "åĵ¥": 7384,
      "éĩįè§Ĩ": 7385,
      "è¡¨æł¼": 7386,
      "æł¹æį®æľ¬æ³ķ": 7387,
      "å¤ĸè§Ĥ": 7388,
      "è°·": 7389,
      "ä¾Ŀæ³ķå¤ĦçĲĨ": 7390,
      "ç»Ħç»ĩæĪĸèĢħ": 7391,
      "è¿Ļæ®µ": 7392,
      "ä¸įå¾Ĺæĵħèĩª": 7393,
      "éķ¿åº¦": 7394,
      "ä¿ĿéĻ©æłĩçļĦ": 7395,
      "è´Łè´£çī¹ç§įè®¾å¤ĩå®īåħ¨": 7396,
      "æĺĵåĪ¶": 7397,
      "åİ¿çº§ä»¥ä¸Ĭåľ°æĸ¹åĲĦçº§äººæ°ĳæĶ¿åºľ": 7398,
      "çĽĳçĿ£ç®¡çĲĨå·¥ä½ľ": 7399,
      "æķĳæµİ": 7400,
      "åĶ±": 7401,
      "ç»´æĿĥ": 7402,
      "åħ¬å®īéĥ¨éĹ¨": 7403,
      "çłĶç©¶åĴĮ": 7404,
      "ç¼ĸç¨ĭ": 7405,
      "ç¬¬äºĮçĻ¾ä¸ĥåįģ": 7406,
      "æľīæķĪåľ°": 7407,
      "å±ŀäºİåĽ½å®¶": 7408,
      "ç»ĦæĪĲéĥ¨åĪĨ": 7409,
      "ç´¢åıĸ": 7410,
      "æ¶Īè´¹èĢħåįıä¼ļ": 7411,
      "ç¬¬ä¹ĿåįģäºĮæĿ¡": 7412,
      "æħĪåĸĦæ³ķ": 7413,
      "æĻ¯çĤ¹": 7414,
      "å±Ĥæ¬¡": 7415,
      "ç»¼åĲĪèĢĥèĻĳ": 7416,
      "éĩįçĤ¹ä¿ĿæĬ¤": 7417,
      "imp": 7418,
      "å·¥ä¸ļä¼ģä¸ļ": 7419,
      "çŁ³æ²¹": 7420,
      "çĶµåŃĲåķĨåĬ¡ç»ıèĲ¥èĢħ": 7421,
      "çĻ¾åĪĨä¹ĭäºĶ": 7422,
      "åŁºå±Ĥäººæ°ĳæ³ķéĻ¢": 7423,
      "ç§ĳæĬĢæĪĲæŀľè½¬åĮĸ": 7424,
      "ç»ĵæĿŁåĲİ": 7425,
      "æ´¥è´´": 7426,
      "éŀĭ": 7427,
      "è´Łè´£çī¹ç§įè®¾å¤ĩå®īåħ¨çĽĳçĿ£ç®¡çĲĨçļĦéĥ¨éĹ¨": 7428,
      "£å·¥": 7429,
      "½è°": 7430,
      "ĠçĶŁäº§": 7431,
      "ĠçĽĳçĿ£ç®¡çĲĨ": 7432,
      "ĠåĪ¶å®ļ": 7433,
      "ķçĸ": 7434,
      "è¯½è°": 7435,
      "æľīæľº": 7436,
      "ä¹İ": 7437,
      "åĽ½åºĵ": 7438,
      "åħ³å¿ĥ": 7439,
      "ä¾§": 7440,
      "éĹ²": 7441,
      "ç«£å·¥": 7442,
      "åı¯ä»¥èĢĥèĻĳ": 7443,
      "ï¼ļ(": 7444,
      "æĪĲå°±": 7445,
      "åĬ¨æľº": 7446,
      "æ±ł": 7447,
      "çĽĳçĲĨ": 7448,
      "æĬ¤çĲĨ": 7449,
      "æ³ķå¾ĭçļĦ": 7450,
      "æĦī": 7451,
      "äººåĳĺåºĶå½ĵ": 7452,
      "åĮºåĪĨ": 7453,
      "äº¤äºĴ": 7454,
      "æĶ¶ç¼´": 7455,
      "ä»¥ä¸ĭåĩłä¸ª": 7456,
      "æİ¥ç®¡": 7457,
      "å°Ĩè¢«": 7458,
      "ç¬¬ä¸Ģæ¬¡": 7459,
      "åŁºæľ¬æ³ķ": 7460,
      "è°ĥæİ§": 7461,
      "ä¿ĿæĬ¤çİ¯å¢ĥ": 7462,
      "å§Ķåĳĺä¼ļçļĦ": 7463,
      "å°ıåŀĭ": 7464,
      "ç¬¬äºĶèĬĤ": 7465,
      "çĬ¯ç½ªåĪĨåŃĲ": 7466,
      "è¿Ŀæ³ķç»ıèĲ¥": 7467,
      "å±¥è¡Įä¸ĭåĪĹ": 7468,
      "åħ»æĬ¤": 7469,
      "åĸĿ": 7470,
      "éĢłæĪĲäºĨ": 7471,
      "æĴĴ": 7472,
      "åľŁåľ°ä½¿çĶ¨": 7473,
      "åĸĦæĦı": 7474,
      "åĩıçģ¾": 7475,
      "æĸĩåĮĸçļĦ": 7476,
      "äº¤æĺĵèĢħ": 7477,
      "äºĭæķħåıĳçĶŁ": 7478,
      "ance": 7479,
      "éĢļçŁ¥ä¹¦": 7480,
      "é¥Ń": 7481,
      "Ġpre": 7482,
      "åħħè¶³": 7483,
      "å®ĮæĪĲä»»åĬ¡": 7484,
      "çļĦæĿĥåĪ©åĴĮä¹īåĬ¡": 7485,
      "çĽ®æłĩåĴĮ": 7486,
      "çī¹æ®ĬæķĻèĤ²": 7487,
      "ä½ĵç³»å»ºè®¾": 7488,
      "æ¾³éĹ¨é©»åĨĽ": 7489,
      "äººèº«èĩªçĶ±": 7490,
      "æĺŁæľŁ": 7491,
      "å²¸çº¿": 7492,
      "çĳķçĸ": 7493,
      "ä»ĵåįķ": 7494,
      "Ġprov": 7495,
      "å®ŀéĻħæİ§åĪ¶äºº": 7496,
      "æĹłçº¿çĶµ": 7497,
      "åħ¬ç§¯éĩĳ": 7498,
      "è¯½è°¤": 7499,
      "çĳķçĸµ": 7500,
      "ost": 7501,
      "è¹": 7502,
      "Ġæľī": 7503,
      "ç»ķ": 7504,
      "ä¼Ł": 7505,
      "æľīéĩįå¤§": 7506,
      "åºĶåľ¨": 7507,
      "ä¸įè´Ł": 7508,
      "ä¸īçº§": 7509,
      "å®ŀä½ĵ": 7510,
      "éĩįå»º": 7511,
      "ä¸İæľ¬æ¡Ī": 7512,
      "å®īåħ¨éļĲæĤ£": 7513,
      "æłĩé¢ĺ": 7514,
      "è¢«ä¾Ŀæ³ķ": 7515,
      "æ°´çļĦ": 7516,
      "çĶŁäº§å®īåħ¨äºĭæķħ": 7517,
      "ä¸įå¾Ĺæĭħä»»": 7518,
      "çļĦè§Ħå®ļå®ļç½ªå¤Ħç½ļ": 7519,
      "éĩĩåıĸå¿ħè¦ģçļĦ": 7520,
      "è®¤å®ļçļĦ": 7521,
      "æ»ĭ": 7522,
      "è¿½ç´¢": 7523,
      "çĶŁæĢģä¿®å¤į": 7524,
      "åģľçķĻ": 7525,
      "ä»²è£ģæ³ķ": 7526,
      "è¯ģæį®çļĦ": 7527,
      "éĻĦå±ŀ": 7528,
      "Ġpl": 7529,
      "çķĮéĻĲ": 7530,
      "å°±ä¸ļçļĦ": 7531,
      "ast": 7532,
      "å°½åĬĽ": 7533,
      "å¢ĥå¤ĸçļĦ": 7534,
      "ä¸ªäººä¿¡æģ¯çļĦ": 7535,
      "ä¸ĬçļĦä¾¿åĪ©": 7536,
      "åĲĪä¼Ļä¼ģä¸ļæ³ķ": 7537,
      "ä¿Ŀç®¡äºº": 7538,
      "2009": 7539,
      "æ³ķå¾ĭæı´åĬ©æľºæŀĦ": 7540,
      "çļĦä¸Ģéĥ¨åĪĨ": 7541,
      "ä¸°å¯ĮçļĦ": 7542,
      "å»ºè®¾çĶ¨åľ°ä½¿çĶ¨æĿĥ": 7543,
      "å¤ªéĺ³èĥ½": 7544,
      "ä¸ºåħ¶æıĲä¾Ľ": 7545,
      "æ°ĳæĹıèĩªæ²»åľ°æĸ¹çļĦèĩªæ²»æľºåħ³": 7546,
      "å§Ķåĳĺéķ¿ä¼ļè®®": 7547,
      "çĦ¦èĻĳ": 7548,
      "å·¦åı³": 7549,
      "ä¸ªäººä¿¡æģ¯å¤ĦçĲĨèĢħ": 7550,
      "æŀĦçŃĳçī©": 7551,
      "ç·´": 7552,
      "ä¾Ŀçħ§åĪĳæ³ķæľīåħ³è§Ħå®ļè¿½ç©¶åĪĳäºĭè´£ä»»": 7553,
      "\",": 7554,
      "uc": 7555,
      "ust": 7556,
      "èĿ": 7557,
      "ĠJ": 7558,
      "çļĦåĪ©çĽĬ": 7559,
      "å®ļä½į": 7560,
      "ä¸Ģå¹¶": 7561,
      "æĪĸèĢħåĽł": 7562,
      "åľ¨å¤ĦçĲĨ": 7563,
      "åľ¨åĲĦèĩªèģĮè´£èĮĥåĽ´åĨħ": 7564,
      "åħ¬å¾·": 7565,
      "ä½ľçī©": 7566,
      "æŃī": 7567,
      "å®¶éķ¿": 7568,
      "æľ¬ç¤¾": 7569,
      "çī©é¡¹": 7570,
      "çī©æµģ": 7571,
      "åĲĮæł·": 7572,
      "åĽ½å®¶æĶ¯æĮģ": 7573,
      "æľīåħ³æĥħåĨµ": 7574,
      "æŁ¥æī¾": 7575,
      "è°±": 7576,
      "çĻ¾åħĥ": 7577,
      "è´£ä»»äºº": 7578,
      "è´£ä»»åĪ¶": 7579,
      "æĹ¥ç¬¬ä¹Ŀ": 7580,
      "ä¸įå¾ĹæįŁå®³": 7581,
      "èĢĮæĺ¯": 7582,
      "åħ¨åĽ½æĢ§": 7583,
      "ä¸ŃåĽ½çī¹èī²": 7584,
      "æ²¡æľīçº¦å®ļæĪĸèĢħ": 7585,
      "åħįå¾ģ": 7586,
      "åĭķ": 7587,
      "åħ¬å®īéĥ¨": 7588,
      "éĻĦä»¶": 7589,
      "éĽĨä½ĵæīĢæľī": 7590,
      "out": 7591,
      "åĽ¾æ¡Ī": 7592,
      "æ¨¡æĭŁ": 7593,
      "åĽ½éĻħåĲĪä½ľ": 7594,
      "æ¢¯": 7595,
      "ä¸ªäººä¿¡æģ¯ä¿ĿæĬ¤": 7596,
      "ä¾µçĬ¯çļĦ": 7597,
      "ä¼ĳåģĩ": 7598,
      "Ġres": 7599,
      "ä¸Ĭçº§æľºåħ³": 7600,
      "ç¤¾åĮºçŁ«æŃ£æľºæŀĦ": 7601,
      "Ġstr": 7602,
      "ction": 7603,
      "ement": 7604,
      "åľ¨ä¸Ńåįİäººæ°ĳåħ±åĴĮåĽ½å¢ĥåĨħ": 7605,
      "åħ¨æ°ĳæīĢæľīåĪ¶": 7606,
      "ä¸Ńåįİæ°ĳæĹıåħ±åĲĮä½ĵ": 7607,
      "ä¸ĩåħĥä»¥ä¸ĬäºĶçĻ¾": 7608,
      "æł¹æį®çĽ¸åħ³æ³ķå¾ĭè§Ħå®ļ": 7609,
      "çĥŁèįīä¸ĵåįĸ": 7610,
      "åľ°çĲĨä¿¡æģ¯": 7611,
      "éĩİçĶŁåĬ¨çī©ä¿ĿæĬ¤ä¸»ç®¡éĥ¨éĹ¨": 7612,
      "åľ°å½¹æĿĥ": 7613,
      "åĴĮè°Ĳ": 7614,
      "Âł": 7615,
      "ĠåķĨä¸ļéĵ¶è¡Į": 7616,
      "ĠåĲĦçº§": 7617,
      "åħ°": 7618,
      "åĴĮæ²»çĸĹ": 7619,
      "åĴĮæĮĳæĪĺ": 7620,
      "æľīæĿ¡ä»¶çļĦ": 7621,
      "ä¸ĢæĹ¦": 7622,
      "åºĶçĶ±": 7623,
      "æłĸ": 7624,
      "æĪĸèĢħåĲĬéĶĢ": 7625,
      "çī¢": 7626,
      "æİ©": 7627,
      "ä¸ĭä¸Ģ": 7628,
      "çĶ±æµ·åħ³": 7629,
      "åıĬçĽ¸åħ³": 7630,
      "æ¡¥": 7631,
      "æĹ¥ç¬¬åħ«": 7632,
      "ä»¥ä¸ĭç®Ģç§°": 7633,
      "è¿Ļåı¥è¯Ŀ": 7634,
      "æıĲä¾Ľä¸ĢäºĽ": 7635,
      "æıĲä¾Ľä¾¿åĪ©": 7636,
      "æ°´ä½ĵ": 7637,
      "æĤĶ": 7638,
      "ç¬¬äºĶé¡¹": 7639,
      "æľĢä½³": 7640,
      "é¢ĨåľŁ": 7641,
      "æī¹åĩĨæĪĸèĢħ": 7642,
      "å¥³æĸ¹": 7643,
      "èŃ¦è¡Ķ": 7644,
      "erm": 7645,
      "æĹ¶éĹ´çļĦ": 7646,
      "æĹ¶éĹ´ç®¡çĲĨ": 7647,
      "èĭı": 7648,
      "åĢºåĬ¡æĪĸèĢħ": 7649,
      "éĢĢä¼Ļ": 7650,
      "å©ļåīį": 7651,
      "è¯Ńæ³ķ": 7652,
      "ä¸ĵä¸ļäººåĳĺ": 7653,
      "æ°ĳäºĭä¸»ä½ĵ": 7654,
      "å®ĺåĳĺ": 7655,
      "åıĳçİ°çļĦ": 7656,
      "åħ¬å®īæľºåħ³äº¤éĢļç®¡çĲĨéĥ¨éĹ¨": 7657,
      "è¡Įä¸ļæłĩåĩĨ": 7658,
      "åĽ½éĻħç»Ħç»ĩ": 7659,
      "Ġde": 7660,
      "å°½åı¯èĥ½": 7661,
      "å°½å¿«": 7662,
      "æĬ¢æķĳ": 7663,
      "ä¸ĸçķĮä¸Ĭ": 7664,
      "æ¿Ĵ": 7665,
      "ä»İèĢĮæıĲé«ĺ": 7666,
      "ä¹°åįĸåĲĪåĲĮ": 7667,
      "éĹŃä¼ļæľŁéĹ´": 7668,
      "åĲĳç¤¾ä¼ļåħ¬å¼Ģ": 7669,
      "ä»ĺæ¬¾äºº": 7670,
      "æĥ©æĪĴ": 7671,
      "åĬ³åĬ¨äºīè®®è°ĥè§£": 7672,
      "åĻªå£°æ±¡æŁĵéĺ²æ²»": 7673,
      "åĬ¨æ¤įçī©æ£Ģçĸ«": 7674,
      "æİĪæĿĥçļĦéĥ¨éĹ¨": 7675,
      "æĽ¿ä»£": 7676,
      "æĹ¥ç¬¬åįģä¸Ģå±Ĭåħ¨åĽ½äººæ°ĳä»£è¡¨å¤§ä¼ļå¸¸åĬ¡å§Ķåĳĺä¼ļç¬¬åįģ": 7677,
      "300": 7678,
      "AP": 7679,
      "times": 7680,
      "äººä¸º": 7681,
      "åĴĮäºĭå®ŀ": 7682,
      "åĽ½å¾½": 7683,
      "æķ¬": 7684,
      "ä¿Ŀåħ»": 7685,
      "å¯¹åºĶ": 7686,
      "å¯¹å¾ħ": 7687,
      "åħ¬æ¬¾": 7688,
      "äºĮäºº": 7689,
      "ä¸ĬéĿ¢": 7690,
      "æĭĮ": 7691,
      "æľ¬åħ¬åı¸": 7692,
      "æĥĬ": 7693,
      "çĶ±æŃ¤": 7694,
      "åıĸåĨ³": 7695,
      "æĪĳåĢĳ": 7696,
      "å§Ķä¼ļ": 7697,
      "å®īåħ¨é£İéĻ©": 7698,
      "æģĴ": 7699,
      "è®¡ç¨İ": 7700,
      "ç§įæĹı": 7701,
      "éľĢè¦ģåľ¨": 7702,
      "æıĲä¾ĽçĽ¸åħ³": 7703,
      "é«ĺåħ´": 7704,
      "åıįçĶµä¿¡ç½ĳç»ľè¯ĪéªĹ": 7705,
      "æ°´äº§": 7706,
      "åķĨçĶ¨": 7707,
      "æĹłæĿĥ": 7708,
      "å¤±è¸ª": 7709,
      "å±¥è¡ĮåĩºèµĦäºº": 7710,
      "å¹³æĸ¹": 7711,
      "æī¿æĭħä¾µæĿĥè´£ä»»": 7712,
      "æ»ĳ": 7713,
      "åĮ»çĸĹä¿Ŀåģ¥": 7714,
      "æĴĳ": 7715,
      "ä¾µåħ¥": 7716,
      "åģ¥åº·åĴĮ": 7717,
      "è¯´æ³ķ": 7718,
      "Ġso": 7719,
      "èĪ¹èĪ¶æīĢæľīäºº": 7720,
      "éĥ½ä¼ļ": 7721,
      "å¿ħé¡»ç¬¦åĲĪ": 7722,
      "åºĶè¯¥å¦Ĥä½ķ": 7723,
      "å¤ĦäºĶå¹´ä»¥ä¸ĬæľīæľŁå¾ĴåĪĳ": 7724,
      "å®īåħ¨çĶŁäº§çĽĳçĿ£ç®¡çĲĨèģĮè´£çļĦéĥ¨éĹ¨": 7725,
      "åı¦æľīçº¦å®ļ": 7726,
      "ä¼ĺåħĪæĿĥ": 7727,
      "æ¯ģçģŃ": 7728,
      "æ®ĭçĸ¾äººä¿Ŀéļľæ³ķ": 7729,
      "è´Łæľīå®īåħ¨çĶŁäº§çĽĳçĿ£ç®¡çĲĨèģĮè´£çļĦéĥ¨éĹ¨": 7730,
      "éĩİçĶŁåĬ¨çī©åıĬåħ¶": 7731,
      "åħ³éĶ®ä¿¡æģ¯": 7732,
      "å¯¹çĽ´æİ¥è´Łè´£çļĦä¸»ç®¡äººåĳĺåĴĮåħ¶ä»ĸçĽ´æİ¥è´£ä»»äººåĳĺç»ĻäºĪèŃ¦åĳĬ": 7733,
      "ä¸įè¶³ä»¥": 7734,
      "2015": 7735,
      "2017": 7736,
      "ç¼ĵè§£": 7737,
      "çī¹çĤ¹åĴĮ": 7738,
      "è¿ĩéĶĻçļĦ": 7739,
      "åŃ£èĬĤ": 7740,
      "åĽºä½ĵåºŁçī©æ±¡æŁĵçİ¯å¢ĥ": 7741,
      "åĢĻéĢīäººçļĦ": 7742,
      "çĵľ": 7743,
      "åıįæ´ĹéĴ±è¡ĮæĶ¿ä¸»ç®¡éĥ¨éĹ¨": 7744,
      "æķĻèĤ²åĴĮåŁ¹è®Ń": 7745,
      "Ġnumber": 7746,
      "è¯ŃéŁ³è¯ĨåĪ«": 7747,
      "è²Į": 7748,
      "çĪ±åĽ½ä¸»ä¹īæķĻèĤ²": 7749,
      "ç§ĺä¹¦éķ¿": 7750,
      "èļĢ": 7751,
      "åŃĹç¬¦ä¸²": 7752,
      "åĨĽäºĭç¦ģåĮº": 7753,
      "åıĸåĨ³äºİ": 7754,
      "ail": 7755,
      "cc": 7756,
      "ks": 7757,
      "rt": 7758,
      "½åĬ¨": 7759,
      "è³": 7760,
      "Ġæµ·åħ³": 7761,
      "ï¼į": 7762,
      "çļĦå½ĵäºĭäºº": 7763,
      "çļĦåħ¬æ°ĳ": 7764,
      "çļĦåķĨåĵģ": 7765,
      "æ³³": 7766,
      "è´©": 7767,
      "çĽ¾": 7768,
      "æ°ĳéĹ´": 7769,
      "åĩĿ": 7770,
      "æĪĸèĢħä¸İ": 7771,
      "æĪĸèĢħç»Ħç»ĩ": 7772,
      "åºĶå½ĵä¾Ŀçħ§æ³ķå¾ĭ": 7773,
      "å¼Ħ": 7774,
      "èµŀ": 7775,
      "åħ¬çĶ¨": 7776,
      "åı¯ä»¥å»¶éķ¿": 7777,
      "æĸ¹ç¨ĭ": 7778,
      "çŃīå¾ħ": 7779,
      "æ¬£": 7780,
      "çİī": 7781,
      "çħ½åĬ¨": 7782,
      "è¯·ä½ł": 7783,
      "å¥¸": 7784,
      "é¡¶": 7785,
      "åĨħå¿ĥ": 7786,
      "å¤ĸæ±ĩ": 7787,
      "åıĹå®³": 7788,
      "å®īåħ¨æĢ§": 7789,
      "ç¡¬": 7790,
      "æĦıåĽ¾": 7791,
      "ç§įçķľç¦½": 7792,
      "åħ¬åı¸åľ¨": 7793,
      "å°ıåŃ¦": 7794,
      "æĿ¥ç¡®å®ļ": 7795,
      "åİŁæľī": 7796,
      "çĶµç½ĳ": 7797,
      "ç¬¬åĽĽé¡¹": 7798,
      "è´¨æĿĥ": 7799,
      "åĲĦæ°ĳæĹı": 7800,
      "æĽ´æĶ¹": 7801,
      "éĢĤé¾Ħ": 7802,
      "äººçļĦå§ĵåĲį": 7803,
      "çļĦè§Ħå®ļæī§è¡Į": 7804,
      "åĿ¡": 7805,
      "çĤī": 7806,
      "ä¿ĿéĻ©åĲĪåĲĮ": 7807,
      "åĵįåºĶ": 7808,
      "å°±åĮ»": 7809,
      "è¯·æ±Ĥä¹¦": 7810,
      "çĻ»è®°æľºæŀĦ": 7811,
      "æķĳæĬ¤": 7812,
      "åĻ¨æ¢°": 7813,
      "èµĦæºĲä¿ĿæĬ¤": 7814,
      "æ²¡æľīè§Ħå®ļçļĦ": 7815,
      "ç¨ĭåºıçļĦ": 7816,
      "âĢĿãĢģâĢľ": 7817,
      "æ»¡æĦı": 7818,
      "éĴ¢": 7819,
      "åĢ¼å¾Ĺ": 7820,
      "ä»»ä½ķåįķä½įæĪĸèĢħä¸ªäºº": 7821,
      "ç¼ĸè¾ĳ": 7822,
      "å¹¶å¤Ħä¸Ģ": 7823,
      "éģĹå¤±": 7824,
      "è¯ģæĺİæĿĲæĸĻ": 7825,
      "ç¦ģæŃ¢åľ¨": 7826,
      "çĶ±åĽ½åĬ¡éĻ¢è§Ħå®ļ": 7827,
      "æī¿åĮħåľ°": 7828,
      "çķĮåĪ«": 7829,
      "åıĤä¸İäºº": 7830,
      "ary": 7831,
      "æ¬¡ä¼ļè®®ä¿®è®¢": 7832,
      "ç¦»å©ļåįıè®®": 7833,
      "é¦Ļæ¸¯é©»åĨĽ": 7834,
      "èĻļæĭŁ": 7835,
      "è´¢æĶ¿é¢Ħç®Ĺ": 7836,
      "ç®Ģæ´ģ": 7837,
      "ç¬¬ä¹ĿåįģäºĶæĿ¡": 7838,
      "èģĮä¸ļçĹħè¯ĬæĸŃ": 7839,
      "åī¯ä¸»ä»»": 7840,
      "å¤«å¦»åıĮæĸ¹": 7841,
      "åıĳè¡Įäºº": 7842,
      "æļĤæĹ¶": 7843,
      "oth": 7844,
      "åı¬åĽŀ": 7845,
      "èģĶåĲĪåĽ½": 7846,
      "èģĶåĲĪç¤¾": 7847,
      "åķĨæłĩæ³¨åĨĮ": 7848,
      "å¤ļç§įå½¢å¼ı": 7849,
      "åħ»èĢģæľºæŀĦ": 7850,
      "éĤ®æĶ¿ç®¡çĲĨéĥ¨éĹ¨": 7851,
      "çĽĹä¼Ĳ": 7852,
      "é¡ºåĪ©": 7853,
      "æŃ¦åĻ¨è£ħå¤ĩ": 7854,
      "æĢĢåŃķ": 7855,
      "çĮİæįķ": 7856,
      "åĲ¯åĬ¨": 7857,
      "æ©Ļ": 7858,
      "æĶ¶è´§äºº": 7859,
      "çĶµåŃĲè®¤è¯ģæľįåĬ¡æıĲä¾ĽèĢħ": 7860,
      "è¯ģåĪ¸çĻ»è®°ç»ĵç®ĹæľºæŀĦ": 7861,
      "å¼¥è¡¥": 7862,
      "éĺ»æĮł": 7863,
      "ox": 7864,
      "ry": 7865,
      "ĠAI": 7866,
      "çļĦèµĦéĩĳ": 7867,
      "çļĦä»·æł¼": 7868,
      "å®Ļ": 7869,
      "ä¸Ģæł·": 7870,
      "åĽ½æŃĮ": 7871,
      "æĪĸèĢħä¾Ŀæ³ķ": 7872,
      "åľ¨æľ¬": 7873,
      "èµİ": 7874,
      "äººæ°ĳåĽ¢ä½ĵ": 7875,
      "åı¯ä»¥è¢«": 7876,
      "åĬ¨ä½ľ": 7877,
      "åĬ¨åĬĽ": 7878,
      "ç»ĦåĲĪ": 7879,
      "äººåĳĺåľ¨": 7880,
      "åĮºåĿĹ": 7881,
      "æľªåľ¨": 7882,
      "æĸĩçī©çļĦ": 7883,
      "ä¾Ŀæ³ķæī¿æĭħæ°ĳäºĭè´£ä»»": 7884,
      "æĬ¥æ¡Ī": 7885,
      "çŁĽ": 7886,
      "ç¬¬ä¸īæĸ¹": 7887,
      "ç¬¬ä¸Ģä¸ª": 7888,
      "éĩıåĪĳ": 7889,
      "ç³ķ": 7890,
      "çŁ¥æĥħ": 7891,
      "éĩĩåıĸçļĦ": 7892,
      "ä¸Ńåįİäººæ°ĳåħ±åĴĮåĽ½åĪĳæ³ķ": 7893,
      "åı¯èĥ½éĢłæĪĲ": 7894,
      "åĶĨ": 7895,
      "ä¼ĺçĤ¹": 7896,
      "æĿĥçĽĬçļĦ": 7897,
      "å¼ķè¿Ľ": 7898,
      "å¼ķè¯±": 7899,
      "è´¨éĩıåĴĮ": 7900,
      "çĶŁæ´»æĸ¹å¼ı": 7901,
      "çĶŁæ´»ä¿Ŀéļľ": 7902,
      "ä¸ĩåħĥä»¥ä¸Ĭä¸īåįģ": 7903,
      "å®ŀéĻħæī¿è¿Ĳäºº": 7904,
      "æĺ¯ä¸Ģä½į": 7905,
      "è½½è¿Ĳ": 7906,
      "åĲĮæĦıåĲİ": 7907,
      "æľªç»ıè®¸åı¯": 7908,
      "ä¸Ģæĸ¹å½ĵäºĭäºº": 7909,
      "éĤ®å¯Ħ": 7910,
      "å¦ĩå¥³æĿĥçĽĬä¿Ŀéļľæ³ķ": 7911,
      "ç²¾ç¥ŀåį«çĶŁ": 7912,
      "åŁİå¸ĤçļĦ": 7913,
      "ç»¼åĲĪæ²»çĲĨ": 7914,
      "åĿļæĮģä¸ŃåĽ½åħ±äº§åħļ": 7915,
      "å¤«å¦»ä¸Ģæĸ¹": 7916,
      "æ¼Ķç»ĥ": 7917,
      "ç¬¬ä¸ĢçĻ¾éĽ¶ä¸ĢæĿ¡": 7918,
      "å¾Ģå¾Ģ": 7919,
      "æĬ¢éĻ©": 7920,
      "ç¬¬ä¸īçĻ¾éĽ¶": 7921,
      "åĨľæ°ĳä¸ĵä¸ļåĲĪä½ľç¤¾æ³ķ": 7922,
      "æłĳç«ĭ": 7923,
      "çªģåıĳäºĭä»¶åºĶå¯¹": 7924,
      "ame": 7925,
      "åģļåĩºçªģåĩºè´¡çĮ®": 7926,
      "çªĥåıĸ": 7927,
      "æľ¬çº§é¢Ħç®Ĺ": 7928,
      "æľīè¶£çļĦ": 7929,
      "è®¿éĹ®": 7930,
      "åıĹéĽĩäºº": 7931,
      "çŁ¿ä¸ļæĿĥ": 7932,
      "åĽ½åľŁç©ºéĹ´è§ĦåĪĴ": 7933,
      "ä¸¢å¤±": 7934,
      "å®ĩå®Ļ": 7935,
      "çķľçī§ä¸ļ": 7936,
      "æłĸæģ¯": 7937,
      "åķĨçĶ¨å¯Ĩçłģ": 7938,
      "),": 7939,
      "ĠéĻ¤": 7940,
      "çļĦæľºåħ³": 7941,
      "åħĦ": 7942,
      "ãĢĤ\"": 7943,
      "åĪĺ": 7944,
      "æīĳ": 7945,
      "ä¸Ģç«ł": 7946,
      "åĩĮ": 7947,
      "æĪĸèĢħçĽĸç«ł": 7948,
      "åľ¨äºİ": 7949,
      "åľ¨ä¸Ģä¸ª": 7950,
      "ä¸įéĢĤçĶ¨": 7951,
      "å°¤": 7952,
      "å¯¹è´Łæľīè´£ä»»çļĦ": 7953,
      "æĺ¯ä¸ŃåĽ½": 7954,
      "ä¸ĭéĻį": 7955,
      "èĩªè¯ī": 7956,
      "çĶ±æľīåħ³": 7957,
      "æ³ķå¾ĭåĴĮ": 7958,
      "æľªä¾Ŀçħ§æľ¬æ³ķè§Ħå®ļ": 7959,
      "è¿Ľè¡Įè¯Ħä¼°": 7960,
      "åĲĳæ³ķéĻ¢": 7961,
      "æĬ¥åħ³": 7962,
      "å±ķè§Ī": 7963,
      "ä»£è¡¨ä¼ļè®®": 7964,
      "æĮīçħ§æľīåħ³è§Ħå®ļ": 7965,
      "çī¹æĢ§": 7966,
      "å°ıçļĦ": 7967,
      "æĮĩæ´¾": 7968,
      "å¼ºè¡Į": 7969,
      "å¦Ĥæŀľå°ıæĺİ": 7970,
      "å¤±åİ»": 7971,
      "èīĺ": 7972,
      "ä¸Ńåįİäººæ°ĳåħ±åĴĮåĽ½æ°ĳæ³ķåħ¸": 7973,
      "åºıåĪĹ": 7974,
      "å±¥è¡ĮåĲĪåĲĮ": 7975,
      "Ġab": 7976,
      "åı¯èĥ½çļĦ": 7977,
      "ç»ĻäºĪå¤ĦåĪĨ": 7978,
      "èµĶåģ¿éĩĳ": 7979,
      "çĻ»è®°è¯ģä¹¦": 7980,
      "åĮ»çĸĹè´¹çĶ¨": 7981,
      "æ¸ħçĲĨ": 7982,
      "çľģçº§ä»¥ä¸Ĭäººæ°ĳæĶ¿åºľ": 7983,
      "æĥħèĬĤè½»": 7984,
      "åı¦ä¸Ģä¸ª": 7985,
      "è§Ĥä¼Ĺ": 7986,
      "ition": 7987,
      "æ¯įäº²": 7988,
      "å¤Ħç½®æİªæĸ½": 7989,
      "ç»ĦæĪĲçļĦ": 7990,
      "çº³ç¨İæ¬¾": 7991,
      "æĳ©": 7992,
      "åĿĩåĮĢ": 7993,
      "äººç±»çļĦ": 7994,
      "é«ĺçº§ç®¡çĲĨ": 7995,
      "è®¢ç«ĭåĲĪåĲĮ": 7996,
      "ä¸Ĭçº§äººæ°ĳæ³ķéĻ¢": 7997,
      "çŁŃè¯Ń": 7998,
      "çķľç¦½éģĹä¼łèµĦæºĲ": 7999,
      "æĥ©æ²»": 8000,
      "çļĦäººæ°ĳä»£è¡¨å¤§ä¼ļå¸¸åĬ¡å§Ķåĳĺä¼ļ": 8001,
      "____": 8002,
      "å©´å¹¼åĦ¿": 8003,
      "åĪ©çĶ¨èģĮåĬ¡ä¸ĬçļĦä¾¿åĪ©": 8004,
      "å¸Ĥè¾ĸåĮº": 8005,
      "ç¢°æĴŀ": 8006,
      "é½Ĳ": 8007,
      "æ¿Ĵåį±": 8008,
      "çŁĽçĽ¾": 8009,
      "èķ": 8010,
      "ĠãĢĬ": 8011,
      "ĠåĨĽå®ĺ": 8012,
      "çļĦçİ¯å¢ĥ": 8013,
      "çļĦæī¹åĩĨ": 8014,
      "ãĢĤï¼Ī": 8015,
      "åĴĮéĩįè¦ģ": 8016,
      "åĴĮå¥ĸåĬ±": 8017,
      "ä¸įåŃĺåľ¨": 8018,
      "åºĶå½ĵéĩĩçĶ¨": 8019,
      "å¯¹æľī": 8020,
      "ç»ıçºª": 8021,
      "ä¸ªå·¥ä½ľ": 8022,
      "çī©çĲĨ": 8023,
      "å¹¶æİ¥åıĹ": 8024,
      "å¤§æķ°æį®": 8025,
      "è¯·åĳĬè¯īæĪĳ": 8026,
      "æ³ķå¾ĭè§Ħå®ļçļĦåħ¶ä»ĸ": 8027,
      "è¡ĮæĶ¿è¯īè®¼æ³ķ": 8028,
      "åıĹèµł": 8029,
      "ä¾Ŀæ³ķå¼Ģå±ķ": 8030,
      "ä¾Ŀæ³ķäºĪä»¥": 8031,
      "æ¡Īæĥħ": 8032,
      "ä¾Ľåħ»": 8033,
      "è¢«æĭĲåįĸ": 8034,
      "éĺ²æ²Ļ": 8035,
      "éĽª": 8036,
      "åŁºåĽł": 8037,
      "åĨľçĶ¨åľ°": 8038,
      "åİŁå®¡äººæ°ĳæ³ķéĻ¢": 8039,
      "ä»İåħ¶è§Ħå®ļ": 8040,
      "æķĪèĥ½": 8041,
      "çĹħæ¯Ĵ": 8042,
      "æĤ¨å¥½": 8043,
      "èµĶåģ¿ä¹īåĬ¡": 8044,
      "èŃ¦æĬ¥": 8045,
      "åľŁåľ°ç»ıèĲ¥æĿĥ": 8046,
      "è¿½ç¼´": 8047,
      "çĶŁæĢģåĬŁèĥ½": 8048,
      "å²©": 8049,
      "èįīèİĵ": 8050,
      "åĨħå®¹çļĦ": 8051,
      "å¹¶å¤ĦäºĮ": 8052,
      "ç»Īèº«": 8053,
      "å±Ĭåħ¨åĽ½äººæ°ĳä»£è¡¨å¤§ä¼ļ": 8054,
      "çŁ¿åĮº": 8055,
      "äººåºĶå½ĵåĲĳ": 8056,
      "ç³»ç»ŁçļĦ": 8057,
      "åĽłä¸ºå®ĥ": 8058,
      "åįıåķĨè§£åĨ³": 8059,
      "é¦Ļæ¸¯çī¹åĪ«è¡ĮæĶ¿åĮºæĶ¿åºľ": 8060,
      "æ¯ģåĿı": 8061,
      "ç®¡è¾ĸæĿĥçļĦ": 8062,
      "ç®¡åĪ¶æĪĸèĢħ": 8063,
      "æĬµæĬ¼æĿĥäºº": 8064,
      "èĤ¡ä»½çļĦ": 8065,
      "èĩªåĬ¨é©¾é©¶": 8066,
      "æĶ¾å°ĦæĢ§åºŁçī©": 8067,
      "åĸľæ¬¢çļĦ": 8068,
      "ä¼łç»ŁæĸĩåĮĸ": 8069,
      "è¾ĵåħ¥çļĦ": 8070,
      "æīĢéľĢè´¹çĶ¨çĶ±": 8071,
      "è¾¾æĪĲåįıè®®": 8072,
      "ç§ŁèµģåĲĪåĲĮ": 8073,
      "ific": 8074,
      "å®¶åºŃæķĻèĤ²æĮĩå¯¼": 8075,
      "åĨľæĿĳåľŁåľ°æī¿åĮħç»ıèĲ¥": 8076,
      "åĨľæĿĳåľŁåľ°æī¿åĮħä»²è£ģå§Ķåĳĺä¼ļ": 8077,
      "åı¯ä»¥åĲĳäººæ°ĳæ³ķéĻ¢æıĲèµ·è¯īè®¼": 8078,
      "åºĶçº³ç¨İé¢Ŀ": 8079,
      "çº¦æĿŁåĬĽ": 8080,
      "é¥®çĶ¨æ°´æ°´æºĲ": 8081,
      "ä¸Ĭä¸ĭæĸĩ": 8082,
      "åıįæģĲæĢĸä¸»ä¹īå·¥ä½ľ": 8083,
      "åĨľä¸ļçĶŁäº§ç»ıèĲ¥ç»Ħç»ĩ": 8084,
      "éĺ²æ²Ļæ²»æ²Ļ": 8085,
      "çļĦåĲĪæ³ķ": 8086,
      "çļĦä¸»é¢ĺ": 8087,
      "è¡ĮæĿ¡ä¾ĭ": 8088,
      "æĬ±": 8089,
      "åºĶå½ĵå»ºç«ĭåģ¥åħ¨": 8090,
      "å¯¹æīĢ": 8091,
      "å±ł": 8092,
      "æĺ¯ä¸ºäºĨ": 8093,
      "ç»ıå®¡æŁ¥": 8094,
      "å¤ĦäºĶåįģ": 8095,
      "å¹¶éĢļçŁ¥": 8096,
      "èĤĮ": 8097,
      "å¿Ĩ": 8098,
      "çĽ¸æĬµè§¦": 8099,
      "è¢«ä¿ĿéĻ©": 8100,
      "ãĢĭãĢĤ": 8101,
      "èĲ¥éĢł": 8102,
      "ä¼ģä¸ļæĪĸèĢħåħ¶ä»ĸ": 8103,
      "æĹłéĻĲ": 8104,
      "æľĢéķ¿": 8105,
      "è´Łè´£ç®¡çĲĨ": 8106,
      "è´Łè´£åħ¨åĽ½": 8107,
      "åŃĺè´§": 8108,
      "æĺĵçĪĨ": 8109,
      "æĿĳåºĦ": 8110,
      "æĢ»æĺ¯": 8111,
      "æł¸å®ļ": 8112,
      "æł¸äºĭæķħ": 8113,
      "ç»ıæµİæįŁå¤±": 8114,
      "åı¯èĥ½å¯¼èĩ´": 8115,
      "æĿĥåĪ©ä¹īåĬ¡": 8116,
      "è¯ģåĪ¸çļĦ": 8117,
      "çģĮ": 8118,
      "çĥ¹": 8119,
      "åĩıåħį": 8120,
      "æ¯ıæ¬¡": 8121,
      "èĮĥåĽ´çļĦ": 8122,
      "ç§ĳåŃ¦å®¶": 8123,
      "åĬ¨çī©éĺ²çĸ«": 8124,
      "è®¡ç®Ĺåįķä½į": 8125,
      "èĩ³äºİ": 8126,
      "ç¾İå¥½çļĦ": 8127,
      "é¢ĨåŁŁåĨħ": 8128,
      "éĽĨä½ĵåĲĪåĲĮ": 8129,
      "è½¬è®©çļĦ": 8130,
      "èµĶåģ¿è´£ä»»éĻĲåĪ¶": 8131,
      "åºĶå½ĵåıĬæĹ¶éĢļçŁ¥": 8132,
      "é¢Ĩå¯¼äººåĳĺåĴĮçĽ´æİ¥è´£ä»»äººåĳĺ": 8133,
      "åĳ¨æľŁ": 8134,
      "å¯¹åħ¶è¿Ľè¡Į": 8135,
      "èº«ä»½ä¿¡æģ¯": 8136,
      "ç®¡è¾ĸçļĦ": 8137,
      "éī´å®ļæĦıè§ģ": 8138,
      "ä¼ªéĢłçļĦ": 8139,
      "iven": 8140,
      "é»ĳç¤¾ä¼ļ": 8141,
      "æ¸ħç®Ĺç»Ħ": 8142,
      "èĥĮä¹¦": 8143,
      "æ»¥ä¼Ĳ": 8144,
      "éĿĴå°ĳå¹´": 8145,
      "éĢĢå½¹åĨĽäººå·¥ä½ľä¸»ç®¡éĥ¨éĹ¨": 8146,
      "æĵįä½ľè§Ħç¨ĭ": 8147,
      "å®Įæķ´çļĦ": 8148,
      "éĢłæĪĲçļĦæįŁå¤±": 8149,
      "Ġyour": 8150,
      "ä¸ĩåħĥä»¥ä¸ĬäºĶä¸ĩåħĥä»¥ä¸ĭçļĦç½ļæ¬¾": 8151,
      "æ¯ıä¸ªäººéĥ½": 8152,
      "èľĤ": 8153,
      "åħ½åĮ»": 8154,
      "é«ĺè´¨éĩıåıĳå±ķ": 8155,
      "ä¼ģä¸ļäºĭä¸ļç»Ħç»ĩ": 8156,
      "è¡įçĶŁ": 8157,
      "äºıæįŁ": 8158,
      "æ²¡æľīçº¦å®ļæĪĸèĢħçº¦å®ļä¸į": 8159,
      "To": 8160,
      "ne": 8161,
      "nswer": 8162,
      "ãĤ": 8163,
      "Ġ[": 8164,
      "Ġä¾Ŀæ³ķ": 8165,
      "ä¸ģ": 8166,
      "çļĦèģĮè´£": 8167,
      "çļĦåĨ³è®®": 8168,
      "äººçī©": 8169,
      "åįĪ": 8170,
      "åºĨ": 8171,
      "åľĨ": 8172,
      "åĴĮé£İéĻ©": 8173,
      "åĴĮç²¾ç¥ŀ": 8174,
      "æľīè´£ä»»": 8175,
      "åįģåĢįä»¥ä¸ĭçļĦç½ļæ¬¾": 8176,
      "çĽĽ": 8177,
      "çĶ¨æĿ¥": 8178,
      "æĪĸèĢħç»ĪæŃ¢": 8179,
      "ä¸įæĺİ": 8180,
      "äºĭåĲİ": 8181,
      "ä¸ŃæĸŃ": 8182,
      "åľ°éĿ¢": 8183,
      "åħ¨ç¤¾ä¼ļ": 8184,
      "åĲĮæŃ¥": 8185,
      "èĩªè§ī": 8186,
      "è®®åĳĺ": 8187,
      "æĪĳå¾Ī": 8188,
      "å¼Ģè®¾": 8189,
      "å¼Ģåŀ¦": 8190,
      "æĺİç¤º": 8191,
      "ä¾Ŀæ³ķè¿Ľè¡Į": 8192,
      "æĬ¥åºŁ": 8193,
      "ä¹ĭå¤Ħ": 8194,
      "ä»¥ä¸ĭåĩł": 8195,
      "çī¹åĮº": 8196,
      "åıįéĹ´è°į": 8197,
      "è¯¥é¡¹": 8198,
      "éĩıåŃĲ": 8199,
      "åħ¥åŃ¦": 8200,
      "çĶŁäº§çļĦ": 8201,
      "åĲįåĨĮ": 8202,
      "ä¿¡æģ¯æĬĢæľ¯": 8203,
      "åĨĽå£«": 8204,
      "å¦Ĥæŀľæĺ¯": 8205,
      "ä¸Ńåįİäººæ°ĳåħ±åĴĮåĽ½ç¼Ķç»ĵæĪĸèĢħ": 8206,
      "å®ŀæĸ½çĽĳçĿ£ç®¡çĲĨ": 8207,
      "å±¥è¡Įä¹īåĬ¡": 8208,
      "æĢ»åĲ¨": 8209,
      "æł¸ç®Ĺ": 8210,
      "ç»ĻäºĪå¥ĸåĬ±": 8211,
      "åıĳçĶŁæķĪåĬĽ": 8212,
      "åħ¬åħ±ç§©åºı": 8213,
      "èģĮä¸ļåģ¥åº·": 8214,
      "èģĮä¸ļéģĵå¾·": 8215,
      "ä½ľåĩºå¤ĦçĲĨ": 8216,
      "è¿½åĽŀ": 8217,
      "ä»»ä½ķäºº": 8218,
      "å¸ĤåľºçļĦ": 8219,
      "äººå·¥æĻºèĥ½åľ¨": 8220,
      "å¿ħé¡»ç»ı": 8221,
      "é»ĺ": 8222,
      "åľºæīĢåĴĮ": 8223,
      "äºĴåĬ¨": 8224,
      "å±ħæ°ĳæµ·å²Ľ": 8225,
      "çĽĳæĬ¤äººåºĶå½ĵ": 8226,
      "å¼ºåĪ¶ä»¤": 8227,
      "äºĭå®ŀçļĦ": 8228,
      "å£«åħµ": 8229,
      "çĽ®çļĦåľ°": 8230,
      "æĭĽèģĺ": 8231,
      "èĢĥèĻĳåĪ°": 8232,
      "å°½ç®¡": 8233,
      "çĬ¶åĨµåĴĮ": 8234,
      "æĬĢèĥ½åĴĮ": 8235,
      "éģĵè·¯äº¤éĢļå®īåħ¨": 8236,
      "å±ħä½ıåľ°": 8237,
      "éĺ²æĬ¤æİªæĸ½": 8238,
      "æŃ¦è£ħåĬĽéĩı": 8239,
      "æ¹¿åľ°ä¿ĿæĬ¤": 8240,
      "æĸ°éĹ»åªĴä½ĵ": 8241,
      "ç¬¬äºĮæ¬¾è§Ħå®ļ": 8242,
      "ä¸įæ»¡åįģ": 8243,
      "æĸĹæ®´": 8244,
      "çī©ä¸ļæľįåĬ¡äºº": 8245,
      "åŃ¦åīįåĦ¿ç«¥": 8246,
      "çĹĩçĬ¶": 8247,
      "Ġwhich": 8248,
      "ä¸īåĪĨä¹ĭäºĮä»¥ä¸Ĭ": 8249,
      "è¢«è¯·æ±Ĥå¼ķæ¸¡äºº": 8250,
      "æĹłå®³åĮĸå¤ĦçĲĨ": 8251,
      "22": 8252,
      ":**": 8253,
      "In": 8254,
      "ther": 8255,
      "Ġì": 8256,
      "ĠçļĦ": 8257,
      "Ġçº³ç¨İäºº": 8258,
      "äºķ": 8259,
      "çļĦå·¥èµĦ": 8260,
      "å®°": 8261,
      "åĪĢ": 8262,
      "æľīè´¢äº§": 8263,
      "æľīæ²¡æľī": 8264,
      "æľīéĴĪå¯¹": 8265,
      "ä¹Ķ": 8266,
      "åĽ½å¤ĸ": 8267,
      "ä¸įç¬¦": 8268,
      "åħ¶åľ¨": 8269,
      "å¯¹çİ¯å¢ĥ": 8270,
      "åħ¬ç§ģ": 8271,
      "ä½ľåģĩ": 8272,
      "åı¯ä»¥ä¸İ": 8273,
      "å®¶éĩĮ": 8274,
      "æĭ¦": 8275,
      "æľ¬èĬĤ": 8276,
      "åĩºåıĳ": 8277,
      "å¹¶ç»Ħç»ĩå®ŀæĸ½": 8278,
      "å¦¹": 8279,
      "å·¥ä½ľèĢħ": 8280,
      "æ¸Ĺ": 8281,
      "åıĹè®©äºº": 8282,
      "åįķä½įçĬ¯åīįæ¬¾ç½ªçļĦ": 8283,
      "åĬłä»¥": 8284,
      "åĲİåĭ¤": 8285,
      "è¢«æĴ¤éĶĢ": 8286,
      "æķ°ç½ª": 8287,
      "ç¬¬åįģä¸Ģç«ł": 8288,
      "æĿ¥å®ŀçİ°": 8289,
      "ä¹¦ç±į": 8290,
      "éĢĤæĹ¶": 8291,
      "åĨ³å®ļæĺ¯åĲ¦": 8292,
      "ä¸Ńåįİäººæ°ĳåħ±åĴĮåĽ½çļĦ": 8293,
      "inal": 8294,
      "ç¬¦åı·": 8295,
      "æĿ¡ä»¶ä¸ĭ": 8296,
      "æĪ·ç±į": 8297,
      "åŁºéĩĳåĲĪåĲĮ": 8298,
      "çģ°": 8299,
      "åıĬæĹ¶åĲĳ": 8300,
      "ä¸ŃåĽ½å¢ĥåĨħ": 8301,
      "æĶ¯ä»ĺæĬ¥éħ¬": 8302,
      "åĬ¨çī©äº§åĵģ": 8303,
      "è§Ĥå¿µ": 8304,
      "ç¼ĸåı·": 8305,
      "éģĹæ¼ı": 8306,
      "ç¾İåħĥ": 8307,
      "ç§ģåĪĨ": 8308,
      "ä»»åĬ¡åĴĮ": 8309,
      "æľīæķĪæľŁ": 8310,
      "ings": 8311,
      "æī£çķĻ": 8312,
      "ç¦»å©ļè¯īè®¼": 8313,
      "è¡Įä¸ļç»Ħç»ĩ": 8314,
      "è¯¯è§£": 8315,
      "ç¬¬ä¹Ŀåįģåħ«æĿ¡": 8316,
      "ç¬¬ä¹Ŀåįģä¹ĿæĿ¡": 8317,
      "çĸ¾çĹħçļĦ": 8318,
      "åĩºèµĦé¢Ŀ": 8319,
      "éľĢæ±ĤåĴĮ": 8320,
      "æŃ£å¸¸è¿Ĳè¡Į": 8321,
      "çŃĶæ¡Īæĺ¯": 8322,
      "çĦ¶åĲİåĨį": 8323,
      "åŁºå±Ĥç¾¤ä¼ĹæĢ§": 8324,
      "åľŁå£¤æ±¡æŁĵéĺ²æ²»": 8325,
      "åºĶå½ĵéģµå®Īæ³ķå¾ĭ": 8326,
      "æĹ¥å¸¸çĶŁæ´»": 8327,
      "åĢĴåįĸ": 8328,
      "åĢŁæ¬¾äºº": 8329,
      "åħ¬è¯ģæľºæŀĦ": 8330,
      "å®¢è§Ĥæĸ¹éĿ¢": 8331,
      "åıĳåĮħæĸ¹": 8332,
      "å©´åĦ¿": 8333,
      "çĹħåİŁå¾®çĶŁçī©": 8334,
      "è¾¹éĺ²æ£ĢæŁ¥": 8335,
      "æĮ¯åħ´": 8336,
      "éĢłæĪĲä»ĸäººæįŁå®³çļĦ": 8337,
      "æ°ĽåĽ´": 8338,
      "èµĶåģ¿ä¹īåĬ¡æľºåħ³": 8339,
      "åŁºå±Ĥç¾¤ä¼ĹæĢ§èĩªæ²»": 8340,
      "()": 8341,
      "app": 8342,
      "ĠU": 8343,
      "Ġèį¯åĵģ": 8344,
      "çļĦè´¢çī©": 8345,
      "çļĦåľ°æĸ¹åĲĦçº§äººæ°ĳä»£è¡¨å¤§ä¼ļ": 8346,
      "å®ħ": 8347,
      "åĴĮæķĻèĤ²": 8348,
      "åĴĮæłĩåĩĨ": 8349,
      "åĴĮä¸Ńå¤®åĨĽäºĭå§Ķåĳĺä¼ļ": 8350,
      "èĢ³": 8351,
      "æľīå¼Ĥè®®çļĦ": 8352,
      "æĪĸèĢħç»ı": 8353,
      "å¯¹æīĭ": 8354,
[...]
