{"<|endoftext|>":0,"<|im_start|>":1,"<|im_end|>":2,"<|object_ref_start|>":3,"<|object_ref_end|>":4,"<|box_start|>":5,"<|box_end|>":6,"<|quad_start|>":7,"<|quad_end|>":8,"<|vision_start|>":9,"<|vision_end|>":10,"<|vision_pad|>":11,"<|image_pad|>":12,"<|video_pad|>":13,"<|audio_start|>":14,"<|audio_end|>":15,"<|audio_pad|>":16,"<tts_pad>":17,"<tts_text_bos>":18,"<tts_text_eod>":19,"<tts_text_bos_single>":20,"<tool_call>":21,"</tool_call>":22,"<tool_response>":23,"</tool_response>":24,"<think>":25,"</think>":26,"<|buffer1|>":27,"<|buffer2|>":28,"<|buffer3|>":29,"<|buffer4|>":30,"<|buffer5|>":31,"<|buffer6|>":32,"<|buffer7|>":33,"<|buffer8|>":34,"<|buffer9|>":35,"!":36,"\"":37,"#":38,"$":39,"%":40,"&":41,"'":42,"(":43,")":44,"*":45,"+":46,",":47,"-":48,".":49,"/":50,"0":51,"1":52,"2":53,"3":54,"4":55,"5":56,"6":57,"7":58,"8":59,"9":60,":":61,";":62,"<":63,"=":64,">":65,"?":66,"@":67,"A":68,"B":69,"C":70,"D":71,"E":72,"F":73,"G":74,"H":75,"I":76,"J":77,"K":78,"L":79,"M":80,"N":81,"O":82,"P":83,"Q":84,"R":85,"S":86,"T":87,"U":88,"V":89,"W":90,"X":91,"Y":92,"Z":93,"[":94,"\\":95,"]":96,"^":97,"_":98,"`":99,"a":100,"b":101,"c":102,"d":103,"e":104,"f":105,"g":106,"h":107,"i":108,"j":109,"k":110,"l":111,"m":112,"n":113,"o":114,"p":115,"q":116,"r":117,"s":118,"t":119,"u":120,"v":121,"w":122,"x":123,"y":124,"z":125,"{":126,"|":127,"}":128,"~":129,"¡":130,"¢":131,"£":132,"¤":133,"¥":134,"¦":135,"§":136,"¨":137,"©":138,"ª":139,"«":140,"¬":141,"®":142,"¯":143,"°":144,"±":145,"²":146,"³":147,"´":148,"µ":149,"¶":150,"·":151,"¸":152,"¹":153,"º":154,"»":155,"¼":156,"½":157,"¾":158,"¿":159,"À":160,"Á":161,"Â":162,"Ã":163,"Ä":164,"Å":165,"Æ":166,"Ç":167,"È":168,"É":169,"Ê":170,"Ë":171,"Ì":172,"Í":173,"Î":174,"Ï":175,"Ð":176,"Ñ":177,"Ò":178,"Ó":179,"Ô":180,"Õ":181,"Ö":182,"×":183,"Ø":184,"Ù":185,"Ú":186,"Û":187,"Ü":188,"Ý":189,"Þ":190,"ß":191,"à":192,"á":193,"â":194,"ã":195,"ä":196,"å":197,"æ":198,"ç":199,"è":200,"é":201,"ê":202,"ë":203,"ì":204,"í":205,"î":206,"ï":207,"ð":208,"ñ":209,"ò":210,"ó":211,"ô":212,"õ":213,"ö":214,"÷":215,"ø":216,"ù":217,"ú":218,"û":219,"ü":220,"ý":221,"þ":222,"ÿ":223,"Ā":224,"ā":225,"Ă":226,"ă":227,"Ą":228,"ą":229,"Ć":230,"ć":231,"Ĉ":232,"ĉ":233,"Ċ":234,"ċ":235,"Č":236,"č":237,"Ď":238,"ď":239,"Đ":240,"đ":241,"Ē":242,"ē":243,"Ĕ":244,"ĕ":245,"Ė":246,"ė":247,"Ę":248,"ę":249,"Ě":250,"ě":251,"Ĝ":252,"ĝ":253,"Ğ":254,"ğ":255,"Ġ":256,"ġ":257,"Ģ":258,"ģ":259,"Ĥ":260,"ĥ":261,"Ħ":262,"ħ":263,"Ĩ":264,"ĩ":265,"Ī":266,"ī":267,"Ĭ":268,"ĭ":269,"Į":270,"į":271,"İ":272,"ı":273,"Ĳ":274,"ĳ":275,"Ĵ":276,"ĵ":277,"Ķ":278,"ķ":279,"ĸ":280,"Ĺ":281,"ĺ":282,"Ļ":283,"ļ":284,"Ľ":285,"ľ":286,"Ŀ":287,"ŀ":288,"Ł":289,"ł":290,"Ń":291,"ä¸":292,"ï¼":293,"ãĢ":294,"äº":295,"çļ":296,"çļĦ":297,"ï¼Į":298,"åħ":299,"ä»":300,"æľ":301,"å®":302,"åı":303,"ãĢĤ":304,"ãĢģ":305,"äºº":306,"åĪ":307,"åĬ":308,"åį":309,"çĶ":310,"æĿ":311,"åĽ":312,"åĲ":313,"æ³":314,"ä½":315,"ç»":316,"æĪ":317,"åº":318,"å¤":319,"æ³ķ":320,"è¡":321,"è¿":322,"è®":323,"åĴ":324,"è¯":325,"åľ":326,"åĴĮ":327,"ç¬":328,"è´":329,"ä¼":330,"ç¬¬":331,"æĸ":332,"ä»¥":333,"æĶ":334,"å½":335,"è§":336,"è¡Į":337,"å®ļ":338,"æ°":339,"èĢ":340,"æľī":341,"æī":342,"æĿ¡":343,"åĨ":344,"éĻ":345,"ä¸Ģ":346,"åįģ":347,"ä¹":348,"åĽ½":349,"çĽ":350,"æĬ":351,"æ°ĳ":352,"åºĶ":353,"ä¿":354,"éĩ":355,"èĢħ":356,"å¾":357,"å¯":358,"éĢ":359,"å¹":360,"æĺ":361,"åĳ":362,"å½ĵ":363,"æĪĸ":364,"è§Ħ":365,"æĹ":366,"åħ³":367,"æł":368,"ç®":369,"ä¾":370,"åĩ":371,"çĲ":372,"ä¼ļ":373,"éĹ":374,"åĬ¡":375,"çĶ¨":376,"æķ":377,"çĲĨ":378,"åĮ":379,"æĪĸèĢħ":380,"å·":381,"åı¯":382,"åľ¨":383,"ä¸ļ":384,"ä¸į":385,"åºĶå½ĵ":386,"çº":387,"å¼":388,"æŀ":389,"æĶ¿":390,"èµ":391,"ç®¡":392,"çī":393,"äºĭ":394,"åħ¶":395,"äººæ°ĳ":396,"åŃ":397,"çĶŁ":398,"å¸":399,"æİ":400,"æį":401,"å°":402,"çŃ":403,"ä¸º":404,"ç½":405,"è§Ħå®ļ":406,"æľº":407,"æĮ":408,"ä¿Ŀ":409,"å¯¹":410,"ï¼Ľ":411,"åĳĺ":412,"ç§":413,"ä¸Ń":414,"å±":415,"åħ¬":416,"éĥ":417,"¦ģ":418,"å·¥":419,"ä½ľ":420,"ç«":421,"äºĮ":422,"æŃ":423,"åĲĪ":424,"äº§":425,"æĺ¯":426,"åľ°":427,"æĢ":428,"éĥ¨":429,"è¦ģ":430,"ï¼ī":431,"ï¼Ī":432,"æı":433,"æĿĥ":434,"é¢":435,"ä¸ī":436,"ä¸Ĭ":437,"åı¯ä»¥":438,"å®¶":439,"ä»ĸ":440,"èĥ":441,"è´£":442,"èĩ":443,"æĸ¹":444,"æĭ":445,"ç»ı":446,"å¤Ħ":447,"æľ¬":448,"ï¼ļ":449,"åıĳ":450,"éĹ¨":451,"åĵ":452,"æĪĲ":453,"åĩº":454,"æµ":455,"åĪ¶":456,"æıĲ":457,"èĥ½":458,"çŃī":459,"æį®":460,"åħ¨":461,"ä¸ĭ":462,"ä¸ª":463,"æ¬":464,"åĬ¨":465,"æĥ":466,"éĻ¢":467,"çī©":468,"åŁ":469,"è®¾":470,"éĥ¨éĹ¨":471,"æĹ¶":472,"äºĶ":473,"çİ":474,"æ²":475,"æŁ":476,"åĲĮ":477,"èģ":478,"å¹¶":479,"ä¸»":480,"æ±":481,"è¿Ľ":482,"ä¾Ŀ":483,"åİ":484,"ä»»":485,"åģ":486,"èĩª":487,"è¯ģ":488,"åĽ½å®¶":489,"æīĢ":490,"å®ī":491,"æĸ½":492,"ç®¡çĲĨ":493,"çħ":494,"ç¨":495,"è¾":496,"çĶ±":497,"åĽĽ":498,"å®ŀ":499,"å¾ĭ":500,"çº§":501,"å¾Ĺ":502,"æŀĦ":503,"å»":504,"åıĬ":505,"çħ§":506,"èµĦ":507,"æĥħ":508,"æľŁ":509,"åħ¶ä»ĸ":510,"åĵģ":511,"åĪĨ":512,"éĿ":513,"å¦":514,"æľīåħ³":515,"çĻ":516,"å¤§":517,"ä½ĵ":518,"å»º":519,"éĢļ":520,"çĽĳ":521,"éĺ":522,"å¹´":523,"æ´":524,"åŃ¦":525,"å§":526,"ä½į":527,"åĪ©":528,"éĩį":529,"ç¤":530,"æĬ¤":531,"èģĮ":532,"äºİ":533,"è¯·":534,"æ³ķå¾ĭ":535,"è¡ĮæĶ¿":536,"åįķ":537,"éģ":538,"èĤ":539,"æ¬¾":540,"è¡¨":541,"åĢ":542,"æł¹":543,"åºľ":544,"è®®":545,"ä»£":546,"æĶ¿åºľ":547,"æĦ":548,"æł¹æį®":549,"ä»¶":550,"ç»Ħ":551,"äººåĳĺ":552,"éľ":553,"åıĸ":554,"åĮº":555,"å¥":556,"æľºæŀĦ":557,"åħ±":558,"èĪ":559,"å¢":560,"ä½¿":561,"è¿ĩ":562,"åħŃ":563,"å·¥ä½ľ":564,"ä»¥ä¸Ĭ":565,"æ¡":566,"éĩĳ":567,"äºĨ":568,"é¡":569,"æĪĳ":570,"å¦Ĥ":571,"ä¸İ":572,"å¿":573,"æľª":574,"æ¸":575,"åĨħ":576,"çĸ":577,"è½":578,"æŁ¥":579,"è¿Ŀ":580,"ç«ł":581,"çĽ¸":582,"å§Ķ":583,"åī":584,"äº¤":585,"æĸĩ":586,"å¤ĸ":587,"åıĹ":588,"è¿Ľè¡Į":589,"åĨ³":590,"å®īåħ¨":591,"æĶ¶":592,"å¼Ģ":593,"è°":594,"æ±Ĥ":595,"ä¿¡":596,"ç¬¬äºĮ":597,"éľĢ":598,"æĺİ":599,"èĲ":600,"åįķä½į":601,"ç¤¾":602,"æĢ§":603,"ä¾Ŀæ³ķ":604,"ç«ĭ":605,"åĲĳ":606,"åĩĨ":607,"æ¡Ī":608,"ä¾Ľ":609,"æĬ¥":610,"ç»ĩ":611,"äººæ°ĳæĶ¿åºľ":612,"çĻ¾":613,"ç»Ħç»ĩ":614,"éĻ©":615,"æģ":616,"ç¡":617,"çĿ":618,"æłĩ":619,"çŁ":620,"ä¸ĥ":621,"æľºåħ³":622,"æ¯":623,"åĬł":624,"è¢":625,"è´£ä»»":626,"æī¿":627,"ç¨ĭ":628,"ç½ª":629,"æ£":630,"æĮī":631,"ç½ļ":632,"åĲİ":633,"çĬ":634,"è¢«":635,"åĳĬ":636,"ä¹ĭ":637,"å¢ĥ":638,"åĮĸ":639,"è¡Įä¸º":640,"ãĢĭ":641,"ãĢĬ":642,"åĪ°":643,"æŀľ":644,"æĹ¥":645,"åĽł":646,"ä»¥ä¸ĭ":647,"éļ":648,"è¿Ļ":649,"èĲ¥":650,"åı¸":651,"æ´»":652,"æĬĢ":653,"éĺ²":654,"è§£":655,"åĽ½åĬ¡":656,"å±ķ":657,"æľ¬æ³ķ":658,"æ£Ģ":659,"åĽ½åĬ¡éĻ¢":660,"åħ·":661,"ç¬¬ä¸ī":662,"è®¡":663,"åĬĽ":664,"æĦı":665,"æ²»":666,"æķ°":667,"æİ¥":668,"ç¡®":669,"åħ«":670,"è´¢":671,"ç§į":672,"ä»£è¡¨":673,"ä¸»ç®¡":674,"éľĢè¦ģ":675,"æıĲä¾Ľ":676,"ç»Ļ":677,"å§Ķåĳĺ":678,"æĮģ":679,"å®¡":680,"å°Ĩ":681,"éĩĩ":682,"ç¬¬ä¸Ģ":683,"çİ°":684,"ä½¿çĶ¨":685,"æķĻ":686,"éĶ":687,"æĮīçħ§":688,"çī¹":689,"éĽ":690,"äºĪ":691,"ç¤¾ä¼ļ":692,"åŁº":693,"æľį":694,"åĪĳ":695,"è£":696,"è¿Ĳ":697,"è°ĥ":698,"åķ":699,"é«":700,"ä¿ĿæĬ¤":701,"å¸¸":702,"é«ĺ":703,"æµ·":704,"åıį":705,"é£":706,"èĤ²":707,"åĨµ":708,"å§Ķåĳĺä¼ļ":709,"æŃ£":710,"åħ¬åı¸":711,"æ°´":712,"èĬ":713,"çĿ£":714,"ä»¬":715,"å®³":716,"ç¬¬åįģ":717,"æľ¯":718,"éĻĲ":719,"åĨľ":720,"æ¶":721,"æĶ¯":722,"ä¹Ŀ":723,"éĹ´":724,"åīį":725,"çĽĬ":726,"æģ¯":727,"è¯¥":728,"ä¼ģ":729,"åĬ©":730,"è¯ī":731,"åħĥ":732,"åķĨ":733,"éĿ¢":734,"çĽĳçĿ£":735,"æ³ķéĻ¢":736,"æĽ":737,"çĶ³":738,"ä¼ģä¸ļ":739,"é¡¹":740,"ç©":741,"éĩı":742,"æī§":743,"çĬ¯":744,"åħ¥":745,"å°ı":746,"å¸Ĥ":747,"è´¹":748,"æĻ":749,"èį":750,"åº¦":751,"åįı":752,"èµ·":753,"å¤ĩ":754,"ç³":755,"çĶŁäº§":756,"æĿ¥":757,"åİŁ":758,"åŃĲ":759,"æĶ¹":760,"éĢł":761,"æĥħåĨµ":762,"æĤ":763,"å¼ı":764,"éķ":765,"ä»İ":766,"åľº":767,"çĶµ":768,"åĲį":769,"æĬĢæľ¯":770,"ä¸ªäºº":771,"è´Ł":772,"ä¸įå¾Ĺ":773,"ç¬¬åĽĽ":774,"ä¿¡æģ¯":775,"æĮĩ":776,"è´¨":777,"ç»ıèĲ¥":778,"ä¹¦":779,"åĲĦ":780,"çĽ´":781,"æľįåĬ¡":782,"èĬĤ":783,"éĹ®":784,"ç¼":785,"çİ¯":786,"ï¼Ł":787,"æĽ´":788,"æĭħ":789,"çŁ¥":790,"ç³»":791,"ä¸»ç®¡éĥ¨éĹ¨":792,"ä¸ĵ":793,"è§Ħå®ļçļĦ":794,"åĮħ":795,"ä¹ī":796,"æİª":797,"æ´»åĬ¨":798,"çľ":799,"åŁŁ":800,"é¢ĺ":801,"åĪĴ":802,"åĪĹ":803,"å¼º":804,"çł":805,"æİªæĸ½":806,"åĬŀ":807,"çĶ³è¯·":808,"æº":809,"ç»ĵ":810,"ç±":811,"çķ":812,"éĻ¤":813,"æķĻèĤ²":814,"è®°":815,"è¶":816,"åĨĽ":817,"éª":818,"æįŁ":819,"æĹł":820,"æŃ¢":821,"éĢĤ":822,"çº¦":823,"æķĪ":824,"çĽ®":825,"äººçļĦ":826,"ç¬¬äºĶ":827,"ç¬¬äºĮåįģ":828,"åģ¿":829,"æºĲ":830,"çļĦè§Ħå®ļ":831,"âĢ":832,"ç®Ĺ":833,"åįİ":834,"åĲĪåĲĮ":835,"åĮ»":836,"åİ¿":837,"å¤§ä¼ļ":838,"é¢Ħ":839,"æ®":840,"éħ":841,"æĸ°":842,"éķ¿":843,"éĿŀ":844,"éĢī":845,"äººæ°ĳæ³ķéĻ¢":846,"åĢº":847,"éĶĢ":848,"ä¸ĩ":849,"å¤ļ":850,"éĩĩåıĸ":851,"å»ºè®¾":852,"ä¾Ŀçħ§":853,"çĽ¸åħ³":854,"åĪ«":855,"è´¢äº§":856,"åĿ":857,"çĤ":858,"ç¨İ":859,"ä¸¥":860,"åĪĻ":861,"ç¥":862,"ä¿ĿéĻ©":863,"å¯¼":864,"çĹ":865,"çĦ":866,"è¦ģæ±Ĥ":867,"äºĽ":868,"å¥½":869,"è¿Ŀåıį":870,"åĨ³å®ļ":871,"èĢĮ":872,"çĬ¯ç½ª":873,"ä½Ĩ":874,"é¢Ŀ":875,"åľ°æĸ¹":876,"ä¸Ńåįİ":877,"å½¢":878,"å¯Ł":879,"ä¸ĩåħĥ":880,"çİ¯å¢ĥ":881,"ä½ł":882,"Ġt":883,"æŃ¤":884,"ç§ĳ":885,"åıĳå±ķ":886,"æī¹":887,"å¤į":888,"è®¤":889,"å¦Ĥæŀľ":890,"å¤ĦçĲĨ":891,"ç¬¬ä¸īåįģ":892,"æł¼":893,"æī§è¡Į":894,"çĦ¶":895,"æīĺ":896,"åĴĮåĽ½":897,"éĽĨ":898,"å½±":899,"éģĵ":900,"ä»£è¡¨å¤§ä¼ļ":901,"é¦":902,"å¤±":903,"çĹħ":904,"åİ¿çº§":905,"éĹ®é¢ĺ":906,"ç¬¬åħŃ":907,"èĮ":908,"èī":909,"äººæ°ĳåħ±":910,"ä¸Ģä¸ª":911,"æľĢ":912,"ç»Ł":913,"ä¸Ńåįİäººæ°ĳåħ±":914,"ä¸Ńåįİäººæ°ĳåħ±åĴĮåĽ½":915,"åºı":916,"è¿Ŀæ³ķ":917,"ä»ĺ":918,"éĢļè¿ĩ":919,"æ²¡":920,"æĬķ":921,"è´Łè´£":922,"ä»¥åıĬ":923,"ç±»":924,"è´§":925,"åľŁ":926,"ä»·":927,"äººæ°ĳä»£è¡¨å¤§ä¼ļ":928,"ä»¤":929,"å±¥":930,"æĶ¾":931,"åį±":932,"å®ŀæĸ½":933,"è·":934,"æĤ¨":935,"ä¸ĥæĿ¡":936,"æ³ķè§Ħ":937,"è£ģ":938,"ä¹Ł":939,"å±¥è¡Į":940,"in":941,"å¹³":942,"åħ«æĿ¡":943,"åŃĺ":944,"éļľ":945,"æĺĵ":946,"æĸĻ":947,"è®¸":948,"ä¹ĿæĿ¡":949,"ä¼ł":950,"é¢Ĩ":951,"ä¸ĢæĿ¡":952,"åİ¿çº§ä»¥ä¸Ĭ":953,"å¿ħ":954,"åıĺ":955,"æĿĳ":956,"çĸĹ":957,"å¤Ħç½ļ":958,"åıĤ":959,"åģ¥":960,"èĮĥ":961,"Ġa":962,"ç½®":963,"åĬ³":964,"æ¬¡":965,"ç¬¦":966,"æŁĵ":967,"åı£":968,"ç¬¬åĽĽåįģ":969,"è½¬":970,"åĪ¤":971,"å½ĵäºĭ":972,"äºĮæĿ¡":973,"è¿ĺ":974,"åħ»":975,"èº":976,"æľĪ":977,"ä½ķ":978,"ä¸īæĿ¡":979,"çĽĳçĿ£ç®¡çĲĨ":980,"æĢ»":981,"é£Ł":982,"è®¼":983,"he":984,"è¯īè®¼":985,"èº«":986,"åĽĽæĿ¡":987,"åĸ":988,"è¾ĵ":989,"èĪ¹":990,"åĪ¶å®ļ":991,"è®¾æĸ½":992,"æī¿æĭħ":993,"ç½ļæ¬¾":994,"æł¸":995,"åĪ¸":996,"ä¸¥éĩį":997,"æµģ":998,"çĤ¹":999,"æķħ":1000,"ç¦":1001,"æĸ¹å¼ı":1002,"éĵ":1003,"äºĶæĿ¡":1004,"æµİ":1005,"æ»":1006,"ç¬¬ä¸ĢçĻ¾":1007,"ç´":1008,"ä¸ĭåĪĹ":1009,"çĽ´æİ¥":1010,"åħŃæĿ¡":1011,"å±ŀ":1012,"éªĮ":1013,"åħ¨åĽ½":1014,"ĠåĽ½å®¶":1015,"åĬ³åĬ¨":1016,"æ±¡":1017,"æłĩåĩĨ":1018,"ç¬¦åĲĪ":1019,"ç»ıæµİ":1020,"æİ¨":1021,"èµĶ":1022,"åı¯èĥ½":1023,"æĢģ":1024,"æī¹åĩĨ":1025,"ç©¶":1026,"ç¬¬äºĶåįģ":1027,"æĿ¡ä»¶":1028,"è¯Ħ":1029,"ä¼ļè®®":1030,"å½ĵäºĭäºº":1031,"æĿĥåĪ©":1032,"æľīåħ³éĥ¨éĹ¨":1033,"æĪ·":1034,"æ³¨":1035,"ç»ĻäºĪ":1036,"ä¿®":1037,"æĪĳä»¬":1038,"æ¶Ī":1039,"æİ§":1040,"éħį":1041,"åĻ":1042,"åĵį":1043,"å°±":1044,"èĤ¡":1045,"åŁºéĩĳ":1046,"çĻ»":1047,"èµĶåģ¿":1048,"è®©":1049,"ä¿Ŀéļľ":1050,"ç½ĳ":1051,"åĴĮåħ¶ä»ĸ":1052,"è¯ģåĪ¸":1053,"re":1054,"åºŃ":1055,"è´£ä»¤":1056,"éĢłæĪĲ":1057,"çģ":1058,"æıĲåĩº":1059,"ä¸¾":1060,"æµĭ":1061,"åħĪ":1062,"æİĴ":1063,"ä¹īåĬ¡":1064,"éĤ":1065,"å½¹":1066,"è¯·æ±Ĥ":1067,"å½±åĵį":1068,"ä»½":1069,"åĽŀ":1070,"å¸¸åĬ¡":1071,"èį¯":1072,"çĪ":1073,"è§ĦåĪĴ":1074,"èŃ":1075,"çĻ»è®°":1076,"åį«":1077,"èģĮè´£":1078,"å¸¸åĬ¡å§Ķåĳĺä¼ļ":1079,"å¥³":1080,"äº§åĵģ":1081,"å®ļçļĦ":1082,"èŃ¦":1083,"æķĳ":1084,"on":1085,"åĮ»çĸĹ":1086,"èĻ":1087,"æķ´":1088,"åĶ":1089,"åıĬæĹ¶":1090,"å±ħ":1091,"å®Į":1092,"æĬ¥åĳĬ":1093,"è®¸åı¯":1094,"ç¥¨":1095,"ä¸ŃåĽ½":1096,"ç¬¬ä¸ĥ":1097,"æľīæĿĥ":1098,"æĻº":1099,"ç¾":1100,"æīĭ":1101,"æĴ":1102,"å¸Ī":1103,"å»ºç«ĭ":1104,"è´Ń":1105,"åĻ¨":1106,"å·²":1107,"å¸ĥ":1108,"ĠĠ":1109,"åıĳçĶŁ":1110,"èµĦæºĲ":1111,"å°ĳ":1112,"åŀ":1113,"åĪ©çĶ¨":1114,"åħ¬åħ±":1115,"æ²¡æľī":1116,"çº³":1117,"å½ķ":1118,"éĻħ":1119,"ç»Ń":1120,"èĪª":1121,"ç©º":1122,"æ¸ħ":1123,"åį«çĶŁ":1124,"é£İ":1125,"å¸®":1126,"åľŁåľ°":1127,"èĩªæ²»":1128,"ä¾ĭ":1129,"è¯Ĩ":1130,"å¯Ĩ":1131,"æĭ¬":1132,"åĬłå¼º":1133,"åħ·ä½ĵ":1134,"ä¾µ":1135,"ä¼ĺ":1136,"åıĬåħ¶":1137,"é©":1138,"ç¬¬åħŃåįģ":1139,"è¿Ĳè¾ĵ":1140,"æ°Ķ":1141,"æĿĥçĽĬ":1142,"è½¦":1143,"å¼Ģå±ķ":1144,"åº·":1145,"èģĮä¸ļ":1146,"æ¡Īä»¶":1147,"æ±¡æŁĵ":1148,"å£":1149,"äº¤éĢļ":1150,"æĻºèĥ½":1151,"åĮħæĭ¬":1152,"å©":1153,"åĲ¦":1154,"è£ħ":1155,"çī¹åĪ«":1156,"ä½ľåĩº":1157,"çľģ":1158,"er":1159,"è¿°":1160,"åĸĦ":1161,"ç²":1162,"å®¹":1163,"åĽ´":1164,"æĶ¯æĮģ":1165,"è¾ĸ":1166,"ç¨ĭåºı":1167,"ä¹ĭä¸Ģ":1168,"ç»´":1169,"å¹¿":1170,"åįĸ":1171,"è¾¾":1172,"åĪ¶åº¦":1173,"åĽłæŃ¤":1174,"åħ¨åĽ½äººæ°ĳä»£è¡¨å¤§ä¼ļ":1175,"æ£ĢæŁ¥":1176,"çłĶ":1177,"ä¹ł":1178,"è§ģ":1179,"æ·":1180,"è¿½":1181,"20":1182,"åĬ±":1183,"å¿ĥ":1184,"å·±":1185,"ä»İäºĭ":1186,"ç¦»":1187,"æł¡":1188,"æĹ¶éĹ´":1189,"èģĶ":1190,"åħį":1191,"ä¹Ī":1192,"çĭ":1193,"èĩ´":1194,"èĩªå·±":1195,"åĶ®":1196,"æīĢå¾Ĺ":1197,"éĢĤçĶ¨":1198,"æľŁå¾":1199,"æĥħèĬĤ":1200,"åģ¥åº·":1201,"èĭ":1202,"çĶŁæĢģ":1203,"ç¤º":1204,"è·¯":1205,"åĢºåĬ¡":1206,"å®¢":1207,"éĢĢ":1208,"è¡ĮæĶ¿åĮº":1209,"åģľ":1210,"âĢĿ":1211,"âĢľ":1212,"æĥħå½¢":1213,"åĪĳäºĭ":1214,"ĴåĪĳ":1215,"å¼ķ":1216,"èĢĥ":1217,"æľŁå¾ĴåĪĳ":1218,"å®ĥ":1219,"çĥ":1220,"äº«":1221,"ç§°":1222,"è°ĥæŁ¥":1223,"çº§äººæ°ĳæĶ¿åºľ":1224,"åĭ":1225,"åĩı":1226,"en":1227,"èĥ½åĬĽ":1228,"æķ°æį®":1229,"èİ":1230,"å©ļ":1231,"æ£Ģå¯Ł":1232,"å¸®åĬ©":1233,"è¯´":1234,"è´¨éĩı":1235,"çĸ«":1236,"ä»²":1237,"å²":1238,"è®¾ç«ĭ":1239,"æ¶ī":1240,"æĶ¯ä»ĺ":1241,"Ġthe":1242,"çŃ¾":1243,"ä¸ĩåħĥä»¥ä¸ĭ":1244,"ä»²è£ģ":1245,"æĪĸèĢħåħ¶ä»ĸ":1246,"æĪĲå¹´":1247,"æĦŁ":1248,"åħ¬å®ī":1249,"ç¦ģ":1250,"åħ³ç³»":1251,"æĬķèµĦ":1252,"æľŁéĻĲ":1253,"èĪ¶":1254,"Ġs":1255,"æĢ¥":1256,"èĪ¹èĪ¶":1257,"çĶŁæ´»":1258,"æĸĩåĮĸ":1259,"å¤©":1260,"å¾ģ":1261,"æĺ¯åĲ¦":1262,"è¡¥":1263,"åĪĽ":1264,"éĩįè¦ģ":1265,"åĨľä¸ļ":1266,"at":1267,"åĲĪæ³ķ":1268,"åĽ¢":1269,"è¿Ŀåıįæľ¬æ³ķ":1270,"äº¤æĺĵ":1271,"äºĪä»¥":1272,"è¯Ń":1273,"åŃĹ":1274,"ç¡®å®ļ":1275,"æ¸¯":1276,"æıĲé«ĺ":1277,"æĪ¿":1278,"çĸ¾":1279,"æ»¡":1280,"éĩįå¤§":1281,"ç¬¬åħ«":1282,"æ¯ı":1283,"æ¯Ķ":1284,"èĮĥåĽ´":1285,"è§Ĩ":1286,"èī²":1287,"èĳ":1288,"ä¹°":1289,"ç§ĳåŃ¦":1290,"åĨľæĿĳ":1291,"åįıè®®":1292,"æĿĲ":1293,"æįŁå¤±":1294,"é¡»":1295,"ä¸ĵä¸ļ":1296,"è®¾å¤ĩ":1297,"æľªæĪĲå¹´":1298,"å§Ķæīĺ":1299,"æľīæľŁå¾ĴåĪĳ":1300,"éĥ½":1301,"æľīåħ³è§Ħå®ļ":1302,"å®Ī":1303,"åĬŀçĲĨ":1304,"éĴ":1305,"éĢģ":1306,"èįī":1307,"æĹ¥èµ·":1308,"é¼":1309,"çķĻ":1310,"åħ·æľī":1311,"æ¸¸":1312,"éĵ¶":1313,"æĶ¹æŃ£":1314,"ä¸ļåĬ¡":1315,"äººå·¥":1316,"åħ³äºİ":1317,"åĢ¼":1318,"ä½ı":1319,"èĩªçĦ¶":1320,"åľ°æĸ¹äººæ°ĳæĶ¿åºľ":1321,"åį±éĻ©":1322,"è¡ĮæĶ¿æ³ķè§Ħ":1323,"æŀĦæĪĲ":1324,"æĥ³":1325,"éĺŁ":1326,"æ°ĳäºĭ":1327,"å®ĺ":1328,"åīįæ¬¾":1329,"ä»»ä½ķ":1330,"éĵ¶è¡Į":1331,"æĹħ":1332,"å°ıæĺİ":1333,"åį³":1334,"çª":1335,"åŁİ":1336,"åĪ©çĽĬ":1337,"ä½Ĩæĺ¯":1338,"äºĭæķħ":1339,"ä¸ŃçļĦ":1340,"ç§Ł":1341,"åŃ¦æł¡":1342,"é£Łåĵģ":1343,"åı¦":1344,"æŁĲ":1345,"is":1346,"æįŁå®³":1347,"è±":1348,"æĭĴ":1349,"ç¬¬ä¸ĥåįģ":1350,"é¡¹çĽ®":1351,"åħ±åĲĮ":1352,"èİ·":1353,"ä¸¤":1354,"è´¹çĶ¨":1355,"or":1356,"æŃ¥":1357,"èŀ":1358,"æĹı":1359,"ç¼´":1360,"ç§»":1361,"åıĸå¾Ĺ":1362,"çĬ¶":1363,"çł´":1364,"åıĳçİ°":1365,"åĨħå®¹":1366,"äºĭé¡¹":1367,"æĸ¹éĿ¢":1368,"è®º":1369,"ä¼Ļ":1370,"æŀĹ":1371,"çº¦å®ļ":1372,"åĢºæĿĥ":1373,"å¼Ģåıĳ":1374,"ç¢":1375,"ä¸ĢäºĽ":1376,"åºĶå½ĵæĮīçħ§":1377,"é¼ĵ":1378,"an":1379,"æİ¥åıĹ":1380,"å¸Ĥåľº":1381,"æİ§åĪ¶":1382,"çłĶç©¶":1383,"åĲĮæĹ¶":1384,"èŀį":1385,"éĶĢåĶ®":1386,"çļĦç½ļæ¬¾":1387,"åŁ¹":1388,"åĬ¨çī©":1389,"è¶ħ":1390,"äºī":1391,"è§Ĥ":1392,"ä¸ĩåħĥä»¥ä¸Ĭ":1393,"æĸŃ":1394,"è®¡ç®Ĺ":1395,"ç¼ĸ":1396,"éĢļçŁ¥":1397,"ä¸Ķ":1398,"äºĮåįģ":1399,"é¼ĵåĬ±":1400,"åŃ¦ä¹ł":1401,"ç»´æĬ¤":1402,"å¢ŀ":1403,"ä¿ĥ":1404,"æĺ¯æĮĩ":1405,"es":1406,"çŃĸ":1407,"åħ¬å®īæľºåħ³":1408,"æĪĲåĳĺ":1409,"ä»ĸäºº":1410,"åİ¿çº§ä»¥ä¸Ĭäººæ°ĳæĶ¿åºľ":1411,"äººå·¥æĻºèĥ½":1412,"éĿŀæ³ķ":1413,"è¯ģæį®":1414,"å¿ħé¡»":1415,"å®ŀè¡Į":1416,"æļ":1417,"èĢģ":1418,"é»":1419,"ä¸ľ":1420,"å¹¶å¤Ħ":1421,"ä¹¡":1422,"æĦıè§ģ":1423,"åŀĭ":1424,"åĴĮä¸ªäºº":1425,"å»ºè®®":1426,"ç»Ī":1427,"è®¢":1428,"å·²ç»ı":1429,"è®Ń":1430,"å¿ħè¦ģ":1431,"å±Ĭ":1432,"è´§çī©":1433,"ä¼°":1434,"å·¥ç¨ĭ":1435,"å¸¦":1436,"ä¸įåĲĮ":1437,"è¿ĩç¨ĭ":1438,"æīĢæľī":1439,"éĻĦ":1440,"ç»§":1441,"å®¶åºŃ":1442,"å·¥ä½ľäººåĳĺ":1443,"çĿĢ":1444,"åºĶçĶ¨":1445,"éģµ":1446,"éģĹ":1447,"çĽ¸åºĶ":1448,"è¿Ŀæ³ķæīĢå¾Ĺ":1449,"æ®µ":1450,"è¯ģæĺİ":1451,"åıĤåĬł":1452,"ä¼¤":1453,"è¶³":1454,"çļĦè¡Įä¸º":1455,"åĨį":1456,"æĭĺ":1457,"åĲĪä½ľ":1458,"åħ¨åĽ½äººæ°ĳä»£è¡¨å¤§ä¼ļå¸¸åĬ¡å§Ķåĳĺä¼ļ":1459,"Ġc":1460,"åľºæīĢ":1461,"éĽ¶":1462,"æĬ¼":1463,"é£İéĻ©":1464,"èĩ³":1465,"è¯Ħä¼°":1466,"è®¡åĪĴ":1467,"åĲĪä¼Ļ":1468,"åģĩ":1469,"ç¦ģæŃ¢":1470,"00":1471,"åĤ":1472,"èį¯åĵģ":1473,"æ®ĭ":1474,"ç»ľ":1475,"è¨":1476,"èĩªæ²»åĮº":1477,"åįĥ":1478,"ç¾İ":1479,"æĵ":1480,"åħ¬æ°ĳ":1481,"ç½ĳç»ľ":1482,"åºŁ":1483,"å®£":1484,"ç§ģ":1485,"äºĭä¸ļ":1486,"æ°ĳæĹı":1487,"çİĩ":1488,"ä¹ĭæĹ¥èµ·":1489,"åĲĪçĲĨ":1490,"è¿Ļä¸ª":1491,"ç¬¬ä¹Ŀ":1492,"ä¼Ĺ":1493,"äºĴ":1494,"ç»ıèĲ¥èĢħ":1495,"æĪĺ":1496,"è¯¢":1497,"çŃĶ":1498,"æľŁéĹ´":1499,"ä»»åĬ¡":1500,"ä¸¥éĩįçļĦ":1501,"äº§çĶŁ":1502,"å¥½çļĦ":1503,"ç¬¬äºĮçĻ¾":1504,"æł·":1505,"åį±å®³":1506,"åİ¿çº§ä»¥ä¸Ĭåľ°æĸ¹äººæ°ĳæĶ¿åºľ":1507,"é¥":1508,"æ¯Ĵ":1509,"ä»ĸä»¬":1510,"åģļ":1511,"å¤Ł":1512,"ï¼Ľï¼Ī":1513,"æĸ¹æ³ķ":1514,"è°ĥè§£":1515,"çº¿":1516,"å¹´ä»¥ä¸ĭ":1517,"åºĶæĢ¥":1518,"æĴ¤":1519,"ä¿Ŀè¯ģ":1520,"al":1521,"çĶµåŃĲ":1522,"**":1523,"åĦ":1524,"å®¡æŁ¥":1525,"ä¸įèĥ½":1526,"é¢ĨåŁŁ":1527,"æĿĲæĸĻ":1528,"ä½İ":1529,"çĶ±åĽ½åĬ¡éĻ¢":1530,"è¡ĮæĶ¿éĥ¨éĹ¨":1531,"æľīä¸ĭåĪĹ":1532,"é¦Ļ":1533,"å¯¹äºİ":1534,"è¨Ģ":1535,"å¤ĦåĪĨ":1536,"åĨĽäºĭ":1537,"çī¹åĪ«è¡ĮæĶ¿åĮº":1538,"è¿ĻäºĽ":1539,"åħ¸":1540,"çĽ´è¾ĸ":1541,"é¢Ħéĺ²":1542,"åĦ¿":1543,"æ¤":1544,"æľīæķĪ":1545,"è±¡":1546,"çĽ´è¾ĸå¸Ĥ":1547,"Ġp":1548,"æħ":1549,"èģĮåĬ¡":1550,"åºĶè¯¥":1551,"ä½ľä¸º":1552,"çļĦäºº":1553,"å¾Ī":1554,"è®¤ä¸º":1555,"ç²¾":1556,"ĠåĪĻ":1557,"æĸĩä»¶":1558,"å¹´ä»¥ä¸ĭæľīæľŁå¾ĴåĪĳ":1559,"äºĶåįģ":1560,"ä¿ĥè¿Ľ":1561,"ä¸»è¦ģ":1562,"çĭ¬":1563,"it":1564,"æ£Ģå¯ŁéĻ¢":1565,"æĭ©":1566,"æī¿åĮħ":1567,"éŁ":1568,"çĶ¨äºİ":1569,"éĥ¨åĪĨ":1570,"å±ŀäºİ":1571,"èĩªå·±çļĦ":1572,"ä¾¿":1573,"ä»£çĲĨ":1574,"çķĮ":1575,"çĬ¯ç½ªçļĦ":1576,"å¦Ĥä½ķ":1577,"åľ°åĮº":1578,"éĻĲåĪ¶":1579,"å¤ĸåĽ½":1580,"åıª":1581,"åĬŁ":1582,"è¯ķ":1583,"åĿı":1584,"ç´ł":1585,"çªģ":1586,"ç¥ŀ":1587,"æĻ®":1588,"åı°":1589,"å®ŀéĻħ":1590,"æĺ¯ä¸Ģ":1591,"åĨĻ":1592,"äººæ°ĳæ£Ģå¯ŁéĻ¢":1593,"çŁ¿":1594,"æ¯į":1595,"åıĤä¸İ":1596,"è¿Ŀåıįæľ¬æ³ķè§Ħå®ļ":1597,"æ³ķå®ļ":1598,"è¾ĥ":1599,"éģ¿":1600,"èµĦéĩĳ":1601,"è¿½ç©¶":1602,"çļĦæĥħåĨµ":1603,"è§£åĨ³":1604,"ä¸īåįģ":1605,"æ²³":1606,"å±ħæ°ĳ":1607,"çŃĳ":1608,"èĤ¡ä¸ľ":1609,"ç¬¬åħ«åįģ":1610,"éĢīæĭ©":1611,"éĽĨä½ĵ":1612,"Ġo":1613,"äººåºĶå½ĵ":1614,"éļĲ":1615,"Ġf":1616,"è½»":1617,"åŃĺåľ¨":1618,"åĲĪæ³ķæĿĥçĽĬ":1619,"éĤ£":1620,"ing":1621,"åĢĻ":1622,"ä»Ģ":1623,"åıĮ":1624,"ä¾ĭå¦Ĥ":1625,"ä¹ĭä¸ĢçļĦ":1626,"ç»Ŀ":1627,"åİŁåĪĻ":1628,"Ġ=":1629,"è´£ä»»äººåĳĺ":1630,"éŁ³":1631,"äºĭä»¶":1632,"æı´":1633,"åĤ¨":1634,"è½½":1635,"ç³»ç»Ł":1636,"ç¡®ä¿Ŀ":1637,"åķĨä¸ļ":1638,"åĨĽäºº":1639,"Ġb":1640,"èĪªç©º":1641,"æ¼":1642,"çĽĳæĬ¤":1643,"ç»ĵæŀľ":1644,"ä»Ģä¹Ī":1645,"æĿĥçļĦ":1646,"åĳ½":1647,"å¾ħ":1648,"åİ»":1649,"åĲĮæĦı":1650,"ä¾Ŀçħ§æľ¬æ³ķ":1651,"é¦ĸ":1652,"åĬŀæ³ķ":1653,"ä¸ĩåħĥä»¥ä¸ĭçļĦç½ļæ¬¾":1654,"éĩĮ":1655,"åħ¬å¼Ģ":1656,"ä¸»ä¹ī":1657,"èĥ½å¤Ł":1658,"çľĭ":1659,"ou":1660,"åĨĮ":1661,"æīĢåľ¨":1662,"Ġw":1663,"éĺ²æ²»":1664,"åŁºæľ¬":1665,"æ³ķå¾ĭè§Ħå®ļ":1666,"æ¨":1667,"æŀģ":1668,"ä¹ĭéĹ´":1669,"éĩĳèŀį":1670,"æī£":1671,"è½¬è®©":1672,"ç»¼":1673,"éĢīä¸¾":1674,"å¼ºåĪ¶":1675,"æ°ĳæ³ķ":1676,"ç§ĺ":1677,"åħħ":1678,"åĲĦçº§äººæ°ĳæĶ¿åºľ":1679,"åİĨ":1680,"çĽĳçĿ£ç®¡çĲĨæľºæŀĦ":1681,"äººæĪĸèĢħ":1682,"åĪĳäºĭè´£ä»»":1683,"è¶ħè¿ĩ":1684,"éģµå®Ī":1685,"èĥ½æºĲ":1686,"ç§¯":1687,"ä¹¦éĿ¢":1688,"ç¢į":1689,"ar":1690,"çĽ´æİ¥è´£ä»»äººåĳĺ":1691,"æľªæĪĲå¹´äºº":1692,"å«":1693,"åĽ¾":1694,"Ġ1":1695,"åºĶå½ĵåľ¨":1696,"çĪ¶":1697,"çĽĳæµĭ":1698,"éļ¾":1699,"æ¶Īè´¹":1700,"æĸ¹æ¡Ī":1701,"åįł":1702,"çĶ¨æĪ·":1703,"æĥħèĬĤä¸¥éĩįçļĦ":1704,"æĭĴç»Ŀ":1705,"å»ºçŃĳ":1706,"çº¢":1707,"çī©åĵģ":1708,"æ²¡æĶ¶":1709,"æĤ£":1710,"le":1711,"èµĦæĸĻ":1712,"æ®ĭçĸ¾":1713,"æľªç»ı":1714,"åı¯ä»¥åĲĳ":1715,"ç¯":1716,"ç§ĳæĬĢ":1717,"ion":1718,"åŁ¹è®Ń":1719,"æıĲèµ·":1720,"é¦Ĩ":1721,"çĮ":1722,"çŁ¥è¯Ĩ":1723,"æ°ĳæ³ķåħ¸":1724,"çļĦåħ¶ä»ĸ":1725,"å¯¼èĩ´":1726,"æĸĩç«ł":1727,"çī©çļĦ":1728,"åĢį":1729,"æ¤į":1730,"çļĦæ³ķå¾ĭ":1731,"èµł":1732,"åĲ¬":1733,"è¯Ŀ":1734,"çľŁ":1735,"æĮģæľī":1736,"åįıåĬ©":1737,"åĪ¤åĨ³":1738,"åĮĸåŃ¦":1739,"æ¬¡ä¼ļè®®":1740,"ä¸Ģåįģ":1741,"å®ĮæĪĲ":1742,"æĬµ":1743,"çĲĥ":1744,"ä¸´":1745,"éĶĻ":1746,"ç¦»å©ļ":1747,"åıĮæĸ¹":1748,"äºĭå®ŀ":1749,"å«Į":1750,"æ¨¡":1751,"è¿ĳ":1752,"å¾ĭå¸Ī":1753,"å½¢å¼ı":1754,"åºĶå½ĵä¾Ŀæ³ķ":1755,"æĹ¥åĨħ":1756,"èµĶåģ¿è´£ä»»":1757,"æĲ":1758,"é¦Ļæ¸¯":1759,"è¡Įä¸ļ":1760,"å¸Ń":1761,"ä¾Ŀæį®":1762,"åĮºåŁŁ":1763,"æİĪ":1764,"æ³¨åĨĮ":1765,"è®°å½ķ":1766,"åĽŃ":1767,"çĽĳå¯Ł":1768,"ĠåĽ½åĬ¡éĻ¢":1769,"åºĶå½ĵåıĬæĹ¶":1770,"èģĮå·¥":1771,"å¼ł":1772,"çļĦä¸»ç®¡":1773,"å®ŀçİ°":1774,"æ£ĢéªĮ":1775,"é¢Ĩå¯¼":1776,"åĽ½éĻħ":1777,"å¤Ħç½®":1778,"æĿİ":1779,"Ġm":1780,"ä¹Ĳ":1781,"Ġin":1782,"å¹²":1783,"ç®¡çĲĨéĥ¨éĹ¨":1784,"äººåĳĺåĴĮåħ¶ä»ĸ":1785,"åĳ¨":1786,"éģĩ":1787,"æ¶īåıĬ":1788,"è¡Įä½¿":1789,"çļĦåĨ³å®ļ":1790,"æĴ¤éĶĢ":1791,"ic":1792,"åįķä½įåĴĮä¸ªäºº":1793,"è§£éĻ¤":1794,"æīį":1795,"çĸĳ":1796,"æĮĩå¯¼":1797,"éĿŀå¸¸":1798,"Ġd":1799,"ä¸Ģæĸ¹":1800,"åı¸æ³ķ":1801,"èĻļ":1802,"æµ·äºĭ":1803,"æ°ĳçĶ¨":1804,"ä¸Ńå¤":1805,"èİ·å¾Ĺ":1806,"æŃ»":1807,"å¹´ä»¥ä¸Ĭ":1808,"çĶŁæĢģçİ¯å¢ĥ":1809,"ç»ĦæĪĲ":1810,"Ġan":1811,"çĶŁäº§ç»ıèĲ¥":1812,"åĩıå°ĳ":1813,"éļı":1814,"ä¸ºäºĨ":1815,"å¦ĩ":1816,"åıĹåĪ°":1817,"èı":1818,"åĵª":1819,"ä¼ļåĲĮ":1820,"çĽ´æİ¥è´Łè´£":1821,"éĤ®":1822,"çº³ç¨İ":1823,"è¡Įä¸ºçļĦ":1824,"ä¸Ńå¤®":1825,"çĶŁçī©":1826,"åķĨåĵģ":1827,"æĹłæ³ķ":1828,"çĪ±":1829,"èµĦæł¼":1830,"æŀĲ":1831,"å¤ĦäºĶ":1832,"æ¹":1833,"Ġ\\":1834,"æįĲ":1835,"åģľæŃ¢":1836,"è¯¯":1837,"è®¸åı¯è¯ģ":1838,"åħ¬å¸ĥ":1839,"å¿Ĺ":1840,"éĻ¤å¤ĸ":1841,"äº²":1842,"çĽ´æİ¥è´Łè´£çļĦä¸»ç®¡":1843,"åı·":1844,"è¾¹":1845,"æĸĩçī©":1846,"è´¢æĶ¿":1847,"çļĦæĿĥåĪ©":1848,"æĢĿ":1849,"åĿļ":1850,"è®¾è®¡":1851,"çĶµå½±":1852,"äººåĳĺåĴĮåħ¶ä»ĸçĽ´æİ¥è´£ä»»äººåĳĺ":1853,"æĦ¿":1854,"å£°":1855,"å¨":1856,"çºł":1857,"å·¥åħ·":1858,"ä¿ĿæĮģ":1859,"è¯į":1860,"åĽ½å®¶æľīåħ³è§Ħå®ļ":1861,"æµģåŁŁ":1862,"èģĮæĿĥ":1863,"å±Ĭåħ¨åĽ½äººæ°ĳä»£è¡¨å¤§ä¼ļå¸¸åĬ¡å§Ķåĳĺä¼ļ":1864,"é¢Ħç®Ĺ":1865,"ä»·æł¼":1866,"åĪĨæŀĲ":1867,"åŃ¦çĶŁ":1868,"è§ĦèĮĥ":1869,"è¯´æĺİ":1870,"è¿½ç©¶åĪĳäºĭè´£ä»»":1871,"ç§ĺå¯Ĩ":1872,"æľºåĪ¶":1873,"çĪ¶æ¯į":1874,"åĲĹ":1875,"çģ¾":1876,"æ·±":1877,"å¯¹åħ¶":1878,"è¿ĩç¨ĭä¸Ń":1879,"ed":1880,"å§ĭ":1881,"åħ¬åı¸çļĦ":1882,"åıĺæĽ´":1883,"äº«æľī":1884,"æĮ¥":1885,"çº§äººæ°ĳä»£è¡¨å¤§ä¼ļ":1886,"æĺİç¡®":1887,"Ġof":1888,"æ¢":1889,"åĮĸåŃ¦åĵģ":1890,"æľŁè´§":1891,"è¢«åĳĬ":1892,"æĶ¿çŃĸ":1893,"æµ·åħ³":1894,"çĶ¨äºº":1895,"ç´¢":1896,"è´£ä»¤æĶ¹æŃ£":1897,"å¦ĩå¥³":1898,"10":1899,"ç®Ģ":1900,"ä¹Łåı¯ä»¥":1901,"æķĳåĬ©":1902,"æĭį":1903,"æ¶Īè´¹èĢħ":1904,"è´¦":1905,"ä¿®æĶ¹":1906,"èĻĳ":1907,"ç¾¤":1908,"æĳ":1909,"è¶Ĭ":1910,"åĲįç§°":1911,"æŀĦæĪĲçĬ¯ç½ªçļĦ":1912,"ç»Łä¸Ģ":1913,"çĽ¸åºĶçļĦ":1914,"ä¼ļè®¡":1915,"ä»·åĢ¼":1916,"çĽ´æİ¥è´Łè´£çļĦä¸»ç®¡äººåĳĺåĴĮåħ¶ä»ĸçĽ´æİ¥è´£ä»»äººåĳĺ":1917,"èī¯":1918,"ç²¾ç¥ŀ":1919,"åĽ½éĺ²":1920,"å®īåħ¨çĶŁäº§":1921,"è£ģå®ļ":1922,"éĢĶ":1923,"ç¬¬ä¹Ŀåįģ":1924,"æ³ķäºº":1925,"èĮĥåĽ´åĨħ":1926,"å½Ĵ":1927,"åĽ½å®¶å®īåħ¨":1928,"äºĨè§£":1929,"å¿«":1930,"å°±ä¸ļ":1931,"çĶ¨äººåįķä½į":1932,"çł´åĿı":1933,"è¡ĮæĶ¿æľºåħ³":1934,"æ´ĭ":1935,"£äºĭ":1936,"è¯ģä¹¦":1937,"åŁİå¸Ĥ":1938,"äº¡":1939,"ä¾Ŀæ³ķç»ĻäºĪ":1940,"åĨľæ°ĳ":1941,"ä¼łæŁĵ":1942,"å£«":1943,"è°ĥæķ´":1944,"èģĮä¸ļçĹħ":1945,"é»Ħ":1946,"åĢºæĿĥäºº":1947,"æī¿è¿Ĳ":1948,"åĴĮç¤¾ä¼ļ":1949,"æ¾":1950,"åĪĨéħį":1951,"å¤ĩæ¡Ī":1952,"éī":1953,"åĽłä¸º":1954,"éī´":1955,"éĩĬ":1956,"åĬ³åĬ¨èĢħ":1957,"æĭĺå½¹":1958,"å½ĵåľ°":1959,"ent":1960,"æ´¾":1961,"è¡ĮæĶ¿ä¸»ç®¡éĥ¨éĹ¨":1962,"å®¡åĪ¤":1963,"æĿĳæ°ĳ":1964,"æĹħæ¸¸":1965,"åŃĲå¥³":1966,"éªĹ":1967,"æĿ¡ä»¶çļĦ":1968,"æħĪ":1969,"om":1970,"å®īæİĴ":1971,"æľĢé«ĺ":1972,"å¼Ĥ":1973,"å°Ħ":1974,"çĽ®æłĩ":1975,"åĿĩ":1976,"å¤įè®®":1977,"ç¯ĩ":1978,"Ġè¿Ŀåıįæľ¬æ³ķè§Ħå®ļ":1979,"éķĩ":1980,"çĽ®çļĦ":1981,"çĸ¾çĹħ":1982,"èĳ£äºĭ":1983,"æħĪåĸĦ":1984,"æĻ¯":1985,"ä¼łæŁĵçĹħ":1986,"åĽº":1987,"æĭĽ":1988,"åī¯":1989,"å®¡çĲĨ":1990,"äºĭåĬ¡":1991,"åįıåķĨ":1992,"æį¢":1993,"å±Ĥ":1994,"èĳĹ":1995,"ç»Ĩ":1996,"åĪĨç±»":1997,"å¿ħè¦ģçļĦ":1998,"as":1999,"å¤Ħä¸ī":2000,"Ġto":2001,"åı¦æľī":2002,"æ´»åĬ¨çļĦ":2003,"åıĳå¸ĥ":2004,"åı¥":2005,"èµ·è¯ī":2006,"è¿ŀ":2007,"åĮºçļĦ":2008,"çĽĳçĿ£æ£ĢæŁ¥":2009,"æ³¨æĦı":2010,"äººåľ¨":2011,"è®¾ç½®":2012,"è¿Ŀæ³ķè¡Įä¸º":2013,"ç»¼åĲĪ":2014,"åįĩ":2015,"äººç±»":2016,"åĩºèµĦ":2017,"æ®Ĭ":2018,"è´Ńä¹°":2019,"å¤´":2020,"å»¶":2021,"äºīè®®":2022,"åĩºåı£":2023,"è¯Ńè¨Ģ":2024,"çī¹æ®Ĭ":2025,"çĽ´è¾ĸå¸Ĥäººæ°ĳæĶ¿åºľ":2026,"èĢĥèĻĳ":2027,"ç»ĪæŃ¢":2028,"é¦Ļæ¸¯çī¹åĪ«è¡ĮæĶ¿åĮº":2029,"ç¡Ģ":2030,"åŁºç¡Ģ":2031,"åĲ«":2032,"æ±ĩ":2033,"--":2034,"èĲ½":2035,"Ġæľ¬æ³ķ":2036,"éĩİ":2037,"å®ļæľŁ":2038,"èº«ä»½":2039,"æľīä¸ĭåĪĹæĥħå½¢":2040,"æĭįåįĸ":2041,"åĿļæĮģ":2042,"æīĵ":2043,"çĶŁæĪĲ":2044,"å·¥ä½ľçļĦ":2045,"å¤«":2046,"ä¸ĸ":2047,"åħ·å¤ĩ":2048,"ç¼ĸåĪ¶":2049,"èĪ¬":2050,"æĸĩæľ¬":2051,"å®£ä¼ł":2052,"å®ª":2053,"åįıè°ĥ":2054,"è¡ĮæĶ¿åĮºåŁŁ":2055,"åĥ":2056,"èµĦäº§":2057,"ä¼ĺåħĪ":2058,"å°½":2059,"æ¾³":2060,"å®¡è®¡":2061,"åģ¥åħ¨":2062,"åĬŁèĥ½":2063,"çłģ":2064,"æĮīçħ§è§Ħå®ļ":2065,"äººåı¯ä»¥":2066,"ç¤¾ä¼ļä¿ĿéĻ©":2067,"çı":2068,"ç«łç¨ĭ":2069,"æķ°é¢Ŀ":2070,"åı²":2071,"å¹¶ä¸Ķ":2072,"ä¿¡æīĺ":2073,"è¾©":2074,"èĬ±":2075,"ä¸įç¬¦åĲĪ":2076,"çº·":2077,"ç«Ļ":2078,"ä½ĵç³»":2079,"æłĩçļĦ":2080,"çĬ¶åĨµ":2081,"éĻį":2082,"åĢŁ":2083,"æİ¢":2084,"æ¯ģ":2085,"å¤Ħç½ļéĩĳ":2086,"é¤":2087,"æľīåħ³çļĦ":2088,"å¢ĥåĨħ":2089,"å¹³åı°":2090,"æİĴæĶ¾":2091,"æĴŃ":2092,"çªģåıĳ":2093,"æ¾³éĹ¨":2094,"æľºåĻ¨":2095,"ä¸ĵéĹ¨":2096,"æĺ¾":2097,"ç®¡è¾ĸ":2098,"éĩįçĤ¹":2099,"æī¾":2100,"å±±":2101,"æµ·æ´ĭ":2102,"æŃ¤å¤ĸ":2103,"å¹¿åĳĬ":2104,"èįīåİŁ":2105,"Ġn":2106,"ç»ıæµİç»Ħç»ĩ":2107,"ç»§ç»Ń":2108,"æ°ĳçĶ¨èĪªç©º":2109,"å®ªæ³ķ":2110,"ç®¡åĪ¶":2111,"ä»ĭ":2112,"åĥı":2113,"æ²¹":2114,"ç½ªçļĦ":2115,"çĽĳçĿ£ç®¡çĲĨéĥ¨éĹ¨":2116,"æ®ĭçĸ¾äºº":2117,"æĭħä¿Ŀ":2118,"æµ·ä¸Ĭ":2119,"çº¦å®ļçļĦ":2120,"ä¸ªæľĪ":2121,"``":2122,"èĦ":2123,"å±Ģ":2124,"å¦»":2125,"æıı":2126,"ä¾Ŀæ³ķè¿½ç©¶åĪĳäºĭè´£ä»»":2127,"å¢ĥå¤ĸ":2128,"çŁ¥éģĵ":2129,"è¯Ĭ":2130,"é¤Ĳ":2131,"èīº":2132,"çºłçº·":2133,"æ¸Ķ":2134,"ä¸ĢèĪ¬":2135,"æ³ķå¾ĭè´£ä»»":2136,"åıĹçĲĨ":2137,"æī§æ³ķ":2138,"ç»§æī¿":2139,"è´¢åĬ¡":2140,"æĽ´åĬł":2141,"æĵħ":2142,"æ°´å¹³":2143,"åĲĬ":2144,"ç»ĥ":2145,"åį±éĻ©åĮĸåŃ¦åĵģ":2146,"åĩł":2147,"åĽĽåįģ":2148,"èĹ":2149,"æįŁå¤±çļĦ":2150,"AI":2151,"è¿Ļç§į":2152,"ç¬¬äºĮç«ł":2153,"éĻĲæľŁ":2154,"Ġåľ¨":2155,"Ġ|":2156,"åĽ½æľī":2157,"åĳ³":2158,"åºĶå½ĵåĲĳ":2159,"æķħæĦı":2160,"Ġ2":2161,"èĩªçĶ±":2162,"åĪĳæ³ķ":2163,"åľ°çļĦ":2164,"ç¬¬ä¸īç«ł":2165,"å®ĥä»¬":2166,"çĥŃ":2167,"å·¥ä¼ļ":2168,"ç¬¬åĽĽç«ł":2169,"ç§ĳåŃ¦æĬĢæľ¯":2170,"Ġå¯¹":2171,"Ġis":2172,"æķ£":2173,"çºª":2174,"éĢĢå½¹":2175,"å°ģ":2176,"åħī":2177,"åĲĬéĶĢ":2178,"ä¸ªäººä¿¡æģ¯":2179,"åĪĽæĸ°":2180,"äººèº«":2181,"æī¶":2182,"æ¸¡":2183,"Ġe":2184,"éĩĩçĶ¨":2185,"æīĭç»Ń":2186,"ac":2187,"åı¯ä»¥å¸®åĬ©":2188,"æĬµæĬ¼":2189,"éĴ±":2190,"Ġand":2191,"åĩºçİ°":2192,"æľªæĿ¥":2193,"ç«ĭåį³":2194,"åĩĨç¡®":2195,"åİŁåĽł":2196,"éī´å®ļ":2197,"ç¬¬ä¸Ģç«ł":2198,"ä»½é¢Ŀ":2199,"å¥ĸ":2200,"æĤ¨çļĦ":2201,"åĽ°":2202,"æĹ¥ç¬¬åįģ":2203,"è¯īè®¼æ³ķ":2204,"å¾·":2205,"åĪĨä¹ĭ":2206,"ä½ĵèĤ²":2207,"é¥®":2208,"ç¿":2209,"ç¬¬äºĶç«ł":2210,"ä»į":2211,"è´¸":2212,"é©¶":2213,"ä¸¤ä¸ª":2214,"©åºı":2215,"ç§©åºı":2216,"æŃ¦":2217,"æĶ¶åĪ°":2218,"èıľ":2219,"çĲĨçĶ±":2220,"å¼ĥ":2221,"ç«ŀ":2222,"åħŃåįģ":2223,"æĽ´å¥½":2224,"åħ¶ä¸Ń":2225,"éľ²":2226,"19":2227,"åĭŁ":2228,"ä½ľä¸ļ":2229,"æľ¬è¡ĮæĶ¿åĮºåŁŁ":2230,"çĽĳæĬ¤äºº":2231,"ĠæĢ»":2232,"éĩĳé¢Ŀ":2233,"ä¸ĩåħĥä»¥ä¸ĭç½ļæ¬¾":2234,"æĺŁ":2235,"åºĶå½ĵå°Ĩ":2236,"èŃ¦å¯Ł":2237,"éĩİçĶŁ":2238,"æľīä¸ĭåĪĹæĥħå½¢ä¹ĭä¸ĢçļĦ":2239,"æĵħèĩª":2240,"æĬĹ":2241,"æķ°éĩı":2242,"èĹı":2243,"ro":2244,"çļĦäººåĳĺ":2245,"ç®¡çĲĨäºº":2246,"ç®¡çĲĨæľºæŀĦ":2247,"Ġ-":2248,"çķ¥":2249,"çķľ":2250,"è¡¥åģ¿":2251,"è´¸æĺĵ":2252,"çİ¯å¢ĥä¿ĿæĬ¤":2253,"èŃ¦åĳĬ":2254,"ĠéĻĦ":2255,"ä½łçļĦ":2256,"æİ¨å¹¿":2257,"èĭĹ":2258,"æļ´":2259,"å¯»":2260,"éĢŁ":2261,"åĪ¶ä½ľ":2262,"ç»Ļåĩº":2263,"çī¹å®ļ":2264,"éĩĩåıĸæİªæĸ½":2265,"å¢ŀåĬł":2266,"åĬ¿":2267,"è®¤å®ļ":2268,"ç´§":2269,"è¡Ķ":2270,"å°Ĭ":2271,"um":2272,"å¤§çļĦ":2273,"ä¸»ä½ĵ":2274,"åĲ¸":2275,"ä¸ĵåĪ©":2276,"åºŁçī©":2277,"ç§¯æŀģ":2278,"æľºåĬ¨":2279,"æĺ¯ä¸Ģä¸ª":2280,"çī¹ç§į":2281,"è¯Ħä»·":2282,"æįĲèµł":2283,"éĶ®":2284,"åĩºå¢ĥ":2285,"å®¢æĪ·":2286,"çŃ¹":2287,"æ²Ļ":2288,"æ²»å®ī":2289,"åĬłå¼ºå¯¹":2290,"åĵªäºĽ":2291,"çģ«":2292,"ä¾µçĬ¯":2293,"å«Įçĸĳ":2294,"çļĦåħ·ä½ĵ":2295,"æ¡£":2296,"åĸľ":2297,"ä»¥å¤ĸ":2298,"ç¬¬åħŃç«ł":2299,"æıĲèµ·è¯īè®¼":2300,"æ£Ģçĸ«":2301,"ç¬¬ä¸Ģåįĥ":2302,"èĻļåģĩ":2303,"åĲİæŀľ":2304,"çİ¯ä¿Ŀ":2305,"éĵģ":2306,"äººä»¬":2307,"æĿĥäºº":2308,"æĽ´å¥½åľ°":2309,"et":2310,"èģĺ":2311,"åĨľä¸ļåĨľæĿĳ":2312,"å¤«å¦»":2313,"ä¸»å¸Ń":2314,"åħ¬åĬ¡":2315,"ç»ĵåĲĪ":2316,"éģ¿åħį":2317,"åıĭ":2318,"åĪĩ":2319,"è´·":2320,"è´Łè´£äºº":2321,"æŃ»äº¡":2322,"åħ¬åĳĬ":2323,"æłĩå¿Ĺ":2324,"ç¼´çº³":2325,"æııè¿°":2326,"ä¼ª":2327,"éĩĩè´Ń":2328,"åĲĪæł¼":2329,"éĢĤå½ĵ":2330,"çł´äº§":2331,"åİĨåı²":2332,"èª":2333,"æ¬¢":2334,"æľīåħ³æ³ķå¾ĭ":2335,"æĶ¶åħ¥":2336,"çī¹ç§įè®¾å¤ĩ":2337,"äº¤ä»ĺ":2338,"ä¾µå®³":2339,"å²ģ":2340,"æĥħåĨµä¸ĭ":2341,"æįķ":2342,"åıĳè¡Į":2343,"æ±Ł":2344,"ç¤¾åĮº":2345,"æģ¢":2346,"æıĲäº¤":2347,"æ¤įçī©":2348,"è§Ĵ":2349,"çī©è´¨":2350,"æģ¢å¤į":2351,"il":2352,"è´Łæľī":2353,"åĲĦç§į":2354,"ç±į":2355,"æĸ°çļĦ":2356,"å®ĮåĸĦ":2357,"æľºåĬ¨è½¦":2358,"å¤ĸäº¤":2359,"æĭħä»»":2360,"ä¸¥æł¼":2361,"æ¶Īéĺ²":2362,"æļĤ":2363,"æ¸©":2364,"åĽ¢ä½ĵ":2365,"æĭĺçķĻ":2366,"éĩİçĶŁåĬ¨çī©":2367,"ä½ľçĶ¨":2368,"ot":2369,"åħĭ":2370,"åºĶå½ĵæł¹æį®":2371,"åħ¬çĽĬ":2372,"å¥¹":2373,"æģĲ":2374,"æķ°åŃĹ":2375,"æĶ¹åıĺ":2376,"èº«ä½ĵ":2377,"å¼ķæ¸¡":2378,"éĤ£ä¹Ī":2379,"st":2380,"ä¼ĳ":2381,"äº§ä¸ļ":2382,"èĢģå¹´":2383,"Ġ$":2384,"ä¸ĬçļĦ":2385,"éľĩ":2386,"æĶ¶éĽĨ":2387,"éľĢæ±Ĥ":2388,"Ġre":2389,"äº«åıĹ":2390,"éĢļå¸¸":2391,"æ´Ĺ":2392,"æ¼Ķ":2393,"åĽ½å®¶æľºåħ³":2394,"ç»Łè®¡":2395,"å¨ģ":2396,"Ġh":2397,"å°ļ":2398,"åı¯ä»¥éĢļè¿ĩ":2399,"è§ī":2400,"éļľç¢į":2401,"é£Łåĵģå®īåħ¨":2402,"çļĦåİŁåĪĻ":2403,"å±ĭ":2404,"åĨľäº§åĵģ":2405,"im":2406,"æľĽ":2407,"åºĶå½ĵå¯¹":2408,"äºĭä¸ļåįķä½į":2409,"Ġæł¹æį®":2410,"çģŃ":2411,"è¿Ķ":2412,"æĬļ":2413,"éħ¬":2414,"æ²»çĲĨ":2415,"æ²»çĸĹ":2416,"åĢºåĬ¡äºº":2417,"åħ´":2418,"äººåĳĺçļĦ":2419,"å¼Ģå§ĭ":2420,"æĪĸèĢħä¸ªäºº":2421,"å¹¼":2422,"æĬĢèĥ½":2423,"èģĶç³»":2424,"éĩĳèŀįæľºæŀĦ":2425,"Ġ(":2426,"åı¯ä»¥åľ¨":2427,"çĩ":2428,"Ġ**":2429,"èĤ¡ä»½":2430,"ä»£çĲĨäºº":2431,"ä¿Ŀå¯Ĩ":2432,"ç«¥":2433,"éĺ»":2434,"é¾":2435,"ä»ħ":2436,"æĪĲç«ĭ":2437,"å¾ĹåĪ°":2438,"è¡ĮæĶ¿å¤įè®®":2439,"æī¿æĭħèµĶåģ¿è´£ä»»":2440,"äºĨä¸Ģ":2441,"åįĥåħĥ":2442,"é¸":2443,"åı¬":2444,"åı¯ä»¥æł¹æį®":2445,"çĶ±äºİ":2446,"æĮĩå®ļ":2447,"ç¼º":2448,"¨è¯¢":2449,"åĴ¨è¯¢":2450,"ä¸Ĭè¿°":2451,"ç¬¬ä¸ĢçĻ¾éĽ¶":2452,"çĶ²":2453,"é©»":2454,"åīįæ¬¾è§Ħå®ļ":2455,"å¾ª":2456,"åħ«åįģ":2457,"ç¬¬ä¸ĢçĻ¾ä¸Ģåįģ":2458,"æķĳæı´":2459,"æī¿è¿Ĳäºº":2460,"ä¿®å¤į":2461,"å¾ģæĶ¶":2462,"èģĶåĲĪ":2463,"çľŁå®ŀ":2464,"æķĪçİĩ":2465,"çĸ«èĭĹ":2466,"æ²¡æĶ¶è¿Ŀæ³ķæīĢå¾Ĺ":2467,"é«ĺçº§":2468,"åķĨæłĩ":2469,"éĴĪ":2470,"Ġ3":2471,"åį°":2472,"ä¸Ĭå¸Ĥ":2473,"è½¬ç§»":2474,"çĶ³è¯·äºº":2475,"èģĮè´£çļĦ":2476,"èĭ±":2477,"æĪ¿å±ĭ":2478,"åķĨä¸ļéĵ¶è¡Į":2479,"è¡¨çİ°":2480,"ä½¿çĶ¨çļĦ":2481,"æĶ¾å°Ħ":2482,"æİ¨åĬ¨":2483,"æĤ£èĢħ":2484,"å¯¹æĸ¹":2485,"åħ¬ä¼Ĺ":2486,"åĳĬçŁ¥":2487,"æ¸¯åı£":2488,"ä¸ĢçĻ¾":2489,"æŃĮ":2490,"æıĲä¾ĽçļĦ":2491,"ç¬Ķ":2492,"è§ĦåĪĻ":2493,"è®¢ç«ĭ":2494,"çŃīæĸ¹éĿ¢":2495,"æĹ¥æľŁ":2496,"ç¬¬ä¸Ģæ¬¾":2497,"åĲĪåĲĮçļĦ":2498,"æĸ½è¡Į":2499,"é»Ħæ²³":2500,"å¾Ģ":2501,"éĢ¾":2502,"ä¼ªéĢł":2503,"iv":2504,"å¤ª":2505,"åįķä½įçļĦ":2506,"éĺ²æŃ¢":2507,"çŃ¾è®¢":2508,"æĽ´å¤ļ":2509,"å¡":2510,"çĽĳäºĭ":2511,"ä¹Ŀåįģ":2512,"æĪĲæŀľ":2513,"å¿µ":2514,"ä¹ĭéĹ´çļĦ":2515,"Ġ+":2516,"åħ³éĶ®":2517,"å¯¹çĽ´æİ¥è´Łè´£çļĦä¸»ç®¡äººåĳĺåĴĮåħ¶ä»ĸçĽ´æİ¥è´£ä»»äººåĳĺ":2518,"ä»ĸçļĦ":2519,"åĢįä»¥ä¸ĭ":2520,"åĽłç´ł":2521,"çº³åħ¥":2522,"çĶ·":2523,"åºĶå¯¹":2524,"éĩįè¦ģçļĦ":2525,"Ġl":2526,"Ġåİ¿çº§ä»¥ä¸Ĭäººæ°ĳæĶ¿åºľ":2527,"åįģäºĶ":2528,"æīĢç§°":2529,"è´¢çī©":2530,"æįŁå®³çļĦ":2531,"æ¡£æ¡Ī":2532,"åºĵ":2533,"æĸ½å·¥":2534,"éħįåĲĪ":2535,"ä¸¾æĬ¥":2536,"ĠĠĠĠ":2537,"é»ĳ":2538,"æľīéĻĲ":2539,"ä½ľåĵģ":2540,"è§Ħå®ļçļĦåħ¶ä»ĸ":2541,"æĹłæķĪ":2542,">ï¼ļ":2543,"éģĹäº§":2544,"æĵį":2545,"æĬ¢":2546,"å¹³çŃī":2547,"æ¸ħç®Ĺ":2548,"ä¸ĸçķĮ":2549,"ç§Łäºº":2550,"ä¸įäºĪ":2551,"åķĨåĬ¡":2552,"æī§ä¸ļ":2553,"ä»¥åıĬåħ¶ä»ĸ":2554,"å¾ħéģĩ":2555,"å·¥ä¸ļ":2556,"ä¸Ĭçº§":2557,"çİ©":2558,"åľ°æĸ¹åĲĦçº§äººæ°ĳæĶ¿åºľ":2559,"æ¾³éĹ¨çī¹åĪ«è¡ĮæĶ¿åĮº":2560,"è¯Ī":2561,"åĳĺå·¥":2562,"æıĲåıĸ":2563,"æ£Ģæµĭ":2564,"è¯ģåĪ¸çĽĳçĿ£ç®¡çĲĨæľºæŀĦ":2565,"åĲĪä¼Ļä¼ģä¸ļ":2566,"çĽĳç®¡":2567,"ä¸ĥåįģ":2568,"æŃ£å½ĵ":2569,"é¢Ħå¤ĩ":2570,"å»ºç«ĭåģ¥åħ¨":2571,"id":2572,"å®ľ":2573,"ä¿Ŀç®¡":2574,"åĪĨåĪ«":2575,"èĲ¥ä¸ļ":2576,"æĭĴä¸į":2577,"ä¸įåĲĮçļĦ":2578,"åĲĪä½ľç¤¾":2579,"Ġ\"":2580,"å¯¹å¤ĸ":2581,"æŃ£ç¡®":2582,"åĮ»çĸĹæľºæŀĦ":2583,"çļĦæĥħåĨµä¸ĭ":2584,"æı´åĬ©":2585,"æīĢåľ¨åľ°":2586,"ä¸įæĸŃ":2587,"è¿Ľåı£":2588,"èĥģ":2589,"èĩªåĬ¨":2590,"è¾Ĩ":2591,"çİ°ä»£":2592,"å¾®":2593,"åĦ¿ç«¥":2594,"12":2595,"çļĦè¦ģæ±Ĥ":2596,"æī©":2597,"æ¿":2598,"çĶ¨åľ°":2599,"çĲĨè§£":2600,"å§»":2601,"è¡¨ç¤º":2602,"æŃ£å¸¸":2603,"çĮ®":2604,"æľīåħ¶ä»ĸ":2605,"éĽĨä½ĵç»ıæµİç»Ħç»ĩ":2606,"éĢ¾æľŁ":2607,"åĬ¨äº§":2608,"ä»¥ä¸ĭæĺ¯":2609,"çĬ¯ç½ªå«Įçĸĳ":2610,"ç¬¬ä¸ĥç«ł":2611,"ĠT":2612,"æľ¨":2613,"ä¸įè¶³":2614,"ç¨³":2615,"éĢĤåºĶ":2616,"éĽĨä¸Ń":2617,"åı¯èĥ½ä¼ļ":2618,"çļĦè´¢äº§":2619,"è¡ĮæĶ¿å¤Ħç½ļ":2620,"æĢ§åĴĮ":2621,"é«ĺçŃī":2622,"éĢģè¾¾":2623,"å¯¹è±¡":2624,"æĢ§çļĦ":2625,"ç¨İåĬ¡":2626,"æĮģæľīäºº":2627,"èµ°":2628,"èĥĮ":2629,"éģĵè·¯":2630,"å±ħä½ı":2631,"éŁ³ä¹Ĳ":2632,"ec":2633,"åºĶå½ĵç¬¦åĲĪ":2634,"è¿Ľåħ¥":2635,"éģŃ":2636,"ç»ĵç®Ĺ":2637,"åıĺåĮĸ":2638,"åĽŀçŃĶ":2639,"å©ļå§»":2640,"çŁŃ":2641,"ä»İèĢĮ":2642,"é©¾":2643,"çĩĥ":2644,"Ġæ³ķå¾ĭè´£ä»»":2645,"æĪı":2646,"åĲĦçº§":2647,"æľĢåĲİ":2648,"ä¿®æŃ£":2649,"æ²»å®īç®¡çĲĨ":2650,"æģĲæĢ":2651,"è¯»":2652,"èįĲ":2653,"ç»ŁçŃ¹":2654,"åĽ¢éĺŁ":2655,"æģĲæĢĸ":2656,"æĶ¿æ²»":2657,"ä¹°åįĸ":2658,"éĶĻè¯¯":2659,"çļĦå®īåħ¨":2660,"æĿ¡æ¬¾":2661,"éĩįæĸ°":2662,"æĬ¥éħ¬":2663,"ä¿ĿéĻ©äºº":2664,"ç²®":2665,"æľŁéĻĲåĨħ":2666,"è¡ĮæĶ¿æ³ķè§ĦçļĦè§Ħå®ļ":2667,"åŁİä¹¡":2668,"å®¡æī¹":2669,"çĶ³æĬ¥":2670,"åĲĦèĩª":2671,"ï¼ģ":2672,"è§£éĩĬ":2673,"èĢĥæł¸":2674,"æĪĴ":2675,"æŀª":2676,"æīĭæ®µ":2677,"ç«ŀäºī":2678,"ç¤¾ä¼ļä¸»ä¹ī":2679,"è¿Ĳè¡Į":2680,"Ġth":2681,"æĪĳä»¬çļĦ":2682,"çļĦåıĳå±ķ":2683,"æĶ¶è´Ń":2684,"å·¥èµĦ":2685,"çŃīæĸ¹å¼ı":2686,"è¡¨åĨ³":2687,"åĲĳäººæ°ĳæ³ķéĻ¢":2688,"ç¬¬åįģåħ«æĿ¡":2689,"æļ´åĬĽ":2690,"æĶ¾å°ĦæĢ§":2691,"th":2692,"çĭ¬ç«ĭ":2693,"çīĩ":2694,"æĥł":2695,"æ´ª":2696,"é¦ĸåħĪ":2697,"å¹¼åĦ¿":2698,"åıĪ":2699,"éĢĲ":2700,"åİĭ":2701,"çŁ³":2702,"äº¤æµģ":2703,"æķĪåĬĽ":2704,"æİ¨è¿Ľ":2705,"åĮ»çĸĹåį«çĶŁ":2706,"å»ºè®¾é¡¹çĽ®":2707,"çŃĶæ¡Ī":2708,"ä¾¦":2709,"åľ°çĤ¹":2710,"ç»ıè´¹":2711,"çĻ½":2712,"è°¢":2713,"ç¬¬ä¸īçĻ¾":2714,"è¯ĨåĪ«":2715,"æĻ®éĢļ":2716,"Ġy":2717,"æ»¥":2718,"è¾¾åĪ°":2719,"åį¡":2720,"çĽĸ":2721,"å·®":2722,"åħ¬è·¯":2723,"ä¸Ĭä¸Ģ":2724,"åĨ³è®®":2725,"æľįåĬ¡çļĦ":2726,"è®¸å¤ļ":2727,"èªī":2728,"ä¸Ģå®ļ":2729,"åĨľæ°ĳä¸ĵä¸ļ":2730,"èĭ¥":2731,"ä¾¿åĪ©":2732,"æ¸Ķä¸ļ":2733,"çļĦéĹ®é¢ĺ":2734,"çİĭ":2735,"éĿĴ":2736,"ç»ĻäºĪèŃ¦åĳĬ":2737,"ä¾µæĿĥ":2738,"é¢Ħå¤ĩå½¹":2739,"åı¤":2740,"éĹŃ":2741,"æ´ģ":2742,"è´£ä»¤éĻĲæľŁ":2743,"å²¸":2744,"éĢĢå½¹åĨĽäºº":2745,"åįĹ":2746,"çĶ¨éĢĶ":2747,"å¤Ħåįģ":2748,"200":2749,"201":2750,"çŃ¾åĲį":2751,"åĪ¶éĢł":2752,"åīĤ":2753,"ä¾Ŀçħ§æ³ķå¾ĭ":2754,"æľīä¸ĭåĪĹè¡Įä¸º":2755,"åĸľæ¬¢":2756,"å¯Į":2757,"ç¡®è®¤":2758,"åĲĪä¼Ļäºº":2759,"çĶµåŃĲåķĨåĬ¡":2760,"ç¬¬åįģä¸ĥæĿ¡":2761,"ç¬¬åįģåħŃæĿ¡":2762,"åľŁåľ°æī¿åĮħ":2763,"åĪĽéĢł":2764,"ç´§æĢ¥":2765,"ç¬¬ä¸īæĿ¡":2766,"æ¸¸æĪı":2767,"è¢«åĳĬäºº":2768,"éĵģè·¯":2769,"åª":2770,"è¯ģä»¶":2771,"åħ¥å¢ĥ":2772,"æī£æĬ¼":2773,"é©¾é©¶":2774,"åĨľæ°ĳä¸ĵä¸ļåĲĪä½ľç¤¾":2775,"è¯¦":2776,"æĢİ":2777,"åħ¨éĥ¨":2778,"éĺħ":2779,"ç¬¬åįģåĽĽæĿ¡":2780,"çĦ¶åĲİ":2781,"å®¡è®®":2782,"ç¬¬äºĮåįģæĿ¡":2783,"å¤ļç§į":2784,"èģĶç½ĳ":2785,"ä½Ļ":2786,"éĢĥ":2787,"æŃ£åľ¨":2788,"ä¸´æĹ¶":2789,"éĻĨ":2790,"æĬĬ":2791,"æĪĲä¸º":2792,"åĨħçļĦ":2793,"æĦıè¯Ĩ":2794,"çİ°åľº":2795,"ç¬¬åįģæĿ¡":2796,"æķħäºĭ":2797,"çĭĹ":2798,"åįıä¼ļ":2799,"ä¸ŃåĽ½äººæ°ĳ":2800,"ĠS":2801,"å®¤":2802,"ç¦½":2803,"te":2804,"ä¸Ģç§į":2805,"ç®¡çĲĨäººåĳĺ":2806,"ç¬¬åįģä¹ĿæĿ¡":2807,"ç¬¬åįģäºĮæĿ¡":2808,"çĶ¨çļĦ":2809,"å¹¶å¤Ħç½ļéĩĳ":2810,"å¹´åº¦":2811,"åī²":2812,"ç¬¬åĽĽæĿ¡":2813,"çĪĨ":2814,"çĥŁ":2815,"åĮºçļĦå¸Ĥ":2816,"ĠA":2817,"è®¾åĮºçļĦå¸Ĥ":2818,"çĻ¾åĪĨä¹ĭ":2819,"ç¦ı":2820,"è½¦è¾Ĩ":2821,"æĺ¯ä¸Ģç§į":2822,"è´·æ¬¾":2823,"èĢģå¹´äºº":2824,"æľ¬çº§äººæ°ĳä»£è¡¨å¤§ä¼ļ":2825,"ç¬¬åįģäºĶæĿ¡":2826,"æ³Ľ":2827,"è®¨":2828,"çīĪ":2829,"ç¬¬äºĮåįģäºĮæĿ¡":2830,"åħ»èĢģ":2831,"ä¸Ģç¯ĩ":2832,"èĩªè¡Į":2833,"éĺ³":2834,"åıĹæīĺ":2835,"åŁºäºİ":2836,"ä¼łç»Ł":2837,"ce":2838,"ol":2839,"è¥":2840,"ç½²":2841,"æĭĨ":2842,"ç¬¬ä¸īäºº":2843,"ç¼ĵ":2844,"æ¹¿":2845,"ç¬¬äºĮåįģä¸ĢæĿ¡":2846,"è¾ĵåħ¥":2847,"ĠåĽ½å®¶é¼ĵåĬ±":2848,"ç¥¨æį®":2849,"è¯ĬæĸŃ":2850,"å¥ĸåĬ±":2851,"ĥåľ":2852,"æĮª":2853,"èĪŀ":2854,"ç¬¬åįģä¸ĢæĿ¡":2855,"çĽ¸åħ³çļĦ":2856,"ä¼ļåĲĮåĽ½åĬ¡éĻ¢":2857,"çļĦæĺ¯":2858,"çĶŁåĳ½":2859,"æĹ¶åĢĻ":2860,"çħ¤":2861,"è´¢äº§çļĦ":2862,"çĦ¶èĢĮ":2863,"åŀĥåľ":2864,"ation":2865,"åīįæ¬¾è§Ħå®ļçļĦ":2866,"å°Ĭéĩį":2867,"åªĴ":2868,"åŀĥåľ¾":2869,"æī°":2870,"æīĢéľĢ":2871,"ä¾ĽåºĶ":2872,"å²Ĺ":2873,"åĽ°éļ¾":2874,"è¯¦ç»Ĩ":2875,"åĴĮæĶ¯æĮģ":2876,"ä¼¼":2877,"å¸ģ":2878,"åİĤ":2879,"æľºæŀĦçļĦ":2880,"ç¬¬åįģä¸īæĿ¡":2881,"æĬķåħ¥":2882,"åŁºéĩĳä»½é¢Ŀ":2883,"202":2884,"å¼ķå¯¼":2885,"æ¯Ķä¾ĭ":2886,"é¾Ħ":2887,"åĩ»":2888,"æĢ§è´¨":2889,"åŁºå±Ĥ":2890,"æĮĩæĮ¥":2891,"æĹħå®¢":2892,"ç¬¬ä¹ĿæĿ¡":2893,"åĩŃ":2894,"åŃ©":2895,"åľ°éľĩ":2896,"ç¬¬äºĶæĿ¡":2897,"ä¸Ģæ¬¡":2898,"åĪĨåŃĲ":2899,"æĮīçħ§åĽ½å®¶æľīåħ³è§Ħå®ļ":2900,"æ±¡æŁĵéĺ²æ²»":2901,"åħ³äºİä¿®æĶ¹":2902,"æĵįä½ľ":2903,"éĻĪ":2904,"ä½¿çĶ¨æĿĥ":2905,"é£ŀ":2906,"ä½ıæīĢ":2907,"èĩªçĦ¶èµĦæºĲ":2908,"ä¾Ŀæ³ķç»ĻäºĪå¤ĦåĪĨ":2909,"ur":2910,"ç»ıè¿ĩ":2911,"ç¬¬äºĮæĿ¡":2912,"æĬ¥åĽ½åĬ¡éĻ¢":2913,"å£¤":2914,"çĬ¯ç½ªå«Įçĸĳäºº":2915,"è¥¿":2916,"ç¬¬åħŃæĿ¡":2917,"æİ¨èįĲ":2918,"ä¾¦æŁ¥":2919,"ç¬¬ä¸ĥæĿ¡":2920,"èģļ":2921,"éĢĤåĲĪ":2922,"ç¬¬äºĮåįģä¸ĥæĿ¡":2923,"ç¬¬äºĮåįģåħ«æĿ¡":2924,"ç¬¬äºĮåįģä¹ĿæĿ¡":2925,"åĬ³åĬ¨åĲĪåĲĮ":2926,"è¾¾æĪĲ":2927,"æ¯ıä¸ª":2928,"å¸¦æĿ¥":2929,"äº²å±ŀ":2930,"çļĦå½±åĵį":2931,"æĿ¡çº¦":2932,"æĪĸèĢħæĭĺå½¹":2933,"åħ¨ä½ĵ":2934,"å®īåħ¨çļĦ":2935,"å°Ĩåħ¶":2936,"æ®ĸ":2937,"æŀĹä¸ļ":2938,"åĪĿ":2939,"ä¸įåı¯":2940,"åĽ½å®¶è§Ħå®ļ":2941,"å®īç½®":2942,"å§ĵ":2943,"æĮģç»Ń":2944,"å·¨":2945,"ç»ĵæŀĦ":2946,"å¤Ħä¸īå¹´ä»¥ä¸ĭæľīæľŁå¾ĴåĪĳ":2947,"åı¥åŃĲ":2948,"è¡Ģ":2949,"æłĳ":2950,"å¸Į":2951,"ç»Ħç»ĩçļĦ":2952,"æ¢°":2953,"ç²®é£Ł":2954,"ç»ĺ":2955,"ç¬¬åħ«æĿ¡":2956,"è¡Įä¸ºäºº":2957,"ç±³":2958,"ç¬¬äºĮåįģåħŃæĿ¡":2959,"ç¿»":2960,"ow":2961,"ĠC":2962,"ä¸įæĺ¯":2963,"çīĮ":2964,"æĶ¶çĽĬ":2965,"æµ·åŁŁ":2966,"ç¬¬ä¸ĢçĻ¾äºĮåįģ":2967,"éĵ¶è¡Įä¸ļ":2968,"åĢįä»¥ä¸Ĭ":2969,"çķľç¦½":2970,"ig":2971,"èħ":2972,"èµģ":2973,"åıĬåħ¶ä»ĸ":2974,"ç¡®å®ļçļĦ":2975,"æķĻå¸Ī":2976,"åľŁå£¤":2977,"ç§Łèµģ":2978,"æĲľ":2979,"èĢķ":2980,"æĭŁ":2981,"åıĳæĮ¥":2982,"æĥħæĦŁ":2983,"éĺ²æĬ¤":2984,"åĨĽéĺŁ":2985,"ç¬¬äºĮåįģä¸īæĿ¡":2986,"æłĩåĩĨçļĦ":2987,"æ·»":2988,"çªģåıĳäºĭä»¶":2989,"æĪĳçļĦ":2990,"åĩĨå¤ĩ":2991,"æİ¥åĪ°":2992,"è®¡ç®Ĺæľº":2993,"èµĦæľ¬":2994,"çī¹çĤ¹":2995,"åŁ¹åħ»":2996,"åĤ¨åŃĺ":2997,"æ¬¡ä¼ļè®®éĢļè¿ĩ":2998,"ç»¿":2999,"åºĶå½ĵéģµå®Ī":3000,"ç¬¬ä¸īåįģæĿ¡":3001,"å¹¿æ³Ľ":3002,"èİ·åıĸ":3003,"åĨĽäºĭå§Ķåĳĺä¼ļ":3004,"ä¸Ńå¤®åĨĽäºĭå§Ķåĳĺä¼ļ":3005,"éģŃåıĹ":3006,"åł":3007,"åħ¬å¹³":3008,"åĲĳç¤¾ä¼ļ":3009,"ut":3010,"ĠI":3011,"æ³Ħ":3012,"æ³ķå®ĺ":3013,"ä¸»é¢ĺ":3014,"ç¬¬äºĮåįģäºĶæĿ¡":3015,"æ±¡æŁĵçī©":3016,"é»Ħæ²³æµģåŁŁ":3017,"çĶ±åİ¿çº§ä»¥ä¸Ĭäººæ°ĳæĶ¿åºľ":3018,"ä»ĺæ¬¾":3019,"è´£ä»¤åģľæŃ¢":3020,"ä»ĸä»¬çļĦ":3021,"éĤ®æĶ¿":3022,"æĿĳæ°ĳå§Ķåĳĺä¼ļ":3023,"è¾©æĬ¤":3024,"Ġg":3025,"çĽĹ":3026,"åı¯ä»¥éĩĩåıĸ":3027,"åĽ½å®¶ç§ĺå¯Ĩ":3028,"ç¬¬ä¸ĢæĿ¡":3029,"ä¸ĵçĶ¨":3030,"è®¾æĸ½çļĦ":3031,"åħµ":3032,"åĵģç§į":3033,"åħļ":3034,"è¯Ĺ":3035,"æĺł":3036,"ç®¡éģĵ":3037,"åĬĽéĩı":3038,"è¯ģåĪ¸äº¤æĺĵ":3039,"æ¶īå«Į":3040,"åĴĮç®¡çĲĨ":3041,"ä¹Ļ":3042,"åĳ¢":3043,"åĩºåħ·":3044,"ä¸ĭéĿ¢":3045,"åįķä½įåºĶå½ĵ":3046,"ç¬¬ä¸īåįģä¸ĢæĿ¡":3047,"åĨľæĿĳéĽĨä½ĵç»ıæµİç»Ħç»ĩ":3048,"çĶŁæĢģçİ¯å¢ĥä¸»ç®¡éĥ¨éĹ¨":3049,"qu":3050,"ãĢĪ":3051,"ãĢī":3052,"æĿŁ":3053,"éĿ©":3054,"è¿ĲåĬ¨":3055,"è®¤è¯ģ":3056,"åĭ¤":3057,"åı¦æľīè§Ħå®ļçļĦ":3058,"æľĭ":3059,"æĭĸ":3060,"æľ¬ç½ª":3061,"ä¼ģä¸ļçļĦ":3062,"ç¬¬ä¸īåįģä¸īæĿ¡":3063,"æĬķè¯ī":3064,"åħħåĪĨ":3065,"æ·»åĬł":3066,"å¦Ĥå®ŀ":3067,"ç¬¬äºĮåįģåĽĽæĿ¡":3068,"åį«çĶŁåģ¥åº·":3069,"è®Ńç»ĥ":3070,"ä¿¡çĶ¨":3071,"ç«ĭæ³ķ":3072,"è¿ĲèĲ¥":3073,"äº¤éĢļè¿Ĳè¾ĵ":3074,"ä»»ä½ķåįķä½įåĴĮä¸ªäºº":3075,"åĨľä¸ļåĨľæĿĳä¸»ç®¡éĥ¨éĹ¨":3076,"è§Ħç«ł":3077,"ä¼łæĴŃ":3078,"Ġ5":3079,"éĢĴ":3080,"é¡¾":3081,"ç¨ĭåº¦":3082,"åĲİçļĦ":3083,"è¿Ļæł·":3084,"è¶£":3085,"åıĳå±ķè§ĦåĪĴ":3086,"è£ģåĨ³":3087,"el":3088,"æĿĥéĻĲ":3089,"ç³ĸ":3090,"èįīæ¡Ī":3091,"ç¾¤ä¼Ĺ":3092,"æŃ¦è£ħ":3093,"if":3094,"æĶ¹åĸĦ":3095,"æ¿Ģ":3096,"å¸ĮæľĽ":3097,"æ¦":3098,"å·¥ä¼¤":3099,"çī©èµĦ":3100,"åıĹçĽĬ":3101,"ers":3102,"æĬļåħ»":3103,"us":3104,"çļĦçĽ¸åħ³":3105,"çļĦéĻ¤å¤ĸ":3106,"è¯·éĹ®":3107,"ç¨İæ¬¾":3108,"éĢĤçĶ¨æľ¬æ³ķ":3109,"å¢ŀå¼º":3110,"è¿Ķè¿ĺ":3111,"ä¸įåıĹ":3112,"çŁ«":3113,"éĻįä½İ":3114,"éĨ":3115,"å°Ŀ":3116,"æ¬º":3117,"æ²Ł":3118,"éª¤":3119,"æĬķèµĦèĢħ":3120,"åģļå¥½":3121,"çļĦæĸ¹å¼ı":3122,"çİ°åľ¨":3123,"ç¬¬ä¸īåįģä¸ĥæĿ¡":3124,"ç¬¬ä¸īåįģäºĮæĿ¡":3125,"æŃ¥éª¤":3126,"éļĲç§ģ":3127,"åĽºä½ĵ":3128,"ul":3129,"Â·":3130,"å½ĵçĦ¶":3131,"çĶ¨æ°´":3132,"æ³ķå¾ĭæı´åĬ©":3133,"æ¸ħåģ¿":3134,"å»ºçŃĳçī©":3135,"ä»İä¸ļ":3136,"éħĴ":3137,"æľĭåıĭ":3138,"è´´":3139,"ä¸Ģä¸ĭ":3140,"åħ¬æŃ£":3141,"åĮ»åŃ¦":3142,"åĭŁéĽĨ":3143,"å¨ģèĥģ":3144,"æīĢæľīæĿĥ":3145,"éĥ¨éĺŁ":3146,"æĪĳåĽ½":3147,"åĬłåħ¥":3148,"ç¬¬ä¸īåįģåĽĽæĿ¡":3149,"æ»¡è¶³":3150,"çŀ":3151,"éĹ»":3152,"å¯¹è¯Ŀ":3153,"åħ¬åĽŃ":3154,"åħ¨éĿ¢":3155,"æĢ»ä¹ĭ":3156,"å¿ĥçĲĨ":3157,"åĭĺ":3158,"æĮªçĶ¨":3159,"am":3160,"à°":3161,"çļĦä¿¡æģ¯":3162,"åĪĹåħ¥":3163,"ç®Ĺæ³ķ":3164,"è§Ĩä¸º":3165,"é²":3166,"æĿĤ":3167,"å¹¶åľ¨":3168,"èĤī":3169,"æŁ¥å°ģ":3170,"æ¶ĪéĻ¤":3171,"åħ¬åħ±åį«çĶŁ":3172,"ir":3173,"çļĦæĹ¶éĹ´":3174,"æīĢä»¥":3175,"ç®¡çĲĨåĴĮ":3176,"æģ¶":3177,"æĶ¹æŃ£çļĦ":3178,"äºĴèģĶç½ĳ":3179,"é¢Ħéĺ²æİ§åĪ¶":3180,"åĬŀæ³ķçĶ±åĽ½åĬ¡éĻ¢":3181,"è§¦":3182,"è¯ģåĪ¸åħ¬åı¸":3183,"åħ¬åħ±åĪ©çĽĬ":3184,"å§Ķæīĺäºº":3185,"åģļåĩº":3186,"è¿ľ":3187,"ä¸įå±¥è¡Į":3188,"ç¬¬ä¸īåįģäºĶæĿ¡":3189,"åĩıè½»":3190,"èīºæľ¯":3191,"éĺ²èĮĥ":3192,"åĮħè£ħ":3193,"éķ¿æ±Ł":3194,"ç¬¬ä¸īåįģä¹ĿæĿ¡":3195,"æĥ³è¦ģ":3196,"çĳ":3197,"è¡ĮåĬ¨":3198,"å²Ľ":3199,"æ¯Ķå¦Ĥ":3200,"åªĴä½ĵ":3201,"çļĦå·¥ä½ľ":3202,"åĨ»":3203,"é¡º":3204,"åĳ¨å²ģ":3205,"å»¶éķ¿":3206,"åħ¬åĬ¡åĳĺ":3207,"éĴĪå¯¹":3208,"çļĦåįķä½į":3209,"ä»Ĭ":3210,"ä¹ħ":3211,"æµª":3212,"éĢļæĬ¥":3213,"æĹ¥å¸¸":3214,"ç§įåŃĲ":3215,"çĶµä¿¡":3216,"åĲĦçº§äººæ°ĳä»£è¡¨å¤§ä¼ļ":3217,"å®Įæķ´":3218,"æ»¥çĶ¨":3219,"è¡ĮæĶ¿è®¸åı¯":3220,"é¡¿":3221,"è¿Ŀçº¦":3222,"å¼ĢæĶ¾":3223,"ç»ĻæĪĳ":3224,"åĲįä¹ī":3225,"ç¬¬ä¸īåįģåħŃæĿ¡":3226,"åħĪçĶŁ":3227,"ç¬¬åħ«ç«ł":3228,"æĭ¥":3229,"å¤Ħä»¥":3230,"æīĢè¿°":3231,"åĨĽå®ĺ":3232,"ç¬¬åĽĽåįģæĿ¡":3233,"çļĦæĦıè§ģ":3234,"ç¨İæĶ¶":3235,"ç¬¬ä¸īåįģåħ«æĿ¡":3236,"äº§çĶŁçļĦ":3237,"è´¦æĪ·":3238,"æĭĽæłĩ":3239,"åĨĴ":3240,"ä¸»ä»»":3241,"æ½":3242,"æĹħè¡Į":3243,"å±Ĭæ»¡":3244,"```":3245,"Ġä¸ºäºĨ":3246,"åºĶå½ĵèĩª":3247,"åı¯ä»¥ä¾Ŀæ³ķ":3248,"çĶµè§Ĩ":3249,"å®£åĳĬ":3250,"çº³ç¨İäºº":3251,"ç»į":3252,"èĬĤèĥ½":3253,"æ¬¡ä¿®æŃ£":3254,"è®¾ç«ĭçļĦ":3255,"ä»ĭç»į":3256,"æĮĳ":3257,"ç»ıéªĮ":3258,"çŃīçº§":3259,"åİħ":3260,"åĨ³çŃĸ":3261,"ä¾Ŀçħ§æľ¬æ³ķè§Ħå®ļ":3262,"æİĪäºĪ":3263,"çļĦåºĶçĶ¨":3264,"åĽ½åĬ¡éĻ¢è¯ģåĪ¸çĽĳçĿ£ç®¡çĲĨæľºæŀĦ":3265,"çĽĳå¯Łæľºåħ³":3266,"ä¸Ģèµ·":3267,"ä¸įæľį":3268,"æľ¬çº§äººæ°ĳæĶ¿åºľ":3269,"åī§":3270,"å½¢æĪĲ":3271,"åĪ¶å®ļæľ¬æ³ķ":3272,"å±Ĭåħ¨åĽ½äººæ°ĳä»£è¡¨å¤§ä¼ļå¸¸åĬ¡å§Ķåĳĺä¼ļç¬¬åįģ":3273,"çģ¾å®³":3274,"çıŃ":3275,"æŀªæĶ¯":3276,"éĻĪè¿°":3277,"æĸ¯":3278,"ä¸ļä¸»":3279,"åĽ½å®¶é¼ĵåĬ±":3280,"æ£®":3281,"æķĻåŃ¦":3282,"éĢłæĪĲçļĦ":3283,"æ°Ķè±¡":3284,"æ¹ĸ":3285,"ç»©":3286,"è¯º":3287,"æĥ©":3288,"çº§ä»¥ä¸Ĭ":3289,"æľªæĮīçħ§è§Ħå®ļ":3290,"è´¿":3291,"å®¡æł¸":3292,"è¦ģæ±ĤçļĦ":3293,"ç±»åŀĭ":3294,"åĻª":3295,"å±ħæ°ĳå§Ķåĳĺä¼ļ":3296,"è§Ĵèī²":3297,"å¹¼åĦ¿åĽŃ":3298,"čĊ":3299,"ä¸ĢåĲį":3300,"åĽ½æ°ĳ":3301,"ä¿ĿåŃĺ":3302,"å½ĵäºĭäººçļĦ":3303,"éģµå¾ª":3304,"ç¨³å®ļ":3305,"æľīåĪ©":3306,"æıĲè¯·":3307,"Ġæľ¬æ³ķèĩª":3308,"Ġå½ķ":3309,"çļĦéĩįè¦ģ":3310,"äººæīį":3311,"æ³ķæ²»":3312,"å¤§æ°Ķ":3313,"è¢«åĪ¤":3314,"è¡Įä¸ºèĥ½åĬĽ":3315,"åģľä¸ļ":3316,"æľªæĪĲå¹´äººçļĦ":3317,"çŁ«æŃ£":3318,"30":3319,"åįĬ":3320,"ä¸Ģèĩ´":3321,"å¹´åĨħ":3322,"æľºæŀĦåºĶå½ĵ":3323,"è·¨":3324,"ä¼ĺæĥł":3325,"çļĦæľīåħ³è§Ħå®ļ":3326,"ä¹±":3327,"åĪĨåī²":3328,"æ³ķå¾ĭæ³ķè§Ħ":3329,"åĢĴ":3330,"èĤ¡ç¥¨":3331,"å¹´ä»¥ä¸ĬæľīæľŁå¾ĴåĪĳ":3332,"æĢİä¹Ī":3333,"è®²":3334,"è¯ģäºº":3335,"æĶ¶åıĸ":3336,"ä¼ĺåĮĸ":3337,"çĸ¾çĹħé¢Ħéĺ²æİ§åĪ¶":3338,"åĢŁæ¬¾":3339,"æľºåĻ¨åŃ¦ä¹ł":3340,"å²Ĺä½į":3341,"ä¾Ŀæ³ķå±¥è¡Į":3342,"åĪĳç½ļ":3343,"å®³äºº":3344,"æ¹¿åľ°":3345,"čĊč":3346,"è¯·æł¹æį®":3347,"é¢Ħæ¡Ī":3348,"åĿĢ":3349,"ç¬¬åĽĽåįģåĽĽæĿ¡":3350,"åĬ³åĬ¨äºīè®®":3351,"éĢĢè¿ĺ":3352,"æ°ĳçĶ¨èĪªç©ºåĻ¨":3353,"Ġyou":3354,"æĿ¡ä¾ĭ":3355,"æŃ§":3356,"æľīåħ³ä¸»ç®¡éĥ¨éĹ¨":3357,"æİªæĸ½çļĦ":3358,"ç¬¬åĽĽåįģäºĮæĿ¡":3359,"ç¬¬åĽĽåįģä¸īæĿ¡":3360,"ç¬¬åĽĽåįģäºĶæĿ¡":3361,"ç»¼ä¸Ĭ":3362,"ĊĠĠ":3363,"çļĦéľĢè¦ģ":3364,"æĸ°éĹ»":3365,"ç©ºéĹ´":3366,"æīįèĥ½":3367,"æ´ĹéĴ±":3368,"æ³Ħéľ²":3369,"ä¸įåĬ¨äº§":3370,"åħ¬è¯ģ":3371,"è´£ä»»çļĦ":3372,"å°ıçº¢":3373,"åıĬåħ¶æľīåħ³éĥ¨éĹ¨":3374,"å¾Īå¤ļ":3375,"æħĪåĸĦç»Ħç»ĩ":3376,"ä¸§":3377,"ä¸ĢæŃ¥":3378,"æĪĲæľ¬":3379,"åħ±äº«":3380,"å®³åħ³ç³»":3381,"è¿«":3382,"åľ¨ä¸ŃåĽ½":3383,"åĩºçļĦ":3384,"åĪĨå·¥":3385,"æıĲä¾ĽèĢħ":3386,"éĿ¢ä¸´":3387,"åĿĹ":3388,"ä»ĵ":3389,"è¡¡":3390,"è´¡":3391,"å®ŀéªĮ":3392,"ç¬¬åĽĽåįģä¸ĥæĿ¡":3393,"åħ·ä½ĵçļĦ":3394,"èĩ´ä½¿":3395,"æľīä¸ĭåĪĹè¡Įä¸ºä¹ĭä¸ĢçļĦ":3396,"åĲĮä¸Ģ":3397,"åŃ¦ä½į":3398,"æī§çħ§":3399,"åĢºåĪ¸":3400,"å®¶åºŃæķĻèĤ²":3401,"å®ŀéĻħæĥħåĨµ":3402,"Ġfor":3403,"å¯»æ±Ĥ":3404,"un":3405,"é±":3406,"Ġ4":3407,"æ°ĳæĶ¿":3408,"ç¬¬åĽĽåįģåħ«æĿ¡":3409,"å¤Ħä¸īå¹´ä»¥ä¸Ĭ":3410,"ä¹ĺ":3411,"å¦¨":3412,"ç¬¬åĽĽåįģä¸ĢæĿ¡":3413,"æĹ¥èµ·æĸ½è¡Į":3414,"çĬ¶æĢģ":3415,"åĻªå£°":3416,"ç»¼ä¸ĬæīĢè¿°":3417,"è´¡çĮ®":3418,"æĬ½":3419,"æ¶²":3420,"çĶµåĬĽ":3421,"éĤ®ä»¶":3422,"å§ĵåĲį":3423,"é±¼":3424,"åĲ¨":3425,"è¯ĳ":3426,"è¿ĩéĶĻ":3427,"å·¥ä½ľä¸Ń":3428,"æĢ»ä½ĵ":3429,"éĢłæĪĲä¸¥éĩį":3430,"æīĭæľº":3431,"Ġäººæ°ĳæ³ķéĻ¢":3432,"å®Ĺ":3433,"åĮĹ":3434,"ç¬¬äºĶåįģæĿ¡":3435,"åĽ¾ä¹¦":3436,"æ±ĩç¥¨":3437,"èĵ":3438,"æĪĲåĬŁ":3439,"èģĮå®Ī":3440,"æİĪæĿĥ":3441,"ç¤¾åĮºçŁ«æŃ£":3442,"åĺ":3443,"æ°¸":3444,"é¢ĳ":3445,"æķĪæŀľ":3446,"æ£®æŀĹ":3447,"è¯ļ":3448,"å¾Ħ":3449,"çĶŁæķĪ":3450,"çŃīçŃī":3451,"æŁ¥è¯¢":3452,"æĮĩå®ļçļĦ":3453,"åħ»æ®ĸ":3454,"ç¨İåĬ¡æľºåħ³":3455,"èµĽ":3456,"ç¬¬åĽĽåįģåħŃæĿ¡":3457,"æµĭç»ĺ":3458,"åįłçĶ¨":3459,"æ¨¡åŀĭ":3460,"å¼Ĥè®®":3461,"è´£ä»¤éĻĲæľŁæĶ¹æŃ£":3462,"èĶ":3463,"ç»ıå¸¸":3464,"åģ¶":3465,"ç¬¬äºĮæ¬¾":3466,"èµ·æĿ¥":3467,"è·µ":3468,"å®£ä¼łæķĻèĤ²":3469,"éĺ»ç¢į":3470,"ä»¥ä¾¿":3471,"åºĶå½ĵéĩĩåıĸ":3472,"åĪ¶åĵģ":3473,"åħ¨çĲĥ":3474,"èĩªæĦ¿":3475,"æľªæĮīçħ§":3476,"èį£":3477,"ç¬¬åĽĽçĻ¾":3478,"ç¬¬åĽĽåįģä¹ĿæĿ¡":3479,"é«ĺçŃīåŃ¦æł¡":3480,"æĮĳæĪĺ":3481,"æĿ¾":3482,"è°Ī":3483,"ç»Ħç»ĩåĴĮä¸ªäºº":3484,"ç¼Ķ":3485,"ç½ĳç«Ļ":3486,"èĪªéģĵ":3487,"ä¸°":3488,"å·ŀ":3489,"ä¸¾åĬŀ":3490,"åį«çĶŁè¡ĮæĶ¿éĥ¨éĹ¨":3491,"Ġst":3492,"éĥ½æĺ¯":3493,"ä¼¤å®³":3494,"è¯ĪéªĹ":3495,"åĽ½æ°ĳç»ıæµİ":3496,"ä¸Ģæ®µ":3497,"åĩĢ":3498,"åºĶå½ĵçĶ±":3499,"å¿½":3500,"ç½ļéĩĳ":3501,"çİ¯å¢ĥå½±åĵį":3502,"éĹ®é¢ĺçļĦ":3503,"åĤ¨å¤ĩ":3504,"åĲ¬åıĸ":3505,"ct":3506,"åĬª":3507,"ä¼į":3508,"åįģå¹´ä»¥ä¸ĭæľīæľŁå¾ĴåĪĳ":3509,"æĪĸèĢħä¸į":3510,"å¼Ĭ":3511,"çĽ¸åĲĮ":3512,"ä¹ĭåīį":3513,"è®°è½½":3514,"è¡¥åħħ":3515,"æľĢé«ĺäººæ°ĳæ³ķéĻ¢":3516,"åŃ©åŃĲ":3517,"æ¦Ĥ":3518,"çŀĴ":3519,"çĨ":3520,"çļĦæĸĩç«ł":3521,"åĴĮæľįåĬ¡":3522,"åºĶå½ĵç«ĭåį³":3523,"ä¿Ŀåģ¥":3524,"è¡¨è¾¾":3525,"çĽ¸äºĴ":3526,"ä¼ģä¸ļäºĭä¸ļåįķä½į":3527,"æľĢç»Ī":3528,"ä¸ĩåħĥä»¥ä¸ĬäºĶåįģ":3529,"æ¥":3530,"ä¸½":3531,"çļĦåĲĪæ³ķæĿĥçĽĬ":3532,"å¤º":3533,"åħ³æ³¨":3534,"æİ¥ç§į":3535,"æīĺè¿Ĳ":3536,"æ°ĳäºĭè¯īè®¼æ³ķ":3537,"çªĥ":3538,"åĬªåĬĽ":3539,"ad":3540,"ï¼ļï¼Ī":3541,"è¿ĩå¤±":3542,"è¿ĳäº²å±ŀ":3543,"éķ¿æ±ŁæµģåŁŁ":3544,"##":3545,"$$":3546,"è¿ģ":3547,"ç¬¬äºĮèĬĤ":3548,"åĳĬè¯ī":3549,"ith":3550,"éļĲæĤ£":3551,"ä¼Ĳ":3552,"ä¸Ģä½į":3553,"äº§æĿĥ":3554,"æľ¬çº§":3555,"ä½įç½®":3556,"ç»Ħç»ĩå¼Ģå±ķ":3557,"åİ¿çº§äººæ°ĳæĶ¿åºľ":3558,"ç¬¬ä¸ĢåįĥéĽ¶":3559,"æ²ŁéĢļ":3560,"è¯¾":3561,"æľ¬æ³ķè§Ħå®ļçļĦ":3562,"æĿ¥æºĲ":3563,"ä¸įå¾Ĺè¶ħè¿ĩ":3564,"è¿ĿåıįäºĨ":3565,"æĪĸèĢħåħ¶":3566,"åŃ£":3567,"èĩªä¸»":3568,"æįŁåĿı":3569,"é¢Ħæµĭ":3570,"æĤ¨åı¯ä»¥":3571,"ç¬¬äºĶåįģä¸ĢæĿ¡":3572,"ä½ľåĩºçļĦ":3573,"å°Ŀè¯ķ":3574,"è§Ħæ¨¡":3575,"åħ±æľī":3576,"åĨ»ç»ĵ":3577,"æı¡":3578,"ä»¥ä¸ĬçļĦ":3579,"åĮ»å¸Ī":3580,"ç¬¬äºĶåįģäºĮæĿ¡":3581,"ç¬¬äºĶåįģåħŃæĿ¡":3582,"æ°ĳäºĭè¡Įä¸ºèĥ½åĬĽ":3583,"è½½æĺİ":3584,"çļĦåĨħå®¹":3585,"å¤ı":3586,"æİĮ":3587,"ç»Ħç»ĩå®ŀæĸ½":3588,"é©¬":3589,"è¯¢éĹ®":3590,"ç¿»è¯ĳ":3591,"èĽ":3592,"éº":3593,"åĴĮæľīåħ³":3594,"å¯Ħ":3595,"åºĶå½ĵåĬłå¼º":3596,"æŀ¶":3597,"ç«¯":3598,"æľ¬äºº":3599,"æ±½":3600,"æĺİçŁ¥":3601,"ç¬¬ä¸ĢèĬĤ":3602,"å°ıæĿİ":3603,"çĥĪ":3604,"æ°ĳäºĭè´£ä»»":3605,"æŃ§è§Ĩ":3606,"ĠåĲĦçº§äººæ°ĳæĶ¿åºľ":3607,"çļĦæ¡Īä»¶":3608,"ç®¡æİ§":3609,"æľºæ¢°":3610,"åĽ½å®¶è§Ħå®ļçļĦ":3611,"éĿł":3612,"å¤§éĩı":3613,"ä¿ĿæĬ¤åĴĮ":3614,"åĮ»çĶŁ":3615,"ç¬¬äºĶåįģä¸ĥæĿ¡":3616,"å®¢è§Ĥ":3617,"åĩŃè¯ģ":3618,"åĽºä½ĵåºŁçī©":3619,"ay":3620,"ç¹":3621,"Ġare":3622,"æĪĳä»¬åı¯ä»¥":3623,"åĢĻéĢī":3624,"åĩ½":3625,"æĪĸèĢħåľ¨":3626,"çī©ä¸ļ":3627,"è¿Ľåĩºåı£":3628,"çĶ±çľģ":3629,"æ°´åľŁ":3630,"ly":3631,"çļĦçĬ¯ç½ª":3632,"åºĶå½ĵç»ı":3633,"æľ¬åįķä½į":3634,"åĪ¶æŃ¢":3635,"åĨħéĥ¨":3636,"ç¤¾äº¤":3637,"æī¿ç§Łäºº":3638,"æī¬":3639,"åºĶå½ĵä¸İ":3640,"æ´»åĬ¨ä¸Ń":3641,"å¦ĤæŀľæĤ¨":3642,"äººå·¥æĻºèĥ½æĬĢæľ¯":3643,"çļĦä¸Ģ":3644,"äºĮçĻ¾":3645,"åĪ°äºĨ":3646,"æī§è¡ĮçļĦ":3647,"æīĺç®¡":3648,"åĨľæĿĳåľŁåľ°æī¿åĮħ":3649,"æľŁè´§äº¤æĺĵ":3650,"æĽ´å¤ļçļĦ":3651,"ç¦ıåĪ©":3652,"è®¨è®º":3653,"åį¸":3654,"åºĹ":3655,"æ°ĳä¸»":3656,"åĮĸçļĦ":3657,"ç»ĵè®º":3658,"æī¹åĩĨçļĦ":3659,"åıĳçĶŁçļĦ":3660,"åıĬåħ¶å·¥ä½ľäººåĳĺ":3661,"ç»§æī¿äºº":3662,"å·§":3663,"ä¸ŃåĮ»":3664,"ä¸Ĭè¯ī":3665,"æıĲåįĩ":3666,"å¹´çļĦ":3667,"ç½ªçĬ¯":3668,"èĬĤçº¦":3669,"ç¬¬äºĶåįģåħ«æĿ¡":3670,"ç¬¬äºĶåįģä¸īæĿ¡":3671,"ç§»åĬ¨":3672,"Ġ\\(":3673,"è¿ŀå¸¦":3674,"ä»¥å¤ĸçļĦ":3675,"åĴĮä½¿çĶ¨":3676,"åĽ½ç±į":3677,"ä¾µåįł":3678,"èĢķåľ°":3679,"æĬ«":3680,"æĪĸèĢħæľīåħ¶ä»ĸ":3681,"æĸĩæĺİ":3682,"æĶ¶åħ»":3683,"æī¿è¯º":3684,"åŁºéĩĳç®¡çĲĨäºº":3685,"ä¹īåĬ¡çļĦ":3686,"åĪĳäºĭè¯īè®¼æ³ķ":3687,"æīĢæľīçļĦ":3688,"åħ¶è§Ħå®ļ":3689,"æĥ¯":3690,"æĹ¥ä»¥ä¸ĭ":3691,"åŃĺæ¬¾":3692,"æİ¨çĲĨ":3693,"åĽŀéģ¿":3694,"èĻ½":3695,"çĸ«æĥħ":3696,"çŃ¾åıĳ":3697,"çĭ¬èµĦ":3698,"æµ·äºĭæ³ķéĻ¢":3699,"åıĹæīĺäºº":3700,"ç¹ģ":3701,"Ġä¸Ńåįİäººæ°ĳåħ±åĴĮåĽ½":3702,"æľºä¼ļ":3703,"å¥Ĺ":3704,"æľįåĬ¡æıĲä¾ĽèĢħ":3705,"ç¬¬äºĶåįģäºĶæĿ¡":3706,"æ¡Īä»¶çļĦ":3707,"ç®¡çĲĨåĪ¶åº¦":3708,"æĸĩä¹¦":3709,"æĬ¥éĢģ":3710,"åĬłå·¥":3711,"éĴŁ":3712,"æĪĺçķ¥":3713,"æĭī":3714,"æ¬ł":3715,"æīĢåĪĹ":3716,"å¹´é¾Ħ":3717,"åħŃä¸ªæľĪ":3718,"ç§įç±»":3719,"è´¢æĶ¿éĥ¨éĹ¨":3720,"Ġv":3721,"å¾ĩ":3722,"ä¼ļåĳĺ":3723,"å¹¶å°Ĩ":3724,"æ°´è¡ĮæĶ¿ä¸»ç®¡éĥ¨éĹ¨":3725,"ç§ĳçłĶ":3726,"ç¬¬ä¸ĢçĻ¾ä¸īåįģ":3727,"æłĩåĩĨåĴĮ":3728,"èĩªæ²»åľ°æĸ¹":3729,"æ£Ģå¯Łå®ĺ":3730,"å¿ħè¦ģæĹ¶":3731,"è´§çī©çļĦ":3732,"åĴĮæ³ķå¾ĭ":3733,"åľ°çĲĥ":3734,"æ··":3735,"èĲ½å®ŀ":3736,"15":3737,"èĴ":3738,"çļĦä¹īåĬ¡":3739,"æķ´é¡¿":3740,"æ¯Ķè¾ĥ":3741,"æĢĿæĥ³":3742,"å¾ĩç§ģ":3743,"èĸ":3744,"çļĦéĥ¨éĹ¨":3745,"äººæ°ĳèŃ¦å¯Ł":3746,"æľ¬æĿ¡":3747,"è¿ĽæŃ¥":3748,"æĪĳæĥ³":3749,"æĶ¶è´¹":3750,"é«ĺæķĪ":3751,"å¤ļå°ĳ":3752,"ç¬¬äºĶåįģåĽĽæĿ¡":3753,"æĪĳä»¬éľĢè¦ģ":3754,"ä½ıå®":3755,"éļıçĿĢ":3756,"åĢįä»¥ä¸ĭçļĦç½ļæ¬¾":3757,"ä¸°å¯Į":3758,"äººåĴĮ":3759,"æ³Ĭ":3760,"ä¸Ńå°ı":3761,"æĹ¶æķĪ":3762,"éģĵå¾·":3763,"ç¬¬ä¸ĢçĻ¾åĽĽåįģ":3764,"éħįå¤ĩ":3765,"å¤©æ°Ķ":3766,"ç¾İåĽ½":3767,"æĲº":3768,"èĳ£äºĭä¼ļ":3769,"åį«çĶŁåģ¥åº·ä¸»ç®¡éĥ¨éĹ¨":3770,"å¦¥":3771,"å¤įæĿĤ":3772,"Ġas":3773,"éªĮæĶ¶":3774,"å°±æĺ¯":3775,"ä¿Ŀéļľæ³ķ":3776,"ç¬¬åħŃåįģäºĮæĿ¡":3777,"åĨĻä¸Ģç¯ĩ":3778,"åħ¬åħ±åį«çĶŁäºĭä»¶":3779,"åĽ½æ°ĳç»ıæµİåĴĮç¤¾ä¼ļ":3780,"é¢ľ":3781,"æľ¬ç«ł":3782,"åĢ¾":3783,"ä¹Łæĺ¯":3784,"çĻ»è®°çļĦ":3785,"æľīæĿĥè¦ģæ±Ĥ":3786,"éĥ½æľī":3787,"æĻ®åıĬ":3788,"é¤Ĳåİħ":3789,"ä¸»å¸ŃåĽ¢":3790,"em":3791,"åĲĪå¹¶":3792,"åĩºåĶ®":3793,"å¥ĩ":3794,"å°Ĩä¼ļ":3795,"åĪ¤æĸŃ":3796,"ä¸¾è¡Į":3797,"å¯Ĩçłģ":3798,"çŃĸçķ¥":3799,"ĠP":3800,"èĢħçļĦ":3801,"æ°ĳæĹıèĩªæ²»åľ°æĸ¹":3802,"åĲĥ":3803,"ä¸Ģä»½":3804,"åįģåŃĹ":3805,"æľºåľº":3806,"æıĲåīį":3807,"è¾ŀ":3808,"æĹłéļľç¢į":3809,"ç¬¬åħŃåįģæĿ¡":3810,"äº¤éĢļäºĭæķħ":3811,"æī¶æĮģ":3812,"Ġå½ĵäºĭäºº":3813,"åĨ²":3814,"çĶ±åħ¬å®īæľºåħ³":3815,"å®ŀè·µ":3816,"ä¹¡æĿĳ":3817,"000":3818,"çº¢åįģåŃĹ":3819,"æĺ¾èĳĹ":3820,"è¸":3821,"è¡ĮæĶ¿ç®¡çĲĨéĥ¨éĹ¨":3822,"å¼Ģéĩĩ":3823,"èģĮè´£åĪĨå·¥":3824,"æ¸ħæ´ģ":3825,"ç¬¬åħŃåįģä¸ĢæĿ¡":3826,"ä¹łæĥ¯":3827,"åķĨä¸ļç§ĺå¯Ĩ":3828,"åĲİæŀľçļĦ":3829,"ä¸§å¤±":3830,"çļĦäººæ°ĳä»£è¡¨å¤§ä¼ļ":3831,"çļĦåŁºæľ¬":3832,"ä¸įä»ħ":3833,"ä¸Ńå¿ĥ":3834,"å¤ĦäºĮ":3835,"èµĦè´¨":3836,"å¦Ĥä¸ĭ":3837,"æ¯ķ":3838,"ä¸ĵé¡¹":3839,"âĢĿï¼Į":3840,"ç®Ģåįķ":3841,"èĪŀå¼Ĭ":3842,"åī©":3843,"è¶ĭ":3844,"çļĦè§Ħå®ļå¤Ħç½ļ":3845,"å»ºè®¾çĶ¨åľ°":3846,"ç¬¬äºĶåįģä¹ĿæĿ¡":3847,"äº§åĵģçļĦ":3848,"å¸ĥå±Ģ":3849,"åľ°åĮºçļĦ":3850,"æ¼ı":3851,"èģĮä¸ļçĹħåį±å®³":3852,"æī¾åĪ°":3853,"ä¸ĢåĢįä»¥ä¸Ĭ":3854,"åĮ¿":3855,"æĸĩåŃ¦":3856,"åľ°æĸ¹åĲĦçº§äººæ°ĳä»£è¡¨å¤§ä¼ļ":3857,"æľĢè¿ĳ":3858,"è´¨éĩıå®īåħ¨":3859,"ä¸ĩåħĥä»¥ä¸ĬäºĮåįģ":3860,"æĳĦ":3861,"åºĬ":3862,"åı¯ä»¥å¯¹":3863,"çŃīéĥ¨éĹ¨":3864,"åī¥":3865,"æĹłæľŁå¾ĴåĪĳ":3866,"ç¬¬åħŃåįģä¸īæĿ¡":3867,"ä¸ĩåħĥä»¥ä¸Ĭåįģ":3868,"199":3869,"å¤ªéĺ³":3870,"æĭ¥æľī":3871,"æĹ©":3872,"åºĶå½ĵä¾Ŀçħ§":3873,"äººæ°ĳè°ĥè§£":3874,"å·¥èīº":3875,"è¾ħ":3876,"åĪ©å®³åħ³ç³»":3877,"æĸĩåŃĹ":3878,"æİ¥æĶ¶":3879,"æĶ¹è¿Ľ":3880,"åĮħåĲ«":3881,"ĠåĽ½å®¶å»ºç«ĭ":3882,"åŁºéĩĳçļĦ":3883,"éĢłæĪĲæįŁå¤±çļĦ":3884,"èĩªçĦ¶è¯Ńè¨Ģ":3885,"ist":3886,"and":3887,"æīĢæľīäºº":3888,"éļĲçŀĴ":3889,"å¤ĦäºĶå¹´ä»¥ä¸ĭæľīæľŁå¾ĴåĪĳ":3890,"åħ±äº§":3891,"æĺİæĺ¾":3892,"ä¸»ç®¡æľºåħ³":3893,"åħ¬åı¸ç«łç¨ĭ":3894,"æĿ¥è¯´":3895,"çĥ¤":3896,"å¦¥åĸĦ":3897,"ç°":3898,"çīĽ":3899,"æĺ¯åľ¨":3900,"æĺ¯ä»Ģä¹Ī":3901,"å¹¶åĲĳ":3902,"å¹³åĿĩ":3903,"æİĴåºı":3904,"èį¯åĵģçĽĳçĿ£ç®¡çĲĨéĥ¨éĹ¨":3905,"éĢ¾æľŁä¸į":3906,"èĽĭ":3907,"æĹ¥ä»¥ä¸ĭæĭĺçķĻ":3908,"é¢ľèī²":3909,"çĵ":3910,"è®¯":3911,"äººåĳĺåĴĮ":3912,"ä¸İåħ¶":3913,"çĶŁäº§ç»ıèĲ¥èĢħ":3914,"æĿ¥è¶Ĭ":3915,"ç§ĳæĻ®":3916,"é¢Ĩåıĸ":3917,"åºĶæĢ¥é¢Ħæ¡Ī":3918,"è¶ĬæĿ¥è¶Ĭ":3919,"æ°ĳæĶ¿éĥ¨éĹ¨":3920,"æİĮæı¡":3921,"å¾ĩç§ģèĪŀå¼Ĭ":3922,"æĪĸåħ¶ä»ĸ":3923,"è¿Ļæĺ¯":3924,"æĶ¹éĢł":3925,"æī¹è¯Ħ":3926,"æľīæĿĥåĲĳ":3927,"èĢĥè¯ķ":3928,"å®Ŀ":3929,"æĬĺ":3930,"ä»¥ä¸ĭç½ļæ¬¾":3931,"çī¹å¾ģ":3932,"çĻ»è®°æľºåħ³":3933,"âĢĿãĢĤ":3934,"æĥħå½¢çļĦ":3935,"å°ļæľª":3936,"åįļ":3937,"åĬ¨æ¤įçī©":3938,"çĶ±åİ¿çº§ä»¥ä¸Ĭåľ°æĸ¹äººæ°ĳæĶ¿åºľ":3939,"ç¤¾ä¼ļç»Ħç»ĩ":3940,"æł¸è®¾æĸ½":3941,"å°ĳäºİ":3942,"æ¸ħåįķ":3943,"æī¶åħ»":3944,"åįĥåħĥä»¥ä¸Ĭ":3945,"èĲ¥ä¸ļæī§çħ§":3946,"åºĶå½ĵåĬłå¼ºå¯¹":3947,"éļĶ":3948,"åıįæ´ĹéĴ±":3949,"ä¸ĵå®¶":3950,"ä»·æ¬¾":3951,"ç²ī":3952,"ä»²è£ģåĳĺ":3953,"Ġcon":3954,"åıªæľī":3955,"é«ĺçº§ç®¡çĲĨäººåĳĺ":3956,"æ»¥çĶ¨èģĮæĿĥ":3957,"æľīåĪ©äºİ":3958,"äººæķ°":3959,"çĶ»":3960,"è¿Ľä¸ĢæŃ¥":3961,"çłĶç©¶å¼Ģåıĳ":3962,"èĳĹä½ľ":3963,"æĲºå¸¦":3964,"50":3965,"od":3966,"çĶ°":3967,"ä½ĵéªĮ":3968,"æ°´åŁŁ":3969,"æĤī":3970,"res":3971,"éĺŁä¼į":3972,"åºĶçĶ¨ç¨ĭåºı":3973,"æ±½è½¦":3974,"è¶ĭåĬ¿":3975,"ĠF":3976,"æľīå®³":3977,"ä¸įèī¯":3978,"åºĶå½ĵäºĪä»¥":3979,"å°Ķ":3980,"æµ·å²Ľ":3981,"å°ıè¯´":3982,"åĲĦç±»":3983,"æķĻèĤ²è¡ĮæĶ¿éĥ¨éĹ¨":3984,"åħĪè¿Ľ":3985,"ç§»éĢģ":3986,"å±Ĭåħ¨åĽ½äººæ°ĳä»£è¡¨å¤§ä¼ļå¸¸åĬ¡å§Ķåĳĺä¼ļç¬¬äºĮåįģ":3987,"åı¬å¼Ģ":3988,"Ġor":3989,"èĲ¥åĪ©":3990,"éĽĩ":3991,"æľįåĬ¡æľºæŀĦ":3992,"çĤ¸":3993,"åĨ³å®ļçļĦ":3994,"ç§ĳåŃ¦çłĶç©¶":3995,"åºĶå½ĵæĮīçħ§è§Ħå®ļ":3996,"Ġbe":3997,"éļ¾ä»¥":3998,"åĩłä¸ª":3999,"çİ©å¿½":4000,"æ½ľ":4001,"Ġ0":4002,"åı¶":4003,"åĪ»":4004,"åĴĮåĽ½åĬ¡éĻ¢":4005,"å¤Ħä¸Ģ":4006,"æķ°åŃ¦":4007,"åıįæĺł":4008,"æķĻèĤ²åĴĮ":4009,"æĶ¾å¼ĥ":4010,"æł¸å¿ĥ":4011,"èĩªçĦ¶äºº":4012,"çŁ¿å±±":4013,"æ²»å®īç®¡çĲĨå¤Ħç½ļ":4014,"åĺ±":4015,"çİ©å¿½èģĮå®Ī":4016,"äº¬":4017,"åı¯ä»¥è¦ģæ±Ĥ":4018,"åĪĨä¸º":4019,"åįķä½įæĪĸèĢħä¸ªäºº":4020,"æ¶¦":4021,"ate":4022,"æŀĹæľ¨":4023,"åºĶå½ĵæĮīçħ§åĽ½å®¶æľīåħ³è§Ħå®ļ":4024,"å¯¹åħ¶çĽ´æİ¥è´Łè´£çļĦä¸»ç®¡äººåĳĺåĴĮåħ¶ä»ĸçĽ´æİ¥è´£ä»»äººåĳĺ":4025,"åĴĸ":4026,"æĹĹ":4027,"æĪĸèĢħä»¥":4028,"ä¸įä¼ļ":4029,"åºĶå½ĵæī¿æĭħ":4030,"åĩºç§Ł":4031,"æľīåħ³æľºåħ³":4032,"çĽ¸éĢĤåºĶ":4033,"åķ¡":4034,"æĽ²":4035,"åĪĴå®ļ":4036,"ä½łåı¯ä»¥":4037,"çģµ":4038,"æİĪæĿĥçļĦ":4039,"äºĭåĬ¡æīĢ":4040,"ä»¥ä¸ĭæĺ¯ä¸ĢäºĽ":4041,"å®ĹæķĻ":4042,"ge":4043,"Ġr":4044,"ä¸Ģå®¶":4045,"åĽ½å®¶åħ¬åĽŃ":4046,"ä¿ĿæĬ¤æ³ķ":4047,"éĻĲé¢Ŀ":4048,"æĶ¯åĩº":4049,"å»ºè®¾å·¥ç¨ĭ":4050,"å®Įåħ¨":4051,"å¹¿æĴŃ":4052,"çªģåıĳåħ¬åħ±åį«çĶŁäºĭä»¶":4053,"ke":4054,"Ġx":4055,"è¿Ļç¯ĩ":4056,"æµ·èŃ¦":4057,"è¡¥åĬ©":4058,"åı¦å¤ĸ":4059,"çģŃå¤±":4060,"ver":4061,"åħ³éĹŃ":4062,"çĲĨäºĭ":4063,"åı¯ä»¥å¹¶å¤Ħ":4064,"ç¤¼":4065,"ç¤¾ä¼ļåĽ¢ä½ĵ":4066,"æĻĭ":4067,"ç»ıèĲ¥æĿĥ":4068,"æł¸åĩĨ":4069,"ç§»äº¤":4070,"ä»¥ç¡®ä¿Ŀ":4071,"ä¸įæ»¡":4072,"å¹¶å¯¹":4073,"åĽ½å®¶å·¥ä½ľäººåĳĺ":4074,"è´¹çļĦ":4075,"ä¸įå¾Ĺä»¥":4076,"int":4077,"åģ¥åº·çļĦ":4078,"æĦŁåĪ°":4079,"æľŁéĻĲå±Ĭæ»¡":4080,"åĨįçĶŁ":4081,"æĭĨéĻ¤":4082,"é£ŀè¡Į":4083,"ç»¿èī²":4084,"åĴĸåķ¡":4085,"ld":4086,"ä»»èģĮ":4087,"åıĸä¿Ŀ":4088,"ç«ĭæ¡Ī":4089,"å»ºè®¾åįķä½į":4090,"æī¹åĩĨåĲİ":4091,"æĶ¯æĮģåĴĮ":4092,"åĲĪçĲĨçļĦ":4093,"æµ·äºĭç®¡çĲĨæľºæŀĦ":4094,"ä¸ĵéĹ¨å§Ķåĳĺä¼ļ":4095,"é¥®é£Ł":4096,"éĵ¶è¡Įä¸ļçĽĳçĿ£ç®¡çĲĨæľºæŀĦ":4097,"yth":4098,"ĠB":4099,"æĹ¢":4100,"éĺ²æ´ª":4101,"æľ¬æ³ķæīĢç§°":4102,"çī¹èī²":4103,"å¦Ĥæŀľä½ł":4104,"æİ§åĳĬ":4105,"çŁ¿äº§":4106,"é¸¡":4107,"ch":4108,"çļĦä¼ģä¸ļ":4109,"çļĦæĹ¶åĢĻ":4110,"å½©":4111,"çī§":4112,"çĶŁèĤ²":4113,"ä¸ºåħ¶":4114,"éĩįæķ´":4115,"åĩĨäºĪ":4116,"éķ¿æľŁ":4117,"çĭ±":4118,"æĪ¿äº§":4119,"åįłæľī":4120,"ç»ĦæĪĲäººåĳĺ":4121,"çī¹ç§įè®¾å¤ĩå®īåħ¨":4122,"æ³ķåºŃ":4123,"æĸĹ":4124,"ä»»åħį":4125,"è½¬åĮĸ":4126,"èµłä¸İ":4127,"éĢĶå¾Ħ":4128,"åĲĪæł¼çļĦ":4129,"åī¥å¤º":4130,"çļĦæľīåħ³":4131,"åľ°ä½į":4132,"éĿĻ":4133,"æ³ķå¾ĭçļĦåĨ³å®ļ":4134,"æŁ¥éĺħ":4135,"è´Łæĭħ":4136,"çĽ®å½ķ":4137,"é¢ĦèŃ¦":4138,"å¤ļæł·":4139,"åŁºéĩĳæīĺç®¡":4140,"éĤ»":4141,"éģĹåĺ±":4142,"å¿«éĢŁ":4143,"æŃ¦åĻ¨":4144,"åŁºéĩĳä»½é¢ĿæĮģæľīäºº":4145,"ä»İä¸ļäººåĳĺ":4146,"åĽ¾ä¹¦é¦Ĩ":4147,"The":4148,"rac":4149,"ãģ":4150,"åħģ":4151,"åºķ":4152,"æĸ¹åı¯":4153,"åĪĨéĴŁ":4154,"è½¯":4155,"çĽ¸ç»ĵåĲĪ":4156,"éĢīæ°ĳ":4157,"æĬķæłĩ":4158,"èĤ¡ä¸ľä¼ļ":4159,"ä¼ļè®¡å¸Ī":4160,"æļĤåģľ":4161,"åıĹçĽĬäºº":4162,"åĩ½æķ°":4163,"Ġè¿Ŀåıįæľ¬æ³ķ":4164,"è¡¨æĺİ":4165,"æĻļ":4166,"çĤŃ":4167,"è¿ĺæĺ¯":4168,"å¤ĸåĽ½äºº":4169,"åĢĻå®¡":4170,"èģĮä¸ļçĹħéĺ²æ²»":4171,"æİ¢ç´¢":4172,"çī©ä¸ļæľįåĬ¡":4173,"è¸ª":4174,"åıĸä¿ĿåĢĻå®¡":4175,"ython":4176,"è¡Ĺ":4177,"éĢ®":4178,"åĩºè®©":4179,"æľªèĥ½":4180,"çĽ¸å¯¹":4181,"ä»£è¡¨äºº":4182,"ç»Ļä»ĺ":4183,"æ°´èµĦæºĲ":4184,"æĥħåĨµçļĦ":4185,"ä¿¡æģ¯çļĦ":4186,"å¤įåĪ¶":4187,"éĵ¾":4188,"éĢĤçĶ¨äºİ":4189,"éĢīä¸¾å§Ķåĳĺä¼ļ":4190,"åŁºç¡Ģè®¾æĸ½":4191,"ä»įçĦ¶":4192,"ç¬¬ä¸Ģåįĥä¸ĢçĻ¾":4193,"æī©å¤§":4194,"11":4195,"åħ¼":4196,"åĨ°":4197,"ç»ıåĽ½åĬ¡éĻ¢":4198,"ä¸»å¼ł":4199,"åĵģçīĮ":4200,"åĪĹè¡¨":4201,"åºĶæĢ¥æķĳæı´":4202,"ä½İäºİ":4203,"çĽĳå¯Łå§Ķåĳĺä¼ļ":4204,"ä»»ä½ķåįķä½įåĴĮä¸ªäººä¸įå¾Ĺ":4205,"æŃ¦è£ħèŃ¦å¯Ł":4206,"é²ľ":4207,"é¡ºåºı":4208,"åģľä¸ļæķ´é¡¿":4209,"çļĦæĸ¹æ³ķ":4210,"åĲ§":4211,"å¤ľ":4212,"æĪĸèĢħæľª":4213,"åľ¨ä¸Ńåįİäººæ°ĳåħ±åĴĮåĽ½":4214,"ä¸ŃæŃ¢":4215,"éĢļä¿¡":4216,"æŁ¥å¤Ħ":4217,"ãĢĭãĢģ":4218,"åİŁåĳĬ":4219,"åĬŀäºĭ":4220,"æıĲåĩºçļĦ":4221,"ç¬¬åħŃåįģäºĶæĿ¡":4222,"end":4223,"ä½ıæĪ¿":4224,"å¼ĢåıĳåĪ©çĶ¨":4225,"çıį":4226,"igh":4227,"éĢ®æįķ":4228,"ä¸įæŃ£å½ĵ":4229,"çº§äººæ°ĳæ³ķéĻ¢":4230,"è¿Ŀåıįæ²»å®īç®¡çĲĨ":4231,"ä¸ĩåħĥçļĦ":4232,"æľĢä½İ":4233,"éħįåģ¶":4234,"è£ħå¤ĩ":4235,"éģĹä¼ł":4236,"Ġthat":4237,"åħģè®¸":4238,"è¡ĮæĿİ":4239,"åĩºçīĪ":4240,"æł¹æį®è¯¥":4241,"çİ°å½¹":4242,"è¿Ŀåıįæ³ķå¾ĭ":4243,"åıĤçħ§":4244,"è¯ģåĪ¸æ³ķ":4245,"ä»²è£ģå§Ķåĳĺä¼ļ":4246,"å¾ģæ±Ĥ":4247,"ä¸īåįģæĹ¥åĨħ":4248,"çĮ«":4249,"çĪ¶æ¯įæĪĸèĢħåħ¶ä»ĸ":4250,"æĳĺ":4251,"æĭĺå½¹æĪĸèĢħ":4252,"å·¨å¤§":4253,"Ġ8":4254,"Ġon":4255,"çļĦæĬĢæľ¯":4256,"ç®±":4257,"åıĳæĺİ":4258,"åĩºç§Łäºº":4259,"åĬ¨åĳĺ":4260,"åĲįçļĦ":4261,"æĢ»ç»ĵ":4262,"æ»©":4263,"ç»ıæµİç¤¾ä¼ļ":4264,"ç¬¬åħŃåįģåĽĽæĿ¡":4265,"å¼ķèµ·":4266,"ç¬¬ä¹Ŀç«ł":4267,"èī¯å¥½çļĦ":4268,"æłĩçļĦçī©":4269,"æĢ»ä½ĵè§ĦåĪĴ":4270,"æ°¸ä¹ħ":4271,"29":4272,"çļĦç»Ħç»ĩ":4273,"èĢĹ":4274,"åºĶå½ĵå»ºç«ĭ":4275,"å¹¶åı¯ä»¥":4276,"æĬĢå·§":4277,"è§£æķ£":4278,"éľĢè¦ģæ³¨æĦı":4279,"æµ·åķĨ":4280,"æ¯Ĵåĵģ":4281,"çļĦç®¡çĲĨ":4282,"æ°§":4283,"æľīä»Ģä¹Ī":4284,"å¯¹åįķä½į":4285,"å·¥åķĨ":4286,"ä¿ĿéĻ©åħ¬åı¸":4287,"é£Łçī©":4288,"æī¿æĭħè´£ä»»":4289,"ç¬¬ä¸ĢçĻ¾äºĶåįģ":4290,"å°ĳæķ°":4291,"æĶ¯ä»ĺçļĦ":4292,"çĶŁäº§ç»ıèĲ¥åįķä½į":4293,"xt":4294,"åĴĮåĽ½å®¶":4295,"ä¸įåĨį":4296,"ä¿Ŀåħ¨":4297,"è¦ģä»¶":4298,"æ²¿":4299,"åĬ©äºİ":4300,"ç¬¬äºĶçĻ¾":4301,"è·Ł":4302,"Ġpro":4303,"Ġnum":4304,"å¤Ħä¸īå¹´ä»¥ä¸ĭæľīæľŁå¾ĴåĪĳæĪĸèĢħæĭĺå½¹":4305,"os":4306,"Ġ6":4307,"çļĦä»£è¡¨":4308,"æĪª":4309,"è´µ":4310,"ä¸įè¦ģ":4311,"çº¸":4312,"ä¿ĿçķĻ":4313,"ç§Ģ":4314,"æľ¬æ¡Ī":4315,"åĩºåįĸ":4316,"éģ£":4317,"è°į":4318,"ç¬¬ä¸īèĬĤ":4319,"å¤ļä¸ª":4320,"è¯ģåĪ¸æĬķèµĦ":4321,"çŃ¾ç½²":4322,"ä¸»è¦ģè´Łè´£äºº":4323,"åħ±äº§åħļ":4324,"Ġhe":4325,"è´«":4326,"æľīåĵªäºĽ":4327,"æĢĢ":4328,"èĩªèº«":4329,"éĹ´è°į":4330,"æĪ¿åľ°":4331,"ä¸ĵä¸ļæĬĢæľ¯":4332,"Ġwith":4333,"AIæĬĢæľ¯":4334,"æµªè´¹":4335,"åĴĮä¹īåĬ¡":4336,"æ³ķå¾ĭä¿ĿæĬ¤":4337,"å¼ĢåºŃ":4338,"ä¹ĭåĲİ":4339,"æĮĩæłĩ":4340,"éª¨":4341,"è·Ŀ":4342,"è½¬æį¢":4343,"è¿ĺåı¯ä»¥":4344,"ä¸ŃåĽ½åħ±äº§åħļ":4345,"åįıè®®çļĦ":4346,"çªģåĩº":4347,"åĳ½ä»¤":4348,"æŀĹä¸ļèįīåİŁ":4349,"èį£èªī":4350,"çŁ¿äº§èµĦæºĲ":4351,"æµ·åķĨæ³ķ":4352,"__":4353,"ãĢĲ":4354,"è¾±":4355,"å¥¶":4356,"å±¥è¡ĮèģĮè´£":4357,"èº«å¿ĥ":4358,"è¿Ļç§įæĥħåĨµä¸ĭ":4359,"éĢĤå½ĵçļĦ":4360,"åľŁå£¤æ±¡æŁĵ":4361,"èĻ½çĦ¶":4362,"pp":4363,"çĽĲ":4364,"æīĢå±ŀ":4365,"éĿ¢ç§¯":4366,"ç¨İçİĩ":4367,"ç¬¬åħŃåįģä¸ĥæĿ¡":4368,"ä»²è£ģåºŃ":4369,"ä¹¦éĿ¢éĢļçŁ¥":4370,"çĶŁçī©å®īåħ¨":4371,"éªĹåıĸ":4372,"èģĮè´£çļĦéĥ¨éĹ¨":4373,"ĠThe":4374,"ç¼Ķç»ĵ":4375,"ãĢĳ":4376,"ãĢĤâĢĿ":4377,"å½°":4378,"éĻ·":4379,"ä¸ĢçĽ´":4380,"ä¸İåħ¶ä»ĸ":4381,"è½®":4382,"æ£Ģä¸¾":4383,"æķĻèĤ²æľºæŀĦ":4384,"æľīåħ³éĥ¨éĹ¨åĴĮ":4385,"ç¬¬åħŃåįģåħŃæĿ¡":4386,"æ°ĶåĢĻ":4387,"est":4388,"é¥°":4389,"è¾ĥå¤§":4390,"åı¯ä»¥åĲĳäººæ°ĳæ³ķéĻ¢":4391,"å¿ĹæĦ¿":4392,"åĳĬè¯īæĪĳ":4393,"28":4394,"ç£":4395,"çŃīæİªæĸ½":4396,"åŃ¦åīį":4397,"è¿Ľè¡Įè°ĥæŁ¥":4398,"åħĥç´ł":4399,"å°ıæĹ¶":4400,"èĢĮä¸Ķ":4401,"æł¸å®īåħ¨":4402,"ä¸¥éĩįæĥħèĬĤ":4403,"çĶŁæĢģç³»ç»Ł":4404,"ç§ĳæĬĢæĪĲæŀľ":4405,"æ³ķäººæĪĸèĢħåħ¶ä»ĸ":4406,"è¯·æł¹æį®ä¸ĭéĿ¢":4407,"ä¸ŃåĮ»èį¯":4408,"ç°¿":4409,"nt":4410,"æĿ¡è§Ħå®ļ":4411,"åı¯æĮģç»Ń":4412,"ä¸Ńä»ĭ":4413,"é¢ģ":4414,"éĺ¶":4415,"æ³ķå¾ĭæķĪåĬĽ":4416,"æ¸ł":4417,"åħ¬åı¸æ³ķ":4418,"èģĮè´£èĮĥåĽ´åĨħ":4419,"ç¬¬åħŃåįģä¹ĿæĿ¡":4420,"ort":4421,"ä¼¤äº¡":4422,"åı¸æ³ķæľºåħ³":4423,"åįģäºĶæĹ¥åĨħ":4424,"éĢĲæŃ¥":4425,"èĩªçĦ¶è¯Ńè¨Ģå¤ĦçĲĨ":4426,"çļĦçĶŁäº§":4427,"åĬ£":4428,"åĴĮå·¥ä½ľ":4429,"æľīåĬ©äºİ":4430,"ï¼īï¼Į":4431,"ä¸ªæĢ§":4432,"éĻ¢éķ¿":4433,"åĬĽåĴĮ":4434,"æĦıæĢĿ":4435,"çĶ³è¯ī":4436,"ç©¿":4437,"èµĶåģ¿è¯·æ±Ĥ":4438,"ç¬¬ä¸ĥåįģä¸ĢæĿ¡":4439,"å®¶åºŃæļ´åĬĽ":4440,"ĠE":4441,"ĠåĽł":4442,"äºļ":4443,"æĿ¿":4444,"åĪ©æ¶¦":4445,"è¿Ľè¡Įå®¡æŁ¥":4446,"è¿Ļä¸Ģ":4447,"ç§įæ¤į":4448,"æĽ´æį¢":4449,"æĸĩåĮĸéģĹäº§":4450,"åı¦è¡Į":4451,"æī£ç¼´":4452,"æ·±åº¦":4453,"æ¢¦":4454,"ive":4455,"æŃ£å½ĵçĲĨçĶ±":4456,"ä¸įæľįçļĦ":4457,"æĬ«éľ²":4458,"è¿Ļç¯ĩæĸĩç«ł":4459,"æĪ¿åľ°äº§":4460,"Ġit":4461,"æĿ¯":4462,"ä¹³":4463,"æ°ĳèĲ¥":4464,"æĭ¨":4465,"åıĳåĮħ":4466,"åħ¨æ°ĳ":4467,"çĿ£ä¿ĥ":4468,"åľºæĻ¯":4469,"åĲĪåĲĮä¸Ń":4470,"ä¸Ńåįİæ°ĳæĹı":4471,"å¹³è¡¡":4472,"æī¿æĭħæ°ĳäºĭè´£ä»»":4473,"ĠåĽ½å®¶å¯¹":4474,"ç¬¬åħŃåįģåħ«æĿ¡":4475,"è£ħç½®":4476,"åħįéĻ¤":4477,"ä¸ĩåħĥä»¥ä¸ĬäºĶ":4478,"åºŁå¼ĥ":4479,"æľīæķĪçļĦ":4480,"Ġ'":4481,"çļĦè´£ä»»":4482,"å¹ķ":4483,"å¹¶æıĲä¾Ľ":4484,"çĽĳçĭ±":4485,"æł¹æį®çĽ¸åħ³":4486,"è¢«è¯·æ±Ĥ":4487,"è§£æĶ¾":4488,"è£Ĥ":4489,"åį±åıĬ":4490,"åĬ³åĬ¡":4491,"å©´":4492,"çĶŁæĢģä¿ĿæĬ¤":4493,"ç¬¬ä¹ĿçĻ¾":4494,"çŁ¥è¯Ĩäº§æĿĥ":4495,"åħ»èĢģä¿ĿéĻ©":4496,"av":4497,"ob":4498,"og":4499,"äººå¯¹":4500,"ä¸īä¸ª":4501,"è®¾å®ļ":4502,"æŁ¥éªĮ":4503,"åĪ°æľŁ":4504,"éĽĦ":4505,"ç¤¾ä¼ļæķĳåĬ©":4506,"å¸¸è§ģ":4507,"èģĮä¸ļæķĻèĤ²":4508,"ä¹¡éķĩ":4509,"è¯ģæĺİæĸĩä»¶":4510,"çĮİ":4511,"æ±¡æŁĵçī©æİĴæĶ¾":4512,"åľ¨ä¸ŃåĽ½å¢ĥåĨħ":4513,"åĬ«":4514,"åı¯åĨįçĶŁ":4515,"ä¸įéľĢè¦ģ":4516,"ä¸įå½±åĵį":4517,"åºĶå½ĵç»ĻäºĪ":4518,"èµ¡":4519,"æĺ¯çļĦ":4520,"ä¸»æĮģ":4521,"å®īè£ħ":4522,"æĮīçħ§åĽ½åĬ¡éĻ¢":4523,"è¿ĲçĶ¨":4524,"åĿĲ":4525,"çİ¯å¢ĥæ±¡æŁĵ":4526,"æ¯ıä¸ªäºº":4527,"åıĤåĬłçļĦ":4528,"é¥²":4529,"çļĦçĽ¸åħ³è§Ħå®ļ":4530,"å®ļç½ª":4531,"åŃķ":4532,"æĮĤ":4533,"ç®¡çĲĨçļĦ":4534,"è¢«ä¿ĿéĻ©äºº":4535,"æĶ¹éĿ©":4536,"çĹĩ":4537,"å¤©çļĦ":4538,"åĪĽä¸ļ":4539,"ç»´æĬ¤åĽ½å®¶å®īåħ¨":4540,"æŃ»åĪĳ":4541,"å¯»æī¾":4542,"åĨľäº§åĵģè´¨éĩıå®īåħ¨":4543,"å¾ªçİ¯":4544,"å¯¹å¤ĸè´¸æĺĵ":4545,"çĪĨçĤ¸":4546,"ri":4547,"è¦":4548,"ä»ĸäººçļĦ":4549,"åĲįå½ķ":4550,"æ·«":4551,"åįĥåħĥä»¥ä¸ĭç½ļæ¬¾":4552,"çĽĳäºĭä¼ļ":4553,"æģĲæĢĸä¸»ä¹ī":4554,"èĶ¬":4555,"æĭĺå½¹æĪĸèĢħç®¡åĪ¶":4556,"¹æŀľ":4557,"åĴĮç»Ħç»ĩ":4558,"å¹´è½»":4559,"è¡¨å½°":4560,"è¢«æī§è¡Į":4561,"åĲįåįķ":4562,"éķ¿å®ĺ":4563,"åħ¬åħ±æĸĩåĮĸ":4564,"èĭ¹æŀľ":4565,"è§ĤçĤ¹":4566,"ç¬¬äºĮçĻ¾éĽ¶":4567,"åºĶæĢ¥å¤Ħç½®":4568,"æľīæķĪæİªæĸ½":4569,"ç²¾ç¥ŀéļľç¢į":4570,"Ġæľ¬æ³ķæīĢç§°":4571,"çĭ¬èµĦä¼ģä¸ļ":4572,"ä¸²":4573,"åĨ·":4574,"è¦ģçº¦":4575,"å¹¶æł¹æį®":4576,"è¾ĳ":4577,"è¡ĮæĶ¿éķ¿å®ĺ":4578,"å°ıçİĭ":4579,"çĶµè¯Ŀ":4580,"ä¾Ŀçħ§åīįæ¬¾è§Ħå®ļ":4581,"æĿĥåĪ©çļĦ":4582,"çģ¯":4583,"å¼ºåĪ¶æĢ§":4584,"è´¢åĬ¡ä¼ļè®¡":4585,"çļĦåįķä½įåĴĮä¸ªäºº":4586,"ä¼¦":4587,"ä¾¨":4588,"æĪĸèĢħåįķ":4589,"åľ¨è¿Ļç§įæĥħåĨµä¸ĭ":4590,"æĪĲç»©":4591,"éĩįå¤į":4592,"ä»£è¡¨çļĦ":4593,"é¦Ī":4594,"æł¸å®ŀ":4595,"ice":4596,"å®¡è®¡æľºåħ³":4597,"æĹ¥ç¬¬åįģä¸ī":4598,"é©»åĨĽ":4599,"åĲĳäººæ°ĳæ³ķéĻ¢æıĲèµ·è¯īè®¼":4600,"éĻĨåľ°":4601,"èµ¡åħ»":4602,"æ³¢":4603,"åĴĮå®īåħ¨":4604,"åĴĮçĽ¸åħ³":4605,"è´®":4606,"åľ¨è¿Ļä¸ª":4607,"å®¶å±ŀ":4608,"æľīåħ³åįķä½į":4609,"ä¸ĥå¹´ä»¥ä¸ĭæľīæľŁå¾ĴåĪĳ":4610,"æĽ¿":4611,"æĬķä¿Ŀ":4612,"å®ŀæĸ½çļĦ":4613,"åı£å²¸":4614,"èĪ¹åĳĺ":4615,"æµģè¡Į":4616,"å¼ºåĪ¶æī§è¡Į":4617,"åĲ¸å¼ķ":4618,"æĪĴæ¯Ĵ":4619,"ãĢĭãĢģãĢĬ":4620,"çļĦæ´»åĬ¨":4621,"ä¸ºæĤ¨":4622,"æĹ¥ä»¥ä¸Ĭ":4623,"çľ¼":4624,"çĹħåİŁ":4625,"ç¬¬åħŃçĻ¾":4626,"è¿Ŀæ³ķçĬ¯ç½ª":4627,"è´§å¸ģ":4628,"åıĺéĢł":4629,"ç¬¬ä¸ĢçĻ¾ä¸ĥåįģ":4630,"è¡ĮæĶ¿æ³ķè§Ħè§Ħå®ļ":4631,"åŁİéķĩ":4632,"èģĮåĬ¡çļĦ":4633,"åĭŁæįĲ":4634,"èĶ¬èıľ":4635,"25":4636,"éŃ":4637,"åį´":4638,"æĿĢ":4639,"åºĶå½ĵéĩĩåıĸæİªæĸ½":4640,"åħ¬èģĮ":4641,"åıĳåĩº":4642,"åıĳæĶ¾":4643,"æĪĲçļĦ":4644,"ä»£çłģ":4645,"å°ıå¼ł":4646,"åĲĦé¡¹":4647,"ç»ĵå©ļ":4648,"ç»´ä¿®":4649,"åĪĽä½ľ":4650,"æĸ¹éĿ¢çļĦ":4651,"è¯ģåĪ¸äº¤æĺĵæīĢ":4652,"æ¸łéģĵ":4653,"è§£æĶ¾åĨĽ":4654,"åı¯åĨįçĶŁèĥ½æºĲ":4655,"pl":4656,"ĠW":4657,"çļĦå·¥ä½ľäººåĳĺ":4658,"åħĳ":4659,"äººåı£":4660,"åĴĮåıĳå±ķ":4661,"åħ³ç¨İ":4662,"æĿĥåĬĽ":4663,"åĩºç¥¨":4664,"è¿ĻéĩĮ":4665,"è®¡éĩı":4666,"çĶŁäº§ä¼ģä¸ļ":4667,"ç»ĵæĿŁ":4668,"åĨĽè¡Ķ":4669,"åĲĪåĲĮçº¦å®ļ":4670,"ä¿®è®¢":4671,"ä¹īåĬ¡äºº":4672,"åľŁåľ°ä½¿çĶ¨æĿĥ":4673,"èĥ½åĬĽçļĦ":4674,"ä¹°åıĹ":4675,"æŁĲä¸ª":4676,"é¡¹çĽ®çļĦ":4677,"å¤ĸäº¤éĥ¨":4678,"èĭ±éĽĦ":4679,"å¦¨ç¢į":4680,"çļ®":4681,"å¯¹è¯¥":4682,"ï¼ļâĢľ":4683,"å¹´éĻĲ":4684,"è¡ĮæĶ¿è¡Įä¸º":4685,"ä»£ä¸º":4686,"æľºæŀĦåĴĮ":4687,"æĪĳä¼ļ":4688,"è°ģ":4689,"æłĩè¯Ĩ":4690,"æıĲä¾ĽäºĨ":4691,"é¢ĺçĽ®":4692,"æµģç¨ĭ":4693,"åĽŀæĶ¶":4694,"åĮ»çĸĹä¿ĿéĻ©":4695,"çľģçº§äººæ°ĳæĶ¿åºľ":4696,"äºĭæķħçļĦ":4697,"ç¬¬ä¸ĥåįģåĽĽæĿ¡":4698,"æĪĺäºī":4699,"æ°ĳçĶ¨èĪªç©ºä¸»ç®¡éĥ¨éĹ¨":4700,"çħ¤çĤŃ":4701,"è¯¾ç¨ĭ":4702,"SS":4703,"ï¼ĮãĢĬ":4704,"åĲ¯":4705,"æĿ¡æĸĩ":4706,"åľ¨åĮ»çĸĹ":4707,"æĪĳåı¯ä»¥":4708,"æĦıä¹ī":4709,"åĤ¬":4710,"åıªèĥ½":4711,"æ³¨åĨĮèµĦæľ¬":4712,"----":4713,"çĶŁæĪĲä¸Ģä¸ª":4714,"ç¬Ķå½ķ":4715,"èĩªçĦ¶èµĦæºĲä¸»ç®¡éĥ¨éĹ¨":4716,"èģļä¼Ĺ":4717,"pt":4718,"ĦæĸŃ":4719,"çļĦèĪ¹èĪ¶":4720,"åºĶå½ĵä¸º":4721,"ç½¢":4722,"çŃīä¿¡æģ¯":4723,"è°ĭ":4724,"æĢ§åĪ«":4725,"é«ĺåİŁ":4726,"æĽ´å¥½çļĦ":4727,"çĤ¼":4728,"å¤±ä¸ļ":4729,"ç¬¬ä¸ĢçĻ¾åħ«åįģ":4730,"ç»ıæµİåıĳå±ķ":4731,"ä¹īåĬ¡æķĻèĤ²":4732,"åŀĦæĸŃ":4733,"æ¹ĸæ³Ĭ":4734,"éļĶç¦»":4735,"æ©":4736,"çļĦäº§åĵģ":4737,"çļĦè¯ģæį®":4738,"è¯±":4739,"å·¥åİĤ":4740,"ä¸īä¸ªæľĪ":4741,"ä»»æľŁ":4742,"æ³ķå¾ĭè§Ħå®ļçļĦ":4743,"åįķè¯į":4744,"æĶ¿åºľéĩĩè´Ń":4745,"ç¡®æľī":4746,"åıįåºĶ":4747,"èŀįèµĦ":4748,"å¹¶å¤ĦæĪĸèĢħåįķ":4749,"éļıæĹ¶":4750,"æĺİç¡®çļĦ":4751,"æľºåĻ¨äºº":4752,"å¤«å¦»åħ±åĲĮ":4753,"è´£ä»¤åģľæŃ¢è¿Ŀæ³ķè¡Įä¸º":4754,"åı¦æľīè§Ħå®ļçļĦéĻ¤å¤ĸ":4755,"åĮĹäº¬":4756,"çº¢åįģåŃĹä¼ļ":4757,"åĩºç¤º":4758,"çĶ±åħ¶":4759,"åĪĨäº«":4760,"æİ¥è§¦":4761,"åħ·ä½ĵæĥħåĨµ":4762,"æĥħèĬĤçī¹åĪ«":4763,"ç¬¬ä¸ĥåįģæĿ¡":4764,"å¦Ĥä½ķå¤ĦçĲĨ":4765,"æ³ķå®ļç¨ĭåºı":4766,"åı¸æ³ķåįıåĬ©":4767,"çĨŁ":4768,"çĥĪå£«":4769,"åĢĻéĢīäºº":4770,"ä½ıå®ħ":4771,"ä¸Ńå°ıä¼ģä¸ļ":4772,"27":4773,"æľīåīįæ¬¾":4774,"éĢı":4775,"æįŀ":4776,"åĲĮçº§":4777,"å¿ł":4778,"å±ķç¤º":4779,"ç¡®å®ŀ":4780,"åıįé¦Ī":4781,"æĽ¾":4782,"åįıä½ľ":4783,"æ®´":4784,"è¾ĵåĩº":4785,"éħįç½®":4786,"å½±åĵįçļĦ":4787,"ç¬¬ä¸ĥåįģä¸īæĿ¡":4788,"ç¢³":4789,"æľŁè´§çĽĳçĿ£ç®¡çĲĨæľºæŀĦ":4790,"èī¯å¥½":4791,"æ´¾åĩº":4792,"è¿ŀç»Ń":4793,"ä¼ĳæģ¯":4794,"ä¸Ĭå¸Ĥè®¸åı¯":4795,"æĲľç´¢":4796,"çļĦçĶŁæ´»":4797,"åı«":4798,"åįģäºĮ":4799,"ä¾®":4800,"ä¸Ńæĸĩ":4801,"æł¹æį®å®ªæ³ķ":4802,"æ¸Ĳ":4803,"çĶŁäº§èĢħ":4804,"æĸ°å»º":4805,"ä¾Ŀçħ§æľīåħ³æ³ķå¾ĭ":4806,"æ³ķè§ĦçļĦè§Ħå®ļ":4807,"è¿ĺæľī":4808,"èĪ¹éķ¿":4809,"åĪ¶å®ļçļĦ":4810,"ä»²è£ģæľºæŀĦ":4811,"è¡¥è´´":4812,"é¢ĨåŁŁçļĦ":4813,"å·¥ä½ľçļĦéĥ¨éĹ¨":4814,"å¡«":4815,"åĽ¢éĺŁæĪĲåĳĺ":4816,"æī°ä¹±":4817,"æ·»åĬłåīĤ":4818,"çº§ä»¥ä¸Ĭäººæ°ĳæĶ¿åºľ":4819,"æµ·èŃ¦æľºæŀĦ":4820,"çļĦæ°´":4821,"çļĦå»ºè®®":4822,"æľīè¶£":4823,"ä¸Ģäºº":4824,"çĲĨè®º":4825,"è¯ģçļĦ":4826,"æ¶Ĥ":4827,"æĹłè®º":4828,"æłĩåĩĨåĮĸ":4829,"éĢĢä¼ĳ":4830,"å®ĥçļĦ":4831,"å¸ĤåľºçĽĳçĿ£ç®¡çĲĨéĥ¨éĹ¨":4832,"åĨįæ¬¡":4833,"çŃĶå¤į":4834,"ç¬¬äºĮçĻ¾ä¸Ģåįģ":4835,"éļĲåĮ¿":4836,"çĽĳå¯Łå®ĺ":4837,"æĹ¥ç¬¬åįģäºĮ":4838,"åı¬éĽĨ":4839,"é¢Ħå¤ĩå½¹äººåĳĺ":4840,"è¿ŀå¸¦è´£ä»»":4841,"æİ¨çĲĨè¿ĩç¨ĭ":4842,"ä¾®è¾±":4843,"ain":4844,"se":4845,"ªæ±¡":4846,"Ġä»İäºĭ":4847,"çļĦæķ°æį®":4848,"ä¸Ģå¹´":4849,"åºĶçº³ç¨İ":4850,"è¡ĮæĶ¿å¤ĦåĪĨ":4851,"åıĹæ³ķå¾ĭä¿ĿæĬ¤":4852,"ç¤¾ä¼ļåħ¬åħ±åĪ©çĽĬ":4853,"åŁºåľ°":4854,"çİ¯å¢ĥè´¨éĩı":4855,"Ġal":4856,"æ³¨éĶĢ":4857,"æ°ĳäºĭè¯īè®¼":4858,"åı¦ä¸Ģæĸ¹":4859,"è±Ĩ":4860,"ç´łè´¨":4861,"åĽ¾åĥı":4862,"æĹħæ¸¸èĢħ":4863,"åĽºå®ļ":4864,"æģĲæĢĸæ´»åĬ¨":4865,"Ġåİ¿çº§ä»¥ä¸Ĭåľ°æĸ¹äººæ°ĳæĶ¿åºľ":4866,"æľīäºĽ":4867,"ä¹ı":4868,"åĳ¼":4869,"æıĲç¤º":4870,"ä¸»è§Ĥ":4871,"å»ºéĢł":4872,"åĪ©æģ¯":4873,"è®®æ¡Ī":4874,"ä½¿å¾Ĺ":4875,"æµ·åįĹ":4876,"ç³»åĪĹ":4877,"åıĺå¾Ĺ":4878,"è®©äºº":4879,"æİĴæ±¡":4880,"åħ¬åħ±åľºæīĢ":4881,"åħ·ä½ĵåĬŀæ³ķçĶ±åĽ½åĬ¡éĻ¢":4882,"ä¼ĺç§Ģ":4883,"å®¹æĺĵ":4884,"å¹¶å¤Ħä»¥":4885,"çĶµåŃĲçŃ¾åĲį":4886,"åħ¬å¼ĢåĭŁéĽĨ":4887,"æ¨¡å¼ı":4888,"é¸Ł":4889,"æŃ£ç¡®çļĦ":4890,"åŁİä¹¡è§ĦåĪĴ":4891,"ä¼ļåĲĮåĽ½åĬ¡éĻ¢æľīåħ³éĥ¨éĹ¨":4892,"è¦Ĩ":4893,"',":4894,"ab":4895,"Ĳå¾ħ":4896,"è¡£":4897,"åºĶç¨İ":4898,"åģı":4899,"æľŁæ»¡":4900,"éĩĳçļĦ":4901,"è§£æķĳ":4902,"ä½łå¥½":4903,"èĻĲå¾ħ":4904,"ç¬¬ä¸ĥçĻ¾":4905,"ä¼ĺåĬ¿":4906,"é©³":4907,"æ£Ģå¯Łéķ¿":4908,"ç¬¬ä¸ĥåįģäºĮæĿ¡":4909,"ä¿Ŀè¯ģäºº":4910,"ä¸´åºĬ":4911,"è§£éĻ¤åĲĪåĲĮ":4912,"çĪ±æĥħ":4913,"åĽ½éĺ²äº¤éĢļ":4914,"æ¯ģæįŁ":4915,"Ġex":4916,"èĳĹä½ľæĿĥ":4917,"å°ĳæķ°æ°ĳæĹı":4918,"ment":4919,"num":4920,"äººä½ĵ":4921,"åĴĮæĬĢæľ¯":4922,"æľīç»Ħç»ĩ":4923,"åħ¬ç¤º":4924,"åıĳèµ·":4925,"çŃīçļĦ":4926,"åĮºåĨħ":4927,"åīįæıĲ":4928,"æĽ´æĸ°":4929,"ä½łéľĢè¦ģ":4930,"ĠåĽ½å®¶å®ŀè¡Į":4931,"çĸ«çĹħ":4932,"æ¶īæ¡Ī":4933,"ç½ĳç»ľå®īåħ¨":4934,"æ°ĳæĹıä¹¡":4935,"çĪ±åĽ½":4936,"åĢºæĿĥäººä¼ļè®®":4937,"æ¶Īéĺ²æķĳæı´":4938,"çĶµä¿¡ç½ĳç»ľ":4939,"ä¸¥éĩįæĥħèĬĤçļĦ":4940,"é¢ģåıĳ":4941,"Ġé¦Ļæ¸¯çī¹åĪ«è¡ĮæĶ¿åĮº":4942,"è´¯":4943,"æĶ»":4944,"è¡Įé©¶":4945,"ä¸Ģçº§":4946,"åºĶå½ĵåħ·å¤ĩ":4947,"ï¼īãĢģ":4948,"æĦıåĳ³":4949,"çī¹å®ļçļĦ":4950,"æĥħèĬĤè¾ĥ":4951,"åĪ©çĽĬçļĦ":4952,"å¢ŀåĢ¼":4953,"ä¸Ńå¤®äººæ°ĳæĶ¿åºľ":4954,"èĦĳ":4955,"èģĶåĲĪä¼ļ":4956,"éĿĴèĹı":4957,"æľ¬çº§äººæ°ĳä»£è¡¨å¤§ä¼ļå¸¸åĬ¡å§Ķåĳĺä¼ļ":4958,"ç«ĭæ³ķä¼ļ":4959,"éĢłæĪĲä¸¥éĩįåĲİæŀľçļĦ":4960,"ç½¢åħį":4961,"±ä¹Ĳ":4962,"æ°ĳåĬŀ":4963,"æĶ¿åĬ¡":4964,"å¹¶è¦ģæ±Ĥ":4965,"éĢļçĶ¨":4966,"ä½łèĥ½":4967,"çĽĳçĿ£ç®¡çĲĨèģĮè´£çļĦéĥ¨éĹ¨":4968,"åº·å¤į":4969,"åĢºåĬ¡äººçļĦ":4970,"çĭ¬çī¹":4971,"Ġwh":4972,"æ´¾éģ£":4973,"å¼Ĥå¸¸":4974,"åħ¬çĽĬäºĭä¸ļ":4975,"çĥŁèįī":4976,"è¾©æĬ¤äºº":4977,"ç¤¾äº¤åªĴä½ĵ":4978,"åĨ²çªģ":4979,"æĻĭåįĩ":4980,"æĳĺè¦ģ":4981,"æĦıåĳ³çĿĢ":4982,"éĿĴèĹıé«ĺåİŁ":4983,"åĽ½åĨħ":4984,"ä¸įè¶ħè¿ĩ":4985,"åºĶå½ĵç»Ħç»ĩ":4986,"ï¼īãĢĤ":4987,"æĸ¹åĲĳ":4988,"äºĶå¹´":4989,"è¢«å®³äºº":4990,"åĪ°è¾¾":4991,"çİ°å®ŀ":4992,"çĽ®åīį":4993,"å¤įæł¸":4994,"æĿĥåĪ©äºº":4995,"åħ³ç³»çļĦ":4996,"è§Ĩé¢ĳ":4997,"æŁĲäºĽ":4998,"ç¬¬äºĮçĻ¾äºĮåįģ":4999,"å½¢å¼ıçļĦ":5000,"åĽ½éĺ²æķĻèĤ²":5001,"éĺħè¯»":5002,"è¿Ŀçº¦è´£ä»»":5003,"éº»":5004,"åº§":5005,"æĿ¡çļĦè§Ħå®ļ":5006,"çĽĺ":5007,"åľ°çĲĨ":5008,"çŃīæ´»åĬ¨":5009,"èĩªæĪĳ":5010,"åĽ½å®¶æłĩåĩĨ":5011,"ç»Ħç»ĩæĪĸèĢħä¸ªäºº":5012,"æĶ¾æĿ¾":5013,"æİĴéĻ¤":5014,"äº¤éĢļå®īåħ¨":5015,"åĨľä¸ļæĬĢæľ¯":5016,"åĨľä¸ļæľºæ¢°":5017,"è¯ŃéŁ³":5018,"åıĸå¾ĹçļĦ":5019,"ess":5020,"æ³ķå®ļä»£è¡¨äºº":5021,"æīĢåľ¨åľ°çļĦ":5022,"åķĨåĵģæĪĸèĢħ":5023,"---":5024,"ä»ĵåĤ¨":5025,"æŃ¦è£ħèŃ¦å¯Łéĥ¨éĺŁ":5026,"çĶµä¿¡ç½ĳç»ľè¯ĪéªĹ":5027,"æĪĸèĢħåĽ½åĬ¡éĻ¢":5028,"ä¸ºä¸»":5029,"åı¯ä»¥çĶ±":5030,"æĸ¹ä¾¿":5031,"ç»ıåĬŀ":5032,"å¹¶ä¸į":5033,"æĥħæĬ¥":5034,"æĬ¤çħ§":5035,"æŃ£å¼ı":5036,"ä¾Ŀçħ§åħ¶è§Ħå®ļ":5037,"å¤ĦçĲĨçļĦ":5038,"æĪ·åı£":5039,"æļĸ":5040,"å¿ħè¦ģæİªæĸ½":5041,"æ¤Ĵ":5042,"Ġwe":5043,"èĥĮæĻ¯":5044,"åĮ»çĸĹåį«çĶŁæľºæŀĦ":5045,"åįĬæķ°":5046,"è½¯ä»¶":5047,"æ³ķäººæĪĸèĢħåħ¶ä»ĸç»Ħç»ĩ":5048,"'s":5049,"èľ":5050,"ĠL":5051,"Ġåħ¬åı¸":5052,"å·´":5053,"åı¯ä»¥çĶ³è¯·":5054,"è¿Ľå¢ĥ":5055,"æ¬¾é¡¹":5056,"çº¦æĿŁ":5057,"éħ±":5058,"è¿Ŀåıįè§Ħå®ļ":5059,"èĪªè¡Į":5060,"åĪĳäºĭåı¸æ³ķåįıåĬ©":5061,"ä¸ĩåħĥä»¥ä¸Ĭä¸ĢçĻ¾":5062,"ç¼ĸåĨĻ":5063,"è¿Ŀæ³ķæīĢå¾ĹçļĦ":5064,"è¿Ŀæ³ķæīĢå¾Ĺä¸ĢåĢįä»¥ä¸Ĭ":5065,"èĩ³å°ĳ":5066,"ä¹ĭæĹ¥èµ·åįģäºĶæĹ¥åĨħ":5067,"Ġ10":5068,"åı¸æ³ķè¡ĮæĶ¿éĥ¨éĹ¨":5069,"åı¯ä»¥å¸®åĬ©æĤ¨":5070,"æľªæĿ¥çļĦ":5071,"æľ¬è¡ĮæĶ¿åĮºåŁŁçļĦ":5072,"æľ¬è¡ĮæĶ¿åĮºåŁŁåĨħ":5073,"æŃ»äº¡çļĦ":5074,"èĩªåĬ¨åĮĸ":5075,"èµ°ç§ģ":5076,"è¯¦ç»ĨçļĦ":5077,"çĽĹçªĥ":5078,"å¤Ħä¸īå¹´ä»¥ä¸Ĭä¸ĥå¹´ä»¥ä¸ĭæľīæľŁå¾ĴåĪĳ":5079,"ĠH":5080,"è¿¹":5081,"åĴĮè§£":5082,"æĿĥåĴĮ":5083,"æĪĲéķ¿":5084,"å¹¶æĮīçħ§":5085,"åĪĨæĶ¯":5086,"ä½ĵçļĦ":5087,"åıĹè´¿":5088,"éĢĤéĩı":5089,"åľ°æĸ¹åĲĦçº§":5090,"æĿ¡ä»¶åĴĮ":5091,"å¹¶å¤ĦäºĶ":5092,"èıĮ":5093,"ill":5094,"èĤ¡ä»½æľīéĻĲ":5095,"çĩĥæĸĻ":5096,"çĽĸç«ł":5097,"å¤Ħåįģå¹´ä»¥ä¸ĬæľīæľŁå¾ĴåĪĳ":5098,"è¾ħåĬ©":5099,"ight":5100,"Ġå¦Ĥæŀľ":5101,"Ġæľīä¸ĭåĪĹæĥħå½¢ä¹ĭä¸ĢçļĦ":5102,"ç§ĭ":5103,"åıĳç¥¨":5104,"å¹¶å¯¹åħ¶çĽ´æİ¥è´Łè´£çļĦä¸»ç®¡äººåĳĺåĴĮåħ¶ä»ĸçĽ´æİ¥è´£ä»»äººåĳĺ":5105,"éĶħ":5106,"æĢ»é¢Ŀ":5107,"ç¬¬ä¸ĢçĻ¾åħŃåįģ":5108,"é£İæł¼":5109,"æ¯ıå¹´":5110,"ä¸ļåĬ¡çļĦ":5111,"åĲĮæĹ¶ä¹Ł":5112,"å¨±ä¹Ĳ":5113,"ç»ĥä¹ł":5114,"åħ¬çĽĬæĢ§":5115,"å¤ĦäºĶå¹´ä»¥ä¸ĭæľīæľŁå¾ĴåĪĳæĪĸèĢħæĭĺå½¹":5116,"éĺ¶æ®µ":5117,"çļĦåľ°æĸ¹":5118,"çļĦä¸»è¦ģ":5119,"åĴĮæľīåħ³éĥ¨éĹ¨":5120,"åı¯éĿł":5121,"ä¸įå±ŀäºİ":5122,"éĥ¨æ³ķå¾ĭçļĦåĨ³å®ļ":5123,"åĪĨä¹ĭä¸Ģ":5124,"å¤§åŀĭ":5125,"è¿ĿèĥĮ":5126,"çĿ¡":5127,"æĮīæĹ¶":5128,"ç»Ļå®ļçļĦ":5129,"èįĴ":5130,"ä¸ªäººçĭ¬èµĦä¼ģä¸ļ":5131,"æ±¡æ°´":5132,"å¥³æĢ§":5133,"äº¤éĢļå·¥åħ·":5134,"ç¦»å¼Ģ":5135,"æĹ¶éĹ´åĴĮ":5136,"åħįçĸ«":5137,"åĨĽäºĭè®¾æĸ½":5138,"æĸĩçī©ä¿ĿæĬ¤":5139,"æľĢé«ĺäººæ°ĳæ£Ģå¯ŁéĻ¢":5140,"ç»ĻåĩºçŃĶæ¡Ī":5141,"æ¬ºéªĹ":5142,"ç»ıæµİç¤¾ä¼ļåıĳå±ķ":5143,"è·Ŀç¦»":5144,"sw":5145,"ue":5146,"çļĦè¯īè®¼":5147,"æĺ¥":5148,"ä¸įå½ĵ":5149,"å°¾":5150,"åĽ½å®¶çļĦ":5151,"èĲ¥éĶĢ":5152,"éĺ²ç©º":5153,"æĦıæĦ¿":5154,"æĮīçħ§èģĮè´£åĪĨå·¥":5155,"æĬĢæľ¯è§ĦèĮĥ":5156,"çŁ¥æĤī":5157,"åģľäº§":5158,"åĭĩ":5159,"èĥ½åĬĽåĴĮ":5160,"æķ°æį®çļĦ":5161,"å¤©çĦ¶":5162,"Ġby":5163,"æīĢåľ¨åįķä½į":5164,"ä¼ļåĲĮæľīåħ³éĥ¨éĹ¨":5165,"çİ°ä»£åĮĸ":5166,"ä¸ŃåĽ½äººæ°ĳéĵ¶è¡Į":5167,"åī¥å¤ºæĶ¿æ²»":5168,"è¡Ĺéģĵ":5169,"24":5170,"ure":5171,"Ġç¦ģæŃ¢":5172,"æľīçļĦ":5173,"æ´²":5174,"æįŁæ¯ģ":5175,"èį¯çī©":5176,"æķ´æĶ¹":5177,"åĻ¨æĿĲ":5178,"ä¹¦éĿ¢å½¢å¼ı":5179,"ä»·åĢ¼çļĦ":5180,"æ¸©åº¦":5181,"é©»å¤ĸ":5182,"åħ³éĶ®è¯į":5183,"æľīéĻĲè´£ä»»":5184,"ect":5185,"åİĭåĬĽ":5186,"ĠD":5187,"æ³¥":5188,"è¿Ł":5189,"å½»":5190,"åĲĪéĢĤ":5191,"åıĸæ¶Ī":5192,"å®¡äººæ°ĳæ³ķéĻ¢":5193,"æĶ¯ç¥¨":5194,"åįıå®ļ":5195,"çİ¯å¢ĥçļĦ":5196,"è®¤åı¯":5197,"åĪ¤å¤Ħ":5198,"æµģå¤±":5199,"ç¬¬åħ«çĻ¾":5200,"åį³åı¯":5201,"ç¬¬ä¸ĥåįģä¸ĥæĿ¡":5202,"ç§ĳæĬĢåĪĽæĸ°":5203,"æĲŃ":5204,"èµĦæł¼çļĦ":5205,"åħ´è¶£":5206,"è¢«åĪ¤å¤Ħ":5207,"å¤Ħä¸īå¹´ä»¥ä¸Ĭåįģå¹´ä»¥ä¸ĭæľīæľŁå¾ĴåĪĳ":5208,"èĵĿ":5209,"çİ¯å¢ĥå½±åĵįè¯Ħä»·":5210,";(":5211,"frac":5212,"çļĦéĥ¨åĪĨ":5213,"åį·":5214,"è´ªæ±¡":5215,"è§Ī":5216,"éĻª":5217,"åĽ½åľŁ":5218,"æķı":5219,"äººæ°ĳå¸ģ":5220,"åı¯ä»¥æĮīçħ§":5221,"å¤§åŃ¦":5222,"äºĨä¸Ģä¸ª":5223,"æµĭè¯ķ":5224,"æķ´ä¸ª":5225,"ç¬¬ä¸ĥåįģåħŃæĿ¡":5226,"åģĩéĩĬ":5227,"ity":5228,"èĪªç©ºåĻ¨":5229,"çºłæŃ£":5230,"æĬ¢åĬ«":5231,"éĩįæķ´è®¡åĪĴ":5232,"op":5233,"}{":5234,"çļĦä½¿çĶ¨":5235,"çļĦåŁºç¡Ģ":5236,"æĭĲ":5237,"ç»ıåİĨ":5238,"å¹¶ä¾Ŀæ³ķ":5239,"çĸı":5240,"èĲ¥åħ»":5241,"æĥħåĨµåĴĮ":5242,"åıĺåįĸ":5243,"åı¯èĥ½å½±åĵį":5244,"èģĮä¸ļåį«çĶŁ":5245,"éĻĦåĬł":5246,"çľĭåĪ°":5247,"Ġ\\)":5248,"æĸĩçī©è¡ĮæĶ¿éĥ¨éĹ¨":5249,"å¡ĳ":5250,"ä¸Ĭä¸Ģçº§":5251,"ä¾µæĿĥè´£ä»»":5252,"è¯ĹæŃĮ":5253,"è®¿":5254,"åºĶå½ĵæľī":5255,"äºĭçĶ±":5256,"è¿Ľè¡ĮçļĦ":5257,"æĢ§èĥ½":5258,"æłĩçŃ¾":5259,"åįıåĲĮ":5260,"ç¼©":5261,"å»ºè®¾åĴĮ":5262,"ç±»åĪ«":5263,"æ¶ĪçģŃ":5264,"æıĲåĩºçĶ³è¯·":5265,"å°ĳå¹´":5266,"åĽ½éĻħæĿ¡çº¦":5267,"åŃ¦çĶŁçļĦ":5268,"æĬµæĬ¼æĿĥ":5269,"å°ļä¸į":5270,"å¯¹çĽ´æİ¥è´Łè´£çļĦä¸»ç®¡äººåĳĺåĴĮåħ¶ä»ĸçĽ´æİ¥è´£ä»»äººåĳĺä¾Ŀæ³ķç»ĻäºĪå¤ĦåĪĨ":5271,"ä»Ĭå¤©":5272,"è¯ģåĪ¸æĬķèµĦåŁºéĩĳ":5273,"æ°ĳèĲ¥ç»ıæµİç»Ħç»ĩ":5274,".\"":5275,"Ġ`":5276,"çļĦåĲįç§°":5277,"æĪĸèĢħè¢«":5278,"åħ¬å¼Ģåıĳ":5279,"åĲĪè®®":5280,"åľ°ä¸ĭ":5281,"å¹¶éĩĩåıĸ":5282,"åįķçĭ¬":5283,"éģį":5284,"è¿Ľè¡ĮçĽĳçĿ£æ£ĢæŁ¥":5285,"æĶ¶åĽŀ":5286,"å¼ĢéĻ¤":5287,"å°ıç»Ħ":5288,"åľŁåľ°åĪ©çĶ¨":5289,"åĪĽå»º":5290,"ç¬¬ä¸ĥåįģåħ«æĿ¡":5291,"èº«ä»½è¯ģ":5292,"è¯ĬçĸĹ":5293,"é¥®çĶ¨æ°´":5294,"åĲĦèĩªçļĦ":5295,"è´®åŃĺ":5296,"MO":5297,"å³":5298,"æĩ":5299,"è¿İ":5300,"ä»¥åīį":5301,"æĪĸèĢħä½¿çĶ¨":5302,"åºĶå½ĵéģµå¾ª":5303,"åı¯ä»¥å°Ĩ":5304,"åĩºåºŃ":5305,"æµĵ":5306,"æĶ¶æĶ¯":5307,"åīįä¸¤":5308,"åħ¬åħ±å®īåħ¨":5309,"ç©ºæ°Ķ":5310,"äº¤éĢļç®¡çĲĨéĥ¨éĹ¨":5311,"é£İéĻ©è¯Ħä¼°":5312,"ç¬¬äºĮçĻ¾ä¸īåįģ":5313,"**:":5314,"çļĦæ³ķå¾ĭéĹ®é¢ĺ":5315,"åĩºèµĦäºº":5316,"çĪ¶æ¯įæĪĸèĢħåħ¶ä»ĸçĽĳæĬ¤äºº":5317,"çļĦå¦ĩå¥³":5318,"æľīæīĢ":5319,"çĽ²":5320,"åħ¶æ¬¡":5321,"å¹¶åıĬæĹ¶":5322,"èµĦåĬ©":5323,"åħ¶ä»ĸæľīåħ³éĥ¨éĹ¨":5324,"æĶ¶è´§":5325,"æĺİçļĦ":5326,"èĲ¥è¿Ĳ":5327,"æıĲä¾Ľå¿ħè¦ģçļĦ":5328,"æ°´æºĲ":5329,"è´¨è¯¢":5330,"è·ĳ":5331,"å¿ħéľĢ":5332,"å¯ĨåĪĩ":5333,"èģĮä¸ļåŃ¦æł¡":5334,"ence":5335,"ç¡®å®ļéĹ®é¢ĺ":5336,"çķĻç½®":5337,"ç¬¬ä¸ĥåįģäºĶæĿ¡":5338,"æ®µèĲ½":5339,"æł·çļĦ":5340,"æĴ¤èģĮ":5341,"åĨĽäºĭæľºåħ³":5342,"æĢĿèĢĥ":5343,"çĶµåŃĲåķĨåĬ¡å¹³åı°":5344,"æ°´åľŁä¿ĿæĮģ":5345,"åĨĻä¸Ģç¯ĩåħ³äºİ":5346,"æ°ĳæĹıèĩªæ²»åľ°æĸ¹çļĦ":5347,"åĲĪè®®åºŃ":5348,"MOSS":5349,"100":5350,"è²":5351,"Ġåħ¬å®īæľºåħ³":5352,"çļĦåĪ¤åĨ³":5353,"ç»ª":5354,"çĶ¨åĵģ":5355,"ä½ľè¯ģ":5356,"çĽĳæİ§":5357,"æł¹æį®æ³ķå¾ĭè§Ħå®ļ":5358,"å®īåħ¨äºĭæķħ":5359,"æ¯Ľ":5360,"ç¤¾ä¼ļçļĦ":5361,"ä¾Ŀçħ§åīįæ¬¾":5362,"æī§è¡ĮèģĮåĬ¡":5363,"é¢Ĩäºĭ":5364,"ä¸ĭåĪĹæĿ¡ä»¶":5365,"å±ħçķĻ":5366,"çº¦å®ļæĪĸèĢħ":5367,"ä¼¤æ®ĭ":5368,"åį±å®³åĽ½å®¶å®īåħ¨":5369,"æħ¢":5370,"çºªå¿µ":5371,"åĪĨä¹ĭäºĮ":5372,"çŃīæĸ¹éĿ¢çļĦ":5373,"è°¢è°¢":5374,"æ¦Ĥå¿µ":5375,"è¿·":5376,"ä»¥åĨħ":5377,"ä¸Ģå®ļçļĦ":5378,"æĪĸèĢħéĩĩåıĸ":5379,"ä¸Ńæľī":5380,"åľ°åĿĢ":5381,"ï¼ļãĢĬ":5382,"ä¸»åĬ¨":5383,"çĶ±äººæ°ĳæ³ķéĻ¢":5384,"éĢļè¡Į":5385,"éĺ¿":5386,"è¡ĮæĶ¿è¯īè®¼":5387,"è¢ĭ":5388,"åĮ»éĻ¢":5389,"çĽ¸åħ³éĥ¨éĹ¨":5390,"ç¬¬ä¸ĢçĻ¾ä¹Ŀåįģ":5391,"è¯·æ±ĤåĽ½":5392,"è¿½åģ¿":5393,"å°ıæĺİçļĦ":5394,"è´¹çĶ¨çļĦ":5395,"Ġcan":5396,"åºĶæĢ¥ç®¡çĲĨéĥ¨éĹ¨":5397,"ä»£çĲĨäººçļĦ":5398,"è¯ķéªĮ":5399,"ç¥ŀç»ı":5400,"å¼ºåĪ¶æİªæĸ½":5401,"æµ·äºĭè¯·æ±Ĥ":5402,"å¹´ä»¥ä¸Ĭåįģå¹´ä»¥ä¸ĭæľīæľŁå¾ĴåĪĳ":5403,"åħµå½¹":5404,"æ¥¼":5405,"éģĹä¼łèµĦæºĲ":5406,"æŀĹä¸ļèįīåİŁä¸»ç®¡éĥ¨éĹ¨":5407,"\\)":5408,"rom":5409,"Ġ9":5410,"åħ½":5411,"ä¸īåĪĨä¹ĭäºĮ":5412,"è¿ĩåįĬæķ°":5413,"ç¬¬ä¸Ģé¡¹":5414,"æĶ¹å»º":5415,"è¿Ŀæ³ķè¡Įä¸ºçļĦ":5416,"åŃĺåĤ¨":5417,"ĠåĽ½å®¶åĬłå¼º":5418,"èĤ¡æĿĥ":5419,"åĪ©çĶ¨èģĮåĬ¡":5420,"è´¹çĶ¨çĶ±":5421,"è¡Įä¸ļåįıä¼ļ":5422,"åı¦æľīçº¦å®ļçļĦ":5423,"å®ĥä»¬çļĦ":5424,"æįķæįŀ":5425,"åĢįä»¥ä¸ĭç½ļæ¬¾":5426,"è¯·æł¹æį®ä¸ĭéĿ¢çļĦæ³ķå¾ĭéĹ®é¢ĺ":5427,"ç¡®å®ļéĹ®é¢ĺåĪĨç±»":5428,"è¯·æł¹æį®ä¸ĭéĿ¢çļĦæ³ķå¾ĭéĹ®é¢ĺç¡®å®ļéĹ®é¢ĺåĪĨç±»":5429,"Ġåħ¨åĽ½äººæ°ĳä»£è¡¨å¤§ä¼ļ":5430,"Ġä»»ä½ķ":5431,"ä¸Ŀ":5432,"å®½":5433,"ä¸Ģé¦ĸ":5434,"äºĭåħĪ":5435,"åľ°æ³ķå¾ĭ":5436,"ä¸Ĭä¸ĭ":5437,"æĸ¹éĴĪ":5438,"åĩºè´¨":5439,"æľŁçļĦ":5440,"æĬ¥éģĵ":5441,"é«ĺçļĦ":5442,"éħ¸":5443,"äººæ°ĳæ³ķéĻ¢åºĶå½ĵ":5444,"ç¥ĸ":5445,"æĢ»éĩı":5446,"her":5447,"åŁºéĩĳç®¡çĲĨ":5448,"éĤĢ":5449,"è¿Ĳè¾ĵä¼ģä¸ļ":5450,"ä¸ĩåħĥä»¥ä¸ĭç½ļéĩĳ":5451,"æĺ¯åĲ¦æľī":5452,"æŁĲåħ¬åı¸":5453,"our":5454,"å¹²æī°":5455,"å®ªæ³ķåĴĮæ³ķå¾ĭ":5456,"æĭĴä¸įæĶ¹æŃ£çļĦ":5457,"éĨī":5458,"ä¸ĩåħĥä»¥ä¸ĬäºĶåįģä¸ĩåħĥä»¥ä¸ĭçļĦç½ļæ¬¾":5459,"æ··åĲĪ":5460,"åħ¬å¼Ģåıĳè¡Į":5461,"åīįä¸¤æ¬¾":5462,"èĨ":5463,"Ġå°Ĩ":5464,"Ġçľģ":5465,"Ġä¸ĢèĪ¬":5466,"åľ¨çº¿":5467,"åı¯ä»¥è¯·æ±Ĥ":5468,"æĬ¥è¯·":5469,"å§Ķåĳĺéķ¿":5470,"åŃĺç»Ń":5471,"æ»ŀ":5472,"åĴĮåħ¶ä»ĸç»Ħç»ĩ":5473,"Ġsu":5474,"è§Ĩè§ī":5475,"è®ºè¯ģ":5476,"ans":5477,"èĢģå¸Ī":5478,"è§£åĨ³æĸ¹æ¡Ī":5479,"ç¬¬åħ«åįģä¸ĢæĿ¡":5480,"è¯´æĺİä¹¦":5481,"ä»·åĢ¼è§Ĥ":5482,"ase":5483,"ä¿¡æīĺè´¢äº§":5484,"Ġne":5485,"åĽ½å®¶æľºåħ³å·¥ä½ľäººåĳĺ":5486,"è§īå¾Ĺ":5487,"###":5488,"éľĢè¦ģæ³¨æĦıçļĦæĺ¯":5489,"ter":5490,"ĠçĶ¨äººåįķä½į":5491,"æľīæ¯Ĵ":5492,"ä¸Ńæłĩ":5493,"åı¯ä»¥ä½¿çĶ¨":5494,"åıĳç»Ļ":5495,"éĢļè®¯":5496,"èĤ¥":5497,"æĢ§æ³ķè§Ħ":5498,"æĬ¥ç»ı":5499,"ç½ªåĲį":5500,"ç»ıèĲ¥çļĦ":5501,"åĲĪåĲĮçº¦å®ļçļĦ":5502,"éĶĢæ¯ģ":5503,"ä¿ĿéĻ©çĽĳçĿ£ç®¡çĲĨæľºæŀĦ":5504,"çĦ¦":5505,"åĪ¤å¤Ħç½ļéĩĳ":5506,"è´Ńçī©":5507,"åŀ¦":5508,"èĩªæ²»å·ŀ":5509,"åĢºåĬ¡çļĦ":5510,"Ġsp":5511,"å¾ģçĶ¨":5512,"äºĴçĽ¸":5513,"ä»»åĬ¡çļĦ":5514,"åī¯æľ¬":5515,"ä¾ĽåºĶåķĨ":5516,"èħĲ":5517,"åĲĳç¤¾ä¼ļåħ¬å¸ĥ":5518,"çĸ¾çĹħé¢Ħéĺ²æİ§åĪ¶éĥ¨éĹ¨":5519,"ĠèĪ¹èĪ¶":5520,"åĴĮå»ºè®®":5521,"æĹ¨":5522,"èĥľ":5523,"åĵº":5524,"åĵĪ":5525,"èĥ½åĲ¦":5526,"æ²ī":5527,"æł¹æį®éľĢè¦ģ":5528,"åĨ³ç®Ĺ":5529,"æıĲä¾ĽæľįåĬ¡":5530,"æıĲä¾Ľæĭħä¿Ŀ":5531,"çĶ³è¯·ä»²è£ģ":5532,"çĶ³è¯·ä¹ĭæĹ¥èµ·":5533,"å¤ļæ¬¡":5534,"èĮ¶":5535,"æľĢå¤§":5536,"æ³¨éĩį":5537,"æµĭéĩı":5538,"æ¸ħæĻ":5539,"åľŁåľ°çļĦ":5540,"ä¾µæĿĥäºº":5541,"æĿĥçĽĬä¿Ŀéļľæ³ķ":5542,"å®¢ä½ĵ":5543,"çĥ§":5544,"åĬ¨çī©çĸ«çĹħ":5545,"åŃ¦ä¹łåĴĮ":5546,"å®¶åºŃæĪĲåĳĺ":5547,"Ġcom":5548,"ç¾İä¸½":5549,"é¢Ħéĺ²åĴĮ":5550,"åĲĪæ³ķæĿĥçĽĬçļĦ":5551,"å¹²é¢Ħ":5552,"çºªå¾ĭ":5553,"ä¸ĩåħĥä»¥ä¸ĬäºĮåįģä¸ĩåħĥä»¥ä¸ĭçļĦç½ļæ¬¾":5554,"swer":5555,"Ġ7":5556,"ĠR":5557,"çļĦæįŁå¤±":5558,"åºĶå½ĵçŁ¥éģĵ":5559,"åĩºåħ¥å¢ĥ":5560,"åģ·":5561,"åĽ½å®¶åĪ©çĽĬ":5562,"æŀĦå»º":5563,"å¥ı":5564,"ä¾Ŀæ³ķå¯¹":5565,"ä¿ĿæĬ¤æİªæĸ½":5566,"åĲįé¢Ŀ":5567,"åĲĦæĸ¹":5568,"çķħ":5569,"æĸ°åŀĭ":5570,"ä¾Ŀçħ§æ³ķå¾ĭè§Ħå®ļ":5571,"åıĺçĽ¸":5572,"è¿Ĳè¾ĵå·¥åħ·":5573,"å»ºè®®æĤ¨":5574,"æ³ķå®ļä»£çĲĨäºº":5575,"éģĩåĪ°":5576,"ä¼łæŁĵçĹħçĸ«æĥħ":5577,"Ġnot":5578,"èĩªçĶ±è´¸æĺĵ":5579,"éĵ¶è¡Įä¸ļéĩĳèŀįæľºæŀĦ":5580,"å·¥ä¼¤ä¿ĿéĻ©":5581,"æ¬ºè¯Ī":5582,"å½ĵçĦ¶åı¯ä»¥":5583,"ãĢĤãĢĬ":5584,"ä¸įèµ·è¯ī":5585,"äººæ°ĳéĺ²ç©º":5586,"æİĺ":5587,"èĩªå¾ĭ":5588,"åĪĨå¸ĥ":5589,"æł¹æį®ä¸ŃåĽ½":5590,"éĺ²æİ§":5591,"ä¿ĿæĬ¤çļĦ":5592,"åº¦åĴĮ":5593,"åİŁå§ĭ":5594,"ç¬¬åĽĽèĬĤ":5595,"ä¿¡æģ¯åĮĸ":5596,"æĸ°æĬĢæľ¯":5597,"ç±»ä¼¼":5598,"ç´¯":5599,"äº§åĵģè´¨éĩı":5600,"èŃ¦ç¤º":5601,"éĶĢåĶ®çļĦ":5602,"å¢ŀéķ¿":5603,"çī©åĵģçļĦ":5604,"è¾¹éĺ²":5605,"åı¥è¯Ŀ":5606,"ç¼ºä¹ı":5607,"åĪ©å®³åħ³ç³»äºº":5608,"åĵºä¹³":5609,"hn":5610,"ore":5611,"åĪĬ":5612,"å·¦":5613,"ä¸ŃæıĲåıĸ":5614,"ç»ıçĲĨ":5615,"æľŁåĨħ":5616,"ä¾ĽçĶµ":5617,"ç»Ħç»ĩåĴĮ":5618,"ç»Ļå®ļ":5619,"æķĪçĽĬ":5620,"å»ºè®¾çļĦ":5621,"çĽ¸åħ³ä¿¡æģ¯":5622,"åĽ¢ç»ĵ":5623,"åį±éĻ©åºŁçī©":5624,"æĥ³æ³ķ":5625,"ant":5626,"åŁºæľ¬åĮ»çĸĹä¿ĿéĻ©":5627,"ç»Łä¸ĢçļĦ":5628,"æĹ¥ç¬¬åįģä¸Ģ":5629,"éĶĻè¯¯çļĦ":5630,"ä¸Ģæ¬¡æĢ§":5631,"éĤĢè¯·":5632,"äººåĬĽ":5633,"ä»¥åĲİ":5634,"åĽ½æĹĹ":5635,"å¼±":5636,"çħ§é¡¾":5637,"çĽ¸åħ³æ³ķå¾ĭ":5638,"èĮĦ":5639,"ä¾ĭåŃĲ":5640,"éĿŀæ³ķäºº":5641,"è°ĥè§£åįıè®®":5642,"ould":5643,"æ²¡æĶ¶è´¢äº§":5644,"æľªç»ıæī¹åĩĨ":5645,"æľ¬è¡ĮæĶ¿åĮºåŁŁåĨħçļĦ":5646,"åĩºå¢ĥåħ¥å¢ĥ":5647,"ide":5648,"ä¸ŃåĽ½äººæ°ĳè§£æĶ¾åĨĽ":5649,"åĽ°éļ¾çļĦ":5650,"æ¿ĢåĬ±":5651,"åĽ½æ°ĳç»ıæµİåĴĮç¤¾ä¼ļåıĳå±ķ":5652,"åĤ¬åĳĬ":5653,"æĥħèĬĤçī¹åĪ«ä¸¥éĩįçļĦ":5654,"çĪ±åĽ½ä¸»ä¹ī":5655,"è´¯å½»":5656,"Al":5657,"åĪł":5658,"ç»ĳ":5659,"æ°ı":5660,"æľīè¿Ŀæ³ķæīĢå¾ĹçļĦ":5661,"çĶ¨çĶµ":5662,"ä¸ºçĽ®çļĦ":5663,"å®¶å±ħ":5664,"æľ¬ç½ªçļĦ":5665,"è¿Ľåĩºå¢ĥ":5666,"åĽ½å®¶å¯¹":5667,"æľªåıĸå¾Ĺ":5668,"ä¾Ŀæ³ķæī¿æĭħèµĶåģ¿è´£ä»»":5669,"ãĢĭï¼Į":5670,"åĬĽçļĦ":5671,"éĩĩéĽĨ":5672,"è´ŁéĿ¢":5673,"åĬŀæ¡Ī":5674,"èµĶåģ¿æįŁå¤±":5675,"å®Įæ¯ķ":5676,"ä¼ĺå¾ħ":5677,"è¯ģæį®è¯ģæĺİ":5678,"çŃĶè¾©":5679,"ç¬¬äºĮçĻ¾åħŃåįģ":5680,"åĳ¨åĽ´":5681,"åĳ¨è¾¹":5682,"æĦ¿æĦı":5683,"æĳĬ":5684,"åı¦æľīè§Ħå®ļ":5685,"ç»ĵç®ĹæľºæŀĦ":5686,"å·¨å¤§çļĦ":5687,"çĸ¾çĹħé¢Ħéĺ²æİ§åĪ¶æľºæŀĦ":5688,"æ½ľåľ¨":5689,"å¯¹åįķä½įåĪ¤å¤Ħç½ļéĩĳ":5690,"Ġåľ°æĸ¹åĲĦçº§äººæ°ĳæĶ¿åºľ":5691,"çļĦäºĭé¡¹":5692,"å®ł":5693,"ä¸ĢåĪĩ":5694,"è§Ħç¨ĭ":5695,"æĪĸèĢħéĻĲåĪ¶":5696,"å¼¹":5697,"æĮĸ":5698,"åĩºå¸Ń":5699,"éĻ¢æł¡":5700,"åĪĨç«ĭ":5701,"ä½¿åħ¶":5702,"æľªæĮī":5703,"åıĹå®³äºº":5704,"è¿Ľè¡ĮçĽĳçĿ£":5705,"éĽ¨":5706,"ä¸įå¾Ĺä»İäºĭ":5707,"ä¸Ńåįİäººæ°ĳåħ±åĴĮåĽ½å¢ĥåĨħ":5708,"éĢłæĪĲæįŁå®³çļĦ":5709,"è£ħåį¸":5710,"èŀįåĲĪ":5711,"åħ¬æ°ĳçļĦ":5712,"198":5713,"text":5714,"2021":5715,"æľ¬æĿ¡ç¬¬ä¸Ģæ¬¾":5716,"å¢ŀåĢ¼ç¨İ":5717,"16":5718,"lo":5719,"çļĦæĥħå½¢":5720,"åĴĮåľ°æĸ¹":5721,"ä¼´":5722,"ä¸ºä»Ģä¹Ī":5723,"ä½ĵåĪ¶":5724,"åŃ¦æľ¯":5725,"æľªå±¥è¡Į":5726,"èĲ¨":5727,"æī¿è®¤":5728,"åĽ½åĬ¡éĻ¢æľīåħ³éĥ¨éĹ¨":5729,"æ°´æŀľ":5730,"è¯¥åħ¬åı¸":5731,"çĶ³è¯·ä¹¦":5732,"Ġtr":5733,"Ġat":5734,"è´£ä»¤åħ¶":5735,"è¡¥æķĳ":5736,"æ¯ĶèµĽ":5737,"è¶³å¤Ł":5738,"æĴ¤åĽŀ":5739,"è§£åĨ³éĹ®é¢ĺ":5740,"ç¬¬åħ«åįģæĿ¡":5741,"æķĳåĬ©æĸ¹":5742,"çĽ¸éĢĤåºĶçļĦ":5743,"æĭĲåįĸ":5744,"èĩªçĶ±è´¸æĺĵæ¸¯":5745,"åı³":5746,"åĴĮçľģ":5747,"æĭ¿":5748,"åĽ½å®¶æľīåħ³":5749,"èģĮèĥ½":5750,"å®īåħ¨åĴĮ":5751,"åĪĳæľŁ":5752,"ä»İéĩį":5753,"ç¨İé¢Ŀ":5754,"è®¤è¯Ĩ":5755,"ä¸ĭåĪĹäºĭé¡¹":5756,"èĩªæ²»åİ¿":5757,"èĪ¹èĪ¶çļĦ":5758,"æ°ĳäºĭæ³ķå¾ĭ":5759,"è¿Ŀæ³ķæīĢå¾Ĺä¸įè¶³":5760,"åºŁçī©çļĦ":5761,"ç¬¬åħ«åįģäºĮæĿ¡":5762,"çĶ¨æĪ·çļĦ":5763,"çģ«çģ¾":5764,"éĩİçĶŁåĬ¨çī©ä¿ĿæĬ¤":5765,"ä¸Ĭå¸Ĥåħ¬åı¸":5766,"å·®å¼Ĥ":5767,"åī§æ¯Ĵ":5768,"æīĺè¿Ĳäºº":5769,"åī©ä½Ļ":5770,"ä¸ĩåħĥä»¥ä¸Ĭåįģä¸ĩåħĥä»¥ä¸ĭçļĦç½ļæ¬¾":5771,"æµ·åįĹèĩªçĶ±è´¸æĺĵæ¸¯":5772,"è¯ģåĪ¸æĬķèµĦåŁºéĩĳæ³ķ":5773,"Ġä¸ĢèĪ¬è§Ħå®ļ":5774,"ĠM":5775,"Ġæ¾³éĹ¨çī¹åĪ«è¡ĮæĶ¿åĮº":5776,"ģåħį":5777,"çļĦåĢºåĬ¡":5778,"ä½³":5779,"ä»¥åħ¶":5780,"éĢĻ":5781,"åľ¨ä¸Ģèµ·":5782,"äºĭæĥħ":5783,"æĪĲä¸ºäºĨ":5784,"çŃīæĥħåĨµ":5785,"äºĶæĹ¥åĨħ":5786,"æĥħç»ª":5787,"æĪĳè®¤ä¸º":5788,"åıįæģĲæĢĸä¸»ä¹ī":5789,"éĿŀçī©è´¨":5790,"ä½łä»¬":5791,"æĬķç¥¨":5792,"æĴŀ":5793,"æ±¡æŁĵçİ¯å¢ĥ":5794,"é£Łåĵģæ·»åĬłåīĤ":5795,"åºĶå½ĵåıĬæĹ¶åĲĳ":5796,"å¹²æ¶ī":5797,"è¾¹å¢ĥ":5798,"ç¾¤ä½ĵ":5799,"éĩĬæĶ¾":5800,"æľīç»Ħç»ĩçĬ¯ç½ª":5801,"ä»ª":5802,"äººå£«":5803,"ä¸Ģé¡¹":5804,"æį·":5805,"ä½ľæĪĺ":5806,"å¹¶çĶ±":5807,"ä¸»æĿĥ":5808,"ä½įäºİ":5809,"è°ĵ":5810,"è¢«è°ĥæŁ¥":5811,"éĺ²çĸ«":5812,"çİ°éĩĳ":5813,"ç¬¬åįģç«ł":5814,"åĨľçĶ°":5815,"åĲįåŃĹ":5816,"çĶ³è¯·çļĦ":5817,"éĻ¤äºĨ":5818,"èĢĮè¨Ģ":5819,"æł¼å¼ı":5820,"æµģåĬ¨":5821,"è¿Ĳè¾ĵçļĦ":5822,"ä½ľåĩºåĨ³å®ļ":5823,"æīĢå¾Ĺç¨İ":5824,"æĬķèµĦäºº":5825,"è±ģåħį":5826,"Ġch":5827,"åıªè¦ģ":5828,"æ²³éģĵ":5829,"ç§ĺä¹¦":5830,"æ¹¾":5831,"å£°æĺİ":5832,"ä¸įåı¯æĬĹ":5833,"å¯¹è¯ĿåĨħå®¹":5834,"æ°´åľŁæµģå¤±":5835,"åĽ½æ°ĳç»ıæµİåĴĮç¤¾ä¼ļåıĳå±ķè§ĦåĪĴ":5836,"åĢ¾åĢĴ":5837,"ç®ĢåįķçļĦ":5838,"èĭ±éĽĦçĥĪå£«":5839,"ear":5840,"pr":5841,"Ġåİ¿çº§ä»¥ä¸Ĭ":5842,"ä¸Ļ":5843,"çļĦçĶµå½±":5844,"æľīæľ¬æ³ķ":5845,"æľīå¾Īå¤ļ":5846,"åºĶå½ĵæī¿æĭħèµĶåģ¿è´£ä»»":5847,"å¤Ħäºİ":5848,"çŃīæľīåħ³éĥ¨éĹ¨":5849,"çŃīåĽłç´ł":5850,"ä¸ªä½ĵ":5851,"åŃ¦åİĨ":5852,"éĩĳå±ŀ":5853,"åĲįèªī":5854,"æĮĩä»¤":5855,"æĹłæŃ£å½ĵçĲĨçĶ±":5856,"å¤Ħç½ļçļĦ":5857,"åĬ³åĬ¨æ³ķ":5858,"æĬ¥åĳĬçļĦ":5859,"ĠĠĊ":5860,"å¸®æĪĳ":5861,"äº¤éĢļä¸»ç®¡éĥ¨éĹ¨":5862,"åĪĳäºĭæ¡Īä»¶":5863,"éĶĢåĶ®é¢Ŀ":5864,"ä¸įåĲĮæĦı":5865,"ç¬¬äºĮçĻ¾äºĶåįģ":5866,"çĽĳæĬ¤äººçļĦ":5867,"ount":5868,"èİ·å¾ĹçļĦ":5869,"ä¾Ŀæ³ķç»ĻäºĪæ²»å®īç®¡çĲĨå¤Ħç½ļ":5870,"è´Łæľīè´£ä»»çļĦ":5871,"å¥¹çļĦ":5872,"éĤ®æĶ¿ä¼ģä¸ļ":5873,"æ¥ļ":5874,"æĶ¿åĬ¡å¤ĦåĪĨ":5875,"éĿŀçī©è´¨æĸĩåĮĸéģĹäº§":5876,"18":5877,"æ³¡":5878,"åºĶå½ĵåĮħæĭ¬":5879,"èµĤ":5880,"æĺ¯çĶ±":5881,"ä¸īå¹´":5882,"æĭ¼":5883,"åĽ½å®¶æĪĸèĢħ":5884,"åĵģè´¨":5885,"æľīåħ³äººåĳĺ":5886,"è¯·æ³¨æĦı":5887,"æ³ķå¾ĭä¾Ŀæį®":5888,"èĪĴ":5889,"åıĹéĽĩ":5890,"è¿Ľè¡Įæ£ĢæŁ¥":5891,"æĮģç¥¨":5892,"ç¤¾ä¼ļåĬĽéĩı":5893,"çĬ¯åīįæ¬¾":5894,"åº¦çļĦ":5895,"åĬŀåħ¬":5896,"åıĳå±ķçļĦ":5897,"è´§åĢ¼":5898,"æĪĳä»¬åºĶè¯¥":5899,"åŁºéĩĳè´¢äº§":5900,"æ¸ħæ¥ļ":5901,"æ·ĺ":5902,"æľŁéĻĲçļĦ":5903,"æĺ¯åĲ¦åı¯ä»¥":5904,"é¼ł":5905,"èĩªçĦ¶çģ¾å®³":5906,"ç¬¬ä¸ĥåįģä¹ĿæĿ¡":5907,"ä¿ĥè¿Ľæ³ķ":5908,"å®ŀéĻħæİ§åĪ¶":5909,"æĺ¾ç¤º":5910,"èĦ±":5911,"æĪĲç«ĭçļĦ":5912,"èĥģè¿«":5913,"éĢ¾æľŁæľª":5914,"åĪĿæŃ¥":5915,"æģ¶åĬ£":5916,"æ°§åĮĸ":5917,"è´«åĽ°":5918,"è¢«æī§è¡Įäºº":5919,"æ¸ħæĻ°":5920,"è´§åĢ¼éĩĳé¢Ŀ":5921,"ep":5922,"èļ":5923,"Ġä»¥":5924,"çļĦä»»åĬ¡":5925,"æľ«":5926,"åºĶå½ĵè½½æĺİ":5927,"ä¸ĭçļĦ":5928,"çī©ç§į":5929,"åĢĳ":5930,"åıĹåģ¿":5931,"ç¬¬äºĮæ¬¡ä¿®æŃ£":5932,"æī¿ç§Ł":5933,"åĨľèį¯":5934,"çĶŁæ´»çļĦ":5935,"æŀĹåľ°":5936,"åºĶå½ĵæĮīçħ§åĽ½åĬ¡éĻ¢":5937,"ç¯¡":5938,"è¯¯å¯¼":5939,"ç»ĨèĬĤ":5940,"éĻįçº§":5941,"ä¸ªäººä¿¡æģ¯å¤ĦçĲĨ":5942,"ĊĠĠĠ":5943,"å¦¨å®³":5944,"èĸª":5945,"éĢ¾æľŁä¸įæĶ¹æŃ£çļĦ":5946,"åĩºåįĸäºº":5947,"ç¼Ķç»ĵæĪĸèĢħ":5948,"æ·±åº¦åŃ¦ä¹ł":5949,"åĨľä¸ļæĬĢæľ¯æİ¨å¹¿":5950,"iz":5951,"Ġun":5952,"çļĦé£İéĻ©":5953,"ä»°":5954,"åĴĮå¤ĦçĲĨ":5955,"åĴĮå¹³":5956,"å¾½":5957,"å½ĵåīį":5958,"å½ĵåľº":5959,"åĪĨçº§":5960,"ç¬¬äºĮé¡¹":5961,"ç¬¬ä¸Ģæ¬¡ä¿®æŃ£":5962,"ä¹¦çļĦ":5963,"éĿŀæĶ¿åºľ":5964,"ä¿ĿéĻ©è´¹":5965,"æĤ¨éľĢè¦ģ":5966,"æī¿æĭħè¿ŀå¸¦è´£ä»»":5967,"æµģè½¬":5968,"æ¶Īæ¯Ĵ":5969,"æķ´ä½ĵ":5970,"åĻ¨åħ·":5971,"åĨľä¸ļçĶŁäº§ç»ıèĲ¥":5972,"åŃĹç¬¦":5973,"ç§Łéĩĳ":5974,"**ï¼ļ":5975,"ç¬¬åħ«åįģä¸īæĿ¡":5976,"å¤ĦäºĶå¹´ä»¥ä¸Ĭåįģå¹´ä»¥ä¸ĭæľīæľŁå¾ĴåĪĳ":5977,"åĩºåı£ç®¡åĪ¶":5978,"èĵĦ":5979,"æĪĸèĢħä»¥åħ¶ä»ĸ":5980,"æī£ç¼´ä¹īåĬ¡äºº":5981,"å¹¶å¤ĦæĪĸèĢħåįķå¤Ħç½ļéĩĳ":5982,"åĪłéĻ¤":5983,"ç¯¡æĶ¹":5984,"500":5985,"è¿ħ":5986,"åĴĮæĸĩåĮĸ":5987,"å¾¡":5988,"çºµ":5989,"ä¸ĭçº§":5990,"ä¸ĭæĿ¥":5991,"æ±ģ":5992,"å¾Ĺåĩº":5993,"æľīåħ³åįķä½įåĴĮä¸ªäºº":5994,"æŁ¥æĺİ":5995,"çĽ¸å½ĵ":5996,"ä»¥ä¸ĭæİªæĸ½":5997,"é«ĺè´¨éĩı":5998,"å¸Ĥè¾ĸ":5999,"åİŁæĸĻ":6000,"ä¸įå¾Ĺåľ¨":6001,"çłĤ":6002,"è¿ĺéľĢè¦ģ":6003,"ĠåĽ½å®¶æĶ¯æĮģ":6004,"åĬ³åĬ¨è¡ĮæĶ¿éĥ¨éĹ¨":6005,"ä¿®å»º":6006,"æľīæĿĥå¯¹":6007,"è¿½æ±Ĥ":6008,"æĦŁè°¢":6009,"è¡ĮæĶ¿æ³ķè§Ħè§Ħå®ļçļĦåħ¶ä»ĸ":6010,"æĪĲåĳĺå¤§ä¼ļ":6011,"è¿Ŀæ³ķæīĢå¾ĹæĪĸèĢħ":6012,"ç§ģèĩª":6013,"çĶµåŃĲéĤ®ä»¶":6014,"çļĦäººèº«":6015,"çŁ¿ä¸ļ":6016,"ç¬¬åħ«åįģåĽĽæĿ¡":6017,"åħħæ»¡":6018,"art":6019,"çŁ¥è¯ĨåĴĮ":6020,"å¼łåħĪçĶŁ":6021,"è¯Ńè¨ĢæĸĩåŃĹ":6022,"åĲ«ä¹ī":6023,"åįıè°ĥæľºåĪ¶":6024,"ç¤¾ä¼ļä¿ĿéĻ©ç»ıåĬŀ":6025,"å°Ĭä¸¥":6026,"ä»¥å¤ĸçļĦåħ¶ä»ĸ":6027,"èģĺçĶ¨":6028,"imes":6029,"åįģäºĶæĹ¥ä»¥ä¸ĭæĭĺçķĻ":6030,"åĭĺæŁ¥":6031,"åĳ¨å²ģçļĦ":6032,"ä¹°åıĹäºº":6033,"åĽ½åľŁç©ºéĹ´":6034,"ber":6035,"äºĳ":6036,"çļĦæİªæĸ½":6037,"çļĦé¢Ĩå¯¼":6038,"ãĢĤ-":6039,"åĴĮä¿ĿæĬ¤":6040,"åĩ¡":6041,"æĪĲäº¤":6042,"çŃīäºĭé¡¹":6043,"åĲĮçŃī":6044,"æģ¤":6045,"è´¢çī©çļĦ":6046,"ç»Ļä»ĸäºº":6047,"æµ·æįŁ":6048,"åıįå¯¹":6049,"åĪĴåĪĨ":6050,"æĹłå®³":6051,"å¤ļçļĦ":6052,"å¤ļæķ°":6053,"åıĤèĢĥ":6054,"è§ĦåĪĴåĴĮ":6055,"å¸¸åĬ¡å§Ķåĳĺä¼ļä¼ļè®®":6056,"åħ¬åħ±åĽ¾ä¹¦é¦Ĩ":6057,"åħįè´¹":6058,"åĨįå®¡":6059,"æ¼«":6060,"åĽ½éĺ²åĬ¨åĳĺ":6061,"å½ĵåľ°çļĦ":6062,"åĲ«æľī":6063,"å¢ĥå¤ĸéĿŀæĶ¿åºľ":6064,"ç³ĸæŀľ":6065,"ç¾¤ä¼ĹæĢ§":6066,"å¤Ħä»¥ç½ļæ¬¾":6067,"è®²è¿°":6068,"å¼Ĥè®®çļĦ":6069,"çļĦçĬ¯ç½ªåĪĨåŃĲ":6070,"å°ļä¸įæŀĦæĪĲçĬ¯ç½ªçļĦ":6071,"ªèĮĦ":6072,"åĪļ":6073,"çĶļ":6074,"åĴĮå®ĮåĸĦ":6075,"ä¼½":6076,"èĢĲ":6077,"åįģä¸Ģ":6078,"å¹»":6079,"å¹ħ":6080,"æĹ§":6081,"åºĶå½ĵåĪ¶å®ļ":6082,"ç½Ĺ":6083,"ä¸Ńèį¯":6084,"å·¥äºº":6085,"ä½ľèĢħ":6086,"é¢Ĺ":6087,"æĹ¶çļĦ":6088,"èģĬ":6089,"æī¿åħĳ":6090,"ç¬¬ä¸īé¡¹":6091,"éĢĤå®ľ":6092,"é¢Ĩé¦Ĩ":6093,"æł¸æŁ¥":6094,"æľīæĿĥè¯·æ±Ĥ":6095,"è·¯çº¿":6096,"éĢĢåĩºçİ°":6097,"æ¶īå¤ĸ":6098,"çĶŁæ´»ä¸Ń":6099,"æ¯ıä¸Ģ":6100,"æĪĲåĳĺçļĦ":6101,"å®£å¸ĥ":6102,"åĨĽäººä¿ĿéĻ©":6103,"äººæĪĸèĢħåħ¶":6104,"å¿«éĢĴ":6105,"act":6106,"å©ļå§»åħ³ç³»":6107,"æīĢéľĢçļĦ":6108,"æĹħè¡Įç¤¾":6109,"ä¾Ŀæ³ķå±¥è¡ĮèģĮè´£":6110,"æ¸ħæ´ģçĶŁäº§":6111,"çĲĨäºĭä¼ļ":6112,"å®ļç½ªå¤Ħç½ļ":6113,"è´¢åĬ¡ä¼ļè®¡æĬ¥åĳĬ":6114,"éĢĢåĩºçİ°å½¹":6115,"ve":6116,"Ġä¸º":6117,"çļĦåİŁåĽł":6118,"åĪº":6119,"å®ļä¹ī":6120,"å¯¿":6121,"æĪĸèĢħå¯¹":6122,"åºĶå½ĵåĿļæĮģ":6123,"æıĴ":6124,"ä»»åĳ½":6125,"çĽĳè§Ĩ":6126,"æ´ŀ":6127,"åĢ¡":6128,"å·¥ä½ľæľºæŀĦ":6129,"ä¾Ŀæ³ķäº«æľī":6130,"ä¹ĭå¤ĸ":6131,"åİŁçĬ¶":6132,"æĬĢæľ¯åĴĮ":6133,"çĶ³è¯·è¡ĮæĶ¿å¤įè®®":6134,"æº¯":6135,"ä½łè®¤ä¸º":6136,"ä¼łæī¿":6137,"ä¼łè¾ĵ":6138,"ĠåĽ½å®¶å»ºç«ĭåģ¥åħ¨":6139,"åı¯èĥ½éľĢè¦ģ":6140,"è®©æĪĳä»¬":6141,"åıĳçĶŁéĩįå¤§":6142,"èģĮä¸ļåŁ¹è®Ń":6143,"å®¹åĻ¨":6144,"ç»´æĮģ":6145,"èĳ±":6146,"å°ıæĺİåľ¨":6147,"æįŁå®³èµĶåģ¿":6148,"è§Ĥå¯Ł":6149,"ä¸ĩåħĥä»¥ä¸ĬçļĦ":6150,"ç»Īç»ĵ":6151,"è¯´æĺİçĲĨçĶ±":6152,"èģĺä»»":6153,"æ±Łæ²³":6154,"å¼ķæ¸¡è¯·æ±Ĥ":6155,"æķĪçİĩåĴĮ":6156,"é»ĳåľŁåľ°":6157,"tep":6158,"ç¼ĵåĪĳ":6159,"çĳľ":6160,"æ²¿æµ·":6161,"åī¥å¤ºæĶ¿æ²»æĿĥåĪ©":6162,"ef":6163,"nd":6164,"ple":6165,"é¹":6166,"Ġå¯¹äºİ":6167,"çŃīçĽ¸åħ³":6168,"å¹¶åħ¬å¸ĥ":6169,"è¿ĩåİ»":6170,"è½¨":6171,"ä¿¡åı·":6172,"ä¾Ľæ°´":6173,"è¢«æ£ĢæŁ¥":6174,"è¢«çĶ³è¯·äºº":6175,"æľįä»İ":6176,"ç»ıèĲ¥æ´»åĬ¨":6177,"çĽ´åĪ°":6178,"çľł":6179,"åĬŀåŃ¦":6180,"ä¸ĭåĪĹæĥħå½¢":6181,"æİ§èĤ¡":6182,"éħįå¥Ĺ":6183,"æķĳæ²»":6184,"åħ¬åħ±æľįåĬ¡":6185,"æ¯ıå¤©":6186,"æľªæĪĲå¹´åŃĲå¥³":6187,"ç¼´è´¹":6188,"éĶĢåĶ®èĢħ":6189,"åĲĪä¼Ļåįıè®®":6190,"çĶµåŃĲè®¤è¯ģ":6191,"é¢Ħéĺ²æľªæĪĲå¹´äºº":6192,"ions":6193,"ical":6194,"è´¦ç°¿":6195,"å®īåħ¨çĶŁäº§æ³ķ":6196,"è¡¨çİ°ä¸º":6197,"çĶ·å¥³":6198,"æĪĴä¸¥":6199,"åħ¨ä½ĵä¼ļè®®":6200,"éĨĴ":6201,"ult":6202,"åºĶå½ĵèĩªæĶ¶åĪ°":6203,"åŁºéĩĳæīĺç®¡äºº":6204,"ä¸Ĭå¸Ĥè®¸åı¯æĮģæľīäºº":6205,"ç»ĳæŀ¶":6206,"ä»İéĩįå¤Ħç½ļ":6207,"çĶļèĩ³":6208,"çĳľä¼½":6209,"AN":6210,"ike":6211,"Ġåħ¬æ°ĳ":6212,"ĺæī¬":6213,"æľĿ":6214,"äººæł¼":6215,"çī²":6216,"äºĮå¹´":6217,"åıĳéĢģ":6218,"çŃīå·¥ä½ľ":6219,"æł¹æį®ä»¥ä¸Ĭ":6220,"å·¥ä½ľéľĢè¦ģ":6221,"ä»¥ä¸ĭçļĦç½ļæ¬¾":6222,"åķĨæĬķèµĦ":6223,"æĬĢæľ¯çļĦ":6224,"ä¸ªäººçļĦ":6225,"åĨĽäººçļĦ":6226,"ä¾Ŀçħ§åĪĳæ³ķ":6227,"ä¹Łæľī":6228,"è¯īè®¼æĹ¶æķĪ":6229,"è´£ä»¤åģľä¸ļæķ´é¡¿":6230,"ä¸ŃåĽ½åħ¬æ°ĳ":6231,"æīĭæľ¯":6232,"æ²¡æľīè¿Ŀæ³ķæīĢå¾ĹæĪĸèĢħ":6233,"èĩ´äºº":6234,"çº¦å®ļä¸į":6235,"è¿Ļä¸ªéĹ®é¢ĺ":6236,"æħİ":6237,"èµĦæĸĻçļĦ":6238,"å¾ĭå¸ĪäºĭåĬ¡æīĢ":6239,"åĮºåŁŁåĨħ":6240,"åĽ½å®¶å®īåħ¨æľºåħ³":6241,"æīĵåĩ»":6242,"Ġ||":6243,"ä¸ĵåĪ©æĿĥ":6244,"ç»Łè®¡è°ĥæŁ¥":6245,"çħ¤çŁ¿":6246,"2022":6247,"è¯ļä¿¡":6248,"çªģåĩºè´¡çĮ®":6249,"åīįæıĲä¸ĭ":6250,"å¢ĥå¤ĸéĿŀæĶ¿åºľç»Ħç»ĩ":6251,"Jo":6252,"lu":6253,"ĠG":6254,"ĠçĶ³è¯·":6255,"çļĦè´¹çĶ¨":6256,"çļĦæķħäºĭ":6257,"æĿ°":6258,"ä¿Ĺ":6259,"æĪĸèĢħæľī":6260,"åľ¨æŃ¤":6261,"åºĶå½ĵä»¥":6262,"å¼ĺæī¬":6263,"åľ°åĪ¶":6264,"å¤§å°ı":6265,"åĮºåĴĮ":6266,"å·¥ä½ľä¸»ç®¡éĥ¨éĹ¨":6267,"è¿Ŀè§Ħ":6268,"æĶ¶åıĹ":6269,"æıĲä¾ĽèĻļåģĩ":6270,"æĮīçħ§åĽ½å®¶è§Ħå®ļ":6271,"æľįçİ°å½¹":6272,"çĤĴ":6273,"è¯ģåĪ¸çĻ»è®°":6274,"åħĪè¡Į":6275,"èĻ«":6276,"èµĦæºĲçļĦ":6277,"æĦŁè§ī":6278,"åĪĽæĦı":6279,"åı¦ä¸Ģ":6280,"æļĹ":6281,"æĸĩä»¶åĴĮ":6282,"è¾ĥå¤§çļĦ":6283,"ç¦»å©ļåĲİ":6284,"æĬĹè¯ī":6285,"æĬļæģ¤":6286,"åŁİä¹¡å»ºè®¾":6287,"éĢĲæ¸Ĳ":6288,"èĭ¥å¹²":6289,"ĠåĽ½å®¶é¼ĵåĬ±åĴĮæĶ¯æĮģ":6290,"è¡Ģæ¶²":6291,"åĨĴéĻ©":6292,"æ°ĶåĢĻåıĺåĮĸ":6293,"è°ĭåıĸ":6294,"åıĳèµ·äºº":6295,"æľīéĻĲè´£ä»»åħ¬åı¸":6296,"è¡¥æķĳæİªæĸ½":6297,"ä¸įåı¯æĬĹåĬĽ":6298,"Tom":6299,"ies":6300,"åĴĮåĪ©çĽĬ":6301,"åĽ½çķĮ":6302,"åºĶæĶ¶":6303,"æĪĸèĢħéĩįå¤§":6304,"ç»ıåħ¸":6305,"åĩºçĶŁ":6306,"çī©æĿĥ":6307,"æ±°":6308,"èĤĸ":6309,"æŁ¥çľĭ":6310,"åĬłå¤§":6311,"æĹ¥åīį":6312,"ç¤¾ä¼ļä¿Ŀéļľ":6313,"æĤ¬":6314,"ä¿¡æģ¯ç³»ç»Ł":6315,"ç»ıèĲ¥è®¸åı¯è¯ģ":6316,"åģ¥èº«":6317,"è¿ĺæ¬¾":6318,"åĨľä¸ļçĶŁäº§":6319,"åħ±åĲĮæµ·æįŁ":6320,"ä¸ĩåħĥä»¥ä¸ĬäºĮçĻ¾":6321,"å·¥ç¨ĭå»ºè®¾":6322,"ç¬¬åħ«åįģä¹ĿæĿ¡":6323,"å»ºçŃĳå·¥ç¨ĭ":6324,"æ³¨åĨĮåķĨæłĩ":6325,"æ·±åħ¥":6326,"è´¦æ¬¾":6327,"æī§æ³ķæľºæŀĦ":6328,"åĲĬéĶĢèĲ¥ä¸ļæī§çħ§":6329,"é¾Ļ":6330,"è¡ĮæĶ¿å¤įè®®æľºåħ³":6331,"æĢİä¹ĪåĬŀ":6332,"è¿Ŀåıįæ²»å®īç®¡çĲĨè¡Įä¸ºçļĦ":6333,"ä¸ªæĢ§åĮĸ":6334,"èĤ¡ä»½æľīéĻĲåħ¬åı¸":6335,"æ·ĺæ±°":6336,"åľ°åĪ¶å®ľ":6337,"Ġå¤ĸåĽ½":6338,"Ġus":6339,"çļĦçĽĳçĿ£ç®¡çĲĨ":6340,"ç¬ĳ":6341,"æľīä¸Ģä¸ª":6342,"å°¼":6343,"å°ĺ":6344,"ä¿Ŀåį«":6345,"æı½":6346,"å¹¶äºĪä»¥":6347,"èĩªæĶ¶åĪ°":6348,"çħ®":6349,"è¡¨æ¼Ķ":6350,"åĽłåľ°åĪ¶å®ľ":6351,"å®¡å®ļ":6352,"çİ°è±¡":6353,"éĿ¢å¯¹":6354,"è´ŁåĢº":6355,"ä¸įå¾ĹæĭĴç»Ŀ":6356,"çĽ´èĩ³":6357,"åģ¿è¿ĺ":6358,"åĨ³å®ļä¹¦":6359,"ä¸Ģä¸ªæľĪ":6360,"åı£å¤´":6361,"ç»ĻäºĪè¡¨å½°":6362,"æıĲåĩºæĦıè§ģ":6363,"åıĳçĶŁæ³ķå¾ĭæķĪåĬĽ":6364,"èĩªæ²»æľºåħ³":6365,"é£İéĻ©ç®¡æİ§":6366,"ç¾İé£Ł":6367,"all":6368,"å®¡æŁ¥åĴĮ":6369,"é¢Ħéĺ²æİ¥ç§į":6370,"æĻ®éģį":6371,"åı°æ¹¾":6372,"ç¬¬åħ«åįģäºĶæĿ¡":6373,"äººåºĶå½ĵåľ¨":6374,"è½»çļĦ":6375,"æľŁè´§ç»ıèĲ¥":6376,"æī¿è¿ĲäººçļĦ":6377,"è¡Ķæİ¥":6378,"ç¨İæĶ¶ä¼ĺæĥł":6379,"æ²¡æľīè¿Ŀæ³ķæīĢå¾ĹæĪĸèĢħè¿Ŀæ³ķæīĢå¾Ĺä¸įè¶³":6380,"14":6381,"çĴ":6382,"Ġle":6383,"ä¸¢":6384,"ãĢĤ\\":6385,"ä¸įæĪĲçļĦ":6386,"æīĢç»Ļ":6387,"çĶ±åĽ½å®¶":6388,"å·¥ä½ľåĴĮ":6389,"æľªåıĬæĹ¶":6390,"åĨħå¹ķ":6391,"é«ĺåº¦":6392,"å¼ºè¿«":6393,"éĩĩåıĸæľīæķĪæİªæĸ½":6394,"èĢĮä¸įæĺ¯":6395,"æĶ¾åľ¨":6396,"ä¹Łä¼ļ":6397,"ç¬¦åĲĪæĿ¡ä»¶çļĦ":6398,"èĮĥåĽ´åĴĮ":6399,"èī²çļĦ":6400,"è®¾å¤ĩåĴĮ":6401,"ord":6402,"äºĭé¡¹çļĦ":6403,"è´§çī©è¿Ĳè¾ĵ":6404,"ä¹ĭæĹ¥èµ·ä¸īåįģæĹ¥åĨħ":6405,"è°ĥè§£ä¹¦":6406,"åŁºæľ¬åħ»èĢģä¿ĿéĻ©":6407,"ç®Ģæĺĵ":6408,"èĮĥåĽ´åĨħçļĦ":6409,"è®¤å®ļä¸º":6410,"æįĲèµłäºº":6411,"ç¼´çº³çļĦ":6412,"é£Łåĵģå®īåħ¨çĽĳçĿ£ç®¡çĲĨéĥ¨éĹ¨":6413,"å¾®çĶŁçī©":6414,"åłĨ":6415,"éĿ©åĳ½":6416,"ä¿¡çĶ¨åį¡":6417,"äº¤éĢļè¿Ĳè¾ĵä¸»ç®¡éĥ¨éĹ¨":6418,"ç¤¾åĮºçŁ«æŃ£å¯¹è±¡":6419,"è¾ŀèģĮ":6420,"åĬŀäºĭå¤Ħ":6421,"å·¥åķĨè¡ĮæĶ¿ç®¡çĲĨéĥ¨éĹ¨":6422,"æ°ĳåĬŀåŃ¦æł¡":6423,"çŁ¥æĤīçļĦ":6424,"åľŁåľ°åĪ©çĶ¨æĢ»ä½ĵè§ĦåĪĴ":6425,"å®łçī©":6426,"Ø§":6427,"Ġ*":6428,"ĠN":6429,"Ġk":6430,"äº®":6431,"çļĦé£Łåĵģ":6432,"åĴĮäººæ°ĳ":6433,"æľīåºı":6434,"æĪĸèĢħæĹłæľŁå¾ĴåĪĳ":6435,"æĪĸèĢħåıĺçĽ¸":6436,"ä¸įè¿ĩ":6437,"å¯¹è¢«":6438,"æĿĥå±ŀ":6439,"ï¼ļ-":6440,"ç®¡çĲĨåĬŀæ³ķ":6441,"æŀĦçŃĳ":6442,"åĪĨè£Ĥ":6443,"è¯·ç»Ļåĩº":6444,"åĮºåĪ«":6445,"å·¥ä½ľæĹ¶éĹ´":6446,"ç¬¬ä¸īæ¬¾":6447,"éľĢè¦ģçļĦ":6448,"ä¿¡æģ¯åħ±äº«":6449,"å½ĵäºĭäººå¯¹":6450,"å±ħæīĢ":6451,"çłĶåıĳ":6452,"è¯ŃçļĦ":6453,"åį³ä½¿":6454,"ä¸¤ç§į":6455,"åĢºæĿĥåĢºåĬ¡":6456,"æīĢæľīåĪ¶":6457,"ç¬¬åħ«åįģåħŃæĿ¡":6458,"æ¶Īè´¹èĢħæĿĥçĽĬ":6459,"ä¼łæŁĵçĹħéĺ²æ²»":6460,"ĠĠĠĠĠĠ":6461,"éĢĥéģ¿":6462,"è·Łè¸ª":6463,"åı¯æĮģç»Ńåıĳå±ķ":6464,"ç²¾ç¥ŀéļľç¢įæĤ£èĢħ":6465,"è¡ĹéģĵåĬŀäºĭå¤Ħ":6466,"åĲĪéĢĤçļĦ":6467,"å¡ĳæĸĻ":6468,"éĿŀæ³ķäººç»Ħç»ĩ":6469,"23":6470,"ap":6471,"low":6472,"åĹ":6473,"Ġ20":6474,"å®ĩ":6475,"æľīåģ¿":6476,"åı¯ä»¥éĢīæĭ©":6477,"åĬ¨æĢģ":6478,"ç®¡çĲĨæľºåħ³":6479,"è¡¨éĿ¢":6480,"åĢĭ":6481,"ä¿¡ä»°":6482,"ç¤¾ä¼ļç§©åºı":6483,"çķªèĮĦ":6484,"éĻ¤éĿŀ":6485,"æĹłåģ¿":6486,"åľ°æĸ¹æĢ§æ³ķè§Ħ":6487,"æĢ»çĲĨ":6488,"æĸ¹å¼ıåĴĮ":6489,"éĵħ":6490,"è®©æĪĳ":6491,"åĴĮåħ¶ä»ĸæľīåħ³éĥ¨éĹ¨":6492,"å½ķåĥı":6493,"æ°Ķä½ĵ":6494,"åŁ¹èĤ²":6495,"é¼ĵåĬ±åĴĮæĶ¯æĮģ":6496,"ç»´æĬ¤èĩªå·±çļĦ":6497,"æĺ¯æĮĩåľ¨":6498,"åºĶçĶ¨äºİ":6499,"çº¿è·¯":6500,"Ġpr":6501,"è¿½ç©¶æ³ķå¾ĭè´£ä»»":6502,"åĵªä¸ª":6503,"èģĮä¸ļçĹħéĺ²æĬ¤":6504,"è¿ĶåĽŀ":6505,"ä¾µæĿĥè¡Įä¸º":6506,"éĺ³åħī":6507,"äº¤éĢļè¿Ĳè¾ĵå·¥åħ·":6508,"åĬ³åĬ¨äºīè®®ä»²è£ģå§Ķåĳĺä¼ļ":6509,"ä¼ļè®¡å¸ĪäºĭåĬ¡æīĢ":6510,"çıįè´µ":6511,"å¿ĹæĦ¿èĢħ":6512,"åºŁå¼ĥçī©":6513,"åħ¬èģĮäººåĳĺ":6514,"é©³åĽŀ":6515,"çļĦæī§è¡Į":6516,"ãĢģâĢľ":6517,"å¹¸":6518,"äºĮçº§":6519,"çŃīé¢ĨåŁŁ":6520,"ä¸»äºº":6521,"æīĢè°ĵ":6522,"ç®¡çĲĨæ³ķ":6523,"éĢļèĪª":6524,"å§Ĩ":6525,"éĩįä¼¤":6526,"å¤ĸåķĨæĬķèµĦ":6527,"åıĹä¼¤":6528,"éĶ»":6529,"åıįåŀĦæĸŃ":6530,"ä¼ģä¸ļçł´äº§":6531,"ä¸įå¾ĹåĲĳ":6532,"æĮĩç¤º":6533,"åĲĦä¸ª":6534,"æĹłåħ³":6535,"è´¢äº§å®īåħ¨":6536,"è¿ĺåºĶå½ĵ":6537,"éªĮè¯ģ":6538,"æ¶ĪèĢĹ":6539,"ä¿Ŀéļľæİªæĸ½":6540,"æ±¡æŁĵçī©çļĦ":6541,"ç§ģäºº":6542,"ä¿Ŀè¯ģéĩĳ":6543,"ä¾Ŀæį®æľ¬æ³ķ":6544,"èĳĹåĲįçļĦ":6545,"çŁ¥éģĵæĪĸèĢħ":6546,"éī´å®ļäºº":6547,"åķĨä¸ļéĵ¶è¡Įæ³ķ":6548,"è®¢ç«ĭçļĦ":6549,"åŃ¦åīįæķĻèĤ²":6550,"åĪĨæĶ¯æľºæŀĦ":6551,"çĶµåŃĲåķĨåĬ¡å¹³åı°ç»ıèĲ¥èĢħ":6552,"åŃĺç»ŃæľŁéĹ´":6553,"26":6554,"bers":6555,"Ġen":6556,"çļĦæĿ¡ä»¶":6557,"ï¼ĮâĢľ":6558,"è´¥":6559,"çĽĪ":6560,"è§Ħå¾ĭ":6561,"åºĶå½ĵéĢļè¿ĩ":6562,"èµı":6563,"æĮ¯":6564,"ä¸Ĭçº§äººæ°ĳæĶ¿åºľ":6565,"åıĳè¡¨":6566,"æ±Ľ":6567,"å¤§åĪ©":6568,"çĽ¸ä¿¡":6569,"ä¿¡ä»»":6570,"ç»Ļä½ł":6571,"ç¬¬ä¸Ģå®¡":6572,"éĻĲäºİ":6573,"åķĨæ£Ģ":6574,"ä¿¡æģ¯åĴĮ":6575,"æĶ¾åħ¥":6576,"è®¾æĸ½åĴĮ":6577,"éĢłæĪĲä»ĸäºº":6578,"åĪ¶åº¦åĴĮ":6579,"éĢĢåĩº":6580,"æĸĩåĮĸåĴĮ":6581,"æĺ¯åĲ¦ç¬¦åĲĪ":6582,"äºĭæķħéļĲæĤ£":6583,"ç¢°":6584,"å£°éŁ³":6585,"ç§ĳåŃ¦æĬĢæľ¯çłĶç©¶å¼Ģåıĳ":6586,"åĲ¸æ¯Ĵ":6587,"ç¼ºéĻ·":6588,"æĹłæķĪçļĦ":6589,"ç§Łèµģçī©":6590,"æģ¶æĦı":6591,"äººæ°ĳè°ĥè§£å§Ķåĳĺä¼ļ":6592,"æ°¸ä¹ħæĢ§":6593,"ä¸ĩåħĥä»¥ä¸Ĭä¸ĢçĻ¾ä¸ĩåħĥä»¥ä¸ĭçļĦç½ļæ¬¾":6594,"é¢Ħéĺ²æľªæĪĲå¹´äººçĬ¯ç½ª":6595,"John":6596,"éĶ»çĤ¼":6597,"oc":6598,"put":6599,"é½":6600,"Ġè¡ĮæĶ¿æľºåħ³":6601,"çļĦæĢ»":6602,"çļĦæľŁéĻĲ":6603,"çļĦè´§çī©":6604,"æ³ķæĿ¡":6605,"å¼Ł":6606,"å¯¹åľ¨":6607,"åľ°å½¹":6608,"èĥŀ":6609,"å¹¶æ²¡æľī":6610,"è¾£":6611,"å®ŀçĶ¨":6612,"å§Ĳ":6613,"ä¸İä»ĸäºº":6614,"æıĲä¾Ľæľīåħ³":6615,"æĽ´åĩĨç¡®":6616,"éĽĨä¼ļ":6617,"ä¿®çĲĨ":6618,"åıĬåħ¶å¸¸åĬ¡å§Ķåĳĺä¼ļ":6619,"æ¡Īä»¶ä¸Ń":6620,"Ġsh":6621,"æ¸¸è¡Į":6622,"æŀĦæĪĲè¿Ŀåıįæ²»å®īç®¡çĲĨè¡Įä¸ºçļĦ":6623,"æ¤įè¢«":6624,"ç®Ģç§°":6625,"æľīä¸ĭåĪĹæĥħå½¢ä¹ĭä¸Ģ":6626,"åĽ½æľīèµĦäº§":6627,"åĲ¸æĶ¶":6628,"å¯¹æĸ¹å½ĵäºĭäºº":6629,"åľŁåľ°æī¿åĮħç»ıèĲ¥æĿĥ":6630,"ä½ıæīĢåľ°":6631,"ä¹¡éķĩäººæ°ĳæĶ¿åºľ":6632,"é©»å¤ĸå¤ĸäº¤":6633,"ä¾Ŀçħ§åīįæ¬¾çļĦè§Ħå®ļå¤Ħç½ļ":6634,"åı¦æľīçº¦å®ļçļĦéĻ¤å¤ĸ":6635,"çŁ¥éģĵæĪĸèĢħåºĶå½ĵçŁ¥éģĵ":6636,"Ġä½¿çĶ¨":6637,"ï¼ħ":6638,"çļĦäººæ°ĳæĶ¿åºľ":6639,"çļĦä¿ĿæĬ¤":6640,"çļĦç»ĵæŀľ":6641,"åĴĮå®ŀæĸ½":6642,"åĴĮç¨ĭåºı":6643,"æĪĸèĢħéĥ¨åĪĨ":6644,"æĪĸèĢħåĩıè½»":6645,"åľ¨åħ¶":6646,"ä¸įåħ·æľī":6647,"åŃ¤":6648,"ï¼ļ```":6649,"å®ŀçī©":6650,"ä½ĵçİ°":6651,"éĢļéģĵ":6652,"å¥ĭ":6653,"æľªä¾Ŀæ³ķ":6654,"ç½ªè¡Į":6655,"çĬ¬":6656,"åĽ½åĬ¡éĻ¢æľŁè´§çĽĳçĿ£ç®¡çĲĨæľºæŀĦ":6657,"æĦıå¤ĸ":6658,"ç¡®éľĢ":6659,"åķĬ":6660,"åİŁåŃĲ":6661,"ä¸įå¾Ĺå¯¹":6662,"è´¨æĬ¼":6663,"ä¸ĵèģĮ":6664,"é¢ĦæĬ¥":6665,"ä¿ĿéĻ©éĩĳ":6666,"åı£åĳ³":6667,"è¯Ħå®¡":6668,"æľīæĿĥæĭĴç»Ŀ":6669,"èİī":6670,"éĩįå¤§æįŁå¤±çļĦ":6671,"è¶ħåĩº":6672,"è¶³ä»¥":6673,"ç¾İåĳ³":6674,"ä¹ĭæĹ¥èµ·è®¡ç®Ĺ":6675,"äº§çĶŁäºĨ":6676,"ç¬¬äºĮçĻ¾ä¹Ŀåįģ":6677,"åĨĽäºĭç¦ģ":6678,"æĸĩä»¶çļĦ":6679,"æľªæĪĲå¹´äººä¿ĿæĬ¤æ³ķ":6680,"ç»¼åĲĪåĪ©çĶ¨":6681,"ä¸ĸçºª":6682,"æ²ĻåĮĸ":6683,"çļĦåħ·ä½ĵç½ªåĲį":6684,"åį°ç«ł":6685,"2018":6686,"æĭĸå»¶":6687,"æ¯ķä¸ļ":6688,"åįļçī©":6689,"åŁºéĩĳä»½é¢ĿæĮģæľīäººå¤§ä¼ļ":6690,"åĳ¼åĲ¸":6691,"æ°ĳäºĭæ³ķå¾ĭè¡Įä¸º":6692,"17":6693,"Bob":6694,"ĠO":6695,"çļĦä¸ªäºº":6696,"å®ģ":6697,"ä¸Ģå¹´åĨħ":6698,"åľ¨è¯¥":6699,"åºĶå½ĵä¸¥æł¼":6700,"çĶŁåŃĺ":6701,"åħ¬è¯ī":6702,"ï¼īï¼ļ":6703,"çŃīä¸»ç®¡éĥ¨éĹ¨":6704,"æĹ¶ä»£":6705,"ç®¡çĲĨå·¥ä½ľ":6706,"å®ŀè´¨":6707,"çĽĳå¤ĸ":6708,"åŃ¦ä¼ļ":6709,"ä»¥ä¸ĭæĺ¯ä¸Ģ":6710,"æ¶µ":6711,"çĶ³è¯·åĲİ":6712,"è¿ĿåıįåĽ½å®¶è§Ħå®ļ":6713,"èĢĮä¸į":6714,"åĬ³åĬ¨æĬ¥éħ¬":6715,"è´£ä»¤åģľäº§":6716,"è®¸åı¯çļĦ":6717,"å½ķéŁ³":6718,"æĹ¶éĹ´åĨħ":6719,"ç¤ºå¨ģ":6720,"æŀĦæĪĲçĬ¯ç½ª":6721,"ä»»ä½ķç»Ħç»ĩæĪĸèĢħä¸ªäºº":6722,"è¶ħè¶Ĭ":6723,"åıªæĺ¯":6724,"Ġma":6725,"å°½éĩı":6726,"åı¯ä»¥å¸®åĬ©ä½ł":6727,"èģĺè¯·":6728,"æī§ä¸ļè¯ģä¹¦":6729,"æĲľæŁ¥":6730,"é¡¾éĹ®":6731,"è¯·æł¹æį®æīĢç»Ļ":6732,"æľ¬ç«łè§Ħå®ļ":6733,"è¢«è¯·æ±Ĥå¼ķæ¸¡":6734,"éĻĨåľ°åĽ½çķĮ":6735,"æĬķä¿Ŀäºº":6736,"ç¤¾ä¼ļä¿ĿéĻ©ç»ıåĬŀæľºæŀĦ":6737,"è¯·æł¹æį®æīĢç»ĻçļĦåħ·ä½ĵç½ªåĲį":6738,"Ġäººæ°ĳæ£Ģå¯ŁéĻ¢":6739,"çļĦåħ¬åı¸":6740,"éĢ»":6741,"åħ³èģĶ":6742,"æĪĸèĢħæ²¡æĶ¶è´¢äº§":6743,"å·Ŀ":6744,"åºĶå½ĵè¿Ľè¡Į":6745,"åĩºæĿ¥":6746,"çŃīæľįåĬ¡":6747,"è¿ĩåº¦":6748,"æĪĳåľ¨":6749,"è¿Ľè¡ĮäºĨ":6750,"æĶ¶èĹı":6751,"è¿Ļæĺ¯ä¸Ģä¸ª":6752,"æľ¬æ³ķè§Ħå®ļ":6753,"åĽ½åĬ¡éĻ¢éĵ¶è¡Įä¸ļçĽĳçĿ£ç®¡çĲĨæľºæŀĦ":6754,"ä»£è¡¨åĽ¢":6755,"éĽ·":6756,"æ°´åĪ©":6757,"æĻĤ":6758,"ç»ıèĲ¥ä¼ģä¸ļ":6759,"èĬĤæ°´":6760,"åĨĽçĶ¨":6761,"æĹłæ°ĳäºĭè¡Įä¸ºèĥ½åĬĽ":6762,"âĢĶ":6763,"ç¨İçļĦ":6764,"å±¥è¡ĮçļĦ":6765,"ine":6766,"åı£æĦŁ":6767,"é£ŁçĶ¨":6768,"åı¯èĥ½æĺ¯":6769,"å¥³èģĮå·¥":6770,"è°ĥæŁ¥å¤ĦçĲĨ":6771,"çŃ¾è¯ģ":6772,"æ»¡åįģ":6773,"éĩįå¤§äºĭé¡¹":6774,"åĲĪçĲĨåĪ©çĶ¨":6775,"æī¿åĮħæĸ¹":6776,"èµĦéĩĳçļĦ":6777,"ç¬¬åħ«åįģä¸ĥæĿ¡":6778,"æŀģç«¯":6779,"åĲ¬è¯ģ":6780,"ç¦»å©ļæĹ¶":6781,"æ³¨åĨĮä¼ļè®¡å¸Ī":6782,"æ£ĢéªĮæľºæŀĦ":6783,"çĸĳä¼¼":6784,"æ·±åĪ»":6785,"ä¾Ŀæ³ķç»ĻäºĪè¡ĮæĶ¿å¤ĦåĪĨ":6786,"ç¤¾ä¼ļä¿ĿéĻ©è´¹":6787,"è¢«åĪ¤åĪĳ":6788,"çİ¯å¢ĥå½±åĵįæĬ¥åĳĬ":6789,"åħŃä¸ªæľĪåĨħ":6790,"èģĮä¸ļçĹħéĺ²æ²»æ³ķ":6791,"å·¨å¤§æĪĸèĢħæľīåħ¶ä»ĸ":6792,"è¦ĨçĽĸ":6793,"èĪĴéĢĤ":6794,"çĬ¯åīįæ¬¾ç½ªçļĦ":6795,"åįļçī©é¦Ĩ":6796,"ere":6797,"Ġè®¾ç«ĭ":6798,"çļĦç¨ĭåºı":6799,"æľīçĿĢ":6800,"æľīçī¹æ®Ĭ":6801,"ä¸įåħ·å¤ĩ":6802,"ä¸įè®¾åĮºçļĦå¸Ĥ":6803,"ä¸įåĲĪæł¼çļĦ":6804,"åı¯ä»¥ä»İ":6805,"åı¯ä»¥åĨ³å®ļ":6806,"æıĲåĲį":6807,"è¾¨":6808,"éĩįçļĦ":6809,"èĤ¤":6810,"è®®ç¨ĭ":6811,"ä½¿é¦Ĩ":6812,"æĬ¥å¤į":6813,"ä¸»ç®¡æľºæŀĦ":6814,"è§Ħå®ļçļĦè¡Įä¸º":6815,"å¼ºè°ĥ":6816,"æķĻèĤ²æķĻåŃ¦":6817,"æĹłçº¿":6818,"åĽŀå¤į":6819,"æĻºèĥ½å®¶å±ħ":6820,"å¸®åĬ©æĤ¨":6821,"ç§»æ°ĳ":6822,"æĿĲæĸĻçļĦ":6823,"å®ŀéĻħéľĢè¦ģ":6824,"ç¬¬åħ«åįģåħ«æĿ¡":6825,"éĽĨä½ĵæīĢæľīçļĦ":6826,"é¦ĸæ¬¡":6827,"çľŁæŃ£":6828,"ich":6829,"æ³ķäººåĴĮåħ¶ä»ĸç»Ħç»ĩ":6830,"ä¸¤ä¸ªä»¥ä¸Ĭ":6831,"çİ¯å¢ĥä¿ĿæĬ¤ä¸»ç®¡éĥ¨éĹ¨":6832,"å®¢æĪ·çļĦ":6833,"ime":6834,"èĭ±æĸĩ":6835,"æī©å»º":6836,"åı¤ä»£":6837,"è°ĪåĪ¤":6838,"ress":6839,"æĹ¥ç¬¬åįģä¸īå±Ĭåħ¨åĽ½äººæ°ĳä»£è¡¨å¤§ä¼ļå¸¸åĬ¡å§Ķåĳĺä¼ļ":6840,"åľ¨åĮ»çĸĹé¢ĨåŁŁ":6841,"å¤«å¦»åħ±åĲĮè´¢äº§":6842,"æĶ»åĩ»":6843,"è¯¦ç»ĨçļĦæİ¨çĲĨè¿ĩç¨ĭ":6844,"åī§æ¯ĴåĮĸåŃ¦åĵģ":6845,"31":6846,"are":6847,"Ġç»ıèĲ¥èĢħ":6848,"çĶ¨å·¥":6849,"æĪĸèĢħåı¯èĥ½":6850,"æĪĸèĢħæĴ¤éĶĢ":6851,"ä¸įéĶĻ":6852,"ä¸įå®ľ":6853,"åºĶå½ĵä¼ĺåħĪ":6854,"ä¿Ŀå®Ī":6855,"å¹¶ä¸º":6856,"å¹¶ç»ı":6857,"æľªä½ľ":6858,"ç»Ħç»ĩç¼ĸåĪ¶":6859,"åľºåľ°":6860,"çĶµæĸĩ":6861,"éĢīé¡¹":6862,"å½¢è±¡":6863,"é¢Ĩæµ·":6864,"è®¾æĸ½å»ºè®¾":6865,"ä¸ĭåĪĹæİªæĸ½":6866,"æĥħèĬĤä¸¥éĩį":6867,"å§ĶæīĺçļĦ":6868,"Ġfrom":6869,"æī£éĻ¤":6870,"ç¬¬ä¹Ŀåįģä¸ĢæĿ¡":6871,"å®¡åĪ¤äººåĳĺ":6872,"ç¤¾ä¼ļä¿ĿéĻ©åŁºéĩĳ":6873,"ach":6874,"èģĶç³»æľºåħ³":6875,"ä¸Ĭä¸Ģçº§äººæ°ĳæĶ¿åºľ":6876,"å¿ĥçĲĨåģ¥åº·":6877,"æ³ķæ²»å®£ä¼łæķĻèĤ²":6878,"å®ŀéªĮå®¤":6879,"ä¹ĭåĲİåĨį":6880,"éŃĶ":6881,"è¿Ŀæ³ķæīĢå¾Ĺä¸ĢåĢįä»¥ä¸ĬäºĶ":6882,"åºĶæĶ¶è´¦æ¬¾":6883,"ire":6884,"çļĦçĽĳçĿ£":6885,"çļĦè´¨éĩı":6886,"çļĦçī©åĵģ":6887,"åįģæĹ¥åĨħ":6888,"ä¸įçŁ¥éģĵ":6889,"åħ¬ç§¯":6890,"åı¯ä»¥å§Ķæīĺ":6891,"èĩªä¿¡":6892,"åŃ¦ç§ĳ":6893,"è°İ":6894,"ä¾Ŀæ³ķåºĶå½ĵ":6895,"æłĩæĺİ":6896,"éĺ²å¾¡":6897,"ä¼ģä¸ļäºĭä¸ļ":6898,"ä¾Ŀçħ§æľīåħ³":6899,"è®¤çľŁ":6900,"æ³ķè§ĦåĴĮ":6901,"æĢģåº¦":6902,"ä¸ŃåĽ½çļĦ":6903,"å®¢æľį":6904,"å¼ķåıĳ":6905,"æķ°æį®å®īåħ¨":6906,"æķ°æį®çĶµæĸĩ":6907,"ated":6908,"èĩªçĦ¶ä¿ĿæĬ¤":6909,"è¡ĮæĶ¿æ³ķè§ĦåĴĮ":6910,"ç¬¬äºĮçĻ¾åħ«åįģ":6911,"æĺ¯ä¸Ģéĥ¨":6912,"åıĮæĸ¹å½ĵäºĭäºº":6913,"å¤ĦäºĶæĹ¥ä»¥ä¸Ĭ":6914,"æĺİç¡®è§Ħå®ļ":6915,"äºīè®®çļĦ":6916,"Ġequ":6917,"çķľçī§":6918,"ç»Ļåĩºåħ¶":6919,"æ¬¢è¿İ":6920,"æľºåĬ¨è½¦é©¾é©¶":6921,"æļĤäºĪ":6922,"åĲĦèĩªèģĮè´£èĮĥåĽ´åĨħ":6923,"æĬ½æŁ¥":6924,"ä¸ĩåħĥä»¥ä¸Ĭåįģä¸ĩåħĥä»¥ä¸ĭç½ļæ¬¾":6925,"è½¬æį¢ä¸º":6926,"æ®´æīĵ":6927,"éĩįæķ´è®¡åĪĴèįīæ¡Ī":6928,"å³°":6929,"print":6930,"èĤĸåĥı":6931,"à¤":6932,"çļĦç¤¾ä¼ļ":6933,"çļĦå°ı":6934,"åºĦ":6935,"åı¯è¡Į":6936,"åħ¬çº¦":6937,"æŁĶ":6938,"æ±ī":6939,"å»ī":6940,"èģĮä½į":6941,"åıĸè¯ģ":6942,"é¡µ":6943,"äº¤çĶ±":6944,"åįķä½įåĴĮ":6945,"æĦıå¤§åĪ©":6946,"éĩĩçŁ¿":6947,"åķĨå®¶":6948,"åİŁåĪ¤åĨ³":6949,"æķĳçģ¾":6950,"è¿½æº¯":6951,"æīĢå¾ĹçļĦ":6952,"èĭ¦":6953,"ç§°ä¸º":6954,"ä»²è£ģåįıè®®":6955,"æĦŁæĥħ":6956,"æĺ¯åĲ¦éľĢè¦ģ":6957,"åŃĹæ¯į":6958,"å®ĺæĸ¹":6959,"ä»»ä½ķç»Ħç»ĩåĴĮä¸ªäºº":6960,"orm":6961,"äººå·¥æĻºèĥ½çļĦ":6962,"éģĹå¼ĥ":6963,"è¶³é¢Ŀ":6964,"è¯Ħä¼°æľºæŀĦ":6965,"ç¬¬äºĮçĻ¾åĽĽåįģ":6966,"åĲ¬èµ·æĿ¥":6967,"æĮĩå¯¼åĴĮ":6968,"éļıæľº":6969,"æĢĿç»´":6970,"åĪĨæŀĲåĴĮ":6971,"å½ĵåľ°äººæ°ĳæĶ¿åºľ":6972,"èĳ£äºĭéķ¿":6973,"è¿ŀæİ¥":6974,"äººèº«å®īåħ¨":6975,"åĩĨç¡®æĢ§":6976,"ä¸ŃåĽ½äººæ°ĳæŃ¦è£ħèŃ¦å¯Łéĥ¨éĺŁ":6977,"åĭĺæİ¢":6978,"ç¿»è¯ĳæĪĲ":6979,"èĲ¥åĪ©æĢ§":6980,"éĻªå®¡":6981,"äººåĬĽèµĦæºĲ":6982,"æĹłå®³åĮĸ":6983,"è¯·ç»Ļåĩºè¯¦ç»ĨçļĦæİ¨çĲĨè¿ĩç¨ĭ":6984,"ä¹ĭåĲİåĨįç»ĻåĩºçŃĶæ¡Ī":6985,"è¯·ç»Ļåĩºè¯¦ç»ĨçļĦæİ¨çĲĨè¿ĩç¨ĭä¹ĭåĲİåĨįç»ĻåĩºçŃĶæ¡Ī":6986,"Python":6987,"age":6988,"his":6989,"ia":6990,"python":6991,"ĠåŃ¦æł¡":6992,"Ġqu":6993,"åĴĮè°":6994,"æ°Ľ":6995,"åºĶæł¹æį®":6996,"æİī":6997,"æľ¬éĥ¨éĹ¨":6998,"å¹¶æľª":6999,"å¦Ī":7000,"ä¸İè¯¥":7001,"å¿ĺ":7002,"æī¿åıĹ":7003,"æī¿éĶĢ":7004,"è°ĥåº¦":7005,"è°ĥèĬĤ":7006,"ä¸įå¾Ĺå°ĳäºİ":7007,"åĲĦéĥ¨éĹ¨":7008,"ç±ĥ":7009,"æĸ°åĵģç§į":7010,"è¦ģæ±Ĥåħ¶":7011,"æľĢéĩįè¦ģçļĦ":7012,"ä»¤äºº":7013,"æĻºæħ":7014,"çľģçº§":7015,"èİĵ":7016,"åĲĪæ³ķçļĦ":7017,"åħ±åĲĮä½ĵ":7018,"åľºæīĢçļĦ":7019,"åģĩè®¾":7020,"ç»Łä¸Ģé¢Ĩå¯¼":7021,"ç¬¬ä¹ĿåįģæĿ¡":7022,"åī¯ä¸»å¸Ń":7023,"ç»ŁçŃ¹åįıè°ĥ":7024,"å¸¦æĿ¥äºĨ":7025,"åĩºåħ·çļĦ":7026,"ä¸ĩåħĥä»¥ä¸ĬäºĶåįģä¸ĩåħĥä»¥ä¸ĭç½ļæ¬¾":7027,"èĴľ":7028,"æľīå®³çī©è´¨":7029,"åħ¬å¼ĢåĭŁéĽĨåŁºéĩĳçļĦ":7030,"çĭ¬çī¹çļĦ":7031,"æĪĸèĢħéĩĩåıĸåħ¶ä»ĸ":7032,"æľŁè´§ç»ıèĲ¥æľºæŀĦ":7033,"æļĤäºĪçĽĳå¤ĸ":7034,"æĻºæħ§":7035,"ib":7036,"à®":7037,"ĠÃ":7038,"çļĦå®ŀæĸ½":7039,"æĹĭ":7040,"åºĶå½ĵå®ļæľŁ":7041,"èµĮ":7042,"å¸Ĳ":7043,"åı¯ä»¥è®©":7044,"åı¯ä»¥çĶ¨äºİ":7045,"æľ¬ä¹¦":7046,"çŃīåĨħå®¹":7047,"çİĽ":7048,"å¹¶æĬ¥":7049,"å¤§éĻĨ":7050,"èĪį":7051,"æĪĳå°Ĩ":7052,"åĮĸå·¥":7053,"ç§įè´¨":7054,"ä»£è¡¨æľºæŀĦ":7055,"çĶµèĦĳ":7056,"ind":7057,"è¯īè®¼è¯·æ±Ĥ":7058,"æĸ¹å¼ıçļĦ":7059,"é¡»ç»ı":7060,"åį±éĻ©çī©åĵģ":7061,"åĲĪçĲĨæľŁéĻĲåĨħ":7062,"çĪ¶äº²":7063,"çļĦåħ¶ä»ĸæĥħå½¢":7064,"è®¸åı¯è¯ģä»¶":7065,"å½Ĵå±ŀ":7066,"åĪĨéħįæĸ¹æ¡Ī":7067,"æģ¢å¤įåİŁçĬ¶":7068,"åĴ¨è¯¢ä¸ĵä¸ļ":7069,"çĶ²åħ¬åı¸":7070,"éĢļæĬ¥æī¹è¯Ħ":7071,"ç±»åŀĭçļĦ":7072,"è¯ļå®ŀ":7073,"ç»ıå¸¸å±ħæīĢ":7074,"ä¸Ģæ®µå¯¹è¯Ŀ":7075,"åıĤåĬłçļĦåĽ½éĻħæĿ¡çº¦":7076,"æĥħèĬĤè¾ĥè½»çļĦ":7077,"ç®Ģæĺĵç¨ĭåºı":7078,"99":7079,"ç·":7080,"çļĦæķĻèĤ²":7081,"çĶľ":7082,"åĴĮä¸į":7083,"åĮĢ":7084,"æĪĸèĢħçĶ±":7085,"æĪĸèĢħéĿŀæ³ķ":7086,"å¼¥":7087,"èĥ¡":7088,"çŃīæ³ķå¾ĭ":7089,"å®ŀæĹ¶":7090,"åĪĨåĮħ":7091,"æ´¥":7092,"æī¿æı½":7093,"ä¹ĭæĹ¥":7094,"æ²»æ²Ļ":7095,"éĩĩä¼Ĳ":7096,"æĽ´æŃ£":7097,"çĽ¸åħ³è§Ħå®ļ":7098,"æĢ»çļĦ":7099,"ĠåĽ½å®¶æľºåħ³":7100,"ä¼ļè®®çļĦ":7101,"one":7102,"ç¾ģ":7103,"åıĳçĶŁäºĨ":7104,"èģĮä¸ļæĬĢèĥ½":7105,"è£ħé¥°":7106,"ä»²è£ģè£ģåĨ³":7107,"æĦŁåıĹ":7108,"äº¤æĺĵçļĦ":7109,"ç»´æĬ¤åĽ½å®¶":7110,"é¥¼":7111,"é¦ĸè¦ģ":7112,"åŁ¹è®ŃåĴĮ":7113,"æĬµè§¦":7114,"Ġme":7115,"éĿŀå¸¸éĩįè¦ģçļĦ":7116,"å¦ĩå¥³èģĶåĲĪä¼ļ":7117,"entence":7118,"æİ¢è®¨":7119,"æµ·æ´ĭçİ¯å¢ĥ":7120,"èº«ä½ĵåģ¥åº·":7121,"èĭ±è¯Ń":7122,"ç¨³å®ļçļĦ":7123,"åĲĳäººæ°ĳæ³ķéĻ¢èµ·è¯ī":7124,"è´¿èµĤ":7125,"è§Ĵèī²ä¿¡æģ¯":7126,"èĸĦ":7127,"æĦıæĢĿè¡¨ç¤º":7128,"å¸¸è§ģçļĦ":7129,"çĿ¡çľł":7130,"ä¼ģä¸ļçł´äº§æ³ķ":7131,"):":7132,"com":7133,"ie":7134,"ile":7135,"ºçī²":7136,"Ġç»ı":7137,"Ġè¢«":7138,"å®«":7139,"è¡į":7140,"æľīä¸Ģ":7141,"ä¼ļæľŁéĹ´":7142,"æĪĸèĢħåĲĳ":7143,"åºĶå½ĵæıĲä¾Ľ":7144,"çº½":7145,"èµĸ":7146,"çīŁ":7147,"çīºçī²":7148,"åħ¬å¼ı":7149,"åıĳçĶµ":7150,"æıĲåĪ°":7151,"æıĲåŃĺ":7152,"å¹¶ç¡®ä¿Ŀ":7153,"è¿Ľå±ķ":7154,"æĬ¥è¡¨":7155,"åĪ°åľº":7156,"è¿ĻæĦıåĳ³çĿĢ":7157,"éĺ²æ±Ľ":7158,"æĿ¥èĩª":7159,"ä¸ĵæ³¨":7160,"çĹĽ":7161,"èī¾":7162,"è·³":7163,"æĺĵçĩĥ":7164,"è¯īè®¼ä»£çĲĨäºº":7165,"ç½ĳä¿¡":7166,"é©±":7167,"æ¯ıå±Ĭ":7168,"ang":7169,"å¹¶å¤Ħåįģ":7170,"çº¿ç´¢":7171,"éĤ£äºĽ":7172,"åĪ¤åĨ³ä¹¦":7173,"æĿİåħĪçĶŁ":7174,"Ġint":7175,"æ¶īåıĬåĪ°":7176,"å»¶æľŁ":7177,"ä¼ĺåħĪçº§":7178,"éĢŁåº¦":7179,"çİ©å®¶":7180,"urn":7181,"è§Ħç«łåĪ¶åº¦":7182,"æĥ©ç½ļ":7183,"æĺİçŁ¥æĺ¯":7184,"é¥²åħ»":7185,"Alice":7186,"æĮģç¥¨äºº":7187,"äºı":7188,"æĹ¦":7189,"æķĮ":7190,"ä¸įåĪ©":7191,"å°º":7192,"æĭĵ":7193,"æľ¬èº«":7194,"æıĲåįķ":7195,"è¯ģè¨Ģ":7196,"æīĢéĻĦ":7197,"çº§åĪ«":7198,"è¿Ŀçºª":7199,"æĶ¶ä¹°":7200,"æģĭ":7201,"æ£Ĵ":7202,"åĬĽåº¦":7203,"éľĢè¦ģæł¹æį®":7204,"éľĢè¦ģè¿Ľè¡Į":7205,"è¿Ĳä½ľ":7206,"åīįå¾Ģ":7207,"åĪĹåĩº":7208,"äººçļĦåĲĪæ³ķæĿĥçĽĬ":7209,"çĤİ":7210,"çĽĳçĿ£ç®¡çĲĨçļĦéĥ¨éĹ¨":7211,"æµģéĢļ":7212,"åĶ¤":7213,"æĻºèĥ½åĮĸ":7214,"è£ħä¿®":7215,"ç¤ºèĮĥ":7216,"çĶŁæ´»åŀĥåľ¾":7217,"å¼ĢåıĳåĴĮ":7218,"è®¡åĪĴçĶŁèĤ²":7219,"æĪĺæĹ¶":7220,"è®¤ä¸ºæĺ¯":7221,"æ¼ł":7222,"å¹²éĥ¨":7223,"åı·çłģ":7224,"å½Ĵè¿ĺ":7225,"éķĩçļĦäººæ°ĳä»£è¡¨å¤§ä¼ļ":7226,"ç¿Ĵ":7227,"row":7228,"çļĦåħ·ä½ĵåĬŀæ³ķ":7229,"é«ĺçº§äººæ°ĳæ³ķéĻ¢":7230,"çĶ·æĸ¹":7231,"Ġthis":7232,"è¡¨åĨ³æĿĥ":7233,"çİ°åľºæ£ĢæŁ¥":7234,"åŃ¦ä½įæİĪäºĪ":7235,"å¤§éĩıçļĦ":7236,"èĴ¸":7237,"æł¸è®¾æĸ½èĲ¥è¿Ĳ":7238,"æĪªçķĻ":7239,"æĲŃéħį":7240,"ä¾Ŀçħ§åĪĳæ³ķæľīåħ³è§Ħå®ļ":7241,"éĵħç¬Ķ":7242,"yp":7243,"à±":7244,"éŀ":7245,"Ġäººæ°ĳ":7246,"çļĦèĥ½åĬĽ":7247,"äººä¸İ":7248,"å®ļä»·":7249,"ä¸įå°ĳäºİ":7250,"æıĲè®®":7251,"å¹¶ä¸İ":7252,"å¹¶è¿Ľè¡Į":7253,"æ±¤":7254,"çĶ±æľīåħ³ä¸»ç®¡éĥ¨éĹ¨":7255,"å¥¥":7256,"æ¡Ĩ":7257,"äº¤æį¢":7258,"æ¡Īä¾ĭ":7259,"è¿ĲéĢģ":7260,"ä¸ĵåįĸ":7261,"è§Ħå®ļçļĦæĿĥéĻĲ":7262,"æĹłäºº":7263,"ä½Ĩåľ¨":7264,"å½¢çĬ¶":7265,"åıĳå±ķåĴĮ":7266,"Ġad":7267,"æī¿æĭħçĽ¸åºĶçļĦ":7268,"éĵº":7269,"æİ¨éĢī":7270,"æķ´çĲĨ":7271,"å¾ģå¾Ĺ":7272,"æĪ¿åŃĲ":7273,"æŀĦæĪĲæľ¬ç½ª":7274,"åºŁæŃ¢":7275,"å±ħæ°ĳèº«ä»½è¯ģ":7276,"çĽĳæµĭåĴĮ":7277,"å»ºçŃĳæĸ½å·¥":7278,"æĮģæľīçļĦ":7279,"å¼łä¸ī":7280,"çĶŁæĢģçİ¯å¢ĥä¿ĿæĬ¤":7281,"å®¡åĪ¤åĳĺ":7282,"çłģå¤´":7283,"èĦļ":7284,"ç¬¬ä¸ĢåįĥäºĮçĻ¾":7285,"çł´äº§è´¢äº§":7286,"æĹłéļľç¢įè®¾æĸ½":7287,"åįĥåħĥä»¥ä¸ĬäºĶ":7288,"å¤ļæł·æĢ§":7289,"ç£ģ":7290,"åħ¬åħ±æĸĩåĮĸæľįåĬ¡":7291,"ä¼¦çĲĨ":7292,"ç¥ŀç»ıç½ĳç»ľ":7293,"è¿ħéĢŁ":7294,"ä¸ĩåħĥä»¥ä¸ĬäºĮçĻ¾ä¸ĩåħĥä»¥ä¸ĭçļĦç½ļæ¬¾":7295,"éĻªå®¡åĳĺ":7296,"ç¾ģæĬ¼":7297,"ip":7298,"Ġj":7299,"Ġä¼ģä¸ļ":7300,"Ġä¸ĭåĪĹ":7301,"çļĦæĥħæĦŁ":7302,"åĴĮæī§è¡Į":7303,"åľ¨æľªæĿ¥":7304,"èµĭ":7305,"äºĭå®ľ":7306,"ä¸ºçĶ±":7307,"ä¸ŃçŃī":7308,"èĥ½éĩı":7309,"åĲĮå±ħ":7310,"åĽ½å®¶åıĳå±ķè§ĦåĪĴ":7311,"åĬłå¿«":7312,"æķ°çļĦ":7313,"æĥħåĨµè¿Ľè¡Į":7314,"åĲįè¯į":7315,"æľįåĬ¡åĴĮ":7316,"çİ¯èĬĤ":7317,"è§Ħå®ļçļĦç¨ĭåºı":7318,"å¼ºåĮĸ":7319,"å¦Ĥæŀľä¸Ģä¸ª":7320,"çĹħäºº":7321,"åıĺéĩı":7322,"è¯Ħè®º":7323,"æıĲåĩºä¹¦éĿ¢":7324,"æķ´æ²»":7325,"ç©ºä¸Ń":7326,"è®¾å¤ĩçļĦ":7327,"ise":7328,"ç¼´ç¨İæ¬¾":7329,"ç¼ĸéĢł":7330,"ç¾İå¥½":7331,"çº¢èī²":7332,"æĤ£æľī":7333,"æıĲèµ·è¡ĮæĶ¿è¯īè®¼":7334,"æ³¨åĨĮçļĦ":7335,"è¡Įä½¿èģĮæĿĥ":7336,"çĶŁäº§ç»ıèĲ¥æ´»åĬ¨":7337,"ç¬¬ä¹Ŀåįģä¸īæĿ¡":7338,"ç¬¬ä¹ĿåįģåĽĽæĿ¡":7339,"å¤ĩæ¡ĪçļĦ":7340,"çıł":7341,"åį±éĻ©åĮĸåŃ¦åĵģçļĦ":7342,"ä½ľä¸ļçļĦ":7343,"éĺ»æĮ":7344,"çľŁå®ŀæĢ§":7345,"å¯¹å¤ĸèģĶç³»æľºåħ³":7346,"å»ºè®¾é¡¹çĽ®çļĦ":7347,"çĻ¾åĪĨä¹ĭäºĶåįģ":7348,"ç¥¨æį®æ³ķ":7349,"åłĤ":7350,"æľŁè´§äº¤æĺĵåľºæīĢ":7351,"ä½ıå®¿":7352,"äººåĳĺåĴĮçĽ´æİ¥è´£ä»»äººåĳĺ":7353,"å¹¿æĴŃçĶµè§Ĩ":7354,"æ¢¦æĥ³":7355,"å¤Ħåįģå¹´ä»¥ä¸ĬæľīæľŁå¾ĴåĪĳæĪĸèĢħæĹłæľŁå¾ĴåĪĳ":7356,"æķıæĦŁ":7357,"çĽĳè§Ĩå±ħä½ı":7358,"éĢ»è¾ĳ":7359,"è°İæĬ¥":7360,"æĢ»çļĦæĿ¥è¯´":7361,"é¦ĸè¦ģåĪĨåŃĲ":7362,").":7363,"..":7364,"13":7365,"60":7366,"ag":7367,"ff":7368,"ial":7369,"turn":7370,"ĊĠ":7371,"ĠåĲĳ":7372,"çļĦäºĭå®ŀ":7373,"ãĢĤ(":7374,"åĳĪ":7375,"åĩī":7376,"åľ¨æī§è¡Į":7377,"ä¸įåĪ°":7378,"å¯¹æľīåħ³":7379,"å±ı":7380,"éĥ¨ä»¶":7381,"æľ¬åįķä½įçļĦ":7382,"ï¼ļãĢĲ":7383,"åĵ¥":7384,"éĩįè§Ĩ":7385,"è¡¨æł¼":7386,"æł¹æį®æľ¬æ³ķ":7387,"å¤ĸè§Ĥ":7388,"è°·":7389,"ä¾Ŀæ³ķå¤ĦçĲĨ":7390,"ç»Ħç»ĩæĪĸèĢħ":7391,"è¿Ļæ®µ":7392,"ä¸įå¾Ĺæĵħèĩª":7393,"éķ¿åº¦":7394,"ä¿ĿéĻ©æłĩçļĦ":7395,"è´Łè´£çī¹ç§įè®¾å¤ĩå®īåħ¨":7396,"æĺĵåĪ¶":7397,"åİ¿çº§ä»¥ä¸Ĭåľ°æĸ¹åĲĦçº§äººæ°ĳæĶ¿åºľ":7398,"çĽĳçĿ£ç®¡çĲĨå·¥ä½ľ":7399,"æķĳæµİ":7400,"åĶ±":7401,"ç»´æĿĥ":7402,"åħ¬å®īéĥ¨éĹ¨":7403,"çłĶç©¶åĴĮ":7404,"ç¼ĸç¨ĭ":7405,"ç¬¬äºĮçĻ¾ä¸ĥåįģ":7406,"æľīæķĪåľ°":7407,"å±ŀäºİåĽ½å®¶":7408,"ç»ĦæĪĲéĥ¨åĪĨ":7409,"ç´¢åıĸ":7410,"æ¶Īè´¹èĢħåįıä¼ļ":7411,"ç¬¬ä¹ĿåįģäºĮæĿ¡":7412,"æħĪåĸĦæ³ķ":7413,"æĻ¯çĤ¹":7414,"å±Ĥæ¬¡":7415,"ç»¼åĲĪèĢĥèĻĳ":7416,"éĩįçĤ¹ä¿ĿæĬ¤":7417,"imp":7418,"å·¥ä¸ļä¼ģä¸ļ":7419,"çŁ³æ²¹":7420,"çĶµåŃĲåķĨåĬ¡ç»ıèĲ¥èĢħ":7421,"çĻ¾åĪĨä¹ĭäºĶ":7422,"åŁºå±Ĥäººæ°ĳæ³ķéĻ¢":7423,"ç§ĳæĬĢæĪĲæŀľè½¬åĮĸ":7424,"ç»ĵæĿŁåĲİ":7425,"æ´¥è´´":7426,"éŀĭ":7427,"è´Łè´£çī¹ç§įè®¾å¤ĩå®īåħ¨çĽĳçĿ£ç®¡çĲĨçļĦéĥ¨éĹ¨":7428,"£å·¥":7429,"½è°":7430,"ĠçĶŁäº§":7431,"ĠçĽĳçĿ£ç®¡çĲĨ":7432,"ĠåĪ¶å®ļ":7433,"ķçĸ":7434,"è¯½è°":7435,"æľīæľº":7436,"ä¹İ":7437,"åĽ½åºĵ":7438,"åħ³å¿ĥ":7439,"ä¾§":7440,"éĹ²":7441,"ç«£å·¥":7442,"åı¯ä»¥èĢĥèĻĳ":7443,"ï¼ļ(":7444,"æĪĲå°±":7445,"åĬ¨æľº":7446,"æ±ł":7447,"çĽĳçĲĨ":7448,"æĬ¤çĲĨ":7449,"æ³ķå¾ĭçļĦ":7450,"æĦī":7451,"äººåĳĺåºĶå½ĵ":7452,"åĮºåĪĨ":7453,"äº¤äºĴ":7454,"æĶ¶ç¼´":7455,"ä»¥ä¸ĭåĩłä¸ª":7456,"æİ¥ç®¡":7457,"å°Ĩè¢«":7458,"ç¬¬ä¸Ģæ¬¡":7459,"åŁºæľ¬æ³ķ":7460,"è°ĥæİ§":7461,"ä¿ĿæĬ¤çİ¯å¢ĥ":7462,"å§Ķåĳĺä¼ļçļĦ":7463,"å°ıåŀĭ":7464,"ç¬¬äºĶèĬĤ":7465,"çĬ¯ç½ªåĪĨåŃĲ":7466,"è¿Ŀæ³ķç»ıèĲ¥":7467,"å±¥è¡Įä¸ĭåĪĹ":7468,"åħ»æĬ¤":7469,"åĸĿ":7470,"éĢłæĪĲäºĨ":7471,"æĴĴ":7472,"åľŁåľ°ä½¿çĶ¨":7473,"åĸĦæĦı":7474,"åĩıçģ¾":7475,"æĸĩåĮĸçļĦ":7476,"äº¤æĺĵèĢħ":7477,"äºĭæķħåıĳçĶŁ":7478,"ance":7479,"éĢļçŁ¥ä¹¦":7480,"é¥Ń":7481,"Ġpre":7482,"åħħè¶³":7483,"å®ĮæĪĲä»»åĬ¡":7484,"çļĦæĿĥåĪ©åĴĮä¹īåĬ¡":7485,"çĽ®æłĩåĴĮ":7486,"çī¹æ®ĬæķĻèĤ²":7487,"ä½ĵç³»å»ºè®¾":7488,"æ¾³éĹ¨é©»åĨĽ":7489,"äººèº«èĩªçĶ±":7490,"æĺŁæľŁ":7491,"å²¸çº¿":7492,"çĳķçĸ":7493,"ä»ĵåįķ":7494,"Ġprov":7495,"å®ŀéĻħæİ§åĪ¶äºº":7496,"æĹłçº¿çĶµ":7497,"åħ¬ç§¯éĩĳ":7498,"è¯½è°¤":7499,"çĳķçĸµ":7500,"ost":7501,"è¹":7502,"Ġæľī":7503,"ç»ķ":7504,"ä¼Ł":7505,"æľīéĩįå¤§":7506,"åºĶåľ¨":7507,"ä¸įè´Ł":7508,"ä¸īçº§":7509,"å®ŀä½ĵ":7510,"éĩįå»º":7511,"ä¸İæľ¬æ¡Ī":7512,"å®īåħ¨éļĲæĤ£":7513,"æłĩé¢ĺ":7514,"è¢«ä¾Ŀæ³ķ":7515,"æ°´çļĦ":7516,"çĶŁäº§å®īåħ¨äºĭæķħ":7517,"ä¸įå¾Ĺæĭħä»»":7518,"çļĦè§Ħå®ļå®ļç½ªå¤Ħç½ļ":7519,"éĩĩåıĸå¿ħè¦ģçļĦ":7520,"è®¤å®ļçļĦ":7521,"æ»ĭ":7522,"è¿½ç´¢":7523,"çĶŁæĢģä¿®å¤į":7524,"åģľçķĻ":7525,"ä»²è£ģæ³ķ":7526,"è¯ģæį®çļĦ":7527,"éĻĦå±ŀ":7528,"Ġpl":7529,"çķĮéĻĲ":7530,"å°±ä¸ļçļĦ":7531,"ast":7532,"å°½åĬĽ":7533,"å¢ĥå¤ĸçļĦ":7534,"ä¸ªäººä¿¡æģ¯çļĦ":7535,"ä¸ĬçļĦä¾¿åĪ©":7536,"åĲĪä¼Ļä¼ģä¸ļæ³ķ":7537,"ä¿Ŀç®¡äºº":7538,"2009":7539,"æ³ķå¾ĭæı´åĬ©æľºæŀĦ":7540,"çļĦä¸Ģéĥ¨åĪĨ":7541,"ä¸°å¯ĮçļĦ":7542,"å»ºè®¾çĶ¨åľ°ä½¿çĶ¨æĿĥ":7543,"å¤ªéĺ³èĥ½":7544,"ä¸ºåħ¶æıĲä¾Ľ":7545,"æ°ĳæĹıèĩªæ²»åľ°æĸ¹çļĦèĩªæ²»æľºåħ³":7546,"å§Ķåĳĺéķ¿ä¼ļè®®":7547,"çĦ¦èĻĳ":7548,"å·¦åı³":7549,"ä¸ªäººä¿¡æģ¯å¤ĦçĲĨèĢħ":7550,"æŀĦçŃĳçī©":7551,"ç·´":7552,"ä¾Ŀçħ§åĪĳæ³ķæľīåħ³è§Ħå®ļè¿½ç©¶åĪĳäºĭè´£ä»»":7553,"\",":7554,"uc":7555,"ust":7556,"èĿ":7557,"ĠJ":7558,"çļĦåĪ©çĽĬ":7559,"å®ļä½į":7560,"ä¸Ģå¹¶":7561,"æĪĸèĢħåĽł":7562,"åľ¨å¤ĦçĲĨ":7563,"åľ¨åĲĦèĩªèģĮè´£èĮĥåĽ´åĨħ":7564,"åħ¬å¾·":7565,"ä½ľçī©":7566,"æŃī":7567,"å®¶éķ¿":7568,"æľ¬ç¤¾":7569,"çī©é¡¹":7570,"çī©æµģ":7571,"åĲĮæł·":7572,"åĽ½å®¶æĶ¯æĮģ":7573,"æľīåħ³æĥħåĨµ":7574,"æŁ¥æī¾":7575,"è°±":7576,"çĻ¾åħĥ":7577,"è´£ä»»äºº":7578,"è´£ä»»åĪ¶":7579,"æĹ¥ç¬¬ä¹Ŀ":7580,"ä¸įå¾ĹæįŁå®³":7581,"èĢĮæĺ¯":7582,"åħ¨åĽ½æĢ§":7583,"ä¸ŃåĽ½çī¹èī²":7584,"æ²¡æľīçº¦å®ļæĪĸèĢħ":7585,"åħįå¾ģ":7586,"åĭķ":7587,"åħ¬å®īéĥ¨":7588,"éĻĦä»¶":7589,"éĽĨä½ĵæīĢæľī":7590,"out":7591,"åĽ¾æ¡Ī":7592,"æ¨¡æĭŁ":7593,"åĽ½éĻħåĲĪä½ľ":7594,"æ¢¯":7595,"ä¸ªäººä¿¡æģ¯ä¿ĿæĬ¤":7596,"ä¾µçĬ¯çļĦ":7597,"ä¼ĳåģĩ":7598,"Ġres":7599,"ä¸Ĭçº§æľºåħ³":7600,"ç¤¾åĮºçŁ«æŃ£æľºæŀĦ":7601,"Ġstr":7602,"ction":7603,"ement":7604,"åľ¨ä¸Ńåįİäººæ°ĳåħ±åĴĮåĽ½å¢ĥåĨħ":7605,"åħ¨æ°ĳæīĢæľīåĪ¶":7606,"ä¸Ńåįİæ°ĳæĹıåħ±åĲĮä½ĵ":7607,"ä¸ĩåħĥä»¥ä¸ĬäºĶçĻ¾":7608,"æł¹æį®çĽ¸åħ³æ³ķå¾ĭè§Ħå®ļ":7609,"çĥŁèįīä¸ĵåįĸ":7610,"åľ°çĲĨä¿¡æģ¯":7611,"éĩİçĶŁåĬ¨çī©ä¿ĿæĬ¤ä¸»ç®¡éĥ¨éĹ¨":7612,"åľ°å½¹æĿĥ":7613,"åĴĮè°Ĳ":7614,"Âł":7615,"ĠåķĨä¸ļéĵ¶è¡Į":7616,"ĠåĲĦçº§":7617,"åħ°":7618,"åĴĮæ²»çĸĹ":7619,"åĴĮæĮĳæĪĺ":7620,"æľīæĿ¡ä»¶çļĦ":7621,"ä¸ĢæĹ¦":7622,"åºĶçĶ±":7623,"æłĸ":7624,"æĪĸèĢħåĲĬéĶĢ":7625,"çī¢":7626,"æİ©":7627,"ä¸ĭä¸Ģ":7628,"çĶ±æµ·åħ³":7629,"åıĬçĽ¸åħ³":7630,"æ¡¥":7631,"æĹ¥ç¬¬åħ«":7632,"ä»¥ä¸ĭç®Ģç§°":7633,"è¿Ļåı¥è¯Ŀ":7634,"æıĲä¾Ľä¸ĢäºĽ":7635,"æıĲä¾Ľä¾¿åĪ©":7636,"æ°´ä½ĵ":7637,"æĤĶ":7638,"ç¬¬äºĶé¡¹":7639,"æľĢä½³":7640,"é¢ĨåľŁ":7641,"æī¹åĩĨæĪĸèĢħ":7642,"å¥³æĸ¹":7643,"èŃ¦è¡Ķ":7644,"erm":7645,"æĹ¶éĹ´çļĦ":7646,"æĹ¶éĹ´ç®¡çĲĨ":7647,"èĭı":7648,"åĢºåĬ¡æĪĸèĢħ":7649,"éĢĢä¼Ļ":7650,"å©ļåīį":7651,"è¯Ńæ³ķ":7652,"ä¸ĵä¸ļäººåĳĺ":7653,"æ°ĳäºĭä¸»ä½ĵ":7654,"å®ĺåĳĺ":7655,"åıĳçİ°çļĦ":7656,"åħ¬å®īæľºåħ³äº¤éĢļç®¡çĲĨéĥ¨éĹ¨":7657,"è¡Įä¸ļæłĩåĩĨ":7658,"åĽ½éĻħç»Ħç»ĩ":7659,"Ġde":7660,"å°½åı¯èĥ½":7661,"å°½å¿«":7662,"æĬ¢æķĳ":7663,"ä¸ĸçķĮä¸Ĭ":7664,"æ¿Ĵ":7665,"ä»İèĢĮæıĲé«ĺ":7666,"ä¹°åįĸåĲĪåĲĮ":7667,"éĹŃä¼ļæľŁéĹ´":7668,"åĲĳç¤¾ä¼ļåħ¬å¼Ģ":7669,"ä»ĺæ¬¾äºº":7670,"æĥ©æĪĴ":7671,"åĬ³åĬ¨äºīè®®è°ĥè§£":7672,"åĻªå£°æ±¡æŁĵéĺ²æ²»":7673,"åĬ¨æ¤įçī©æ£Ģçĸ«":7674,"æİĪæĿĥçļĦéĥ¨éĹ¨":7675,"æĽ¿ä»£":7676,"æĹ¥ç¬¬åįģä¸Ģå±Ĭåħ¨åĽ½äººæ°ĳä»£è¡¨å¤§ä¼ļå¸¸åĬ¡å§Ķåĳĺä¼ļç¬¬åįģ":7677,"300":7678,"AP":7679,"times":7680,"äººä¸º":7681,"åĴĮäºĭå®ŀ":7682,"åĽ½å¾½":7683,"æķ¬":7684,"ä¿Ŀåħ»":7685,"å¯¹åºĶ":7686,"å¯¹å¾ħ":7687,"åħ¬æ¬¾":7688,"äºĮäºº":7689,"ä¸ĬéĿ¢":7690,"æĭĮ":7691,"æľ¬åħ¬åı¸":7692,"æĥĬ":7693,"çĶ±æŃ¤":7694,"åıĸåĨ³":7695,"æĪĳåĢĳ":7696,"å§Ķä¼ļ":7697,"å®īåħ¨é£İéĻ©":7698,"æģĴ":7699,"è®¡ç¨İ":7700,"ç§įæĹı":7701,"éľĢè¦ģåľ¨":7702,"æıĲä¾ĽçĽ¸åħ³":7703,"é«ĺåħ´":7704,"åıįçĶµä¿¡ç½ĳç»ľè¯ĪéªĹ":7705,"æ°´äº§":7706,"åķĨçĶ¨":7707,"æĹłæĿĥ":7708,"å¤±è¸ª":7709,"å±¥è¡ĮåĩºèµĦäºº":7710,"å¹³æĸ¹":7711,"æī¿æĭħä¾µæĿĥè´£ä»»":7712,"æ»ĳ":7713,"åĮ»çĸĹä¿Ŀåģ¥":7714,"æĴĳ":7715,"ä¾µåħ¥":7716,"åģ¥åº·åĴĮ":7717,"è¯´æ³ķ":7718,"Ġso":7719,"èĪ¹èĪ¶æīĢæľīäºº":7720,"éĥ½ä¼ļ":7721,"å¿ħé¡»ç¬¦åĲĪ":7722,"åºĶè¯¥å¦Ĥä½ķ":7723,"å¤ĦäºĶå¹´ä»¥ä¸ĬæľīæľŁå¾ĴåĪĳ":7724,"å®īåħ¨çĶŁäº§çĽĳçĿ£ç®¡çĲĨèģĮè´£çļĦéĥ¨éĹ¨":7725,"åı¦æľīçº¦å®ļ":7726,"ä¼ĺåħĪæĿĥ":7727,"æ¯ģçģŃ":7728,"æ®ĭçĸ¾äººä¿Ŀéļľæ³ķ":7729,"è´Łæľīå®īåħ¨çĶŁäº§çĽĳçĿ£ç®¡çĲĨèģĮè´£çļĦéĥ¨éĹ¨":7730,"éĩİçĶŁåĬ¨çī©åıĬåħ¶":7731,"åħ³éĶ®ä¿¡æģ¯":7732,"å¯¹çĽ´æİ¥è´Łè´£çļĦä¸»ç®¡äººåĳĺåĴĮåħ¶ä»ĸçĽ´æİ¥è´£ä»»äººåĳĺç»ĻäºĪèŃ¦åĳĬ":7733,"ä¸įè¶³ä»¥":7734,"2015":7735,"2017":7736,"ç¼ĵè§£":7737,"çī¹çĤ¹åĴĮ":7738,"è¿ĩéĶĻçļĦ":7739,"åŃ£èĬĤ":7740,"åĽºä½ĵåºŁçī©æ±¡æŁĵçİ¯å¢ĥ":7741,"åĢĻéĢīäººçļĦ":7742,"çĵľ":7743,"åıįæ´ĹéĴ±è¡ĮæĶ¿ä¸»ç®¡éĥ¨éĹ¨":7744,"æķĻèĤ²åĴĮåŁ¹è®Ń":7745,"Ġnumber":7746,"è¯ŃéŁ³è¯ĨåĪ«":7747,"è²Į":7748,"çĪ±åĽ½ä¸»ä¹īæķĻèĤ²":7749,"ç§ĺä¹¦éķ¿":7750,"èļĢ":7751,"åŃĹç¬¦ä¸²":7752,"åĨĽäºĭç¦ģåĮº":7753,"åıĸåĨ³äºİ":7754,"ail":7755,"cc":7756,"ks":7757,"rt":7758,"½åĬ¨":7759,"è³":7760,"Ġæµ·åħ³":7761,"ï¼į":7762,"çļĦå½ĵäºĭäºº":7763,"çļĦåħ¬æ°ĳ":7764,"çļĦåķĨåĵģ":7765,"æ³³":7766,"è´©":7767,"çĽ¾":7768,"æ°ĳéĹ´":7769,"åĩĿ":7770,"æĪĸèĢħä¸İ":7771,"æĪĸèĢħç»Ħç»ĩ":7772,"åºĶå½ĵä¾Ŀçħ§æ³ķå¾ĭ":7773,"å¼Ħ":7774,"èµŀ":7775,"åħ¬çĶ¨":7776,"åı¯ä»¥å»¶éķ¿":7777,"æĸ¹ç¨ĭ":7778,"çŃīå¾ħ":7779,"æ¬£":7780,"çİī":7781,"çħ½åĬ¨":7782,"è¯·ä½ł":7783,"å¥¸":7784,"é¡¶":7785,"åĨħå¿ĥ":7786,"å¤ĸæ±ĩ":7787,"åıĹå®³":7788,"å®īåħ¨æĢ§":7789,"ç¡¬":7790,"æĦıåĽ¾":7791,"ç§įçķľç¦½":7792,"åħ¬åı¸åľ¨":7793,"å°ıåŃ¦":7794,"æĿ¥ç¡®å®ļ":7795,"åİŁæľī":7796,"çĶµç½ĳ":7797,"ç¬¬åĽĽé¡¹":7798,"è´¨æĿĥ":7799,"åĲĦæ°ĳæĹı":7800,"æĽ´æĶ¹":7801,"éĢĤé¾Ħ":7802,"äººçļĦå§ĵåĲį":7803,"çļĦè§Ħå®ļæī§è¡Į":7804,"åĿ¡":7805,"çĤī":7806,"ä¿ĿéĻ©åĲĪåĲĮ":7807,"åĵįåºĶ":7808,"å°±åĮ»":7809,"è¯·æ±Ĥä¹¦":7810,"çĻ»è®°æľºæŀĦ":7811,"æķĳæĬ¤":7812,"åĻ¨æ¢°":7813,"èµĦæºĲä¿ĿæĬ¤":7814,"æ²¡æľīè§Ħå®ļçļĦ":7815,"ç¨ĭåºıçļĦ":7816,"âĢĿãĢģâĢľ":7817,"æ»¡æĦı":7818,"éĴ¢":7819,"åĢ¼å¾Ĺ":7820,"ä»»ä½ķåįķä½įæĪĸèĢħä¸ªäºº":7821,"ç¼ĸè¾ĳ":7822,"å¹¶å¤Ħä¸Ģ":7823,"éģĹå¤±":7824,"è¯ģæĺİæĿĲæĸĻ":7825,"ç¦ģæŃ¢åľ¨":7826,"çĶ±åĽ½åĬ¡éĻ¢è§Ħå®ļ":7827,"æī¿åĮħåľ°":7828,"çķĮåĪ«":7829,"åıĤä¸İäºº":7830,"ary":7831,"æ¬¡ä¼ļè®®ä¿®è®¢":7832,"ç¦»å©ļåįıè®®":7833,"é¦Ļæ¸¯é©»åĨĽ":7834,"èĻļæĭŁ":7835,"è´¢æĶ¿é¢Ħç®Ĺ":7836,"ç®Ģæ´ģ":7837,"ç¬¬ä¹ĿåįģäºĶæĿ¡":7838,"èģĮä¸ļçĹħè¯ĬæĸŃ":7839,"åī¯ä¸»ä»»":7840,"å¤«å¦»åıĮæĸ¹":7841,"åıĳè¡Įäºº":7842,"æļĤæĹ¶":7843,"oth":7844,"åı¬åĽŀ":7845,"èģĶåĲĪåĽ½":7846,"èģĶåĲĪç¤¾":7847,"åķĨæłĩæ³¨åĨĮ":7848,"å¤ļç§įå½¢å¼ı":7849,"åħ»èĢģæľºæŀĦ":7850,"éĤ®æĶ¿ç®¡çĲĨéĥ¨éĹ¨":7851,"çĽĹä¼Ĳ":7852,"é¡ºåĪ©":7853,"æŃ¦åĻ¨è£ħå¤ĩ":7854,"æĢĢåŃķ":7855,"çĮİæįķ":7856,"åĲ¯åĬ¨":7857,"æ©Ļ":7858,"æĶ¶è´§äºº":7859,"çĶµåŃĲè®¤è¯ģæľįåĬ¡æıĲä¾ĽèĢħ":7860,"è¯ģåĪ¸çĻ»è®°ç»ĵç®ĹæľºæŀĦ":7861,"å¼¥è¡¥":7862,"éĺ»æĮł":7863,"ox":7864,"ry":7865,"ĠAI":7866,"çļĦèµĦéĩĳ":7867,"çļĦä»·æł¼":7868,"å®Ļ":7869,"ä¸Ģæł·":7870,"åĽ½æŃĮ":7871,"æĪĸèĢħä¾Ŀæ³ķ":7872,"åľ¨æľ¬":7873,"èµİ":7874,"äººæ°ĳåĽ¢ä½ĵ":7875,"åı¯ä»¥è¢«":7876,"åĬ¨ä½ľ":7877,"åĬ¨åĬĽ":7878,"ç»ĦåĲĪ":7879,"äººåĳĺåľ¨":7880,"åĮºåĿĹ":7881,"æľªåľ¨":7882,"æĸĩçī©çļĦ":7883,"ä¾Ŀæ³ķæī¿æĭħæ°ĳäºĭè´£ä»»":7884,"æĬ¥æ¡Ī":7885,"çŁĽ":7886,"ç¬¬ä¸īæĸ¹":7887,"ç¬¬ä¸Ģä¸ª":7888,"éĩıåĪĳ":7889,"ç³ķ":7890,"çŁ¥æĥħ":7891,"éĩĩåıĸçļĦ":7892,"ä¸Ńåįİäººæ°ĳåħ±åĴĮåĽ½åĪĳæ³ķ":7893,"åı¯èĥ½éĢłæĪĲ":7894,"åĶĨ":7895,"ä¼ĺçĤ¹":7896,"æĿĥçĽĬçļĦ":7897,"å¼ķè¿Ľ":7898,"å¼ķè¯±":7899,"è´¨éĩıåĴĮ":7900,"çĶŁæ´»æĸ¹å¼ı":7901,"çĶŁæ´»ä¿Ŀéļľ":7902,"ä¸ĩåħĥä»¥ä¸Ĭä¸īåįģ":7903,"å®ŀéĻħæī¿è¿Ĳäºº":7904,"æĺ¯ä¸Ģä½į":7905,"è½½è¿Ĳ":7906,"åĲĮæĦıåĲİ":7907,"æľªç»ıè®¸åı¯":7908,"ä¸Ģæĸ¹å½ĵäºĭäºº":7909,"éĤ®å¯Ħ":7910,"å¦ĩå¥³æĿĥçĽĬä¿Ŀéļľæ³ķ":7911,"ç²¾ç¥ŀåį«çĶŁ":7912,"åŁİå¸ĤçļĦ":7913,"ç»¼åĲĪæ²»çĲĨ":7914,"åĿļæĮģä¸ŃåĽ½åħ±äº§åħļ":7915,"å¤«å¦»ä¸Ģæĸ¹":7916,"æ¼Ķç»ĥ":7917,"ç¬¬ä¸ĢçĻ¾éĽ¶ä¸ĢæĿ¡":7918,"å¾Ģå¾Ģ":7919,"æĬ¢éĻ©":7920,"ç¬¬ä¸īçĻ¾éĽ¶":7921,"åĨľæ°ĳä¸ĵä¸ļåĲĪä½ľç¤¾æ³ķ":7922,"æłĳç«ĭ":7923,"çªģåıĳäºĭä»¶åºĶå¯¹":7924,"ame":7925,"åģļåĩºçªģåĩºè´¡çĮ®":7926,"çªĥåıĸ":7927,"æľ¬çº§é¢Ħç®Ĺ":7928,"æľīè¶£çļĦ":7929,"è®¿éĹ®":7930,"åıĹéĽĩäºº":7931,"çŁ¿ä¸ļæĿĥ":7932,"åĽ½åľŁç©ºéĹ´è§ĦåĪĴ":7933,"ä¸¢å¤±":7934,"å®ĩå®Ļ":7935,"çķľçī§ä¸ļ":7936,"æłĸæģ¯":7937,"åķĨçĶ¨å¯Ĩçłģ":7938,"),":7939,"ĠéĻ¤":7940,"çļĦæľºåħ³":7941,"åħĦ":7942,"ãĢĤ\"":7943,"åĪĺ":7944,"æīĳ":7945,"ä¸Ģç«ł":7946,"åĩĮ":7947,"æĪĸèĢħçĽĸç«ł":7948,"åľ¨äºİ":7949,"åľ¨ä¸Ģä¸ª":7950,"ä¸įéĢĤçĶ¨":7951,"å°¤":7952,"å¯¹è´Łæľīè´£ä»»çļĦ":7953,"æĺ¯ä¸ŃåĽ½":7954,"ä¸ĭéĻį":7955,"èĩªè¯ī":7956,"çĶ±æľīåħ³":7957,"æ³ķå¾ĭåĴĮ":7958,"æľªä¾Ŀçħ§æľ¬æ³ķè§Ħå®ļ":7959,"è¿Ľè¡Įè¯Ħä¼°":7960,"åĲĳæ³ķéĻ¢":7961,"æĬ¥åħ³":7962,"å±ķè§Ī":7963,"ä»£è¡¨ä¼ļè®®":7964,"æĮīçħ§æľīåħ³è§Ħå®ļ":7965,"çī¹æĢ§":7966,"å°ıçļĦ":7967,"æĮĩæ´¾":7968,"å¼ºè¡Į":7969,"å¦Ĥæŀľå°ıæĺİ":7970,"å¤±åİ»":7971,"èīĺ":7972,"ä¸Ńåįİäººæ°ĳåħ±åĴĮåĽ½æ°ĳæ³ķåħ¸":7973,"åºıåĪĹ":7974,"å±¥è¡ĮåĲĪåĲĮ":7975,"Ġab":7976,"åı¯èĥ½çļĦ":7977,"ç»ĻäºĪå¤ĦåĪĨ":7978,"èµĶåģ¿éĩĳ":7979,"çĻ»è®°è¯ģä¹¦":7980,"åĮ»çĸĹè´¹çĶ¨":7981,"æ¸ħçĲĨ":7982,"çľģçº§ä»¥ä¸Ĭäººæ°ĳæĶ¿åºľ":7983,"æĥħèĬĤè½»":7984,"åı¦ä¸Ģä¸ª":7985,"è§Ĥä¼Ĺ":7986,"ition":7987,"æ¯įäº²":7988,"å¤Ħç½®æİªæĸ½":7989,"ç»ĦæĪĲçļĦ":7990,"çº³ç¨İæ¬¾":7991,"æĳ©":7992,"åĿĩåĮĢ":7993,"äººç±»çļĦ":7994,"é«ĺçº§ç®¡çĲĨ":7995,"è®¢ç«ĭåĲĪåĲĮ":7996,"ä¸Ĭçº§äººæ°ĳæ³ķéĻ¢":7997,"çŁŃè¯Ń":7998,"çķľç¦½éģĹä¼łèµĦæºĲ":7999,"æĥ©æ²»":8000,"çļĦäººæ°ĳä»£è¡¨å¤§ä¼ļå¸¸åĬ¡å§Ķåĳĺä¼ļ":8001,"____":8002,"å©´å¹¼åĦ¿":8003,"åĪ©çĶ¨èģĮåĬ¡ä¸ĬçļĦä¾¿åĪ©":8004,"å¸Ĥè¾ĸåĮº":8005,"ç¢°æĴŀ":8006,"é½Ĳ":8007,"æ¿Ĵåį±":8008,"çŁĽçĽ¾":8009,"èķ":8010,"ĠãĢĬ":8011,"ĠåĨĽå®ĺ":8012,"çļĦçİ¯å¢ĥ":8013,"çļĦæī¹åĩĨ":8014,"ãĢĤï¼Ī":8015,"åĴĮéĩįè¦ģ":8016,"åĴĮå¥ĸåĬ±":8017,"ä¸įåŃĺåľ¨":8018,"åºĶå½ĵéĩĩçĶ¨":8019,"å¯¹æľī":8020,"ç»ıçºª":8021,"ä¸ªå·¥ä½ľ":8022,"çī©çĲĨ":8023,"å¹¶æİ¥åıĹ":8024,"å¤§æķ°æį®":8025,"è¯·åĳĬè¯īæĪĳ":8026,"æ³ķå¾ĭè§Ħå®ļçļĦåħ¶ä»ĸ":8027,"è¡ĮæĶ¿è¯īè®¼æ³ķ":8028,"åıĹèµł":8029,"ä¾Ŀæ³ķå¼Ģå±ķ":8030,"ä¾Ŀæ³ķäºĪä»¥":8031,"æ¡Īæĥħ":8032,"ä¾Ľåħ»":8033,"è¢«æĭĲåįĸ":8034,"éĺ²æ²Ļ":8035,"éĽª":8036,"åŁºåĽł":8037,"åĨľçĶ¨åľ°":8038,"åİŁå®¡äººæ°ĳæ³ķéĻ¢":8039,"ä»İåħ¶è§Ħå®ļ":8040,"æķĪèĥ½":8041,"çĹħæ¯Ĵ":8042,"æĤ¨å¥½":8043,"èµĶåģ¿ä¹īåĬ¡":8044,"èŃ¦æĬ¥":8045,"åľŁåľ°ç»ıèĲ¥æĿĥ":8046,"è¿½ç¼´":8047,"çĶŁæĢģåĬŁèĥ½":8048,"å²©":8049,"èįīèİĵ":8050,"åĨħå®¹çļĦ":8051,"å¹¶å¤ĦäºĮ":8052,"ç»Īèº«":8053,"å±Ĭåħ¨åĽ½äººæ°ĳä»£è¡¨å¤§ä¼ļ":8054,"çŁ¿åĮº":8055,"äººåºĶå½ĵåĲĳ":8056,"ç³»ç»ŁçļĦ":8057,"åĽłä¸ºå®ĥ":8058,"åįıåķĨè§£åĨ³":8059,"é¦Ļæ¸¯çī¹åĪ«è¡ĮæĶ¿åĮºæĶ¿åºľ":8060,"æ¯ģåĿı":8061,"ç®¡è¾ĸæĿĥçļĦ":8062,"ç®¡åĪ¶æĪĸèĢħ":8063,"æĬµæĬ¼æĿĥäºº":8064,"èĤ¡ä»½çļĦ":8065,"èĩªåĬ¨é©¾é©¶":8066,"æĶ¾å°ĦæĢ§åºŁçī©":8067,"åĸľæ¬¢çļĦ":8068,"ä¼łç»ŁæĸĩåĮĸ":8069,"è¾ĵåħ¥çļĦ":8070,"æīĢéľĢè´¹çĶ¨çĶ±":8071,"è¾¾æĪĲåįıè®®":8072,"ç§ŁèµģåĲĪåĲĮ":8073,"ific":8074,"å®¶åºŃæķĻèĤ²æĮĩå¯¼":8075,"åĨľæĿĳåľŁåľ°æī¿åĮħç»ıèĲ¥":8076,"åĨľæĿĳåľŁåľ°æī¿åĮħä»²è£ģå§Ķåĳĺä¼ļ":8077,"åı¯ä»¥åĲĳäººæ°ĳæ³ķéĻ¢æıĲèµ·è¯īè®¼":8078,"åºĶçº³ç¨İé¢Ŀ":8079,"çº¦æĿŁåĬĽ":8080,"é¥®çĶ¨æ°´æ°´æºĲ":8081,"ä¸Ĭä¸ĭæĸĩ":8082,"åıįæģĲæĢĸä¸»ä¹īå·¥ä½ľ":8083,"åĨľä¸ļçĶŁäº§ç»ıèĲ¥ç»Ħç»ĩ":8084,"éĺ²æ²Ļæ²»æ²Ļ":8085,"çļĦåĲĪæ³ķ":8086,"çļĦä¸»é¢ĺ":8087,"è¡ĮæĿ¡ä¾ĭ":8088,"æĬ±":8089,"åºĶå½ĵå»ºç«ĭåģ¥åħ¨":8090,"å¯¹æīĢ":8091,"å±ł":8092,"æĺ¯ä¸ºäºĨ":8093,"ç»ıå®¡æŁ¥":8094,"å¤ĦäºĶåįģ":8095,"å¹¶éĢļçŁ¥":8096,"èĤĮ":8097,"å¿Ĩ":8098,"çĽ¸æĬµè§¦":8099,"è¢«ä¿ĿéĻ©":8100,"ãĢĭãĢĤ":8101,"èĲ¥éĢł":8102,"ä¼ģä¸ļæĪĸèĢħåħ¶ä»ĸ":8103,"æĹłéĻĲ":8104,"æľĢéķ¿":8105,"è´Łè´£ç®¡çĲĨ":8106,"è´Łè´£åħ¨åĽ½":8107,"åŃĺè´§":8108,"æĺĵçĪĨ":8109,"æĿĳåºĦ":8110,"æĢ»æĺ¯":8111,"æł¸å®ļ":8112,"æł¸äºĭæķħ":8113,"ç»ıæµİæįŁå¤±":8114,"åı¯èĥ½å¯¼èĩ´":8115,"æĿĥåĪ©ä¹īåĬ¡":8116,"è¯ģåĪ¸çļĦ":8117,"çģĮ":8118,"çĥ¹":8119,"åĩıåħį":8120,"æ¯ıæ¬¡":8121,"èĮĥåĽ´çļĦ":8122,"ç§ĳåŃ¦å®¶":8123,"åĬ¨çī©éĺ²çĸ«":8124,"è®¡ç®Ĺåįķä½į":8125,"èĩ³äºİ":8126,"ç¾İå¥½çļĦ":8127,"é¢ĨåŁŁåĨħ":8128,"éĽĨä½ĵåĲĪåĲĮ":8129,"è½¬è®©çļĦ":8130,"èµĶåģ¿è´£ä»»éĻĲåĪ¶":8131,"åºĶå½ĵåıĬæĹ¶éĢļçŁ¥":8132,"é¢Ĩå¯¼äººåĳĺåĴĮçĽ´æİ¥è´£ä»»äººåĳĺ":8133,"åĳ¨æľŁ":8134,"å¯¹åħ¶è¿Ľè¡Į":8135,"èº«ä»½ä¿¡æģ¯":8136,"ç®¡è¾ĸçļĦ":8137,"éī´å®ļæĦıè§ģ":8138,"ä¼ªéĢłçļĦ":8139,"iven":8140,"é»ĳç¤¾ä¼ļ":8141,"æ¸ħç®Ĺç»Ħ":8142,"èĥĮä¹¦":8143,"æ»¥ä¼Ĳ":8144,"éĿĴå°ĳå¹´":8145,"éĢĢå½¹åĨĽäººå·¥ä½ľä¸»ç®¡éĥ¨éĹ¨":8146,"æĵįä½ľè§Ħç¨ĭ":8147,"å®Įæķ´çļĦ":8148,"éĢłæĪĲçļĦæįŁå¤±":8149,"Ġyour":8150,"ä¸ĩåħĥä»¥ä¸ĬäºĶä¸ĩåħĥä»¥ä¸ĭçļĦç½ļæ¬¾":8151,"æ¯ıä¸ªäººéĥ½":8152,"èľĤ":8153,"åħ½åĮ»":8154,"é«ĺè´¨éĩıåıĳå±ķ":8155,"ä¼ģä¸ļäºĭä¸ļç»Ħç»ĩ":8156,"è¡įçĶŁ":8157,"äºıæįŁ":8158,"æ²¡æľīçº¦å®ļæĪĸèĢħçº¦å®ļä¸į":8159,"To":8160,"ne":8161,"nswer":8162,"ãĤ":8163,"Ġ[":8164,"Ġä¾Ŀæ³ķ":8165,"ä¸ģ":8166,"çļĦèģĮè´£":8167,"çļĦåĨ³è®®":8168,"äººçī©":8169,"åįĪ":8170,"åºĨ":8171,"åľĨ":8172,"åĴĮé£İéĻ©":8173,"åĴĮç²¾ç¥ŀ":8174,"æľīè´£ä»»":8175,"åįģåĢįä»¥ä¸ĭçļĦç½ļæ¬¾":8176,"çĽĽ":8177,"çĶ¨æĿ¥":8178,"æĪĸèĢħç»ĪæŃ¢":8179,"ä¸įæĺİ":8180,"äºĭåĲİ":8181,"ä¸ŃæĸŃ":8182,"åľ°éĿ¢":8183,"åħ¨ç¤¾ä¼ļ":8184,"åĲĮæŃ¥":8185,"èĩªè§ī":8186,"è®®åĳĺ":8187,"æĪĳå¾Ī":8188,"å¼Ģè®¾":8189,"å¼Ģåŀ¦":8190,"æĺİç¤º":8191,"ä¾Ŀæ³ķè¿Ľè¡Į":8192,"æĬ¥åºŁ":8193,"ä¹ĭå¤Ħ":8194,"ä»¥ä¸ĭåĩł":8195,"çī¹åĮº":8196,"åıįéĹ´è°į":8197,"è¯¥é¡¹":8198,"éĩıåŃĲ":8199,"åħ¥åŃ¦":8200,"çĶŁäº§çļĦ":8201,"åĲįåĨĮ":8202,"ä¿¡æģ¯æĬĢæľ¯":8203,"åĨĽå£«":8204,"å¦Ĥæŀľæĺ¯":8205,"ä¸Ńåįİäººæ°ĳåħ±åĴĮåĽ½ç¼Ķç»ĵæĪĸèĢħ":8206,"å®ŀæĸ½çĽĳçĿ£ç®¡çĲĨ":8207,"å±¥è¡Įä¹īåĬ¡":8208,"æĢ»åĲ¨":8209,"æł¸ç®Ĺ":8210,"ç»ĻäºĪå¥ĸåĬ±":8211,"åıĳçĶŁæķĪåĬĽ":8212,"åħ¬åħ±ç§©åºı":8213,"èģĮä¸ļåģ¥åº·":8214,"èģĮä¸ļéģĵå¾·":8215,"ä½ľåĩºå¤ĦçĲĨ":8216,"è¿½åĽŀ":8217,"ä»»ä½ķäºº":8218,"å¸ĤåľºçļĦ":8219,"äººå·¥æĻºèĥ½åľ¨":8220,"å¿ħé¡»ç»ı":8221,"é»ĺ":8222,"åľºæīĢåĴĮ":8223,"äºĴåĬ¨":8224,"å±ħæ°ĳæµ·å²Ľ":8225,"çĽĳæĬ¤äººåºĶå½ĵ":8226,"å¼ºåĪ¶ä»¤":8227,"äºĭå®ŀçļĦ":8228,"å£«åħµ":8229,"çĽ®çļĦåľ°":8230,"æĭĽèģĺ":8231,"èĢĥèĻĳåĪ°":8232,"å°½ç®¡":8233,"çĬ¶åĨµåĴĮ":8234,"æĬĢèĥ½åĴĮ":8235,"éģĵè·¯äº¤éĢļå®īåħ¨":8236,"å±ħä½ıåľ°":8237,"éĺ²æĬ¤æİªæĸ½":8238,"æŃ¦è£ħåĬĽéĩı":8239,"æ¹¿åľ°ä¿ĿæĬ¤":8240,"æĸ°éĹ»åªĴä½ĵ":8241,"ç¬¬äºĮæ¬¾è§Ħå®ļ":8242,"ä¸įæ»¡åįģ":8243,"æĸĹæ®´":8244,"çī©ä¸ļæľįåĬ¡äºº":8245,"åŃ¦åīįåĦ¿ç«¥":8246,"çĹĩçĬ¶":8247,"Ġwhich":8248,"ä¸īåĪĨä¹ĭäºĮä»¥ä¸Ĭ":8249,"è¢«è¯·æ±Ĥå¼ķæ¸¡äºº":8250,"æĹłå®³åĮĸå¤ĦçĲĨ":8251,"22":8252,":**":8253,"In":8254,"ther":8255,"Ġì":8256,"ĠçļĦ":8257,"Ġçº³ç¨İäºº":8258,"äºķ":8259,"çļĦå·¥èµĦ":8260,"å®°":8261,"åĪĢ":8262,"æľīè´¢äº§":8263,"æľīæ²¡æľī":8264,"æľīéĴĪå¯¹":8265,"ä¹Ķ":8266,"åĽ½å¤ĸ":8267,"ä¸įç¬¦":8268,"åħ¶åľ¨":8269,"å¯¹çİ¯å¢ĥ":8270,"åħ¬ç§ģ":8271,"ä½ľåģĩ":8272,"åı¯ä»¥ä¸İ":8273,"å®¶éĩĮ":8274,"æĭ¦":8275,"æľ¬èĬĤ":8276,"åĩºåıĳ":8277,"å¹¶ç»Ħç»ĩå®ŀæĸ½":8278,"å¦¹":8279,"å·¥ä½ľèĢħ":8280,"æ¸Ĺ":8281,"åıĹè®©äºº":8282,"åįķä½įçĬ¯åīįæ¬¾ç½ªçļĦ":8283,"åĬłä»¥":8284,"åĲİåĭ¤":8285,"è¢«æĴ¤éĶĢ":8286,"æķ°ç½ª":8287,"ç¬¬åįģä¸Ģç«ł":8288,"æĿ¥å®ŀçİ°":8289,"ä¹¦ç±į":8290,"éĢĤæĹ¶":8291,"åĨ³å®ļæĺ¯åĲ¦":8292,"ä¸Ńåįİäººæ°ĳåħ±åĴĮåĽ½çļĦ":8293,"inal":8294,"ç¬¦åı·":8295,"æĿ¡ä»¶ä¸ĭ":8296,"æĪ·ç±į":8297,"åŁºéĩĳåĲĪåĲĮ":8298,"çģ°":8299,"åıĬæĹ¶åĲĳ":8300,"ä¸ŃåĽ½å¢ĥåĨħ":8301,"æĶ¯ä»ĺæĬ¥éħ¬":8302,"åĬ¨çī©äº§åĵģ":8303,"è§Ĥå¿µ":8304,"ç¼ĸåı·":8305,"éģĹæ¼ı":8306,"ç¾İåħĥ":8307,"ç§ģåĪĨ":8308,"ä»»åĬ¡åĴĮ":8309,"æľīæķĪæľŁ":8310,"ings":8311,"æī£çķĻ":8312,"ç¦»å©ļè¯īè®¼":8313,"è¡Įä¸ļç»Ħç»ĩ":8314,"è¯¯è§£":8315,"ç¬¬ä¹Ŀåįģåħ«æĿ¡":8316,"ç¬¬ä¹Ŀåįģä¹ĿæĿ¡":8317,"çĸ¾çĹħçļĦ":8318,"åĩºèµĦé¢Ŀ":8319,"éľĢæ±ĤåĴĮ":8320,"æŃ£å¸¸è¿Ĳè¡Į":8321,"çŃĶæ¡Īæĺ¯":8322,"çĦ¶åĲİåĨį":8323,"åŁºå±Ĥç¾¤ä¼ĹæĢ§":8324,"åľŁå£¤æ±¡æŁĵéĺ²æ²»":8325,"åºĶå½ĵéģµå®Īæ³ķå¾ĭ":8326,"æĹ¥å¸¸çĶŁæ´»":8327,"åĢĴåįĸ":8328,"åĢŁæ¬¾äºº":8329,"åħ¬è¯ģæľºæŀĦ":8330,"å®¢è§Ĥæĸ¹éĿ¢":8331,"åıĳåĮħæĸ¹":8332,"å©´åĦ¿":8333,"çĹħåİŁå¾®çĶŁçī©":8334,"è¾¹éĺ²æ£ĢæŁ¥":8335,"æĮ¯åħ´":8336,"éĢłæĪĲä»ĸäººæįŁå®³çļĦ":8337,"æ°ĽåĽ´":8338,"èµĶåģ¿ä¹īåĬ¡æľºåħ³":8339,"åŁºå±Ĥç¾¤ä¼ĹæĢ§èĩªæ²»":8340,"()":8341,"app":8342,"ĠU":8343,"Ġèį¯åĵģ":8344,"çļĦè´¢çī©":8345,"çļĦåľ°æĸ¹åĲĦçº§äººæ°ĳä»£è¡¨å¤§ä¼ļ":8346,"å®ħ":8347,"åĴĮæķĻèĤ²":8348,"åĴĮæłĩåĩĨ":8349,"åĴĮä¸Ńå¤®åĨĽäºĭå§Ķåĳĺä¼ļ":8350,"èĢ³":8351,"æľīå¼Ĥè®®çļĦ":8352,"æĪĸèĢħç»ı":8353,"å¯¹æīĭ":8354,"å¯¹ä¸įç¬¦åĲĪ":8355,"ï¼Ľ(":8356,"åľ°è´¨":8357,"éĥ¨ç½²":8358,"æıŃ":8359,"åı¯ä»¥ä¸į":8360,"åı¯ä»¥ä¸º":8361,"åı¯ä»¥ä¾Ŀçħ§":8362,"å®¶åħ·":8363,"æıĲéĨĴ":8364,"çŃīéĹ®é¢ĺ":8365,"åŁĭ":8366,"æĹ¶æľŁ":8367,"äºĶå¹´åĨħ":8368,"åĪ©çİĩ":8369,"èģĮç§°":8370,"è¡ĮæĶ¿æī§æ³ķ":8371,"åįķè¯ģ":8372,"å¢Ļ":8373,"æĪĳæĺ¯":8374,"æĪĳéľĢè¦ģ":8375,"äº¤å¾Ģ":8376,"åıĹæķĻèĤ²":8377,"å¼Ģå·¥":8378,"å¼Ģç«ĭ":8379,"ä»¥ä¸ĭæŃ¥éª¤":8380,"æĶ¯åĩºçļĦ":8381,"åľºåĲĪ":8382,"æĬĢæľ¯æłĩåĩĨ":8383,"åĪĴæĭ¨":8384,"æĸ°é²ľ":8385,"çĽ¸åħ³ä¸ļåĬ¡":8386,"çĬ¯ç½ªæīĢå¾Ĺ":8387,"æľĢå¤§çļĦ":8388,"æī¿æĭħä¿Ŀè¯ģ":8389,"æł¸éªĮ":8390,"ä¸¥éĩįåį±å®³":8391,"ä¸ĭåĪĹè§Ħå®ļ":8392,"åĬ³åĬ¨åħ³ç³»":8393,"æ±¡æŁĵçļĦ":8394,"åĲ¦åĪĻ":8395,"çłĶåĪ¶":8396,"åĪĳäºĭè¯īè®¼":8397,"æķ°æį®åºĵ":8398,"éĩįå¤§æįŁå¤±":8399,"éĢģäº¤":8400,"ç¥ŀç§ĺ":8401,"åħ¬å¼ĢåĭŁæįĲ":8402,"éĢīä¸¾äº§çĶŁ":8403,"é¦ĨèĹı":8404,"Ġdo":8405,"èĻļä½ľåģĩ":8406,"è´¦åı·":8407,"æĳĩ":8408,"å¿«ä¹Ĳ":8409,"äºĭåĬ¡çļĦ":8410,"æ±ĩæ¬¾":8411,"ä¿¡æīĺçļĦ":8412,"æ¸ĶæĶ¿":8413,"ç§¯æŀģåıĤä¸İ":8414,"èĻļåģĩçļĦ":8415,"ç¬¬ä¸ĢçĻ¾éĽ¶ä¹ĿæĿ¡":8416,"Ġlike":8417,"æµ·åŁŁä½¿çĶ¨":8418,"åĽ½å®¶ç§ĺå¯ĨçļĦ":8419,"åĭĺéªĮ":8420,"éĺ²èĮĥåĴĮ":8421,"çļĦéĩįè¦ģæĢ§":8422,"Ġcont":8423,"éĺŁä¼įå»ºè®¾":8424,"æł¸å®īåħ¨çĽĳçĿ£ç®¡çĲĨéĥ¨éĹ¨":8425,"é¥²æĸĻ":8426,"åºĶå½ĵåħ·å¤ĩä¸ĭåĪĹæĿ¡ä»¶":8427,"åĭĩæ°Ķ":8428,"è´¨è¯¢æ¡Ī":8429,"å®¡æŁ¥åĴĮæī¹åĩĨ":8430,"è¯ŃçļĦåĲ«ä¹ī":8431,"åıįåŀĦæĸŃæī§æ³ķæľºæŀĦ":8432,"æ¯ıå±Ĭä»»æľŁ":8433,"å¼ĦèĻļä½ľåģĩ":8434,"éĸ":8435,"Ġ/":8436,"Ġæ³ķå¾ĭ":8437,"Ġåħ¬åĬ¡åĳĺ":8438,"çļĦçĶ³è¯·":8439,"çļĦæķ°éĩı":8440,"ä»¿":8441,"çĶĺ":8442,"æ³½":8443,"æ°¢":8444,"æī®":8445,"ä¸įåĩĨ":8446,"ä¸įä¸Ģèĩ´":8447,"åºĶå½ĵåįıåĬ©":8448,"çŃĽ":8449,"å¯¹ä¸ªäºº":8450,"åľ°åŁŁ":8451,"ä¸Ĭç¼´":8452,"æľ¬éĻ¢":8453,"æĹ¶å°ļ":8454,"åĽ½å®¶çĽĳå¯Łå§Ķåĳĺä¼ļ":8455,"çĶ±åİŁ":8456,"å®ŀçļĦ":8457,"éģĤ":8458,"è¿ĩå¢ĥ":8459,"ä»¥ä¸Ĭæĺ¯":8460,"åīª":8461,"åĲĳåĽ½åĬ¡éĻ¢":8462,"è¢«çĽĳæĬ¤äºº":8463,"ä»¥ä¸ĭéĻĪè¿°":8464,"ç¤¾ä¼ļåħ¬å¾·":8465,"åħ¬åı¸åĢºåĪ¸":8466,"å°ıåįİ":8467,"ä¸įå¾Ĺå°Ĩ":8468,"ä¿¡æģ¯æĬ«éľ²":8469,"æĭħè´Ł":8470,"åĪĹå¸Ń":8471,"è®°åħ¥":8472,"çº¦è°Ī":8473,"éĢīåĮº":8474,"éĩĩåıĸçĽ¸åºĶçļĦ":8475,"æŃ¤æĹ¶":8476,"ä¸Ńåįİäººæ°ĳåħ±åĴĮåĽ½æ°ĳäºĭè¯īè®¼æ³ķ":8477,"ä½ķç§į":8478,"æĪ·å¤ĸ":8479,"å½ķçĶ¨":8480,"åĭī":8481,"åĩıåĪĳ":8482,"æĦŁåıĹåĪ°":8483,"Ġse":8484,"ä½ıéĻ¢":8485,"æ°ĳäºĭæ¡Īä»¶":8486,"ç¼´çº³ç¨İæ¬¾":8487,"è®ºå¤Ħ":8488,"æİ¥åıĹç¤¾ä¼ļ":8489,"èĢģæĿ¿":8490,"å¹¶å¤Ħè¿Ŀæ³ķæīĢå¾Ĺä¸ĢåĢįä»¥ä¸ĬäºĶ":8491,"æĪĺæĸĹ":8492,"ä¾¿æį·":8493,"éĤ£éĩĮ":8494,"é¢Ħç®Ĺæī§è¡Į":8495,"ä¼ĺåħĪåıĹåģ¿":8496,"æķ°é¢Ŀè¾ĥå¤§":8497,"ä¿¡æīĺæĸĩä»¶":8498,"è¾©è®º":8499,"æĽ´å¥½åľ°çĲĨè§£":8500,"æ¶Īéĺ²å®īåħ¨":8501,"åħĭæľį":8502,"ç¬¬ä¸Ģæ¬¾è§Ħå®ļ":8503,"çº³åħ¥åĽ½æ°ĳç»ıæµİåĴĮç¤¾ä¼ļåıĳå±ķè§ĦåĪĴ":8504,"å¹³çŃīçļĦ":8505,"æī©æķ£":8506,"å©ļå§»å®¶åºŃ":8507,"æ¸Ķä¸ļæ¸ĶæĶ¿":8508,"å¤ĦåįģæĹ¥ä»¥ä¸Ĭ":8509,"æľīä¸ĭåĪĹè¡Įä¸ºä¹ĭä¸Ģ":8510,"æľ¬ç½ªåľ¨":8511,"ä¸įåıĹä¾µçĬ¯":8512,"æľīåĪ©å®³åħ³ç³»":8513,"å¤ıå¤©":8514,"çģµæ´»":8515,"åĬŀäºĭæľºæŀĦ":8516,"æł¹æį®è¯¥æ³ķ":8517,"éĢıæĺİ":8518,"éº»éĨī":8519,"åľ°ä¸ĭæ°´":8520,"ĠĠĠĠĠĠĠ":8521,"è¿Ŀæ³ķç»ıèĲ¥é¢Ŀ":8522,"king":8523,"å´":8524,"çĺ":8525,"çļĦä¸į":8526,"æľµ":8527,"åıĽ":8528,"åľĭ":8529,"åĴĮèµĦæºĲ":8530,"åĴĮæľīåħ³æ³ķå¾ĭ":8531,"åĨł":8532,"åĽ½å¢ĥ":8533,"ä¾Ĩ":8534,"çĶ¨èĥ½":8535,"æĪĸèĢħè¿Ľè¡Į":8536,"åºĶå½ĵä¼ļåĲĮ":8537,"ä¸ºåŁºç¡Ģ":8538,"äºĮæ°§åĮĸ":8539,"å®¶äºº":8540,"å¤ĦäºĮåįģ":8541,"çī©ä½ĵ":8542,"æŁľ":8543,"å¹¶å®ļæľŁ":8544,"æĸĩçĮ®":8545,"åıĹè®©":8546,"è¿Ľè¡Įå¤ĦçĲĨ":8547,"è°¨":8548,"æłĩæ³¨":8549,"æĹ¥çļĦ":8550,"è¿Ļå°Ĩ":8551,"æĶ¯éħį":8552,"å°ıé¢Ŀ":8553,"ç»ıèĲ¥æĢ§":8554,"è´¢äº§æįŁå¤±çļĦ":8555,"åĨ³å®ļä¸įæľįçļĦ":8556,"ä¹Łä¸į":8557,"ä¹ŁéľĢè¦ģ":8558,"è¯Ħå®ļ":8559,"éħįæĸ¹":8560,"æľīæĿĥä¾Ŀæ³ķ":8561,"ç²ĺ":8562,"ç¦»èģĮ":8563,"åĪĳäºĭå¤Ħç½ļ":8564,"èĢĥå¯Ł":8565,"åĭĭ":8566,"èĥ½åĬĽå»ºè®¾":8567,"çŃ¾åŃĹ":8568,"æĦŁæŁĵ":8569,"æľŁéĹ´çļĦ":8570,"ä»£çĲĨæľºæŀĦ":8571,"è¯ķçĶ¨":8572,"çªģçĦ¶":8573,"æĺ¯ä¸ĢåĲį":8574,"ç»ĵæŀľçļĦ":8575,"Ġ15":8576,"åĲ¬è¯´":8577,"Ġinc":8578,"åıĹåĪ°ä¾µå®³":8579,"åıĺæĽ´çļĦ":8580,"è¢«åĳĬäººçļĦ":8581,"å½Ĵä¾¨":8582,"æ´ĭèĳ±":8583,"åĢºæĿĥäººå§Ķåĳĺä¼ļ":8584,"æĿĳæ°ĳä¼ļè®®":8585,"æ³¨æĦıåĬĽ":8586,"æĹ¥ç¬¬åįģåĽĽ":8587,"æĺŁçĲĥ":8588,"æłĩå¿ĹçļĦ":8589,"èĢģå¹´äººçļĦ":8590,"è½¬ç§»æĶ¯ä»ĺ":8591,"æŃĮæĽ²":8592,"å¡Ķ":8593,"åįĹæŀģ":8594,"çŃ¾åĲįæĪĸèĢħçĽĸç«ł":8595,"ä¸įåı¯ç§»åĬ¨":8596,"ĠIn":8597,"é»Ħæ²³æµģåŁŁåİ¿çº§ä»¥ä¸Ĭåľ°æĸ¹äººæ°ĳæĶ¿åºľ":8598,"åĨĴçĶ¨":8599,"èģĮä¸ļçĹħåį±å®³çļĦ":8600,"å¦¥åĸĦä¿Ŀç®¡":8601,"èĽĭç³ķ":8602,"çĲĨäºĭéķ¿":8603,"åĬ³åĬ¡æ´¾éģ£":8604,"ave":8605,"æĽ¾ç»ı":8606,"åķĨåĵģæĪĸèĢħæľįåĬ¡":8607,"ç¥ĸçĪ¶æ¯į":8608,"éĢ¾æľŁæľªæĶ¹æŃ£çļĦ":8609,"å¯¿åĳ½":8610,"å¹¸ç¦ı":8611,"çº½çº¦":8612,"åħ¨æ°ĳæīĢæľīåĪ¶å·¥ä¸ļä¼ģä¸ļ":8613,"35":8614,"40":8615,"sis":8616,"ĠĊ":8617,"Ġå¸¸åĬ¡å§Ķåĳĺä¼ļ":8618,"çļĦæľįåĬ¡":8619,"çļĦåħ³ç³»":8620,"çļĦåİĨåı²":8621,"åĴĮæĸ¹å¼ı":8622,"è´Ŀ":8623,"ä»¥èĩªå·±çļĦ":8624,"æľīåı¯èĥ½":8625,"æķ¢":8626,"æĪĸèĢħæľįåĬ¡":8627,"æĪĸèĢħå½ĵäºĭäºº":8628,"å·¡":8629,"ä¸įä½İäºİ":8630,"çīµ":8631,"çīĻ":8632,"åĲĪçº¦":8633,"åı¯ä»¥çĽ´æİ¥":8634,"åı¯ä»¥ä½ľä¸º":8635,"åı¯ä»¥éĩĩçĶ¨":8636,"æĭĶ":8637,"æľ¬åľ°åĮº":8638,"æĪĲåĪĨ":8639,"åĩºåĢŁ":8640,"æµ®":8641,"éĥ¨éĹ¨çļĦ":8642,"è¿Ľåĩº":8643,"å§ľ":8644,"éĩįéĩı":8645,"æ³ķå¾ĭåı¦æľīè§Ħå®ļçļĦéĻ¤å¤ĸ":8646,"æł¹æį®æĤ¨":8647,"äºĨä¸ĢäºĽ":8648,"æľªåĲĳ":8649,"åıĹéĢģè¾¾":8650,"æĬ¥èŃ¦":8651,"ä»£è¡¨æĢ§":8652,"æ°´çĶŁ":8653,"æĶ¯æĴĳ":8654,"åİŁçĲĨ":8655,"ä¸ªäººéļĲç§ģ":8656,"è§Ħå®ļçļĦæĥħå½¢":8657,"éĩĩåıĸå¿ħè¦ģæİªæĸ½":8658,"ä¾Ŀçħ§è§Ħå®ļ":8659,"çĽ¸åħ³å·¥ä½ľ":8660,"è®¤çŁ¥":8661,"è®¤è´Ń":8662,"ä¼łåĶ¤":8663,"åıĤæķ°":8664,"æµģéĩı":8665,"åĬ³åĬ¨èĥ½åĬĽ":8666,"æĿĥåĪ©åĴĮä¹īåĬ¡":8667,"åĴĮåħ¶ä»ĸçĶŁäº§ç»ıèĲ¥èĢħ":8668,"è¯ģåĪ¸å¸Ĥåľº":8669,"åĶ¯":8670,"éĢĤçĶ¨æ³ķå¾ĭ":8671,"åģ¥åº·åıĳå±ķ":8672,"æĺ¯åĲ¦æŃ£ç¡®":8673,"ates":8674,"ä¸ĵä¸ļçŁ¥è¯Ĩ":8675,"æ¸¸æ³³":8676,"ä¸ļåĬ¡æ´»åĬ¨":8677,"äºĮåįģåĽĽ":8678,"å·¥ç¨ĭè®¾æĸ½":8679,"Ġcar":8680,"ä¸įèĥ½å±¥è¡Į":8681,"Ġwor":8682,"Ġwas":8683,"Ġwill":8684,"å¼ºåĪ¶åĮ»çĸĹ":8685,"èģĮå·¥ä»£è¡¨å¤§ä¼ļ":8686,"è¡Įä½¿ä¸ĭåĪĹ":8687,"Ġdet":8688,"ç¬¬ä¹Ŀåįģä¸ĥæĿ¡":8689,"ç¬¬ä¹ĿåįģåħŃæĿ¡":8690,"å®¡åĪ¤å§Ķåĳĺä¼ļ":8691,"æĭįåįĸæłĩçļĦ":8692,"çĶŁæĪĲä¸Ģæ®µ":8693,"æĸĩæľ¬ä¸Ń":8694,"ç®¡è¾ĸæĿĥ":8695,"é¤Ĳé¥®":8696,"åĩºçİ°äºĨ":8697,"æĽ´å¥½åľ°äºĨè§£":8698,"åĪĩæĪĲ":8699,"str":8700,"Ġhas":8701,"2016":8702,"æĦıè¯ĨåĴĮ":8703,"ĠStep":8704,"æĬ¥åĽ½åĬ¡éĻ¢æī¹åĩĨåĲİ":8705,"è¿ĲèĲ¥èĢħ":8706,"ell":8707,"é²ģ":8708,"äººæīįåŁ¹åħ»":8709,"è·¨å¢ĥ":8710,"éº¦":8711,"åī©ä¸ĭ":8712,"çĵ¶":8713,"å¼ĢåºŃå®¡çĲĨ":8714,"åĪĨè£ĤåĽ½å®¶":8715,"åĴ¨è¯¢ä¸ĵä¸ļå¾ĭå¸Ī":8716,"å±¥è¡ĮåĩºèµĦäººèģĮè´£çļĦ":8717,"å¯¹è´Łæľīè´£ä»»çļĦé¢Ĩå¯¼äººåĳĺåĴĮçĽ´æİ¥è´£ä»»äººåĳĺ":8718,"é»ĳç¤¾ä¼ļæĢ§è´¨":8719,"å¤ĦåįģæĹ¥ä»¥ä¸ĬåįģäºĶæĹ¥ä»¥ä¸ĭæĭĺçķĻ":8720,"form":8721,"gh":8722,"è©":8723,"ĠØ":8724,"ĠåĨĽäºº":8725,"ĠçĽĳçĿ£æ£ĢæŁ¥":8726,"Ġæ£Ģå¯Łå®ĺ":8727,"çļĦå¤Ħç½ļ":8728,"çļĦç§įç±»":8729,"äººçĶŁ":8730,"åºĩ":8731,"åĴĮè®¾å¤ĩ":8732,"ä¸Ģåıª":8733,"ä¸Ģåįĥåħĥä»¥ä¸ĭç½ļæ¬¾":8734,"å¯Ĵ":8735,"æĪĸèĢħæľºæŀĦ":8736,"æĪĸèĢħçľģ":8737,"ä¸įåĮħæĭ¬":8738,"åºĶå½ĵéĢļçŁ¥":8739,"èµĥ":8740,"åŃ¸":8741,"ç½Ĳ":8742,"é¢Ī":8743,"åıĳè¨Ģ":8744,"çŃīäºİ":8745,"åħ¨è¿ĩç¨ĭ":8746,"æĹ¶åºĶå½ĵ":8747,"æīĢå¿ħéľĢ":8748,"è¯·æıĲä¾Ľ":8749,"æ³ķå¾ĭæĸĩä¹¦":8750,"æ³ķå¾ĭæĿ¡æĸĩ":8751,"åıĸæ°´":8752,"åıĹæįŁ":8753,"è¿Ľè¡Įå®īåħ¨":8754,"ç¬¬äºĮå®¡äººæ°ĳæ³ķéĻ¢":8755,"åĩĨåĪĻ":8756,"è¢«åĲĬéĶĢ":8757,"æĿ¥è§£åĨ³":8758,"çĶ³è¯·åĬŀçĲĨ":8759,"çĤº":8760,"åĪĻæĺ¯":8761,"ç§ĳå¹»":8762,"æī¿æĭħè¿Ŀçº¦è´£ä»»":8763,"æĿĥåĪ©åĴĮ":8764,"ä¸¾è¯ģ":8765,"èŃ¦æĸ¹":8766,"æķ´æķ°":8767,"åħ·ä½ĵåĬŀæ³ķ":8768,"çī¹åĪ«ä¸¥éĩįæĥħèĬĤçļĦ":8769,"ç§°åı·":8770,"è°ĥæŁ¥åĴĮ":8771,"enc":8772,"çŃ¾ç«ł":8773,"Ġsentence":8774,"æŁĲç§į":8775,"åºĶå½ĵæĮīçħ§çº¦å®ļ":8776,"å¿ħé¡»éģµå®Ī":8777,"åºŁæ°´":8778,"åĨĽäºĭç®¡çĲĨ":8779,"åºĶè¯¥éĩĩåıĸ":8780,"èĤ¡ä¸ľå¤§ä¼ļ":8781,"çĽĳæĬ¤èģĮè´£":8782,"çľĭå®Ī":8783,"Ġwhe":8784,"èĥ½æºĲä¸»ç®¡éĥ¨éĹ¨":8785,"æĲħ":8786,"å¼łæŁĲ":8787,"æµ·äºĭå¼ºåĪ¶ä»¤":8788,"æ°ĳçĶ¨æľºåľº":8789,"çĪ±çļĦ":8790,"æµģåŁŁç®¡çĲĨæľºæŀĦ":8791,"åĨľæ°ĳåĴĮ":8792,"åıĳå¸ĥçļĦ":8793,"æľīåħ³çļĦä¸ĵéĹ¨å§Ķåĳĺä¼ļ":8794,"åĽ½æľīèµĦæľ¬":8795,"ä¸ĵåĪ©æĿĥçļĦ":8796,"è´Łè´£äººæī¹åĩĨ":8797,"éĺ»æŃ¢":8798,"å¾ĹåĪ°äºĨ":8799,"ä¸¾æĬ¥äºº":8800,"éĿĴå¹´":8801,"å°ĬéĩįåĴĮ":8802,"æĬķåħ¥åĵģ":8803,"æĮĩæĮ¥æľºæŀĦ":8804,"åħ¬å¹³ç«ŀäºī":8805,"åħħåĪĨåıĳæĮ¥":8806,"ify":8807,"åĽºä½ĵåºŁçī©çļĦ":8808,"æľªæĪĲå¹´äººçļĦçĪ¶æ¯įæĪĸèĢħåħ¶ä»ĸçĽĳæĬ¤äºº":8809,"ç¹ģèĤ²":8810,"å¼ķèµ·çļĦ":8811,"å¿ĹæĦ¿æľįåĬ¡":8812,"åĩºç¥¨äºº":8813,"åģıè§ģ":8814,"èĨľ":8815,"Ġneed":8816,"éŃĶæ³ķ":8817,"å¤ĦäºĶæĹ¥ä»¥ä¸Ĭåįģ":8818,"ä¸ŃåĽ½çī¹èī²ç¤¾ä¼ļä¸»ä¹ī":8819,"ä¸ĩåħĥä»¥ä¸ĬäºĶçĻ¾ä¸ĩåħĥä»¥ä¸ĭçļĦç½ļæ¬¾":8820,"åı¦æľīçº¦å®ļå¤ĸ":8821,"åĽºä½ĵåºŁçī©æ±¡æŁĵçİ¯å¢ĥéĺ²æ²»":8822,"å±łå®°":8823,"mat":8824,"ph":8825,"up":8826,"Ġæ³ķå®ĺ":8827,"Ġæľīä¸ĭåĪĹè¡Įä¸ºä¹ĭä¸ĢçļĦ":8828,"çļĦè¯Ŀ":8829,"çļĦåīįæıĲä¸ĭ":8830,"å®¾":8831,"ä»¥èİ·åıĸ":8832,"å½ĵæĹ¶":8833,"æĪĸèĢħéĢļè¿ĩ":8834,"åºĶå½ĵåıĸå¾Ĺ":8835,"åºĶå½ĵå¦Ĥå®ŀ":8836,"çĶŁéķ¿":8837,"è§Ħå®ļäºĨ":8838,"å¯¹åĽ½å®¶":8839,"ä¸Ńçº§äººæ°ĳæ³ķéĻ¢":8840,"åĲĪè§Ħ":8841,"æĺ¯ä¸į":8842,"åı¯ä»¥æıĲé«ĺ":8843,"åıĳè¯ģ":8844,"åĩºäºĨ":8845,"çŃīåįķä½į":8846,"çŃīåİŁåĽł":8847,"çĶ±ä¸Ńå¤®åĨĽäºĭå§Ķåĳĺä¼ļ":8848,"åıĬæľīåħ³":8849,"å¤§è¿ĩ":8850,"å·¥ä½ľæĬ¥åĳĬ":8851,"ä¾Ŀæ³ķåĬŀçĲĨ":8852,"åĩĨè®¸":8853,"æĹ¥æľ¬":8854,"åĽłåħ¬":8855,"ä½¿çĶ¨åįķä½į":8856,"è¿Ĳè´¹":8857,"é«ĺäºİ":8858,"ç¬¬åįģäºĮ":8859,"åĬ©æīĭ":8860,"ä¼ģä¸ļåĴĮ":8861,"æī§åĭ¤":8862,"çĶµæ¢¯":8863,"è®°å¤§è¿ĩ":8864,"èĮ¨":8865,"æĶ¾æĺł":8866,"ä¹Łå°±æĺ¯":8867,"æł¸åıĳ":8868,"ä¸ĭåĪĹçĶ¨":8869,"åĬ³åĬ¨åĲĪåĲĮçļĦ":8870,"æłĩåĩĨæĪĸèĢħ":8871,"åį«çĶŁæ£Ģçĸ«":8872,"ä¼ĺè´¨":8873,"æ°Ķæ¸©":8874,"çī¹åĪ«ç¨ĭåºı":8875,"éĢĤçĶ¨çļĦ":8876,"åĭ¾":8877,"ater":8878,"åį³å°Ĩ":8879,"é£İéĻ©çļĦ":8880,"ç¾İçļĦ":8881,"ä¹ĭæĹ¥èµ·åįģæĹ¥åĨħ":8882,"å®¡æŁ¥æī¹åĩĨ":8883,"åĨĻä½ľ":8884,"äººæ°ĳæ£Ģå¯ŁéĻ¢åĴĮ":8885,"çļĦæ³ķå¾ĭè´£ä»»":8886,"æĿİåĽĽ":8887,"è®¸åı¯è¯ģçļĦ":8888,"è´¢æĶ¿æĢ§":8889,"ä»·æł¼ä¸»ç®¡éĥ¨éĹ¨":8890,"åıĺæĽ´çĻ»è®°":8891,"ä¿¡æīĺæ³ķ":8892,"èĦĤ":8893,"åıĳè¡ĮçļĦ":8894,"éĢļå¸¸ä¼ļ":8895,"äºĨä¸Ģä»½":8896,"ä¸Ĭå¸Ĥäº¤æĺĵ":8897,"åĢįä»¥ä¸ĭç½ļéĩĳ":8898,"æľīéĻĲåĲĪä¼Ļä¼ģä¸ļ":8899,"åĲĳäººæ°ĳæ³ķéĻ¢çĶ³è¯·":8900,"å·®é¢Ŀ":8901,"åĨľæ°ĳä¸ĵä¸ļåĲĪä½ľç¤¾èģĶåĲĪç¤¾":8902,"åŀĥåľ¾åĪĨç±»":8903,"æĮīçħ§åĽ½å®¶æľīåħ³è§Ħå®ļç»ĻäºĪè¡¨å½°":8904,"æŀĹä¸ļä¸»ç®¡éĥ¨éĹ¨":8905,"ç²®é£Łå®īåħ¨":8906,"ign":8907,"çĳŀ":8908,"æ½®":8909,"çĽ¸åĲĮçļĦ":8910,"Ġass":8911,"è®¯éĹ®":8912,"æĻļä¸Ĭ":8913,"åŁºç¡Ģè®¾æĸ½å»ºè®¾":8914,"åľŁåľ°ä½¿çĶ¨æĿĥåĩºè®©":8915,"å¿łäºİ":8916,"æ¶Īéĺ²æķĳæı´è¡Ķ":8917,"è¶³å¤ŁçļĦ":8918,"æīĵåĩ»æĬ¥å¤į":8919,"åıĳçĶŁæ³ķå¾ĭæķĪåĬĽçļĦåĪ¤åĨ³":8920,"æľºåĬ¨è½¦é©¾é©¶è¯ģ":8921,"æł¸è®¾æĸ½èĲ¥è¿Ĳåįķä½į":8922,"è¹Ī":8923,"åŁºå±Ĥç¾¤ä¼ĹæĢ§èĩªæ²»ç»Ħç»ĩ":8924,"æ¸Ķä¸ļæ¸ĶæĶ¿ä¸»ç®¡éĥ¨éĹ¨":8925,"(\"":8926,"\\[":8927,"rou":8928,"ĠK":8929,"ãĢĢ":8930,"çļĦçłĶç©¶":8931,"çļĦæĪĲåĳĺ":8932,"çļĦçĽ®çļĦ":8933,"çļĦå»ºçŃĳçī©":8934,"æĪ´":8935,"åĴĮæ°´":8936,"åĴĮè¿Ŀæ³ķæīĢå¾Ĺ":8937,"ä»¥ç¡®å®ļ":8938,"å®ļä½ľ":8939,"æľīä¹īåĬ¡":8940,"ä¸Ģä¸ªäºº":8941,"åĽ½çļĦ":8942,"æĪĸåħ¶":8943,"åħ³è¡Ķ":8944,"çĶ¨åľ°çļĦ":8945,"çĲĨå¿µ":8946,"æĪĸèĢħåĩıå°ĳ":8947,"äººæ°ĳéĻªå®¡åĳĺ":8948,"ä¸ºä»ĸäºº":8949,"åħ¬éĩĮ":8950,"åı¯ä»¥æĺ¯":8951,"ä»ĸåľ¨":8952,"æµ´":8953,"çŃīæĬĢæľ¯":8954,"ä¸ĭè¾¾":8955,"åĲĮèĥŀ":8956,"å¹¶å°Ĩåħ¶":8957,"åĽ½å®¶å»ºç«ĭ":8958,"çħ§æĸĻ":8959,"æ³ķå¾ĭæľįåĬ¡":8960,"è¡ĮæĶ¿æ¡Īä»¶":8961,"æł¹æį®ä¸Ĭè¿°":8962,"æľºæŀĦæĪĸèĢħ":8963,"å¿Ļ":8964,"çĽ¸éĤ»":8965,"æĬ¥åĪĬ":8966,"åĬłä¸Ĭ":8967,"è°ĥåıĸ":8968,"åīįæĻ¯":8969,"æĿ¥çļĦ":8970,"æĤ¦":8971,"ç»ıèĲ¥ç®¡çĲĨ":8972,"æĽ´å®¹æĺĵ":8973,"ä¸ĵé¢ĺ":8974,"åĨĽåĵģ":8975,"éªļ":8976,"è£ģåĪ¤":8977,"ä¼łéĢĴ":8978,"æĢ»åĴĮ":8979,"ç¬¬ä¸ĢçĻ¾æĿ¡":8980,"ç»ıæµİè¡¥åģ¿":8981,"èµĶåģ¿çļĦ":8982,"è¯ģåĪ¸åħ¬åı¸çļĦ":8983,"åıĬæĹ¶éĢļçŁ¥":8984,"åģľè½¦":8985,"è°ĥæŁ¥å§Ķåĳĺä¼ļ":8986,"æ£Ģå¯Łæľºåħ³":8987,"æ¶īå¯Ĩ":8988,"å¾ģéĽĨ":8989,"äºĪä»¥åħ¬åĳĬ":8990,"éĩįå¤§éĹ®é¢ĺ":8991,"åį±éĻ©çļĦ":8992,"åŃ¦æł¡çļĦ":8993,"ç§»ç®¡":8994,"ç¢İ":8995,"è®¡åĪĴåĴĮ":8996,"è±¡å¾ģ":8997,"åºĶè¯¥æĺ¯":8998,"ä»Ģä¹Īæĺ¯":8999,"çľĭèµ·æĿ¥":9000,"è½¬è®©æĪĸèĢħ":9001,"åıĮæĸ¹çļĦ":9002,"ĠåĽ½åĬ¡éĻ¢åĴĮ":9003,"äº«æľīçļĦ":9004,"æīĵå¼Ģ":9005,"å¹³åı°åĨħ":9006,"æµ·æ´ĭä¸»ç®¡éĥ¨éĹ¨":9007,"è¿Ļç§įæĥħåĨµ":9008,"é¥®æĸĻ":9009,"ç«ŀä¹°":9010,"ä¸ĵåĪ©è¡ĮæĶ¿éĥ¨éĹ¨":9011,"çģ«è½¦":9012,"äººä»¬çļĦ":9013,"æ¸©æļĸ":9014,"çĶ²æĸ¹":9015,"é«ĺçŃīæķĻèĤ²":9016,"å®¡æī¹æīĭç»Ń":9017,"ç¤¾ä¼ļä¸»ä¹īçİ°ä»£åĮĸ":9018,"åĮ»çĸĹåį«çĶŁæľįåĬ¡":9019,"è®¾åĮºçļĦå¸Ĥçº§ä»¥ä¸Ĭ":9020,"çīĪæľ¬":9021,"è¾©æĬ¤å¾ĭå¸Ī":9022,"æĬļåħ»è´¹":9023,"irst":9024,"å½¢æĪĲçļĦ":9025,"æľĢä½İçĶŁæ´»ä¿Ŀéļľ":9026,"çĨŁæĤī":9027,"åŁİä¹¡è§ĦåĪĴä¸»ç®¡éĥ¨éĹ¨":9028,"Ġexp":9029,"æĢ»éĩıæİ§åĪ¶":9030,"ç¾İä¸½çļĦ":9031,"è´ŁéĿ¢å½±åĵį":9032,"æ¬£èµı":9033,"å°¤åħ¶":9034,"çľĭå®ĪæīĢ":9035,"å¤ĦäºĶæĹ¥ä»¥ä¸ĬåįģæĹ¥ä»¥ä¸ĭæĭĺçķĻ":9036,"ak":9037,"tal":9038,"Ġç»Ħç»ĩ":9039,"Ġæµ·ä¸Ĭ":9040,"äº¿":9041,"çļĦåĮºåŁŁ":9042,"çļĦåħ³éĶ®":9043,"ä½£":9044,"ä½©":9045,"ä½Ľ":9046,"å½¼":9047,"åĨ¬":9048,"åįģå¹´":9049,"å½ĵéĢī":9050,"åºĶå½ĵå±¥è¡Į":9051,"ä¿ĿçĲĨ":9052,"ä¿ĿèįĲ":9053,"ç§½":9054,"äº§åľ°":9055,"å®¶çļĦ":9056,"åĪĨç»Ħ":9057,"èģĮçº§":9058,"åĮºåĪĴ":9059,"å¥ĳ":9060,"æľªè¾¾åĪ°":9061,"æŁ¥è¯ģ":9062,"çĽ¸åıį":9063,"è¿Ľè¡Įè°ĥè§£":9064,"ä¿¡è´·":9065,"ãĢĭï¼Ī":9066,"è¿Ļä¸¤ä¸ª":9067,"éĺ²çģ«":9068,"æİ¥ä¸ĭæĿ¥":9069,"æıĲä¾Ľä¸İ":9070,"éĽħ":9071,"è°ĥåĳ³":9072,"æĶ¯æµģ":9073,"åŃĲçļĦ":9074,"éĢłæŀĹ":9075,"æĮĩåĩº":9076,"ä¸ĵå±ŀ":9077,"åĮ»èį¯":9078,"éĩĩåıĸä¸ĭåĪĹæİªæĸ½":9079,"è´¢äº§æĿĥ":9080,"ç¥Ŀ":9081,"æķħéļľ":9082,"åı¯èĥ½æĢ§":9083,"å°±ä¼ļ":9084,"åĶĲ":9085,"åħ¬åħ±èĪªç©º":9086,"åıĤåĬłè¯īè®¼":9087,"è¯Ħä¼°æĬ¥åĳĬ":9088,"è®¡åĪĴåľ°":9089,"æ°ĳæĹıåĽ¢ç»ĵ":9090,"çļĦäººéĢī":9091,"ä¸»è¦ģæĺ¯":9092,"ä¸»è¦ģè´Łè´£":9093,"éĻĲåĪ¶æ°ĳäºĭè¡Įä¸ºèĥ½åĬĽ":9094,"è½»æĿ¾":9095,"Ġ12":9096,"èµĦæĸĻåĴĮ":9097,"ç¯Ģ":9098,"çľŁçļĦ":9099,"çĶµå½±çļĦ":9100,"å®¡çĲĨæ¡Īä»¶":9101,"å®¡è®¡çĽĳçĿ£":9102,"èĬ±è´¹":9103,"æĽ´å¥½åľ°ç®¡çĲĨ":9104,"çī¹ç§įè®¾å¤ĩçĶŁäº§":9105,"äº¤ä»ĺçļĦ":9106,"è§Ĵåº¦":9107,"ild":9108,"ç¬¬ä¸ĢçĻ¾ä¸Ģåįģä¸ĥæĿ¡":9109,"æ¸¯åı£è¡ĮæĶ¿ç®¡çĲĨéĥ¨éĹ¨":9110,"çĶ·æĢ§":9111,"çĶ·åŃĲ":9112,"ĠĠĠĠĠĠĠĠ":9113,"ä½ľåĵģçļĦ":9114,"çĩĥæ°Ķ":9115,"ç»ŁçŃ¹è§ĦåĪĴ":9116,"ä¸Ĭä¸Ģçº§äººæ°ĳæ³ķéĻ¢":9117,"ä¸Ģå®ļæľŁéĻĲåĨħ":9118,"çĶµåŃĲåķĨåĬ¡æ³ķ":9119,"èĪŀè¹Ī":9120,"æīĢéľĢç»ıè´¹":9121,"å¸¦æĿ¥çļĦ":9122,"è¿ĲåĬ¨åĳĺ":9123,"åºĶå½ĵèĩªåıĹçĲĨ":9124,"å¯ĦéĢĴ":9125,"èĴĻ":9126,"å¤įæĿĤçļĦ":9127,"å®ŀè·µä¸Ń":9128,"æĺ¾èĳĹæĪĲç»©":9129,"èµĦè´¨è¯ģä¹¦":9130,"èģĮä¸ļçĹħåį±å®³åĽłç´ł":9131,"èĽĭçĻ½":9132,"åįĥåħĥä»¥ä¸ĬäºĮ":9133,"ä¸įæŃ£å½ĵç«ŀäºī":9134,"åı¯ä»¥åĲĳäººæ°ĳæ³ķéĻ¢çĶ³è¯·":9135,"ä¸īä¸ªæľĪåĨħ":9136,"åıĺå¾ĹæĽ´åĬł":9137,"numbers":9138,"ç¼ĸåĨĻä¸Ģä¸ª":9139,"å¤©çĦ¶æ°Ķ":9140,"èĵĿèī²":9141,"æ»ŀçº³":9142,"çŃĶè¾©çĬ¶":9143,"åĪºæ¿Ģ":9144,"åİŁåŃĲèĥ½":9145,"Ġequation":9146,"èµĮåįļ":9147,"è¡Įä½¿ä¸ĭåĪĹèģĮæĿĥ":9148,"æĲħæĭĮ":9149,"ä¸ĭåĪĹçĶ¨è¯ŃçļĦåĲ«ä¹ī":9150,"45":9151,"oy":9152,"Ġå»ºç«ĭ":9153,"ĠçĽĳå¯Łå®ĺ":9154,"ä»Ķ":9155,"å®ı":9156,"åĴĮæĦıè§ģ":9157,"æľīç®¡è¾ĸæĿĥçļĦ":9158,"ä¸įæī¿æĭħèµĶåģ¿è´£ä»»":9159,"åºĶå½ĵæĶ¯æĮģ":9160,"åºĶå½ĵä¾Ŀçħ§æľ¬æ³ķ":9161,"åºĶå½ĵå¾ģæ±Ĥ":9162,"ç®¡æķĻ":9163,"åħ¶æīĢ":9164,"ç½©":9165,"ä¸īå¹´åĨħ":9166,"ä¾Ŀèµĸ":9167,"åİ¨":9168,"æł¹æį®æıĲä¾ĽçļĦ":9169,"çĽ¸ä¼¼":9170,"äº¤ç»Ļ":9171,"äº¤åī²":9172,"è¿Ľè¡ĮåĪĨç±»":9173,"å¼Ģåħ·":9174,"ç¡«":9175,"è´£ä»»ä¿ĿéĻ©":9176,"æĮīæľŁ":9177,"éĺ²åį«":9178,"åĽ½åĬ¡éĻ¢åĨľä¸ļåĨľæĿĳä¸»ç®¡éĥ¨éĹ¨":9179,"å°Ĩä»¥ä¸ĭ":9180,"æķĻåĶĨ":9181,"æĮīçħ§åĽ½å®¶":9182,"æľįè£ħ":9183,"ä¿ĿæĬ¤å·¥ä½ľ":9184,"åħ¬åı¸çĻ»è®°æľºåħ³":9185,"æ°´æ±¡æŁĵ":9186,"éĹ´æİ¥":9187,"æĮĩçļĦæĺ¯":9188,"å¼ºå¤§çļĦ":9189,"çĶ³è¯·äººçļĦ":9190,"éķ¿åŁİ":9191,"å¤įå®¡":9192,"å¦Ĥæŀľåľ¨":9193,"æĬķæĶ¾":9194,"äººæ°ĳä»£è¡¨å¤§ä¼ļå¸¸åĬ¡å§Ķåĳĺä¼ļ":9195,"å±¥èģĮ":9196,"æ³ķè§Ħè§Ħå®ļ":9197,"è½¬ä¸º":9198,"éĵ¸":9199,"æ»¤":9200,"æİ¨è¡Į":9201,"ong":9202,"åŀ«":9203,"èĩªæ²»æĿ¡ä¾ĭ":9204,"äº¤éĢļè®¾æĸ½":9205,"èĢĥéªĮ":9206,"çªĹ":9207,"é£Łåĵģæµªè´¹":9208,"å·¥ç¨ĭå¸Ī":9209,"åĲĪä¼ĻäººçļĦ":9210,"äº§çĶŁåĬŀæ³ķ":9211,"æł·åĵģ":9212,"Ġpos":9213,"è®¤ä¸ºéľĢè¦ģ":9214,"ä¸īåįģæĹ¥":9215,"çĽĳæµĭé¢ĦèŃ¦":9216,"æ®ĭçĸ¾äººçļĦ":9217,"äºĭå®ŀåĴĮ":9218,"Ġanswer":9219,"éļıåĨĽ":9220,"æ·±è¿ľ":9221,"åĽ½æľīåħ¬åı¸":9222,"åĳ³éģĵ":9223,"äººèº«ä¼¤äº¡":9224,"ç§©åºıçļĦ":9225,"æ¤įçī©æĸ°åĵģç§į":9226,"æļĤæī£":9227,"èģĶç³»æĸ¹å¼ı":9228,"çŃ¾è®¢çļĦ":9229,"éģĹäº§ç®¡çĲĨäºº":9230,"æ¸Ķä¸ļèĪ¹èĪ¶":9231,"åħ¨éĥ¨æĪĸèĢħéĥ¨åĪĨ":9232,"çĻ¾åĪĨä¹ĭåįģ":9233,"ĠCh":9234,"æµ·åŁŁä½¿çĶ¨æĿĥ":9235,"èħ¿":9236,"åı¯ä»¥éĩĩåıĸä»¥ä¸ĭæİªæĸ½":9237,"åĭ¤åĭī":9238,"ely":9239,"erson":9240,"ç¹ģæ®ĸ":9241,"è¾ŀéĢĢ":9242,"äººæ°ĳè°ĥè§£åĳĺ":9243,"åħ¼èģĮ":9244,"ä¸ªæĢ§åĮĸçļĦ":9245,"å¿łè¯ļ":9246,"å¡«åĨĻ":9247,"ä¸´åºĬè¯ķéªĮ":9248,"éĢļçĶ¨è¯Ńè¨ĢæĸĩåŃĹ":9249,"æĹ¨åľ¨":9250,"åĵºä¹³åĬ¨çī©":9251,"åĬŀæ¡Īæľºåħ³":9252,"åı¦æľīè§Ħå®ļå¤ĸ":9253,"å¼¹èį¯":9254,"åĽ½å®¶æĪĸèĢħåľ°åĮº":9255,"æĤ¬æĮĤ":9256,"ç¾İåĳ³çļĦ":9257,"çİ¯å¢ĥå½±åĵįæĬ¥åĳĬä¹¦":9258,"å»īæ´ģ":9259,"åĬ¨æ¤įçī©æ£Ģçĸ«æľºåħ³":9260,"éĩİçĶŁåĬ¨çī©åıĬåħ¶åĪ¶åĵģ":9261,"æłĸæģ¯åľ°":9262,"ç®¡åĪ¶æĪĸèĢħåī¥å¤ºæĶ¿æ²»æĿĥåĪ©":9263,"è¡įçĶŁåĵģ":9264,"æī®æ¼Ķ":9265,"rit":9266,"ub":9267,"Ġå·¥ä¼ļ":9268,"Ġä»»ä½ķåįķä½įåĴĮä¸ªäºº":9269,"Ġimp":9270,"çļĦè¿ĩç¨ĭä¸Ń":9271,"çļĦçĬ¯ç½ªå«Įçĸĳäºº":9272,"æľĹ":9273,"å®¿":9274,"åĴĮåįķ":9275,"åĴĮåĨĽéĺŁ":9276,"è¡ĮæĺŁ":9277,"æĬĵ":9278,"å¯ĵ":9279,"åºĶå½ĵåħĪ":9280,"åºĶå½ĵæİ¥åıĹ":9281,"çº¯":9282,"åŃĻ":9283,"å¯¹è¿Ŀåıį":9284,"éĥģ":9285,"æĢķ":9286,"æľ¬ç¥¨":9287,"ï¼ļ\"":9288,"åĩºäºİ":9289,"å¹¶ä»¥":9290,"å¹¶ç½ļ":9291,"å¹¶éĢļè¿ĩ":9292,"å¹¶åıĸå¾Ĺ":9293,"å¹¶ä¸įæĺ¯":9294,"åĽ½å®¶ç¦ģæŃ¢":9295,"éĺµ":9296,"æ³ķå¾ĭçļĦè§Ħå®ļ":9297,"è¡ĮæĶ¿å¼ºåĪ¶":9298,"æł¹æį®ç»Ļå®ļçļĦ":9299,"çĸ²":9300,"å¤ĸéĥ¨":9301,"è¿Ľè¡ĮåĪĨæŀĲ":9302,"ä¾Ŀæ³ķè¡Įä½¿":9303,"ä¾Ŀæ³ķè®¾ç«ĭçļĦ":9304,"æĬ¥åħ¨åĽ½äººæ°ĳä»£è¡¨å¤§ä¼ļå¸¸åĬ¡å§Ķåĳĺä¼ļ":9305,"åĬłéĢŁ":9306,"åĮĸåĴĮ":9307,"åĪ°åºŃ":9308,"éļ¶":9309,"åĽ½åĬ¡éĻ¢æ°ĳçĶ¨èĪªç©ºä¸»ç®¡éĥ¨éĹ¨":9310,"åħ«åĳ¨å²ģ":9311,"å°Ĩè¯¥":9312,"ä½¿çĶ¨åĴĮ":9313,"ä½¿çĶ¨æĥħåĨµ":9314,"è°ĥçĶ¨":9315,"è¯¥å¦Ĥä½ķ":9316,"çĶ³è¾©":9317,"çĶ³è¯·äººæ°ĳæ³ķéĻ¢":9318,"æĹłéľĢ":9319,"æĸ°èĥ½æºĲ":9320,"äººæ°ĳæ³ķéĻ¢ç®¡è¾ĸ":9321,"çĬ¯ç½ªè¡Įä¸º":9322,"ä½Ĩä¸į":9323,"åıĳå±ķæĶ¹éĿ©":9324,"ç»Łç§°":9325,"è£ģå®ļçļĦ":9326,"ä¹Łæ²¡æľī":9327,"çĽĳçĿ£ç®¡çĲĨèģĮè´£":9328,"è¯īè®¼ç¨ĭåºı":9329,"æ³¨æĺİ":9330,"æİĴåĪĹ":9331,"äº§åĵģåĴĮæľįåĬ¡":9332,"ond":9333,"è´Ńç½®":9334,"åħ¨åĽ½äººæ°ĳä»£è¡¨å¤§ä¼ļåĴĮ":9335,"åģ¥åº·æĪĲéķ¿":9336,"è°ĥæŁ¥åıĸè¯ģ":9337,"æĪĸèĢħåħ¶ä»ĸæĸ¹å¼ı":9338,"æĪĸèĢħåħ¶ä»ĸéĩĳèŀįæľºæŀĦ":9339,"åĨľä¸ļæĬķåħ¥åĵģ":9340,"æľªæĪĲå¹´åŃ¦çĶŁ":9341,"ä¸ļåĬ¡è§ĦåĪĻ":9342,"åĢºæĿĥäººçļĦ":9343,"å¸ĤåľºçĽĳçĿ£ç®¡çĲĨ":9344,"å¸Ĥåľºç«ŀäºī":9345,"ç»Īå®¡":9346,"æ°ĳæĹıåľ°åĮº":9347,"é¢ĨåŁŁä¸Ń":9348,"é¢Ħéĺ²æİªæĸ½":9349,"æ²³æµģ":9350,"éĢīæĭ©éĢĤåĲĪ":9351,"è½¬è®©ç»Ļ":9352,"Ġ19":9353,"åĽ½éĻħåĪĳäºĭåı¸æ³ķåįıåĬ©":9354,"æµ·äºĭè¯īè®¼":9355,"èı²":9356,"åĵªéĩĮ":9357,"äº²èĩª":9358,"å®īåħ¨çĶŁäº§ç®¡çĲĨäººåĳĺ":9359,"åŃĲå¥³çļĦ":9360,"èµ·è¯īçĬ¶":9361,"ç»ĪæŃ¢çļĦ":9362,"ç«łç¨ĭè§Ħå®ļ":9363,"ç»§ç»Ńå±¥è¡Į":9364,"é¤Ĳåħ·":9365,"çİ¯å¢ĥä¿ĿæĬ¤è¡ĮæĶ¿ä¸»ç®¡éĥ¨éĹ¨":9366,"ç§¯æŀģçļĦ":9367,"çŃ¹éĽĨ":9368,"æ²Ļæĭī":9369,"çļĦåħ·ä½ĵæĥħåĨµ":9370,"åħ´å¥ĭ":9371,"ç¼ºçĤ¹":9372,"å¾ģæĶ¶ç®¡çĲĨ":9373,"èĲ¥ä¸ļåľºæīĢ":9374,"åĽŀçŃĶéĹ®é¢ĺ":9375,"å®¡æī¹æľºåħ³":9376,"ç¤¾ä¼ļä¸»ä¹īå¸Ĥåľº":9377,"æĢİæł·":9378,"å¹¶å¤Ħç½ļéĩĳæĪĸèĢħæ²¡æĶ¶è´¢äº§":9379,"çĥŁåı¶":9380,"ollow":9381,"æĬ¥åĽ½åĬ¡éĻ¢æī¹åĩĨ":9382,"åĭ¤åĬ¡":9383,"è¿Ļæł·çļĦ":9384,"è¿Ļæł·åı¯ä»¥":9385,"æĸ°éĹ»æĬ¥éģĵ":9386,"ä¹ĺåĿĲ":9387,"åŃ©åŃĲçļĦ":9388,"æĬ«èĲ¨":9389,"Ġval":9390,"æĹłæľŁå¾ĴåĪĳæĪĸèĢħ":9391,"çģµæĦŁ":9392,"Ġhel":9393,"ä¸²éĢļ":9394,"æĹ¥ç¬¬åįģäºĮå±Ĭåħ¨åĽ½äººæ°ĳä»£è¡¨å¤§ä¼ļå¸¸åĬ¡å§Ķåĳĺä¼ļç¬¬åįģ":9395,"åħįçĸ«è§ĦåĪĴ":9396,"è¿Łå»¶":9397,"åĲĦèĩªçļĦèģĮè´£èĮĥåĽ´åĨħ":9398,"åĩºåı£ç®¡åĪ¶ç®¡çĲĨéĥ¨éĹ¨":9399,"è½¨éģĵ":9400,"ä¸ĭåĪĹæĥħå½¢ä¹ĭä¸ĢçļĦ":9401,"æĺĵåĪ¶çĪĨ":9402,"äºĮæ°§åĮĸç¢³":9403,"Ġif":9404,"Īå¤«":9405,"ä¸Īå¤«":9406,"çļĦåľŁåľ°":9407,"çļĦåĲĮæĹ¶":9408,"æľĥ":9409,"ãĢĤâĢľ":9410,"åľĪ":9411,"ä¼ļå¯¹":9412,"çĶ¨æµ·":9413,"æĪĸèĢħæıĲä¾Ľ":9414,"æĪĸèĢħä¸įäºĪ":9415,"ä¸įæĪĲ":9416,"åºĶå½ĵä¿Ŀéļľ":9417,"åħ¶åĲĪæ³ķæĿĥçĽĬ":9418,"åħ¨ç¨ĭ":9419,"æ¬§":9420,"ç®¡çĲĨåĬŀæ³ķçĶ±åĽ½åĬ¡éĻ¢":9421,"çĶ±ä¸»å¸ŃåĽ¢":9422,"æĶ¿åºľæľīåħ³éĥ¨éĹ¨":9423,"éĩĳéĴ±":9424,"ä¸İåĲĪä½ľ":9425,"ä¾Ŀæ³ķæī§è¡Į":9426,"åĩĨåħ¥":9427,"ä¾Ľç»Ļ":9428,"åĮĸåĲĪ":9429,"è¿Ļéĥ¨":9430,"è¿Ļé¦ĸ":9431,"æŃ£èģĮ":9432,"æľįåĬ¡çŃī":9433,"çĶ³è¯·å¤įè®®":9434,"éķ¿çļĦ":9435,"éĩĩåıĸçĽ¸åºĶ":9436,"å¯¼èĪª":9437,"è¿ĺæľīåħ¶ä»ĸ":9438,"æ¶Īæŀģ":9439,"å°±è¯¥":9440,"åŁºéĩĳéĶĢåĶ®":9441,"è®©äººä»¬":9442,"åĮ»çĸĹæľįåĬ¡":9443,"åįĸæ·«":9444,"éĢĤçĶ¨ç®Ģæĺĵç¨ĭåºı":9445,"éĢĢåĽŀ":9446,"æĺ¯åĲ¦åŃĺåľ¨":9447,"è§ĨåĲ¬":9448,"èī²å½©":9449,"é£ŁåĵģçĶŁäº§ç»ıèĲ¥èĢħ":9450,"ish":9451,"ç¼´çļĦ":9452,"ç»´æĬ¤ç¤¾ä¼ļ":9453,"å¿ħé¡»æĺ¯":9454,"éģĹèµł":9455,"åģĩèį¯":9456,"äºĴæį¢":9457,"åį±å®³åħ¬åħ±å®īåħ¨":9458,"å¦Ĥä½ķåľ¨":9459,"Ġfollow":9460,"åİ»ä¸ĸ":9461,"èĻļæŀĦ":9462,"ç»ĦæĪĲåĲĪè®®åºŃ":9463,"åķĨåĵģçļĦ":9464,"çĪ±å¥½":9465,"è¯įæ±ĩ":9466,"æĶ¿çŃĸåĴĮ":9467,"ç®ĢçŁŃ":9468,"æ¶Īè´¹èĢħçļĦ":9469,"åĿĩè¡¡":9470,"ä¼łæŁĵçĹħçĹħåİŁ":9471,"çĽĳçĿ£æ£ĢæŁ¥äººåĳĺ":9472,"çī¹æ®ĬæĥħåĨµ":9473,"æİ¢éĻ©":9474,"åı¯ä»¥å¸®åĬ©æĪĳä»¬":9475,"åħŃåįģæĹ¥åĨħ":9476,"äº§ä¸ļåıĳå±ķ":9477,"åħ´åĬŀ":9478,"ç¬¬ä¸ĢçĻ¾éĽ¶ä¸īæĿ¡":9479,"ç¬¬ä¸ĢçĻ¾ä¸ĢåįģäºĶæĿ¡":9480,"æĤ£èĢħçļĦ":9481,"ç¬Ķè®°":9482,"ä¹ĭéĹ´çļĦåħ³ç³»":9483,"æĵįçºµ":9484,"åı¯èĥ½ä¼ļå¯¼èĩ´":9485,"ä½Ļé¢Ŀ":9486,"æ¬ºåĩĮ":9487,"éħĴåºĹ":9488,"æĮªçĶ¨åħ¬æ¬¾":9489,"åĽ½å®¶é¼ĵåĬ±åĴĮæĶ¯æĮģ":9490,"æ°Ķè±¡ä¸»ç®¡æľºæŀĦ":9491,"åĢĴåħ¥":9492,"èµĽäºĭ":9493,"ä¸ĩåħĥä»¥ä¸ĬäºĶåįģä¸ĩåħĥä»¥ä¸ĭç½ļéĩĳ":9494,"æĶ¶è´¹æłĩåĩĨ":9495,"çīĽå¥¶":9496,"åı¦è¡Įè§Ħå®ļ":9497,"æ·«ç§½":9498,"åĽ¾åĥıè¯ĨåĪ«":9499,"æĥħèĬĤè¾ĥéĩįçļĦ":9500,"ä»ĵåĤ¨çī©":9501,"çļĦåŁºç¡Ģä¸Ĭ":9502,"æĮĸæİĺ":9503,"æľªæĮīè§Ħå®ļ":9504,"çĽ¸å½ĵäºİ":9505,"å½ķéŁ³å½ķåĥı":9506,"è¾¨è®¤":9507,"çİĽä¸½":9508,"åĳĪçİ°":9509,"ç·´ç¿Ĵ":9510,"ä¸Ńåįİæ°ĳæĹıåħ±åĲĮä½ĵæĦıè¯Ĩ":9511,"å®ħåŁºåľ°":9512,"å±¥è¡ĮåĩºèµĦäººèģĮè´£çļĦæľºæŀĦ":9513,"ll":9514,"sum":9515,"uct":9516,"ĠæĪĳ":9517,"Ġæľºåħ³":9518,"ĠåıĳçĶŁ":9519,"ĠåĨľæĿĳéĽĨä½ĵç»ıæµİç»Ħç»ĩ":9520,"çļĦåĽ½å®¶":9521,"äººç¾¤":9522,"æ³ķåĪ¶":9523,"åĴĮçĽĳçĿ£":9524,"åĴĮéĿŀ":9525,"åĴĮæĹ¶éĹ´":9526,"æľīç¬¦åĲĪ":9527,"ä¸Ģç³»åĪĹ":9528,"æĪĸèĢħå°Ĩ":9529,"æĪĸèĢħå§Ķæīĺ":9530,"æĪĸèĢħåĲįç§°":9531,"åı¯ä¾Ľ":9532,"ä¸įåľ¨":9533,"åºĶå½ĵå¼Ģå±ķ":9534,"ç®¡æĬ¤":9535,"åıĳæİĺ":9536,"ä¸ªåĪ«":9537,"èĩªçĲĨ":9538,"çĶ±å½ĵäºĭäºº":9539,"çĶ±å¤ĸäº¤éĥ¨":9540,"å¤§å®¶":9541,"éĺĲ":9542,"éģ¸":9543,"æł¹æľ¬":9544,"ä»£æĶ¶":9545,"ä¾Ŀæ³ķä¿ĿæĬ¤":9546,"åĲĳåħ¬å®īæľºåħ³":9547,"æıĲä¾Ľå¸®åĬ©":9548,"æıĲä¾Ľè¯ģæį®":9549,"ç¤¾ä¼ļè´£ä»»":9550,"çĶŁäº§åĬĽ":9551,"åĲĦè¯¥":9552,"æĽ´å¿«":9553,"è§Ħå®ļçļĦæľŁéĻĲåĨħ":9554,"æº¶":9555,"âĢĻ":9556,"åİ¿äººæ°ĳæĶ¿åºľ":9557,"æĸ°äº§åĵģ":9558,"çĽ¸åħ³æ³ķå¾ĭæ³ķè§Ħ":9559,"è´¢äº§æįŁå¤±":9560,"åĿ¦":9561,"å¦Ĥæŀľæľī":9562,"å¦Ĥæŀľæ²¡æľī":9563,"æī§è¡Įæľºåħ³":9564,"æĬķç±ĥ":9565,"å¤Ħç½ļæ¬¾":9566,"åı¯èĥ½éĿ¢ä¸´":9567,"å½ĵäºĭäººåı¯ä»¥":9568,"å½ĵäºĭäººä¸Ģæĸ¹":9569,"ree":9570,"åĮ»çĸĹåĻ¨æ¢°":9571,"å·²çŁ¥":9572,"ĠĠĊĠĠ":9573,"åıĳçĶŁåľ¨":9574,"åıĳçĶŁåĲİ":9575,"æ·¡":9576,"2020":9577,"åĩıå¾ģ":9578,"æķ°æį®åĴĮ":9579,"æķ°æį®åĪĨæŀĲ":9580,"åĢºæĿĥçļĦ":9581,"èŀįåħ¥":9582,"äººå·¥æĻºèĥ½åľ¨åĮ»çĸĹé¢ĨåŁŁ":9583,"ä¸ľè¥¿":9584,"éĻĦæľī":9585,"éĻĦå¸¦":9586,"èį¯åĵģçĶŁäº§":9587,"æī¿åĮħç»ıèĲ¥":9588,"éļĲèĹı":9589,"èĥ½å¤Łè¯ģæĺİ":9590,"çĮª":9591,"å®ĮæĪĲåĲİ":9592,"ç¦»å©ļçļĦ":9593,"Ġman":9594,"åıĹåĪ°æįŁå®³çļĦ":9595,"çº³ç¨İä¹īåĬ¡":9596,"æĸĩçī©æĶ¶èĹı":9597,"ä¼ļè®¡è´¦ç°¿":9598,"æĭĽæĶ¶":9599,"é¦Ļæ¸¯çī¹åĪ«è¡ĮæĶ¿åĮºç»´æĬ¤åĽ½å®¶å®īåħ¨":9600,"æīĵåį°":9601,"å°½è´£":9602,"Ġåľ¨ä¸Ńåįİäººæ°ĳåħ±åĴĮåĽ½å¢ĥåĨħ":9603,"ç§ĳåŃ¦æĬĢæľ¯äººåĳĺ":9604,"ç¿°":9605,"èıľåĵģ":9606,"æĬĹéľĩ":9607,"æįĲèµłè´¢äº§":9608,"åİĨåı²ä¸Ĭ":9609,"ç¬¬ä¸ĢçĻ¾éĽ¶åħ«æĿ¡":9610,"ç¬¬ä¸ĢçĻ¾éĽ¶äºĮæĿ¡":9611,"ç¬¬ä¸ĢçĻ¾ä¸Ģåįģä¸ĢæĿ¡":9612,"è¡¨çİ°åĩº":9613,"éĵģè·¯è¿Ĳè¾ĵä¼ģä¸ļ":9614,"å¤ļç§įæĸ¹å¼ı":9615,"èĢģå¹´äººæĿĥçĽĬä¿Ŀéļľæ³ķ":9616,"2023":9617,"å®īç½®åľ°":9618,"æłĳæľ¨":9619,"ç»Ħç»ĩçļĦåĲĪæ³ķæĿĥçĽĬ":9620,"ç¬¬ä¸ĢçĻ¾äºĮåįģæĿ¡":9621,"çķľç¦½åħ»æ®ĸ":9622,"åł¤":9623,"åłµ":9624,"è¯ģåĪ¸äº¤æĺĵåľºæīĢ":9625,"æĭĽæłĩäºº":9626,"ä¼ĺæĥłæĶ¿çŃĸ":9627,"æĶ¶åıĸè´¹çĶ¨":9628,"æľ¬çº§æĶ¿åºľ":9629,"åĨľæĿĳåľŁåľ°æī¿åĮħæ³ķ":9630,"åį¸è´§":9631,"ä½ıæĪ¿åĴĮ":9632,"ä¸įæŃ£å½ĵæīĭæ®µ":9633,"çļ®èĤ¤":9634,"ä¸»è§Ĥæĸ¹éĿ¢":9635,"ä¼ļåĲĮåĽ½åĬ¡éĻ¢æľīåħ³éĥ¨éĹ¨åĪ¶å®ļ":9636,"æ¶īæ¡Īè´¢çī©":9637,"åĪĽå»ºä¸Ģä¸ª":9638,"æľīæīĢä¸įåĲĮ":9639,"ç´¯è®¡":9640,"åĽ½æ°ĳç»ıæµİåĴĮç¤¾ä¼ļåıĳå±ķè®¡åĪĴ":9641,"èĩ´äººéĩįä¼¤":9642,"ä¸»äººåħ¬":9643,"åķĨæ£ĢæľºæŀĦ":9644,"æĺĵçĩĥæĺĵçĪĨ":9645,"èµĭäºĪ":9646,"å±ŀäºİåĽ½å®¶æīĢæľī":9647,"ä¾µçĬ¯çļĦå®¢ä½ĵ":9648,"åĮºåĿĹéĵ¾":9649,"åĨľæĿĳåľŁåľ°æī¿åĮħç»ıèĲ¥çºłçº·":9650,"å¹³åı°åĨħç»ıèĲ¥èĢħ":9651,"Ġhelp":9652,":ï¼Ī":9653,"de":9654,"Ġä¸İ":9655,"çļĦæĿĲæĸĻ":9656,"çļĦæŀĹæľ¨":9657,"åıī":9658,"äººæľī":9659,"åĴĮä¼ģä¸ļ":9660,"æ°¯":9661,"åĽ½æ³ķå¾ĭ":9662,"éĢ¼":9663,"éĹª":9664,"ä¸įåºĶ":9665,"åºĶå½ĵä½ľåĩº":9666,"çĶŁçĲĨ":9667,"ä¸ºåĩĨ":9668,"æĺ¯çĶ±äºİ":9669,"èĥİ":9670,"åĪ¶åīĤ":9671,"æĹ¶åºĶ":9672,"åĲĮäºĭ":9673,"å¹¶å®ŀæĸ½":9674,"åİĺ":9675,"ç¨®":9676,"æľīåħ³åĽ½å®¶æľºåħ³":9677,"èĤ¢":9678,"èĪĨ":9679,"éĩĳåĴĮ":9680,"æĺİå¤©":9681,"ä¾Ŀæ³ķè¿½ç©¶æ³ķå¾ĭè´£ä»»":9682,"æĬ¥çľģ":9683,"æľ¬æ³ķæĸ½è¡Į":9684,"ç¬¬ä¸īäººçļĦ":9685,"æıĲä¾ĽçļĦæ³ķå¾ĭ":9686,"å°Ĩåľ¨":9687,"çİ°çĬ¶":9688,"ä¿ĿæĬ¤åĮº":9689,"æ°´å·¥ç¨ĭ":9690,"çĶŁäº§åĴĮ":9691,"ä¸ªäººè´¢äº§":9692,"ä¿¡æģ¯ç½ĳç»ľ":9693,"ç¼ĺ":9694,"æĽ´ä¸º":9695,"æķĻèĤ²åŁ¹è®Ń":9696,"æĹłåĬĽ":9697,"çº¦ç¿°":9698,"ä¿ĿéĻ©äºĭæķħ":9699,"çİ¯å¢ĥåĴĮ":9700,"æŃ¤ç±»":9701,"éĢļè¿ĩçļĦ":9702,"è´Łè´£ç»Ħç»ĩ":9703,"ä»¥åıĬçĽ¸åħ³":9704,"æĤ¨åı¯ä»¥åĲĳ":9705,"åıĺåĬ¨":9706,"Ġam":9707,"è½¬ç§Ł":9708,"æľĪä»½":9709,"å½ĵäºĭäººåľ¨":9710,"å°±åı¯ä»¥":9711,"æıĲåĩºå»ºè®®":9712,"è¯·æ±ĤèµĶåģ¿":9713,"åħ¨åĽ½äººæ°ĳä»£è¡¨å¤§ä¼ļä»£è¡¨":9714,"2000":9715,"2019":9716,"æīĢå¾Ĺé¢Ŀ":9717,"å®¢è¿Ĳ":9718,"è´¨éĩıç®¡çĲĨ":9719,"Ġsol":9720,"æıĲé«ĺæķĪçİĩ":9721,"è¡ĮæĶ¿æ³ķè§Ħè§Ħå®ļçļĦ":9722,"æİ§åĪ¶æİªæĸ½":9723,"åĲĪçĲĨç¡®å®ļ":9724,"æł·æľ¬":9725,"å®ŀéĻħä¸Ĭ":9726,"å¼ºåĪ¶éļĶç¦»":9727,"æĲ¬":9728,"Ġmore":9729,"çĶŁçī©å¤ļæł·æĢ§":9730,"å±Ĭåħ¨åĽ½äººæ°ĳä»£è¡¨å¤§ä¼ļå¸¸åĬ¡å§Ķåĳĺä¼ļç¬¬ä¸īåįģ":9731,"æµ·åħ³çĽĳç®¡":9732,"éī´å®ļçļĦ":9733,"èĳĹåĲį":9734,"ased":9735,"æ³¨æĦıäºĭé¡¹":9736,"åĩºèµĦçļĦ":9737,"çĶŁæĪĲä¸Ģé¦ĸ":9738,"ç¤¾ä¼ļä¿ĿéĻ©æ³ķ":9739,"æķ°é¢Ŀçī¹åĪ«":9740,"èįīåİŁè¡ĮæĶ¿ä¸»ç®¡éĥ¨éĹ¨":9741,"æĭħä¿ĿçļĦ":9742,"è¡Ķçº§":9743,"é¸£":9744,"Ġåİ¿çº§ä»¥ä¸Ĭäººæ°ĳæĶ¿åºľåºĶå½ĵå°Ĩ":9745,"åĲĦèĩªèģĮè´£":9746,"åĮ»çĸĹåį«çĶŁäººåĳĺ":9747,"å®¤åĨħ":9748,"è¯ĬæĸŃåĴĮæ²»çĸĹ":9749,"åħ¨ä½ĵåĲĪä¼Ļäºº":9750,"ç»©æķĪ":9751,"æľºåĻ¨åŃ¦ä¹łç®Ĺæ³ķ":9752,"æĹłéļľç¢įçİ¯å¢ĥ":9753,"æĳĦåħ¥":9754,"çĵ¦":9755,"æĻĭçº§":9756,"ä¸įå¾Ĺä»¥ä»»ä½ķ":9757,"éĤ»å±ħ":9758,"ç¬¬äºĶçĻ¾ä¸Ģåįģ":9759,"èº«å¿ĥåģ¥åº·":9760,"çĸıæķ£":9761,"èģĬå¤©":9762,"å©ļå§»åħ³ç³»åŃĺç»ŃæľŁéĹ´":9763,"åĢ¡å¯¼":9764,"æ²ĻåĮĸåľŁåľ°":9765,"èĩªçĦ¶ä¿ĿæĬ¤åľ°":9766,"æļĤäºĪçĽĳå¤ĸæī§è¡Į":9767,"Ġinto":9768,"çī¢ä¸Ńåįİæ°ĳæĹıåħ±åĲĮä½ĵæĦıè¯Ĩ":9769,"éĢĤé¾ĦåĦ¿ç«¥":9770,"è°¨æħİ":9771,"éªļæī°":9772,"éĵ¸çī¢ä¸Ńåįİæ°ĳæĹıåħ±åĲĮä½ĵæĦıè¯Ĩ":9773,"ful":9774,"hat":9775,"ĠåĴĮ":9776,"Ġà°":9777,"çļĦå»ºè®¾":9778,"çļĦå½¢å¼ı":9779,"çļĦç²¾ç¥ŀ":9780,"çļĦèĳ£äºĭ":9781,"æľīè§Ħå®ļçļĦ":9782,"æĬĦ":9783,"éĢ¸":9784,"è§Ħæł¼":9785,"æĪĸèĢħæĵħèĩª":9786,"åľ¨ä¸į":9787,"åºĶå½ĵåĳĬçŁ¥":9788,"åºĶå½ĵå°Ĭéĩį":9789,"çº²":9790,"ä¸ºæ®ĭçĸ¾äºº":9791,"å¯¹åħ¬åı¸":9792,"åı¯ä»¥èĩª":9793,"ç»ıä¾Ŀæ³ķ":9794,"çŃīè¡Įä¸º":9795,"æĥľ":9796,"éĥ¨éĹ¨åĴĮ":9797,"åĲĮç±»":9798,"ç®¡çĲĨåįķä½į":9799,"éĢļçĶ¨çļĦ":9800,"å§¿":9801,"èĤº":9802,"æ¬¾çī©":9803,"äººåĳĺè¿Ľè¡Į":9804,"æĪĳåĸľæ¬¢":9805,"å¦ĤæŃ¤":9806,"åĨħæ²³":9807,"çĽ¸åĬł":9808,"åıĹæ¬¢è¿İ":9809,"å®īåħ¨éĺ²èĮĥ":9810,"ä¿¡ä»¶":9811,"æĺİä»¤":9812,"ä¾Ŀæ³ķä½ľåĩº":9813,"è¢«ç»§æī¿äºº":9814,"è¿ĻæľīåĬ©äºİ":9815,"å±ķçİ°":9816,"å°ĨéĿ¢ä¸´":9817,"éĩĩçº³":9818,"æµ·æ»©":9819,"åıįå®¶åºŃæļ´åĬĽ":9820,"æŃ£ä¹ī":9821,"æ°´éĩı":9822,"æ°´åºĵ":9823,"è¯¥ä¼ģä¸ļ":9824,"æĻĴ":9825,"æĤł":9826,"çĶµä»·":9827,"ä¸ªäººæīĢå¾Ĺç¨İ":9828,"ä¸įå¾ĹåĪ©çĶ¨":9829,"çľ·":9830,"çļĦè§Ħå®ļåĬŀçĲĨ":9831,"éĽĨèµĦ":9832,"ä»¥åıĬä¸İ":9833,"é£ŁæĿĲ":9834,"æıĲåĩºå¼Ĥè®®":9835,"è´ŃæĪ¿":9836,"å¸®æī¶":9837,"èģĮä¸ļèµĦæł¼":9838,"äº¤éĢļç®¡åĪ¶":9839,"èģĶåĲį":9840,"çĶŁæĢģçł´åĿı":9841,"å®ĥæĺ¯":9842,"æ¯ıæľĪ":9843,"èĳ¬":9844,"èįīåľ°":9845,"åıĳçİ°æľī":9846,"éĿŀæ³ķåįłæľī":9847,"å¿ħé¡»åľ¨":9848,"éĻĦè¿ĳ":9849,"åģļåĪ°":9850,"å¾Īå¥½":9851,"éĥ¨åĪĨæ³ķå¾ĭçļĦåĨ³å®ļ":9852,"å¤ĸåĽ½åĽ½å®¶":9853,"èĤ¡ä¸ľçļĦ":9854,"åŃĺåľ¨çļĦ":9855,"åĮºåŁŁçļĦ":9856,"æµ·äºĭèµĶåģ¿è´£ä»»éĻĲåĪ¶":9857,"éļıæĦı":9858,"æĹłæ³ķç¡®å®ļ":9859,"çĶµå½±ä¸»ç®¡éĥ¨éĹ¨":9860,"éĢĶä¸Ń":9861,"å°±ä¸ļä¿ĥè¿Ľæ³ķ":9862,"åįıåķĨä¸Ģèĩ´":9863,"è´Ńä¹°çļĦ":9864,"æī¾åĩº":9865,"æµ·ä¸Ĭäº¤éĢļå®īåħ¨":9866,"è´¢åĬ¡çĬ¶åĨµ":9867,"éĻĲæľŁæĶ¹æŃ£":9868,"çĥŃçĪ±":9869,"Ġeach":9870,"æīĭç»ŃçļĦ":9871,"ç´§å¼ł":9872,"çŃ¾è®¢ä¹¦éĿ¢":9873,"ä¸įæĸŃåıĳå±ķ":9874,"ĠThis":9875,"è¡ĮæĶ¿å¤Ħç½ļåĨ³å®ļ":9876,"å±ħä½ıçļĦ":9877,"Ġthan":9878,"æ´ªæ°´":9879,"åľ°éľĩçģ¾":9880,"åħ³äºİä¿®æĶ¹éĥ¨åĪĨæ³ķå¾ĭçļĦåĨ³å®ļ":9881,"é¡¾å®¢":9882,"çļĦåįķä½įæĪĸèĢħä¸ªäºº":9883,"ä¸ļä¸»å§Ķåĳĺä¼ļ":9884,"ä¹ĺä»¥":9885,"æµĭç»ĺåľ°çĲĨä¿¡æģ¯":9886,"åĩĢåĮĸ":9887,"åħ±æľīäºº":9888,"å¤ıå¤©çļĦ":9889,"ç¦ıåĪ©å¾ħéģĩ":9890,"èĬĤçº¦èĥ½æºĲ":9891,"æĶ¶åħ»åħ³ç³»":9892,"ä¹¡æĿĳæĮ¯åħ´":9893,"ä¸ĩåħĥä»¥ä¸ĬäºĮåįģä¸ĩåħĥä»¥ä¸ĭç½ļéĩĳ":9894,"ptions":9895,"å¹¶å¤ĦäºĶä¸ĩåħĥä»¥ä¸ĬäºĶåįģä¸ĩåħĥä»¥ä¸ĭç½ļéĩĳ":9896,"åħ½èį¯":9897,"Ġcomp":9898,"åĨħå¹ķä¿¡æģ¯":9899,"ç»ıå¸¸å±ħæīĢåľ°æ³ķå¾ĭ":9900,"çīŁåıĸ":9901,"è´©åįĸ":9902,"èµİåĽŀ":9903,"åħ¨æ°ĳæīĢæľīåĪ¶å·¥ä¸ļä¼ģä¸ļæ³ķ":9904,"ç¤¾ä¼ļä¸»ä¹īå¸Ĥåľºç»ıæµİ":9905,"æµĭç»ĺåľ°çĲĨä¿¡æģ¯ä¸»ç®¡éĥ¨éĹ¨":9906,"'m":9907,"GAN":9908,"XX":9909,"cul":9910,"me":9911,"mise":9912,"Ã©":9913,"Ġ#":9914,"ĠV":9915,"ĠåĮ»çĸĹæľºæŀĦ":9916,"ĠçĽĳå¯Łæľºåħ³":9917,"Ġåľ°æĸ¹åĲĦçº§äººæ°ĳä»£è¡¨å¤§ä¼ļ":9918,"ĠçŁ¿å±±":9919,"äººå¤§":9920,"æ³ķäººæĪĸèĢħ":9921,"åĴĮä¸İ":9922,"è¡Įè´¿":9923,"æī«":9924,"ä¸Ģéĥ¨":9925,"åįģåĪĨ":9926,"åºĶäºĪ":9927,"åºĶéĢī":9928,"åľ¨åĲĦèĩªçļĦèģĮè´£èĮĥåĽ´åĨħ":9929,"ä¸įå¿ħè¦ģçļĦ":9930,"ä¸įæĺİçļĦ":9931,"åºĶå½ĵæĺİç¡®":9932,"åºĶå½ĵéħįåĲĪ":9933,"èµ¢":9934,"åħ¶ä¸ŃçļĦ":9935,"ä¸ºæĪĳ":9936,"åľ°æĪĸèĢħ":9937,"ä¸īæĹ¥åĨħ":9938,"åı¯ä»¥æıĲä¾Ľ":9939,"åı¯ä»¥è®¾ç«ĭ":9940,"æıĲåĢ¡":9941,"å¹¶éĿŀ":9942,"å¹¶æĬ¥åĳĬ":9943,"åĪĨåĮº":9944,"åĪĨæĳĬ":9945,"è¯·åħĪ":9946,"åıĸç¼Ķ":9947,"æ¡ĥ":9948,"æĪĳæ²¡æľī":9949,"å®īåħ¨äºĭä»¶":9950,"äººæ°ĳæĶ¿åºľæī¹åĩĨ":9951,"åĬłçıŃ":9952,"è¢«è§Ĩä¸º":9953,"è¿Ļå®¶":9954,"è§£çŃĶ":9955,"ç¬¬ä¸īæ¬¡ä¿®æŃ£":9956,"éĩĩçłĤ":9957,"çİ°æľī":9958,"æ°´æ±¡æŁĵéĺ²æ²»":9959,"åĨľä½ľçī©":9960,"éĿ¢è¯ķ":9961,"åľºé¦Ĩ":9962,"æĬĢæľ¯çłĶç©¶":9963,"ä¸įå¾Ĺè½¬è®©":9964,"åĲĦæĸ¹éĿ¢":9965,"èĬĤæĹ¥":9966,"èĬĤçĽ®":9967,"å¼ºå¥¸":9968,"åĲĪåĲĮæĺ¯":9969,"è´¢äº§ä»½é¢Ŀ":9970,"ä½ĨæĪĳ":9971,"å¤ĦçĲĨç»ĵæŀľ":9972,"ç±»ä¼łæŁĵçĹħ":9973,"æĶ¾è¡Į":9974,"å¹³æĹ¶":9975,"æĺĵäºİ":9976,"èĪ¹åıª":9977,"ĠåĽ½å®¶éĩĩåıĸæİªæĸ½":9978,"ä¿Ŀéļľå·¥ä½ľ":9979,"å¥³åŃ©":9980,"èŃ¦æĪĴ":9981,"ä¸ŃåĽ½æĶ¿åºľ":9982,"æľīæĿĥåľ¨":9983,"åħ¬åħ±äº¤éĢļå·¥åħ·":9984,"é£İæĻ¯":9985,"çī¹åĪ«æĺ¯":9986,"ä½ľåĩºåĨ³è®®":9987,"åĭĴ":9988,"å¸®åĬ©ä½ł":9989,"ç¦ģæ¯Ĵ":9990,"ä¸ļåĬ¡ç»ıèĲ¥èĢħ":9991,"æĥ³è±¡":9992,"æ°ĳäºĭåħ³ç³»":9993,"ange":9994,"åİ¿çº§ä»¥ä¸Ĭäººæ°ĳæĶ¿åºľæľīåħ³éĥ¨éĹ¨":9995,"å·²ç»ıæĪĲä¸º":9996,"è¿ĩç¨ĭä¸ŃçļĦ":9997,"åĲĪä½ľåĴĮ":9998,"æ³ķå®ļä»£è¡¨":9999,"åŁºæľ¬åĨľçĶ°":10000,"éĿŀå¸¸éĩįè¦ģ":10001,"æ³ķäººèµĦæł¼":10002,"å½Ĵç±»":10003,"åįıåķĨç¡®å®ļ":10004,"Ġtotal":10005,"æĭįåįĸäºº":10006,"æķ°é¢Ŀå·¨å¤§æĪĸèĢħæľīåħ¶ä»ĸ":10007,"èĦ¸":10008,"å¦»åŃĲ":10009,"æķħæĦıä¼¤å®³":10010,"å·¥ä¼ļæ³ķ":10011,"ä¸ĵåĪ©çĶ³è¯·":10012,"Ġreturn":10013,"ç¬¬ä¸ĢçĻ¾éĽ¶åĽĽæĿ¡":10014,"ç¬¬ä¸ĢçĻ¾ä¸ĢåįģåħŃæĿ¡":10015,"åĲĪåĲĮçļĦçº¦å®ļ":10016,"Ġyear":10017,"æĢ§è´¨çļĦ":10018,"æĲľæķĳ":10019,"ĠIt":10020,"ä»ĸä»¬çļĦå¯¹è¯ĿåĨħå®¹":10021,"ç«ĭæ³ķä¼ļè®®":10022,"åĨĴåħħ":10023,"ä¸įåĬ¨äº§æĪĸèĢħ":10024,"ä¸įåĬ¨äº§çĻ»è®°":10025,"å®ĹæĹ¨":10026,"ä»¥ä¾¿æĽ´å¥½åľ°":10027,"åºĶå½ĵéĩĩåıĸæľīæķĪæİªæĸ½":10028,"ä¸¾åĬŀçļĦ":10029,"åĲ¬åıĸåĴĮ":10030,"ä¼ģä¸ļäºĭä¸ļåįķä½įåĴĮåħ¶ä»ĸçĶŁäº§ç»ıèĲ¥èĢħ":10031,"çŃ¾åıĳçļĦ":10032,"é«ĺæķĪçļĦ":10033,"åķĨä¸ļç§ĺå¯ĨåĴĮä¸ªäºº":10034,"å¾ĩç§ģèĪŀå¼ĬçļĦ":10035,"èĳĹä½ľæĿĥäºº":10036,"æķ°åŃ¦éĹ®é¢ĺ":10037,"åħ¼ä»»":10038,"èį£èªīç§°åı·":10039,"æ´¾åĩºæľºæŀĦ":10040,"æłĩåĩĨåĮĸè¡ĮæĶ¿ä¸»ç®¡éĥ¨éĹ¨":10041,"æĹ¥ç¬¬åįģäºĮå±Ĭåħ¨åĽ½äººæ°ĳä»£è¡¨å¤§ä¼ļå¸¸åĬ¡å§Ķåĳĺä¼ļç¬¬äºĮåįģ":10042,"æ³¨éĶĢçĻ»è®°":10043,"æİĴæ±¡åı£":10044,"åĪĨä¹ĭä¸Ģä»¥ä¸Ĭ":10045,"åĨ³ç®Ĺèįīæ¡Ī":10046,"çķħéĢļ":10047,"æĹ¥ç¬¬åįģä¸Ģå±Ĭåħ¨åĽ½äººæ°ĳä»£è¡¨å¤§ä¼ļå¸¸åĬ¡å§Ķåĳĺä¼ļç¬¬åįģæ¬¡ä¼ļè®®":10048,"åĿļæĮģä¸ŃåĽ½åħ±äº§åħļçļĦé¢Ĩå¯¼":10049,"ç¬¬åįģäºĮç«ł":10050,"æ»ŀçº³éĩĳ":10051,"Go":10052,"SW":10053,"ft":10054,"©åĽº":10055,"Ġë":10056,"Ġä»£è¡¨":10057,"Ġè¿Ŀåıį":10058,"ĬæĪ":10059,"çļĦåĬ¨çī©":10060,"çļĦå¤ĦåĪĨ":10061,"çļĦæŃ¥éª¤":10062,"æ³°":10063,"è¿ª":10064,"åįģä¸ī":10065,"çĽĨ":10066,"æĪĸèĢħæĭĴç»Ŀ":10067,"å·©åĽº":10068,"åľ¨å¢ĥåĨħ":10069,"åºĶå½ĵä¿Ŀè¯ģ":10070,"æŀĿ":10071,"å¯¹æŃ¤":10072,"ä¸ŃæľĢ":10073,"åľ°åĽ¾":10074,"éĥ¨ä½į":10075,"ï¼īâĢľ":10076,"åĵĦ":10077,"ä¸ĭçº§äººæ°ĳæ³ķéĻ¢":10078,"åĲĮåŃ¦":10079,"ç®¡çĲĨè§Ħå®ļ":10080,"ç¨į":10081,"åħ¶ä»ĸåĲĪä¼Ļäºº":10082,"åĪĨå±ħ":10083,"çĻ¼":10084,"èģĮåľº":10085,"è¯·ç»ĻæĪĳ":10086,"èĤ´":10087,"è®®äºĭ":10088,"ä»£æĽ¿":10089,"æĶ¶æ¬¾":10090,"ä¾Ŀæ³ķåıĸå¾Ĺ":10091,"åĲİæĿ¥":10092,"è¢«å®£åĳĬ":10093,"è¢«ç§°ä¸º":10094,"è¡Įä¸ºä¹ĭä¸ĢçļĦ":10095,"æĹ¥ä»¥åĨħ":10096,"ä»¥ä¸ĭç»Łç§°":10097,"ä»£è¡¨åĢĻéĢīäºº":10098,"æıĲä¾ĽæĬĢæľ¯":10099,"éĶģ":10100,"éĻĲåº¦":10101,"å°ıåĮº":10102,"æĿ¥çľĭ":10103,"éĻ¤ä»¥":10104,"è®°è¿ĩ":10105,"äººæ°ĳæ³ķéĻ¢åıĹçĲĨ":10106,"éĩĩåıĸè¡¥æķĳæİªæĸ½":10107,"é¢Ŀå¤ĸ":10108,"ä½łæĺ¯":10109,"æī§è¡Įå®Įæ¯ķ":10110,"å¹³éĿ¢":10111,"åı£ç½©":10112,"æĢ»ç½²":10113,"çĤ¹çļĦ":10114,"åħ¨åĽ½çļĦ":10115,"ç¬¦åĲĪåĽ½å®¶":10116,"æ¶Īå¤±":10117,"åıĬæĹ¶å¤ĦçĲĨ":10118,"èµĦæºĲåĴĮ":10119,"åıĬåħ¶è¿ĳäº²å±ŀ":10120,"åıĬåħ¶æ³ķå®ļä»£çĲĨäºº":10121,"è½¦èĪ¹":10122,"èģĮä¸ļä¸Ńä»ĭ":10123,"æĻºèĥ½æīĭæľº":10124,"ä½ľåĩºè¯´æĺİ":10125,"è¿½è¯ī":10126,"æĪĸèĢħåħ¶ä»ĸæľīåħ³éĥ¨éĹ¨":10127,"ating":10128,"ä¸ĵä¸ļçļĦ":10129,"åīįæ¬¾æīĢåĪĹ":10130,"å°ıæĺİåĴĮ":10131,"åħ±åĲĮçļĦ":10132,"èİ·æķĳ":10133,"ç»´æĬ¤ä¿Ŀåħ»":10134,"äºĴåĬ©":10135,"åį±å®³çļĦ":10136,"ç²¾åĬĽ":10137,"äººæ°ĳæ£Ģå¯ŁéĻ¢çļĦ":10138,"åİ»å¹´":10139,"åĲĮæĦıçļĦ":10140,"ard":10141,"æ£ĢéªĮåĲĪæł¼":10142,"é¢Ĩå¯¼æľºæŀĦ":10143,"ç»ĦæĪĲäººåĳĺçļĦ":10144,"ä¸Ńå¤®åĴĮåľ°æĸ¹":10145,"å¤ĦäºĶæĹ¥ä»¥ä¸ĭæĭĺçķĻ":10146,"æ¢ģ":10147,"è£ģå®ļä¹¦":10148,"è°ĥæķ´æĸ¹æ¡Ī":10149,"åĴĮç¤¾ä¼ļåħ¬åħ±åĪ©çĽĬ":10150,"æĭĽçĶ¨":10151,"å»¶è¯¯":10152,"æķ°é¢Ŀè¾ĥå¤§çļĦ":10153,"èĦı":10154,"æııç»ĺ":10155,"æī§æ³ķäººåĳĺ":10156,"åį±éĻ©åĮĸåŃ¦åĵģå®īåħ¨":10157,"Ġå¯¹åľ¨":10158,"æķ£æŃ¥":10159,"ace":10160,"ä»įä¸įèĥ½":10161,"èıľåįķ":10162,"ç»Ļåĩºæİ¨çĲĨè¿ĩç¨ĭ":10163,"ç¬¬ä¸ĢçĻ¾ä¸ĢåįģæĿ¡":10164,"èĭ±åĽ½":10165,"ç¼ĵæľŁ":10166,"ä¼¼ä¹İ":10167,"å§ĵæ°ı":10168,"Ġgo":10169,"éĨĭ":10170,"å®Įæķ´æĢ§":10171,"åĲ¨ç¨İ":10172,"ç¬¬ä¸ĢåįĥéĽ¶åħŃåįģ":10173,"èµĦè´¨çŃīçº§":10174,"é¸¡èĽĭ":10175,"åºĶæĢ¥å¤Ħç½®æİªæĸ½":10176,"ä¾¨çľ·":10177,"åºĶçº³ç¨İæīĢå¾Ĺé¢Ŀ":10178,"ç»ĻåĩºçŃĶæ¡ĪçĦ¶åĲİåĨį":10179,"å°¾çŁ¿":10180,"è¿ĩåįĬæķ°éĢļè¿ĩ":10181,"åŁºéĩĳç®¡çĲĨäººçļĦ":10182,"æł¹æį®ä¸ŃåĽ½æ³ķå¾ĭ":10183,"æģ¶åĬ£çļĦ":10184,"æİ§èĤ¡èĤ¡ä¸ľ":10185,"é¢Ħéĺ²æľªæĪĲå¹´äººçĬ¯ç½ªæ³ķ":10186,"æľªä½ľè§Ħå®ļçļĦ":10187,"æĦıå¤§åĪ©éĿ¢":10188,"Ġadd":10189,"ä¸ªå·¥ä½ľæĹ¥åĨħ":10190,"èĤĮèĤī":10191,"éº»éĨīèį¯åĵģ":10192,"äºĮåįģåĽĽå°ıæĹ¶":10193,"Ġassist":10194,"èĪĨè®º":10195,"å¼ºåĪ¶éļĶç¦»æĪĴæ¯Ĵ":10196,"è¯·åħĪç»ĻåĩºçŃĶæ¡ĪçĦ¶åĲİåĨį":10197,"è¯·åħĪç»ĻåĩºçŃĶæ¡ĪçĦ¶åĲİåĨįç»Ļåĩºæİ¨çĲĨè¿ĩç¨ĭ":10198,"We":10199,"not":10200,"oo":10201,"ov":10202,"vent":10203,"we":10204,"çµ":10205,"Ġä¿ĿéĻ©":10206,"Ġç½ĳç»ľ":10207,"Ġäººæ°ĳèŃ¦å¯Ł":10208,"çļĦä¸Ģä¸ª":10209,"çļĦæłĩåĩĨ":10210,"çļĦè®¾è®¡":10211,"çļĦæĸ¹éĴĪ":10212,"äººæĪĸ":10213,"åĬĿ":10214,"åĴĮäºº":10215,"åĴĮæľī":10216,"åĴĮåı¯":10217,"åĴĮè¡Įä¸º":10218,"ä»¥æıĲé«ĺ":10219,"ä¸Ģåįĥ":10220,"ä¸Ģå¼ł":10221,"ä¸ĢæĿ¯":10222,"å½ĵä»£":10223,"æĪĸèĢħä¸įèĥ½":10224,"æĪĸèĢħåħ¨éĥ¨":10225,"ä¸įåĽł":10226,"åºĶå½ĵä»İ":10227,"åºĶå½ĵåĩºç¤º":10228,"çĶŁæĹ¥":10229,"å¯¹è¿Ŀæ³ķ":10230,"èĥ¸":10231,"åıĳåĽŀ":10232,"ä¸ĭä¸Ģä¸ª":10233,"çī©æĿĥçļĦ":10234,"æĹ¶åĪ»":10235,"äºĶåĢįä»¥ä¸ĭçļĦç½ļæ¬¾":10236,"åİļ":10237,"ä»»æĦı":10238,"åĽ½å®¶æĺİä»¤":10239,"æīĢæĮģ":10240,"åĽĽæ¬¡ä¼ļè®®":10241,"çħ§çīĩ":10242,"åĪĨç¦»":10243,"å¹´ä»½":10244,"éģ©":10245,"åıĸåĩº":10246,"äºĨè®¸å¤ļ":10247,"ä¸İåĬ³åĬ¨èĢħ":10248,"çĽ¸è¡Ķæİ¥":10249,"åĲĳåħ¶":10250,"ä¾Ľè¿°":10251,"åĬłçĽĸ":10252,"è¢«çĽĳæĬ¤äººçļĦ":10253,"æĹ¥ç¬¬ä¸ĥ":10254,"åĽ½åĬ¡éĻ¢èį¯åĵģçĽĳçĿ£ç®¡çĲĨéĥ¨éĹ¨":10255,"éľĢè¦ģèĢĥèĻĳ":10256,"éľĢè¦ģå»¶éķ¿":10257,"ç»Ļåħ¶ä»ĸ":10258,"ä½¿çĶ¨äºĨ":10259,"ç¤¾ä¼ļæ³ķ":10260,"å¸¸å¸¸":10261,"éĹ´çļĦ":10262,"è¯¥å¦Ĥä½ķå¤ĦçĲĨ":10263,"éĿ¢åĲĳ":10264,"çĶµåĻ¨":10265,"åĲįä¸º":10266,"æĮĩæİ§":10267,"è´¨æĿĥäºº":10268,"æĭħå¿ĥ":10269,"ä¸ĵæľī":10270,"éĻ¤åĲį":10271,"æĹłå±ħæ°ĳæµ·å²Ľ":10272,"é¢Ħè®¢":10273,"éĢīåĩº":10274,"äººæ°ĳæ³ķéĻ¢åı¯ä»¥":10275,"å¤ļåħĥ":10276,"çĽ¸åħ³æ³ķå¾ĭè§Ħå®ļ":10277,"ç¨İçĽ®":10278,"å¯¼æ¸¸":10279,"çĬ¯ç½ªæ¡Īä»¶":10280,"çĬ¯ç½ªäºĭå®ŀ":10281,"åľ°æĸ¹æĶ¿åºľ":10282,"ä½łåľ¨":10283,"Ġtw":10284,"åı¯èĥ½å¯¹":10285,"ç¾Ĭ":10286,"èģĶåĭ¤":10287,"Ġsum":10288,"å¤©ç©º":10289,"è¡¥æŃ£":10290,"ä¸ĵä¸ļäººå£«":10291,"æ°ĳäºĭèµĶåģ¿è´£ä»»":10292,"éĵ¶è¡Įè´¦æĪ·":10293,"å·²ç»ıè¢«":10294,"Ġcount":10295,"éĽ¶åĶ®":10296,"å®£æī¬":10297,"é¥ª":10298,"ç²¾åĩĨ":10299,"æ³ķå®ļèģĮè´£":10300,"éĤ£ä¸ª":10301,"çľĭæ³ķ":10302,"éĢīä¸¾çļĦ":10303,"æľªç»ıçĻ»è®°":10304,"ç¯®":10305,"åºĶå½ĵä¾Ŀæ³ķæī¿æĭħèµĶåģ¿è´£ä»»":10306,"è§£éĻ¤åĬ³åĬ¨åĲĪåĲĮ":10307,"éĿŀå¸¸æĦŁè°¢":10308,"æ°ĳçĶ¨æŀªæĶ¯":10309,"ç»¼åĲĪæĢ§":10310,"åįĩçº§":10311,"åĲ«éĩı":10312,"èº«ä»½è¯ģæĺİ":10313,"åĿļæĮģä»¥":10314,"çı¾":10315,"æ²¹æ±¡":10316,"å°ģåŃĺ":10317,"æī¶è´«":10318,"ä¸¤ä¸ªæķ°åŃĹ":10319,"æŃ»äº¡æĪĸèĢħ":10320,"èº«ä½ĵçļĦ":10321,"ç¬¬ä¸ĢçĻ¾éĽ¶ä¸ĥæĿ¡":10322,"ç¬¬ä¸ĢçĻ¾éĽ¶äºĶæĿ¡":10323,"åį°èĬ±":10324,"æĪ¿å±ĭçļĦ":10325,"æĸ½å·¥åįķä½į":10326,"ä¸įäºĪåıĹçĲĨ":10327,"æ¾³éĹ¨çī¹åĪ«è¡ĮæĶ¿åĮºæĶ¿åºľ":10328,"æľ¨æĿĲ":10329,"éĢĥéĢ¸":10330,"çĻ¾åĪĨä¹ĭäºĮåįģ":10331,"old":10332,"åªĴä»ĭ":10333,"æĭŁè®¢":10334,"åł¡":10335,"ç®¡éģĵä¼ģä¸ļ":10336,"å¦Ĥå®ŀè®°å½ķ":10337,"åħ¬è¯ģåĳĺ":10338,"çĨĬ":10339,"ä¿Ŀåģ¥é£Łåĵģ":10340,"æİ¥ç§įåįķä½į":10341,"è¿ģç§»":10342,"ode":10343,"åħĪè¿ĽçļĦ":10344,"æ½ľåĬĽ":10345,"å®ĹæķĻä¿¡ä»°":10346,"çªģåıĳåħ¬åħ±åį«çĶŁäºĭä»¶åºĶå¯¹":10347,"æĬķæłĩäºº":10348,"ä¸įæŃ£å½ĵåĪ©çĽĬ":10349,"èľľ":10350,"ä¸ĩåħĥä»¥ä¸Ĭä¸ĢçĻ¾ä¸ĩåħĥä»¥ä¸ĭç½ļæ¬¾":10351,"æĳĬæ´¾":10352,"ç»´æĬ¤èĩªå·±çļĦæĿĥçĽĬ":10353,"ç§ĳåŃ¦æĬĢæľ¯çłĶç©¶å¼ĢåıĳæľºæŀĦ":10354,"å®ŀè´¨æĢ§":10355,"ä»»ä½ķç»Ħç»ĩæĪĸèĢħä¸ªäººä¸įå¾Ĺ":10356,"ä»»ä½ķç»Ħç»ĩåĴĮä¸ªäººä¸įå¾Ĺ":10357,"çĥ¹é¥ª":10358,"ä¸įåı¯ç§»åĬ¨æĸĩçī©":10359,"ä»¥èĩªå·±çļĦåĲįä¹ī":10360,"çī¹åĪ«ç¨ĭåºıæ³ķ":10361,"å®ıè§Ĥ":10362,"èĩªæ²»æĿ¡ä¾ĭåĴĮåįķ":10363,"æµ·äºĭè¯īè®¼çī¹åĪ«ç¨ĭåºıæ³ķ":10364,"ä½ıæĪ¿åĴĮåŁİä¹¡å»ºè®¾":10365,"SWAP":10366,"èĩªæ²»æĿ¡ä¾ĭåĴĮåįķè¡ĮæĿ¡ä¾ĭ":10367,"90":10368,"box":10369,"so":10370,"´éĢī":10371,"æª":10372,"ĠéĢļè¿ĩ":10373,"Ġå¤ĸåĽ½äºº":10374,"Ġæ°ĳæĹıèĩªæ²»åľ°æĸ¹çļĦèĩªæ²»æľºåħ³":10375,"çļĦèģĮä¸ļ":10376,"çļĦç»Ħç»ĩåĴĮä¸ªäºº":10377,"çļĦç»ĦæĪĲäººåĳĺ":10378,"ãĢĤãĢĲ":10379,"åĴĮè¦ģæ±Ĥ":10380,"ä¼Ĭ":10381,"ä»¥åħ¶ä»ĸ":10382,"ä»¥æļ´åĬĽ":10383,"æľīä¸ĢäºĽ":10384,"ä¸ĢæĹ¥":10385,"èĢħåĴĮ":10386,"æĹ±":10387,"æĪĸèĢħä»İäºĭ":10388,"æĪĸèĢħæľªç»ı":10389,"æĪĸèĢħåıĺæĽ´":10390,"åºĶå½ĵåĪ¶ä½ľ":10391,"è§Ħå®ļæĿ¡ä»¶çļĦ":10392,"æĺ¯éĢļè¿ĩ":10393,"æľ¬åľ°":10394,"æľ¬æĿ¡ä¾ĭ":10395,"çŃīå½¢å¼ı":10396,"æĹ¶èµ·":10397,"å¹¶åĳĬçŁ¥":10398,"å¹¶æĬ¥åĽ½åĬ¡éĻ¢":10399,"ç®¡çĲĨçŃī":10400,"ç¨¿":10401,"çĶ±æ³ķå¾ĭè§Ħå®ļ":10402,"å®ŀä¹ł":10403,"åĪĨæĪĲ":10404,"å¤§è§Ħæ¨¡":10405,"éģ´éĢī":10406,"èĤĩ":10407,"æĪĳä¹Ł":10408,"å¿Į":10409,"æ¸£":10410,"çĽ¸ç¬¦":10411,"å§Ķæ´¾":10412,"è¿Ľè¡Įæ¸ħç®Ĺ":10413,"å®īåħ¨æĬĢæľ¯":10414,"å®īåħ¨æĬĢæľ¯è§ĦèĮĥ":10415,"æĢ§éĹ®é¢ĺ":10416,"è¢«çĽĹ":10417,"æİ¥è¿ĳ":10418,"ä½¿çĶ¨æĪĸèĢħ":10419,"ä½¿çĶ¨è´¹":10420,"çī¹æĿĥ":10421,"æ°´è¡ĮæĶ¿":10422,"è¯¥æ³ķ":10423,"åķĨåľº":10424,"åĪĹè½¦":10425,"éªĳ":10426,"åįİä¾¨":10427,"è¦ģæ±ĤèµĶåģ¿":10428,"å¥½å¤Ħ":10429,"éĽĨåĽ¢":10430,"ä¸Ńåįİäººæ°ĳåħ±åĴĮåĽ½æ³ķå¾ĭ":10431,"è´§è¿Ĳ":10432,"æĶ¾ç½®":10433,"æ³ķè§Ħè§Ħå®ļçļĦåħ¶ä»ĸ":10434,"ink":10435,"åŃĺæĶ¾":10436,"Ġapp":10437,"åĪ¶å®ļåĴĮ":10438,"ä¸¥éĩįå½±åĵį":10439,"ä¸¥éĩįåĲİæŀľçļĦ":10440,"æī¹åĩĨæĿĥçļĦ":10441,"æİĴæ°´":10442,"æĴ°":10443,"å·²è¢«":10444,"æ¸ħéĻ¤":10445,"é£İæļ´":10446,"æ·ĭ":10447,"å¿ĥåĴĮ":10448,"ç¤ºä¾ĭ":10449,"éĢĢè´§":10450,"åģľæ³Ĭ":10451,"eng":10452,"æķ°æį®éĽĨ":10453,"æĸĩåĮĸä¸»ç®¡éĥ¨éĹ¨":10454,"äºĪä»¥èŃ¦åĳĬ":10455,"åį±éĻ©æºĲ":10456,"åį±éĻ©è´§çī©":10457,"èİ·çī©":10458,"æĦıè§ģçļĦ":10459,"éģĹå±ŀ":10460,"è¯ģæĺİä¹¦":10461,"åĲĪçĲĨå®īæİĴ":10462,"æľŁéĹ´ä¸º":10463,"åį±å®³æĢ§":10464,"**.":10465,"åħ¸åŀĭ":10466,"çĭ¬ä»»":10467,"æī¿åĮħåįķä½į":10468,"è½»æĪĸèĢħåĩıè½»":10469,"éĩĳèŀįæľįåĬ¡":10470,"ç§ĳæĬĢçļĦ":10471,"æıĲèµ·çļĦè¯īè®¼":10472,"å®ĮæĪĲçļĦ":10473,"ĠåĽ½åĬ¡éĻ¢æľīåħ³éĥ¨éĹ¨":10474,"æĿİæŁĲ":10475,"è®¸åı¯è¯ģæĪĸèĢħ":10476,"ç®ĢåĮĸ":10477,"ome":10478,"æĸĩæľ¬ä¸ŃçļĦ":10479,"æµ·æ´ĭçİ¯å¢ĥä¿ĿæĬ¤":10480,"ç®¡åĪ¶çī©é¡¹":10481,"ä¸ªæľĪåĨħ":10482,"åĽ½æľīçĭ¬èµĦ":10483,"åħ¶ä¸ŃåĮħæĭ¬":10484,"åĩºå¢ĥçļĦ":10485,"åĸľå¥½":10486,"åħ¬åĬ¡çļĦäººåĳĺ":10487,"Ġhave":10488,"ç¬¬ä¸Ģæ¬¾è§Ħå®ļçļĦ":10489,"æ¡£æ¡Īé¦Ĩ":10490,"åĳĺå·¥çļĦ":10491,"ç«ŀäºīå¯¹æīĭ":10492,"æĶ¾å°ĦæĢ§æ±¡æŁĵéĺ²æ²»":10493,"ç¬¬ä¸īçĻ¾åħ«åįģ":10494,"ĠSt":10495,"æĬķåħ¥ä½¿çĶ¨":10496,"æĢ§è´¨åĴĮ":10497,"åľ°éľĩçĽĳæµĭ":10498,"åĨĽéĺŁåĲİåĭ¤":10499,"æİ¥åĪ°ä¸¾æĬ¥":10500,"è®¡ç®Ĺæľºè§Ĩè§ī":10501,"ç®¡éģĵä¿ĿæĬ¤":10502,"ä¹Ļæĸ¹":10503,"æĭĸæ¬ł":10504,"çĶµä¿¡ä¸ļåĬ¡ç»ıèĲ¥èĢħ":10505,"Ġä¸ºäºĨè§ĦèĮĥ":10506,"å¯»æ±Ĥå¸®åĬ©":10507,"åģ¶æķ°":10508,"æ¦Ĥæĭ¬":10509,"è®¨è®ºåĨ³å®ļ":10510,"çĶ±åħ¬å®īæľºåħ³ä¾Ŀæ³ķç»ĻäºĪæ²»å®īç®¡çĲĨå¤Ħç½ļ":10511,"åºĶå½ĵäºĪä»¥éħįåĲĪ":10512,"æł¸å¿ĥä»·åĢ¼è§Ĥ":10513,"çī¹ç§įè®¾å¤ĩå®īåħ¨æ³ķ":10514,"æ°¸ä¹ħåŁºæľ¬åĨľçĶ°":10515,"æīĢå±ŀçļĦ":10516,"ç£¨":10517,"è¿Ŀæ³ķçĬ¯ç½ªè¡Įä¸º":10518,"åħ·ä½ĵåĬŀæ³ķçĶ±åĽ½åĬ¡éĻ¢è§Ħå®ļ":10519,"åħµå½¹æľºåħ³":10520,"æľīæ¯Ĵæľīå®³çī©è´¨":10521,"Ġspec":10522,"æĭ¼åĨĻ":10523,"è´«åĽ°åľ°åĮº":10524,"é¹¿":10525,"çĶ·å¥³åıĮæĸ¹":10526,"è´£ä»¤åģľäº§åģľä¸ļæķ´é¡¿":10527,"æŀģç«¯ä¸»ä¹ī":10528,"åħĦå¼Ł":10529,"æī¿æĭħä¿Ŀè¯ģè´£ä»»":10530,"åĽ½å¢ĥåį«çĶŁæ£Ģçĸ«":10531,"åĭ¾ç»ĵ":10532,"åĮĸåĲĪçī©":10533,"å®īç½®åľ°äººæ°ĳæĶ¿åºľ":10534,"boxed":10535,"))":10536,"36":10537,"80":10538,"\\]":10539,"def":10540,"ÛĮ":10541,"è¤":10542,"Ġå¼Ģå±ķ":10543,"Ġ200":10544,"ĠåĨľæ°ĳä¸ĵä¸ļåĲĪä½ľç¤¾":10545,"ĠæħĪåĸĦç»Ħç»ĩ":10546,"Ġé«ĺçŃīåŃ¦æł¡":10547,"Ġä¿ĿéĻ©åħ¬åı¸":10548,"çļĦè®¾æĸ½":10549,"çļĦè®¾ç«ĭ":10550,"çļĦæľªæĪĲå¹´äºº":10551,"çļĦä¾Ŀæį®":10552,"çļĦèĩªçĶ±":10553,"ä»¥å¸®åĬ©":10554,"æľīæī¹åĩĨæĿĥçļĦ":10555,"ä¸Ģæ¬¾":10556,"æĬĽ":10557,"åºĶåĲĳ":10558,"å¯¸":10559,"æĪĸä¸į":10560,"æĹģ":10561,"ä¸įåĲĪæł¼":10562,"åºĶå½ĵåĲĮæĹ¶":10563,"åºĶå½ĵç»ĵåĲĪ":10564,"äººæ°ĳçļĦ":10565,"å°ī":10566,"å¯¹åı¯èĥ½":10567,"å¯¹æľªæĪĲå¹´äºº":10568,"äº§æĿĥçļĦ":10569,"æĺ¯åĽ½å®¶":10570,"æĺ¯åĽłä¸º":10571,"éĥ¨éķ¿":10572,"è¦ģæ³¨æĦı":10573,"åı¯ä»¥çĶ¨":10574,"ç»ıäººæ°ĳæ³ķéĻ¢":10575,"æľ¬äººçļĦ":10576,"çŃīè¿Ľè¡Į":10577,"çī©èģĶç½ĳ":10578,"çİ»":10579,"åĽ½å®¶åĬłå¼º":10580,"åĽ½å®¶éĢļçĶ¨è¯Ńè¨ĢæĸĩåŃĹ":10581,"æīĢæıĲä¾ĽçļĦ":10582,"çĶ±å¸ĤåľºçĽĳçĿ£ç®¡çĲĨéĥ¨éĹ¨":10583,"åĪĨè§£":10584,"çĻĮ":10585,"æ³ķå¾ĭåı¦æľīè§Ħå®ļçļĦ":10586,"éģĬæĪ":10587,"æł¹æį®é¢ĺçĽ®":10588,"è¿ĩæĪ·":10589,"å·¥ä½ľæķĪçİĩ":10590,"å®īåħ¨ä¿Ŀåį«":10591,"æĺİçĻ½":10592,"ä¾Ŀæ³ķäº«åıĹ":10593,"æĬ¥çº¸":10594,"ä¸ĥæĹ¥åĨħ":10595,"è¢«ä¾µå®³":10596,"æĹ¥åİĨ":10597,"éľĢè¦ģéĩĩåıĸ":10598,"æĮīçħ§åħ¶":10599,"é«ĺä¸Ń":10600,"åĨľæĪ·":10601,"æºĲå¤´":10602,"æĸ°å¢ŀ":10603,"æľĢå¥½çļĦ":10604,"ä¸Ńåįİäººæ°ĳåħ±åĴĮåĽ½åĪĳäºĭè¯īè®¼æ³ķ":10605,"ä¹Łå°Ĩ":10606,"åıĺæĪĲ":10607,"åıĺéĿ©":10608,"åĸ·":10609,"æī¿æĭħçĽ¸åºĶ":10610,"ĠåĽ½å®¶å®īåħ¨":10611,"ç¬¦åĲĪæľ¬æ³ķ":10612,"æ³¨å°Ħ":10613,"ç»ĻäºĪå¤Ħç½ļ":10614,"æĪĳä»¬å°Ĩ":10615,"è®©ä½ł":10616,"æıĲåĩºçĶ³è¯ī":10617,"è¯·æ±ĤæĿĥ":10618,"åĽŀå®¶":10619,"å®¹çķĻ":10620,"å¼ķäºº":10621,"æĦŁçŁ¥":10622,"ata":10623,"äºĪä»¥å¤Ħç½ļ":10624,"è¯Ńåı¥":10625,"åį±éĻ©æĸ¹æ³ķ":10626,"åīįæ¬¾æīĢç§°":10627,"éĵ¶è¡ĮæĪĸèĢħåħ¶ä»ĸéĩĳèŀįæľºæŀĦ":10628,"å°ıæĺİæľī":10629,"å¼ĢåıĳåķĨ":10630,"åºĶå½ĵæĮīçħ§æľīåħ³è§Ħå®ļ":10631,"äºĮåįģä¸ĩåħĥä»¥ä¸ĬäºĮçĻ¾ä¸ĩåħĥä»¥ä¸ĭçļĦç½ļæ¬¾":10632,"é¼ĵåĬ±åĴĮ":10633,"è¯Ħä¼°ç»ĵæŀľ":10634,"ç¾İæľ¯":10635,"æĵĩ":10636,"åĨĽäºĭè®Ńç»ĥ":10637,"Ġper":10638,"åĨĻæĺİ":10639,"è¾ĥé«ĺ":10640,"èµĦéĩĳåĴĮ":10641,"åĤ¨èĵĦ":10642,"åĨĽäººéħįåģ¶":10643,"é¦ĸå¸Ń":10644,"çĶ¨æĪ·ä½ĵéªĮ":10645,"çī©åĵģç§į":10646,"çŁ¥è¯ĨçļĦ":10647,"Ġind":10648,"æ¶īåıĬåĽ½å®¶ç§ĺå¯Ĩ":10649,"ict":10650,"åħ¬å¸ĥä¹ĭæĹ¥èµ·":10651,"çļĦæĿĥåĪ©ä¹īåĬ¡":10652,"çĽ®çļĦçļĦ":10653,"æĭįåįĸèĪ¹èĪ¶":10654,"äººåı¯ä»¥è¯·æ±Ĥ":10655,"æİ¢æµĭ":10656,"æĴŃæĶ¾":10657,"æµ·ä¸Ĭè®¾æĸ½":10658,"å°ģéĹŃ":10659,"åĩĨç¡®çļĦ":10660,"çİ¯ä¿ĿçļĦ":10661,"æĶ¶åħ¥çļĦ":10662,"ä¸¥æł¼æİ§åĪ¶":10663,"æķ°åŃĹåĮĸ":10664,"æĶ¶éĽĨè¯ģæį®":10665,"ç¼ºå¸Ń":10666,"å¾®ä¿¡":10667,"ç¬¬ä¸īçĻ¾åĽĽåįģ":10668,"éĻĨçĶŁ":10669,"çĻ¾åĪĨä¹ĭä¸īåįģ":10670,"åŁºäºİä»¥ä¸ĭ":10671,"ations":10672,"ç¬¬ä¸ĢçĻ¾äºĮåįģä¸īæĿ¡":10673,"è®¡ç®Ĺæľºç§ĳåŃ¦":10674,"ä¹Ļåħ¬åı¸":10675,"æĹ¥å¸¸å·¥ä½ľ":10676,"unction":10677,"æĬ½éĢĥ":10678,"å¤ıåŃ£":10679,"ä¸ĵé¡¹è§ĦåĪĴ":10680,"è¾ħå¯¼":10681,"æĺİæĺ¾çļĦ":10682,"çĥ¤ç®±":10683,"å¦¥åĸĦå®īç½®":10684,"çĶ±åİ¿çº§ä»¥ä¸Ĭåľ°æĸ¹äººæ°ĳæĶ¿åºľåĨľä¸ļåĨľæĿĳä¸»ç®¡éĥ¨éĹ¨":10685,"åı¯ä»¥å¹¶å¤ĦäºĶ":10686,"è½¬åĮĸä¸º":10687,"çĽ¸å¯¹äºº":10688,"å¤ľæĻļ":10689,"æ»©æ¶Ĥ":10690,"ä¿Ŀåħ¨æİªæĸ½":10691,"ä¸Ĭå¸Ĥè®¸åı¯æĮģæľī":10692,"çİ¯å¢ĥè´¨éĩıæłĩåĩĨ":10693,"Ġall":10694,"ç¥ĸåĽ½":10695,"ä¸Ńèį¯æĿĲ":10696,"ç»ĳæŀ¶çļĦå¦ĩå¥³":10697,"æ¶Īè´¹èĢħæĿĥçĽĬä¿ĿæĬ¤æ³ķ":10698,"åŃ¤çĭ¬":10699,"ç½ĳä¿¡éĥ¨éĹ¨":10700,"åĬ³åĬ¨äºīè®®è°ĥè§£ä»²è£ģæ³ķ":10701,"éģ¸æĵĩ":10702,"ç«ĭæ³ķä¼ļè®®åĳĺ":10703,"ä¸įåĬ¨äº§æĪĸèĢħåĬ¨äº§":10704,"éģĬæĪ²":10705,".,":10706,"per":10707,"right":10708,"«åĬ©":10709,"Ð¾":10710,"Ø±":10711,"ÙĨ":10712,"ï½":10713,"Ġä»»ä½ķåįķä½įåĴĮä¸ªäººä¸įå¾Ĺ":10714,"çļĦåħ±åĲĮ":10715,"çļĦå®¶åºŃ":10716,"çļĦæľĢé«ĺ":10717,"çļĦä½ľçĶ¨":10718,"çļĦä½ľåĵģ":10719,"è¯«":10720,"åĴĮåĮ»çĸĹ":10721,"åĴĮåºĶçĶ¨":10722,"åĴĮä¿®å¤į":10723,"è´¬":10724,"æľīä»»ä½ķ":10725,"æľīåīįæ¬¾è§Ħå®ļ":10726,"æľīè¯ģæį®è¯ģæĺİ":10727,"æīİ":10728,"å¹«åĬ©":10729,"æĪĸæĺ¯":10730,"æĪĸä¸ªäºº":10731,"åĮ¹":10732,"æĪĸèĢħäººæ°ĳæ³ķéĻ¢":10733,"æĪĸèĢħåıĳçİ°":10734,"åºĶå½ĵåħ·æľī":10735,"äººæ°ĳç¾¤ä¼Ĺ":10736,"å¯¹åħ¶ä»ĸ":10737,"æĢł":10738,"ä¸Ĭåįĩ":10739,"åı¯ä»¥å¾Ĺåĩº":10740,"çŃīæĥħå½¢":10741,"ä¸ªç³ĸæŀľ":10742,"èģª":10743,"å¹¶èİ·å¾Ĺ":10744,"å¹¶åĲĳç¤¾ä¼ļåħ¬å¸ĥ":10745,"å¹¶è¯´æĺİçĲĨçĶ±":10746,"è¿Ľåº¦":10747,"åĽ½å®¶ä¿ĿæĬ¤":10748,"ç®¡çĲĨäººåºĶå½ĵ":10749,"çĶ±åħ¨åĽ½äººæ°ĳä»£è¡¨å¤§ä¼ļå¸¸åĬ¡å§Ķåĳĺä¼ļ":10750,"åĵģå°Ŀ":10751,"æľīåħ³è¡ĮæĶ¿éĥ¨éĹ¨":10752,"å¤§çº¦":10753,"å¹´æ»¡":10754,"è¡ĮæĶ¿ç®¡çĲĨ":10755,"æĦĪ":10756,"åıĸä»£":10757,"å·¥ä½ľå²Ĺä½į":10758,"å·¥ä½ľåįıè°ĥæľºåĪ¶":10759,"ç¬¬äºĮä¸ª":10760,"åįķä½įæĪĸèĢħ":10761,"åįķä½įçĬ¯":10762,"åĲĳä»ĸäºº":10763,"è¢«è®¤ä¸ºæĺ¯":10764,"è¿Ļæĺ¯ä¸Ģ":10765,"éĺ²éľĩ":10766,"è§£èģĺ":10767,"æıĲä¾ĽçļĦæĥħåĨµ":10768,"æĮīçħ§çº¦å®ļ":10769,"æ°´æ±¡æŁĵçī©æİĴæĶ¾":10770,"æ³ķéĻ¢çļĦ":10771,"æĬĢæľ¯äººåĳĺ":10772,"ä¸įå¾Ĺæľīä¸ĭåĪĹè¡Įä¸º":10773,"ä¿¡æģ¯å®īåħ¨":10774,"å¼ºä»¤":10775,"åĲĪåĲĮå±¥è¡Į":10776,"éĢīåĿĢ":10777,"è´¢äº§åĪĨåī²":10778,"å¦ĤæŀľæŁĲ":10779,"å¤ĦçĲĨè®¾æĸ½":10780,"ç¬¬åħŃèĬĤ":10781,"æľĢå¥½":10782,"æľĢæĸ°çļĦ":10783,"æł¸æĿĲæĸĻ":10784,"è¯Ħæłĩ":10785,"ä¼ļè®®è®®ç¨ĭ":10786,"ç»ĻäºĪè¡¥åģ¿":10787,"è®©ä»ĸä»¬":10788,"è´£ä»¤åħ³éĹŃ":10789,"è½¦ç«Ļ":10790,"è£ħç®±":10791,"è´¨éĩıéĹ®é¢ĺ":10792,"æ¯ıæĹ¥":10793,"å§ĶæīĺäººçļĦ":10794,"åŃ¦æł¡åıĬåħ¶ä»ĸ":10795,"è®ºæĸĩ":10796,"åºĶå½ĵæĮīçħ§åĽ½å®¶è§Ħå®ļ":10797,"å¸Ĥåľºä»·æł¼":10798,"åİ¿çº§ä»¥ä¸Ĭåľ°æĸ¹äººæ°ĳæĶ¿åºľåıĬåħ¶æľīåħ³éĥ¨éĹ¨":10799,"æĸ¹æ³ķçļĦ":10800,"åºĶè¯¥å¦Ĥä½ķå¤ĦçĲĨ":10801,"Ġother":10802,"æīĢåľ¨çļĦ":10803,"ä¹¦éĿ¢åĳĬçŁ¥":10804,"ark":10805,"çŁ¥è¯Ĩäº§æĿĥçļĦ":10806,"æĸĩç«łçļĦ":10807,"æ¤įçī©çļĦ":10808,"çĸĳéĹ®":10809,"æľŁè´§ç»ĵç®ĹæľºæŀĦ":10810,"ç¾¤åĽ¢":10811,"å®¡çĲĨçļĦ":10812,"åįıåķĨä¸įæĪĲçļĦ":10813,"çĽĳçĿ£æ£ĢæŁ¥èģĮè´£":10814,"ç«łç¨ĭçļĦè§Ħå®ļ":10815,"èĦĨ":10816,"è´¢åĬ¡éĥ¨éĹ¨":10817,"æķħæĦıæĪĸèĢħéĩįå¤§":10818,"èĩªçĶ±åĴĮ":10819,"å·¥ä¼ļå§Ķåĳĺä¼ļ":10820,"æķ£å¸ĥ":10821,"åĲĬéĶĢåħ¶":10822,"æĬĹè¾©":10823,"èĻļåģĩè®°è½½":10824,"æ²»çĸĹæĸ¹æ¡Ī":10825,"ç¬¬ä¸ĢçĻ¾ä¸ĢåįģåĽĽæĿ¡":10826,"æĭĴä¸įæī§è¡Į":10827,"ä¸įæĸŃåľ°":10828,"è¯»èĢħ":10829,"ç¤¾ä¼ļä¸»ä¹īæł¸å¿ĥä»·åĢ¼è§Ĥ":10830,"å¤Ħåįģä¸ĩåħĥä»¥ä¸ĬäºĶåįģä¸ĩåħĥä»¥ä¸ĭçļĦç½ļæ¬¾":10831,"è¾¾æĪĲä¸Ģèĩ´":10832,"çªģåıĳäºĭä»¶çļĦ":10833,"åĲĦçº§äººæ°ĳä»£è¡¨å¤§ä¼ļå¸¸åĬ¡å§Ķåĳĺä¼ļ":10834,"è¿Ŀçº¦éĩĳ":10835,"å®¶åºŃæķĻèĤ²ä¿ĥè¿Ľæ³ķ":10836,"æµĭç»ĺæĪĲæŀľ":10837,"ç¬¬ä¸ĢåįĥéĽ¶ä¹Ŀåįģ":10838,"ays":10839,"çĶ±çľģçº§ä»¥ä¸Ĭäººæ°ĳæĶ¿åºľ":10840,"å·§åħĭ":10841,"æĺ¾èĳĹä½įç½®":10842,"æī¹è¯ĦæķĻèĤ²":10843,"ä¸įèī¯è¡Įä¸º":10844,"æĥħåĨµçļĦæĬ¥åĳĬ":10845,"åıĳæĺİåĪĽéĢł":10846,"ä¸ĵä¸ļæĬĢæľ¯äººåĳĺ":10847,"ogle":10848,"æĹ¥ç¬¬åįģä¸īå±Ĭåħ¨åĽ½äººæ°ĳä»£è¡¨å¤§ä¼ļå¸¸åĬ¡å§Ķåĳĺä¼ļç¬¬äºĮåįģ":10849,"æĿĢäºº":10850,"åĬłå¤§å¯¹":10851,"çĴĥ":10852,"æ°¸ä¹ħæĢ§å±ħæ°ĳ":10853,"ä¸įå¾Ĺå¯¹æĬĹ":10854,"æ±¤å§Ĩ":10855,"éĩįçĤ¹ä¿ĿæĬ¤éĩİçĶŁåĬ¨çī©":10856,"Ġprovide":10857,"æľīéĴĪå¯¹æĢ§çļĦ":10858,"ä¹Ķæ²»":10859,"åķĨä¸ļç§ĺå¯ĨåĴĮä¸ªäººéļĲç§ģ":10860,"çİ»çĴĥ":10861,"æķħæĦıæĪĸèĢħéĩįå¤§è¿ĩå¤±":10862,"'re":10863,".ãĢĬ":10864,"ject":10865,"now":10866,"ĠY":10867,"Ġåħ¶ä»ĸ":10868,"Ġå¥½çļĦ":10869,"Ġå±ħæ°ĳå§Ķåĳĺä¼ļ":10870,"çļĦäº¤æĺĵ":10871,"çļĦåľºæīĢ":10872,"çļĦç½ªçĬ¯":10873,"åĴĮå¯¹":10874,"åĴĮç»ıæµİ":10875,"åĴĮæĶ¹è¿Ľ":10876,"åĴĮä¿¡æģ¯åĮĸ":10877,"ä»¥éģ¿åħį":10878,"ä¼ļè§ģ":10879,"åĮĻ":10880,"æĪĸèĢħæįŁåĿı":10881,"åľ¨è¿Ľè¡Į":10882,"ä¸įæĮīçħ§":10883,"åºĶå½ĵæĬ¥":10884,"åºĶå½ĵä¾Ŀæį®":10885,"åºĶå½ĵæıĲäº¤":10886,"åºĶå½ĵäºĭåħĪ":10887,"æŀī":10888,"äºĭè¿¹":10889,"è¦ģç´ł":10890,"åı¯ä»¥èĩªè¡Į":10891,"ç»ıæī¹åĩĨçļĦ":10892,"åĪ¶çļĦ":10893,"çŃīåĬŁèĥ½":10894,"ä¸ªèĭ¹æŀľ":10895,"æĹ¶åħī":10896,"åĽ½å®¶ç»Łä¸Ģ":10897,"åĪĨæķ£":10898,"æľīåħ³åľ°æĸ¹äººæ°ĳæĶ¿åºľ":10899,"æľīåħ³è¡ĮæĶ¿ä¸»ç®¡éĥ¨éĹ¨":10900,"æľīåħ³åĨĽäºĭæľºåħ³":10901,"å¤§åľ°":10902,"å¹´ä»£":10903,"åŃ¦ä¸ļ":10904,"èģĮæĿĥçļĦ":10905,"å·¥ä½ľä¸ļ":10906,"æ¡Į":10907,"æĪĳè§īå¾Ĺ":10908,"è¿Ľè¡Įäº¤æĺĵ":10909,"èĲĿ":10910,"è¢«å®¡è®¡":10911,"åĽłä¸įåı¯æĬĹåĬĽ":10912,"åĽ½åĬ¡éĻ¢åĴĮ":10913,"æĮģèĤ¡":10914,"æ°´è·¯":10915,"åīįçļĦ":10916,"è¯¥æĢİä¹ĪåĬŀ":10917,"éĩıçļĦ":10918,"ä¸įå¾Ĺä¸İ":10919,"ä¸įå¾Ĺæ³Ħéľ²":10920,"åĲĦæĹı":10921,"æľįåĬ¡ä½ĵç³»":10922,"éĻ¤æ³ķå¾ĭ":10923,"åĲĪåĲĮçºłçº·":10924,"åĮ»åĬ¡":10925,"äººæ°ĳæ³ķéĻ¢çļĦ":10926,"è´¢äº§æĿĥåĪ©":10927,"ä¿ĿéĻ©ä¸ļåĬ¡":10928,"å¤ĦçĲĨæĸ¹å¼ı":10929,"å¤ĦçĲĨä¸ªäººä¿¡æģ¯":10930,"æī§è¡Įä»»åĬ¡":10931,"å¤±æķĪ":10932,"ä¸Ńåįİäººæ°ĳåħ±åĴĮåĽ½åħ¬æ°ĳ":10933,"ä¸Ńåįİäººæ°ĳåħ±åĴĮåĽ½åħ¬åı¸æ³ķ":10934,"ä»¥åıĬåľ¨":10935,"è´§èĪ¹":10936,"åıĺè¿ģ":10937,"åħ»æĪĲ":10938,"ç»ıæµİå»ºè®¾":10939,"åı¯èĥ½äº§çĶŁ":10940,"ä¼ļè®®è®°å½ķ":10941,"çĻ»è®°äºĭé¡¹":10942,"åıĬåħ¶éĻĦå±ŀ":10943,"èģĶè¿Ĳ":10944,"å¼ķé¢Ĩ":10945,"èĢĥåı¤":10946,"æĺ¯åĲ¦è¿ĿåıįäºĨ":10947,"åĨľä¸ļåĴĮ":10948,"åŃĹæł·":10949,"èĳ¡":10950,"åħ·æľīæ³ķå¾ĭ":10951,"è´¹çĶ¨åĴĮ":10952,"å¸Ĥåľºä¸»ä½ĵ":10953,"ä»ĸäººè´¢çī©":10954,"é»İ":10955,"å¹¶å¤Ħä¸ī":10956,"æĦıè§ģä¹¦":10957,"é£İéĻ©ç®¡çĲĨ":10958,"èį¯åĵģä¸Ĭå¸Ĥè®¸åı¯æĮģæľīäºº":10959,"åĲĪçĲĨä½¿çĶ¨":10960,"ä¼Ĺå¤ļ":10961,"ä»ĸä»¬ä¹ĭéĹ´çļĦ":10962,"èģĮåĬ¡çŃīçº§":10963,"ä¸»è¦ģåĮħæĭ¬":10964,"æī¿åĮħçļĦ":10965,"çķĮéĿ¢":10966,"åıĤä¸İè¡¨åĨ³":10967,"Ġbut":10968,"çľĭçľĭ":10969,"æ¨ª":10970,"æĸĩç«łä¸Ń":10971,"å®ĮæĪĲä¸Ģæ®µå¯¹è¯Ŀ":10972,"åºĶå½ĵä¾Ŀæ³ķäºĪä»¥":10973,"èģĮå·¥çļĦ":10974,"æĮĩå¯¼ä¸ĭ":10975,"çĶŁäº§ç»ıèĲ¥åįķä½įçļĦ":10976,"è®¾è®¡åĴĮ":10977,"è§ĦèĮĥæĢ§":10978,"çģ¾éļ¾":10979,"æī¿è¿ĲäººåºĶå½ĵ":10980,"åĬ³åĬ¨èĢħçļĦ":10981,"æ´¾åĳĺ":10982,"ask":10983,"èµĦäº§è´ŁåĢº":10984,"æłĩçļĦçī©çļĦ":10985,"å¹¿åĳĬçļĦ":10986,"åĩłç§į":10987,"åĽ½æľīä¼ģä¸ļ":10988,"Ġ25":10989,"çĥŃæĥħ":10990,"æĬµæĬ¼äºº":10991,"æĬµæĬ¼è´¢äº§":10992,"å¥ĸéĩĳ":10993,"å¥ĸæĥ©":10994,"ä½ĵèĤ²èµĽäºĭ":10995,"æĵħèĩªæĶ¹åıĺ":10996,"åĲĪæł¼åĲİ":10997,"å²ģçļĦ":10998,"äº§ä¸ļæĶ¿çŃĸ":10999,"Ġ$$":11000,"æ¼Ķåĳĺ":11001,"Ġhow":11002,"é£Łåĵģå®īåħ¨äºĭæķħ":11003,"ä¿Ŀå¯Ĩè¡ĮæĶ¿ç®¡çĲĨéĥ¨éĹ¨":11004,"æĪĲç«ĭåĲİ":11005,"ç¬¬ä¸ĢçĻ¾éĽ¶åħŃæĿ¡":11006,"ç¬¬ä¸ĢçĻ¾ä¸Ģåįģä¹ĿæĿ¡":11007,"ç¬¬ä¸ĢçĻ¾ä¸Ģåįģä¸īæĿ¡":11008,"å¡ŀ":11009,"Ġla":11010,"æľīéĻĲåĲĪä¼Ļäºº":11011,"æĬ¢å¤º":11012,"èĢĥæł¸è¯Ħä»·":11013,"æĪĳä»¬çļĦçĶŁæ´»":11014,"çĭ¬ç«ĭçļĦ":11015,"ç´§æĢ¥æĥħåĨµä¸ĭ":11016,"ä½ıæīĢåľ°çļĦ":11017,"ç»ĵæŀĦåĴĮ":11018,"å¹¿æ³ĽçļĦåºĶçĶ¨":11019,"åĮħè£ħçī©":11020,"è¡ĮæĶ¿è®¸åı¯çļĦ":11021,"ç¨³å®ļæĢ§":11022,"è·¨çľģ":11023,"ç¬¬äºĮæ¬¾è§Ħå®ļçļĦ":11024,"ç½ĳç«ĻçļĦ":11025,"åĩĢèµĦäº§":11026,"æĤ¨åı¯ä»¥èĢĥèĻĳ":11027,"æ°ĳä¸»ç®¡çĲĨ":11028,"åħ¬åı¸ç«łç¨ĭçļĦè§Ħå®ļ":11029,"å¹³åĿĩå·¥èµĦ":11030,"æĬĺä»·":11031,"æ²»å®īç®¡çĲĨå¤Ħç½ļæ³ķ":11032,"å®Įåħ¨æ°ĳäºĭè¡Įä¸ºèĥ½åĬĽ":11033,"åħ¼é¡¾":11034,"æ·«ä¹±":11035,"å¹´è½»çļĦ":11036,"å¹´è½»äºº":11037,"æ´¾åĩºæīĢ":11038,"able":11039,"è¡£æľį":11040,"æľŁæ»¡åĲİ":11041,"çĥŁèįīåĪ¶åĵģ":11042,"è¾£æ¤Ĵ":11043,"å®ŀçĶ¨æĸ°åŀĭ":11044,"è¢«åĪ¤åĪĳäºº":11045,"è§Ĵèī²ä¿¡æģ¯å®ĮæĪĲä¸Ģæ®µå¯¹è¯Ŀ":11046,"å±ıå¹ķ":11047,"çĻ¾åĪĨä¹ĭäºĶä»¥ä¸Ĭ":11048,"æĦīå¿«":11049,"æķ°ç½ªå¹¶ç½ļ":11050,"åĶ¯ä¸Ģ":11051,"è´¢æĶ¿æĢ§èµĦéĩĳ":11052,"åŁºäºİä»¥ä¸ĭè§Ĵèī²ä¿¡æģ¯å®ĮæĪĲä¸Ģæ®µå¯¹è¯Ŀ":11053,"éĺ²éľĩåĩıçģ¾":11054,"å·§åħĭåĬĽ":11055,"\"ãĢĤ":11056,"Ch":11057,"by":11058,"Ùħ":11059,"éł":11060,"ĠæĬĢæľ¯":11061,"ĠæķĻèĤ²":11062,"ĠèĩªçĦ¶äºº":11063,"çļĦæĸĩçī©":11064,"çļĦæ¯Ķä¾ĭ":11065,"çļĦé¢ľèī²":11066,"äººä»¥ä¸Ĭ":11067,"åĲ¹":11068,"æ³ķåĽ½":11069,"æ³ķå®ļçļĦ":11070,"åĴĮå¤Ħç½®":11071,"ç¬¬X":11072,"ä»¥ä¹¦éĿ¢å½¢å¼ı":11073,"è¡Įæ´ª":11074,"ä¸Ģç»Ħ":11075,"ä¸Ģå¤©":11076,"åħ³åĬ¡":11077,"åľ¨å¯¹":11078,"åľ¨åĽ½åĬ¡éĻ¢":11079,"åľ¨ä½¿çĶ¨":11080,"åľ¨æµ·ä¸Ĭ":11081,"åºĶå½ĵåħħåĪĨ":11082,"ä¸ºä¾Ŀæį®":11083,"ç«¹":11084,"æĺ¯å¤ļå°ĳ":11085,"æĺ¯æŃ£ç¡®çļĦ":11086,"åı¯ä»¥è´£ä»¤":11087,"åı¯ä»¥èĩªæĶ¶åĪ°":11088,"å®¶ä¸Ń":11089,"å®¶åĽŃ":11090,"åŁĥ":11091,"å¹¶æıĲåĩº":11092,"ä¸»è§Ĵ":11093,"æĸ½å·¥ä½ľä¸ļ":11094,"åĪĨæĭħ":11095,"æľīåħ³äººæ°ĳæĶ¿åºľ":11096,"éĺĶ":11097,"è¡ĮæĶ¿æĭĺçķĻ":11098,"èĤ¯":11099,"æł¹æį®åħ·ä½ĵæĥħåĨµ":11100,"éľį":11101,"éľľ":11102,"ä»¥ä¸ĬäºĮ":11103,"æľªéĩĩåıĸ":11104,"äº¤çº³":11105,"å¤ĸæĿ¥":11106,"æľºåħ³è´¢åĬ¡éĥ¨éĹ¨":11107,"æī¿åĬŀ":11108,"åĪ°çļĦ":11109,"å±ķå¼Ģ":11110,"æ£Ģå®ļ":11111,"çī¹è®¸":11112,"æľįåĪĳ":11113,"å¸¸çĶ¨çļĦ":11114,"æ°´åĴĮ":11115,"åķĨæłĩçļĦ":11116,"è´¹åĴĮ":11117,"èµ·èįī":11118,"åİŁä»¶":11119,"åŃĲéĩĮ":11120,"éķľ":11121,"çĶµåķĨ":11122,"ä¸įå¾ĹçĶ¨äºİ":11123,"æĮĩä½¿":11124,"éķ¿åĴĮ":11125,"äººæ°ĳæ³ķéĻ¢æĪĸèĢħ":11126,"ä¾Ŀçħ§æ³ķå®ļç¨ĭåºı":11127,"åĿĿ":11128,"çĬ¯ç½ªåĲįç§°":11129,"Ġte":11130,"å¤įåį°":11131,"å¦Ĥæŀľåıĳçİ°":11132,"åĴĮåĽ½éĻħ":11133,"ä¸Ńåįİäººæ°ĳåħ±åĴĮåĽ½æĶ¿åºľ":11134,"ä¸Ńåįİäººæ°ĳåħ±åĴĮåĽ½åĽ½ç±į":11135,"å®ŀæĸ½çĽĳçĿ£æ£ĢæŁ¥":11136,"ince":11137,"è¿ĺéľĢ":11138,"èĪ¹ä¸Ĭ":11139,"ä¸¥éĩįçĸ¾çĹħ":11140,"ç´«":11141,"æİ¨æĸŃ":11142,"åı¯èĥ½åıĳçĶŁ":11143,"è¯Ħè®®":11144,"å½ĵäºĭäººä¹ĭéĹ´":11145,"æ¶Īæģ¯":11146,"æİĴæŁ¥":11147,"æĻºåĬĽ":11148,"äº¤éĢļèŃ¦å¯Ł":11149,"çī¹åĪ«è§Ħå®ļ":11150,"è¾¾æłĩ":11151,"ä»İäºĭåħ¬åĬ¡çļĦäººåĳĺ":11152,"åĪĳäºĭå¤Ħç½ļçļĦ":11153,"çĥĤ":11154,"èİİ":11155,"Ġtheir":11156,"æĦŁåħ´è¶£":11157,"æľŁéĻĲä¸º":11158,"Ġsec":11159,"è¿Ŀåıįæľ¬æ³ķè§Ħå®ļçļĦ":11160,"ç§ĳåŃ¦è®ºè¯ģ":11161,"åį³æĹ¶":11162,"æİ¥åıĹçĽĳçĿ£":11163,"è¯ģæĺİåħ¶":11164,"çĶµåŃĲæķ°æį®":11165,"é¢ĨåŁŁçļĦåºĶçĶ¨":11166,"çĶ±åĽ½åĬ¡éĻ¢æ°ĳçĶ¨èĪªç©ºä¸»ç®¡éĥ¨éĹ¨":11167,"é¦Ļèķ":11168,"ä½ľä¸ºä¸Ģä¸ª":11169,"å¾Īå¤§çļĦ":11170,"æĻ®æĥł":11171,"äººæĪĸèĢħç®¡çĲĨäºº":11172,"è¡Įä¸ļçļĦ":11173,"åĮºåŁŁèĩªæ²»":11174,"ĠåĽ½åĬ¡éĻ¢è¯ģåĪ¸çĽĳçĿ£ç®¡çĲĨæľºæŀĦ":11175,"ĠåĽ½åĬ¡éĻ¢æľīåħ³éĥ¨éĹ¨åĴĮ":11176,"éģĩéĻ©":11177,"éģĩåĪ°äºĨ":11178,"éĿŀå¸¸æľī":11179,"èĻļæĬ¥":11180,"åĵªç§į":11181,"è¾¹è¿ľ":11182,"è¯´æĺİæĥħåĨµ":11183,"å¦ĩå¥³çļĦ":11184,"æķĳåĬ©æĬ¥éħ¬":11185,"ä¼ļè®¡åĪ¶åº¦":11186,"åĪĨç±»ä¸º":11187,"åĪĨç±»ç®¡çĲĨ":11188,"å¿ħè¦ģçļĦæĹ¶åĢĻ":11189,"é¦Ļæ¸¯çī¹åĪ«è¡ĮæĶ¿åĮºåŁºæľ¬æ³ķ":11190,"æ±ĩæĢ»":11191,"ç®¡è¾ĸæµ·åŁŁ":11192,"åºĶå½ĵåĲĳç¤¾ä¼ļ":11193,"ç§ĳåŃ¦æĬĢæľ¯çłĶç©¶":11194,"ä½ĵèĤ²è¡ĮæĶ¿éĥ¨éĹ¨":11195,"æİ¨å¹¿åºĶçĶ¨":11196,"åıĭå¥½":11197,"åį°åıĳ":11198,"æ¸¯åı£ç»ıèĲ¥":11199,"è§ĦåĪĻåĴĮ":11200,"å¾ĢæĿ¥":11201,"è¡ĮæĶ¿å¤Ħç½ļçļĦ":11202,"éŁ³ä¹ĲåĴĮ":11203,"æĿ¡æ¬¾çļĦ":11204,"çĶ¨éĢĶçļĦ":11205,"è®¾åĮºçļĦå¸Ĥçº§":11206,"åľ°éľĩçģ¾å®³":11207,"ç²®é£ŁçĶŁäº§":11208,"ç¬¬ä¸ĢçĻ¾äºĮåįģä¸ĢæĿ¡":11209,"åĩºåħ·èĻļåģĩ":11210,"åĭĺå¯Ł":11211,"ç§įåŃĲçĶŁäº§ç»ıèĲ¥":11212,"ä¸»ä»»ä¼ļè®®":11213,"å¤§æ°Ķæ±¡æŁĵçī©æİĴæĶ¾":11214,"æ³ķå¾ĭæ³ķè§ĦåĴĮ":11215,"åĮĹæŀģ":11216,"æľªæĮīçħ§çº¦å®ļ":11217,"ç¬¬åĽĽçĻ¾ä¸Ģåįģ":11218,"çŀĴæĬ¥":11219,"è¿Ľåĩºåı£è´§çī©":11220,"ç¹ģèį£":11221,"ä¸¾è¡Įä¼ļè®®":11222,"Ġå½ĵäºĭäººå¯¹":11223,"ä¸ĩåħĥä»¥ä¸ĬäºĮåįģä¸ĩåħĥä»¥ä¸ĭç½ļæ¬¾":11224,"æĪªæŃ¢":11225,"åľŁå£¤æ±¡æŁĵé£İéĻ©ç®¡æİ§":11226,"è¯·æł¹æį®ä¸ĭéĿ¢çļĦçĬ¯ç½ª":11227,"æŃ»åĪĳç¼ĵæľŁ":11228,"å¯¹å¤ĸè´¸æĺĵä¸»ç®¡éĥ¨éĹ¨":11229,"ä¸ºæĤ¨æıĲä¾Ľ":11230,"å¤±ä¸ļä¿ĿéĻ©":11231,"èĲ¥éĶĢçŃĸçķ¥":11232,"æĩĤ":11233,"Ġsub":11234,"æĪĸèĢħä»¥åħ¶ä»ĸæĸ¹å¼ı":11235,"æĸĩä»¶åĴĮèµĦæĸĻ":11236,"èĭ¥å¹²äºº":11237,"æ·ĺæ±°çļĦ":11238,"å¹¶äºĪä»¥åħ¬åĳĬ":11239,"çŁ¥æĤīçļĦåĽ½å®¶ç§ĺå¯Ĩ":11240,"çĽĪä½Ļ":11241,"åĽŀå¤įçĬ¯ç½ªåĲįç§°":11242,"ç§įè´¨èµĦæºĲ":11243,"è¯ļå®ŀä¿¡çĶ¨":11244,"é¢ĨåľŁå®Įæķ´":11245,"æĭ¦æĪª":11246,"åıĹæķĻèĤ²èĢħ":11247,"åĨľæ°ĳåĴĮåĨľä¸ļçĶŁäº§ç»ıèĲ¥ç»Ħç»ĩ":11248,"åħ¬åħ±èĪªç©ºè¿Ĳè¾ĵä¼ģä¸ļ":11249,"åĭ¤åĭīå°½è´£":11250,"éļ¶å±ŀ":11251,"åİĺç±³":11252,"é¦Ļèķī":11253,");":11254,"ìĿ":11255,"Ġ{":11256,"ĠæĶ¿åºľ":11257,"ĠéĿŀ":11258,"ĠåĪ©çĶ¨":11259,"ĠæĿĳæ°ĳå§Ķåĳĺä¼ļ":11260,"Ġå®¡è®¡æľºåħ³":11261,"Ġæµ·èŃ¦æľºæŀĦ":11262,"çļĦæľºæŀĦ":11263,"çļĦåĲĪåĲĮ":11264,"çļĦæĸĩåĮĸ":11265,"çļĦè¿ĩç¨ĭ":11266,"åį§":11267,"è¯¸":11268,"åľ£":11269,"åĴĮç»´æĬ¤":11270,"åĴĮçĲĨè§£":11271,"è¡Įçºª":11272,"æľīè®¸å¤ļ":11273,"ä¸Ģéģĵ":11274,"ä¸Ģéĥ¨åĪĨ":11275,"åºĶæī¿æĭħ":11276,"å·¾":11277,"åľ¨åħ¨åĽ½äººæ°ĳä»£è¡¨å¤§ä¼ļ":11278,"åºĶå½ĵç§¯æŀģ":11279,"å°į":11280,"ä¸ºæŃ¢":11281,"å¯¹ç¬¦åĲĪ":11282,"ä¸īç§į":11283,"ä¸Ĭæµ·":11284,"åı¯ä»¥ç»Ħç»ĩ":11285,"åı¯ä»¥åĪ¶å®ļ":11286,"çŃīæīĭæ®µ":11287,"ä¸ĭèĲ½":11288,"å¹¶æĮīçħ§è§Ħå®ļ":11289,"åİī":11290,"æīĢæ¬ł":11291,"ç®¡çĲĨæĿĥéĻĲ":11292,"æľīåħ³å·¥ä½ľ":11293,"ä¸İæ¡Īä»¶":11294,"ä¸İåģ¥åº·":11295,"æľªè®°è½½":11296,"è¿Ľè¡ĮçĽĳæµĭ":11297,"è¿Ľè¡ĮåįıåķĨ":11298,"è¿Ľè¡Įéī´å®ļ":11299,"ä¾Ŀæ³ķæŁ¥å¤Ħ":11300,"åĲĳæµ·åħ³":11301,"ç»Ħç»ĩæ³ķ":11302,"çĿĽ":11303,"æ¯«":11304,"è¢Ń":11305,"è¢«å®³":11306,"è¡Įä¸ºä¹ĭä¸Ģ":11307,"åŁºåĩĨ":11308,"æ°´ä¸Ĭ":11309,"è¯¥åĽ½":11310,"åķĨåºĹ":11311,"è´¹çŃī":11312,"æĿ¥å¤ĦçĲĨ":11313,"ä¸įå¾Ĺä½¿çĶ¨":11314,"æ´»åĬ¨åĴĮ":11315,"éĢĤåº¦":11316,"éĢĤèĪª":11317,"äººæ°ĳæ³ķéĻ¢åĴĮ":11318,"å»ºè®¾åįķä½įåºĶå½ĵ":11319,"å¦ĤæŀľæĤ¨çļĦ":11320,"éģĵæŃī":11321,"æľĢæĸ°":11322,"è¿Ŀæ³ķçĶŁäº§":11323,"å¤Ħç½ļåĨ³å®ļ":11324,"åıĤè§Ĥ":11325,"è¿ĺåī©ä¸ĭ":11326,"æľĪçļĦ":11327,"hesis":11328,"æł¸å¯¹":11329,"ä¸¥éĩįçł´åĿı":11330,"ä¸¥éĩįåĲİæŀľ":11331,"ĠåĽ½å®¶æł¹æį®":11332,"æİ¨å®ļ":11333,"åĴĮåħ¶ä»ĸæľīåħ³æ³ķå¾ĭ":11334,"è¯ģåĪ¸åıĳè¡Į":11335,"éĢłæĪĲäººèº«":11336,"éĤª":11337,"åĪ©çĶ¨çļĦ":11338,"åħ¬åħ±è´¢äº§":11339,"åħ¬åħ±è®¾æĸ½":11340,"åľŁåľ°ä¸Ĭ":11341,"è¿½éĢĲ":11342,"èĩ´æ®ĭ":11343,"å¼ķèĪª":11344,"å¼ķæĵ":11345,"æķ°æį®å¤ĦçĲĨ":11346,"å©ļåĲİ":11347,"Ġsy":11348,"æĺ¯åĲ¦ä¼ļ":11349,"åĬŀçĲĨçĻ»è®°":11350,"ç§ŁèĪ¹":11351,"çł´è£Ĥ":11352,"ç¢±":11353,"åĲĮæĹ¶åºŁæŃ¢":11354,"éĿŀæ³ķèİ·åıĸ":11355,"å·²ç»ıåľ¨":11356,"æīĢæľīèĢħ":11357,"èĩ³åħ³":11358,"ä¹ĭæĹ¥èµ·äºĶæĹ¥åĨħ":11359,"ä¹ĭæĹ¥èµ·ä¸Ģå¹´åĨħ":11360,"åİ¿çº§ä»¥ä¸Ĭåľ°æĸ¹äººæ°ĳæĶ¿åºľåºĶå½ĵ":11361,"æĿĲæĸĻåĴĮ":11362,"è¿ĻäºĽä¿¡æģ¯":11363,"Ġph":11364,"æħ°":11365,"å¾Īå¤§":11366,"ä¿ĥè¿Ľå·¥ä½ľ":11367,"å¤ĸåĽ½æ³ķéĻ¢":11368,"è¯ķåĽ¾":11369,"åŃĺåľ¨éĩįå¤§":11370,"lease":11371,"å¯¼èĩ´çļĦ":11372,"è¡Įä¸ļèĩªå¾ĭ":11373,"Ġdog":11374,"åıĹåĪ°äºĨ":11375,"å§ĭç»Ī":11376,"ä¹Łåı¯ä»¥åľ¨":11377,"è£ģå®ļé©³åĽŀ":11378,"æħĪåĸĦæ´»åĬ¨":11379,"ä¼łæŁĵçĹħé¢Ħéĺ²":11380,"ass":11381,"çī¹æ®ĬçļĦ":11382,"ç½ªçļĦä¸»ä½ĵ":11383,"æ®ĭçĸ¾äººèģĶåĲĪä¼ļ":11384,"çºłçº·çļĦ":11385,"ç§ĳåŃ¦æĬĢæľ¯è¿ĽæŃ¥":11386,"å«Įçĸĳäºº":11387,"éĩĩè´Ńäºº":11388,"çł´äº§æ¸ħç®Ĺ":11389,"othesis":11390,"å¼ķæ¸¡æ³ķ":11391,"é£Łåĵģå®īåħ¨çĽĳçĿ£ç®¡çĲĨ":11392,"impl":11393,"æ²»çĸĹçļĦ":11394,"ç¬¬ä¸ĢçĻ¾ä¸ĢåįģäºĮæĿ¡":11395,"æī§ä¸ļæ´»åĬ¨":11396,"çŁŃæĸĩ":11397,"ç¬¬ä¸īçĻ¾ä¹Ŀåįģ":11398,"çİĭåħĪçĶŁ":11399,"ç»ĻäºĪèŃ¦åĳĬæĪĸèĢħ":11400,"2013":11401,"è¯ģä»¶çļĦ":11402,"ç¬¬ä¸ĢçĻ¾äºĮåįģäºĮæĿ¡":11403,"ç»¿åĮĸ":11404,"Ġgiven":11405,"æĭĸæĸ¹":11406,"ä¿¡çĶ¨è®°å½ķ":11407,"æ¿Ģåıĳ":11408,"Ġä¸ºäºĨåĬłå¼º":11409,"æ³ķæ²»æķĻèĤ²":11410,"å¤§æ°Ķæ±¡æŁĵ":11411,"ä¹ĺå®¢":11412,"è¿ĩéĶĻæĸ¹":11413,"éĢłæĪĲä¸¥éĩįåĲİæŀľ":11414,"æ±ĩç¥¨ä¸Ĭ":11415,"æ¦Ĥçİĩ":11416,"äººå·¥æĻºèĥ½æĬĢæľ¯çļĦ":11417,"ä¸Ĭè¯īçĬ¶":11418,"æĸĩæĺİå»ºè®¾":11419,"çļĦåŁºæľ¬åİŁåĪĻ":11420,"æĸĩåŃ¦ä½ľåĵģ":11421,"åįļå£«":11422,"éĵ¾æİ¥":11423,"æ°§æ°Ķ":11424,"åıĺéĢłçļĦ":11425,"æĹłè®ºæĺ¯":11426,"åı¯éĿłæĢ§":11427,"åĭĩæķ¢":11428,"æµ·äºĭè¯·æ±Ĥäºº":11429,"åĩºåħ¥å¢ĥè¾¹éĺ²æ£ĢæŁ¥":11430,"è¢«è°ĥæŁ¥äºº":11431,"å¹ħåº¦":11432,"æł¹æį®ä»¥ä¸Ĭæ³ķå¾ĭè§Ħå®ļ":11433,"æ»¡åįģåħŃ":11434,"åĲ¬èµ·æĿ¥å¾Ī":11435,"ypothesis":11436,"åľ¨åĲĦèĩªèģĮè´£èĮĥåĽ´åĨħè´Łè´£":11437,"Ġresp":11438,"æ©ĻåŃĲ":11439,"å¹¶å¤ĦäºĮä¸ĩåħĥä»¥ä¸ĬäºĮåįģä¸ĩåħĥä»¥ä¸ĭç½ļéĩĳ":11440,"çŁ¿åĮºçĶŁæĢģä¿®å¤į":11441,"æİ¥åıĹç¤¾ä¼ļçĽĳçĿ£":11442,"åĭĭç«ł":11443,"èĽĭçĻ½è´¨":11444,"æ·±è¿ľçļĦå½±åĵį":11445,"æĬ¥åħ¨åĽ½äººæ°ĳä»£è¡¨å¤§ä¼ļå¸¸åĬ¡å§Ķåĳĺä¼ļå¤ĩæ¡Ī":11446,"èĪĨè®ºçĽĳçĿ£":11447,"åħ¬å¸ĥä¹ĭæĹ¥èµ·æĸ½è¡Į":11448,"ç¾¤åĽ¢ç»Ħç»ĩ":11449,"æŀīæ³ķ":11450,"å¼ķæĵİ":11451,"5000":11452,"der":11453,"fere":11454,"iP":11455,"ual":11456,"ĠéĢīæĭ©":11457,"Ġå¾ĭå¸Ī":11458,"ĠåŁİå¸Ĥ":11459,"Ġent":11460,"Ġä¿Ŀéļľæİªæĸ½":11461,"Ġup":11462,"ä¸¦":11463,"äº¦":11464,"çļĦç»ıèĲ¥":11465,"çļĦå¸®åĬ©":11466,"çļĦéĻĲåĪ¶":11467,"çļĦåĬŀæ³ķ":11468,"åĪ·":11469,"åĴĮåĪĽæĸ°":11470,"ä»¥ä¿ĿæĬ¤":11471,"ä¸Ģèīĺ":11472,"èĢħæī¿æĭħ":11473,"åºĶå½ĵæĶ¯ä»ĺ":11474,"åºĶå½ĵè®¾ç½®":11475,"çº¹":11476,"å¸Ŀ":11477,"ä¸ºéĻĲ":11478,"å¯¹æ¶īå«Į":11479,"ä¸Ĭå²Ĺ":11480,"æľ¬åľ°æĸ¹":11481,"æľ¬ç§ĳ":11482,"åıĳåĬ¨æľº":11483,"åĵ¦":11484,"æŁł":11485,"çħİ":11486,"æľŁä¸º":11487,"æľīåħ³èµĦæĸĻ":11488,"å¤§ä¼Ĺ":11489,"æł¹æį®åĪĳæ³ķ":11490,"æł¹æį®æĪĳåĽ½":11491,"æł¹æį®å®ŀéĻħæĥħåĨµ":11492,"è¿ĩæ»¤":11493,"å¿§":11494,"æĹ¥åĪ¶":11495,"è¿Ļæĺ¯ä¸Ģéĥ¨":11496,"ç»ĻäºĨ":11497,"ä¿ĿæĬ¤æľºæŀĦ":11498,"æµ·åºķ":11499,"ä¼ģä¸ļæīĢå¾Ĺç¨İ":11500,"åħ¥æµ·":11501,"åº¦è¿ĩ":11502,"çĶµç£ģ":11503,"ä¿¡æģ¯äº§ä¸ļ":11504,"æĮĩåįĹ":11505,"åĮħåºĩ":11506,"ä¹īè¯į":11507,"è®°ä½ı":11508,"æĹłç½ª":11509,"äººçļĦåĪ©çĽĬ":11510,"éĢīèĤ²":11511,"äººæ°ĳæ³ķéĻ¢åľ¨":11512,"äººæ°ĳæ³ķéĻ¢å®¡çĲĨ":11513,"çĽ¸åħ³äº§åĵģ":11514,"ä¿ĿéĻ©è´£ä»»":11515,"è¦ģæ±Ĥå¯¹è¯ĿåĨħå®¹":11516,"è¿Ŀåıįæ³ķå¾ĭè§Ħå®ļ":11517,"èī°":11518,"å®ŀæĸ½å®¶åºŃæļ´åĬĽ":11519,"å±¥è¡ĮåĢºåĬ¡":11520,"åİ¿çº§ä»¥ä¸ĬçļĦåľ°æĸ¹åĲĦçº§äººæ°ĳä»£è¡¨å¤§ä¼ļ":11521,"åĬ³åĬ¨åĬĽ":11522,"ç»ĻäºĪè¡ĮæĶ¿å¤ĦåĪĨ":11523,"éħįéĢģ":11524,"è´£ä»¤æļĤåģľ":11525,"çĻ»è®°æĹ¶":11526,"åĮ»çĸĹä¿Ŀéļľ":11527,"åĮ»çĸĹæķĳæ²»":11528,"åħ¬åħ±å®īåħ¨çļĦ":11529,"æ²¡æľīæ³ķå¾ĭ":11530,"æ¸ħæ´Ĺ":11531,"å¯ĨéĽĨ":11532,"ä¼ĺèī¯":11533,"æ¡Īä»¶æĹ¶":11534,"ä½ľåĩºæĺ¯åĲ¦":11535,"ä½ľåĩºåĪ¤åĨ³":11536,"æĶ¯ä»ĺæĸ¹å¼ı":11537,"Ġthey":11538,"æĪĲå¹´äºº":11539,"æľŁéĻĲåĴĮ":11540,"æĪ¿ä¸ľ":11541,"çķĻä¸ĭ":11542,"æ¸¸å®¢":11543,"åį±éĻ©æĢ§":11544,"è¡ĮæĶ¿æ³ķè§ĦåĴĮåĽ½åĬ¡éĻ¢":11545,"åıĸå¾ĹäºĨ":11546,"åĨħå®¹åĴĮ":11547,"å¸Ĥåľºä»½é¢Ŀ":11548,"åĬ¨çī©çĸ«æĥħ":11549,"æĺ¯æĮĩä»¥":11550,"äººå·¥æĻºèĥ½åı¯ä»¥éĢļè¿ĩ":11551,"åģĩåĨĴ":11552,"èį¯åĵģçļĦ":11553,"èį¯åĵģçĶŁäº§ä¼ģä¸ļ":11554,"ç½ĳç»ľæľįåĬ¡æıĲä¾ĽèĢħ":11555,"åºŁæ°Ķ":11556,"çİĩåĴĮ":11557,"è¿Ļä¸ªåı¥åŃĲ":11558,"æ¤ħ":11559,"ç²¾ç¡®":11560,"äºĶåįģä¸ĩåħĥä»¥ä¸ĬäºĶçĻ¾ä¸ĩåħĥä»¥ä¸ĭçļĦç½ļæ¬¾":11561,"å¦Ĥä½ķåĪ¶ä½ľ":11562,"äººæ°ĳæ£Ģå¯ŁéĻ¢æ£Ģå¯Łéķ¿":11563,"Ġboth":11564,"ä»Ģä¹Īæł·çļĦ":11565,"ous":11566,"éļ¾åº¦":11567,"åįłæ¯Ķ":11568,"æ®ĭçĸ¾åĦ¿ç«¥":11569,"æıĲèµ·ç¦»å©ļè¯īè®¼":11570,"äºĭå®ŀæ¸ħæ¥ļ":11571,"ĠåĽ½åĬ¡éĻ¢çĶŁæĢģçİ¯å¢ĥä¸»ç®¡éĥ¨éĹ¨":11572,"éģĩæľī":11573,"åķĨåĵģåĴĮæľįåĬ¡":11574,"è´¢æĶ¿ç»ıæµİ":11575,"æ¶Īè´¹èĢħåĲĪæ³ķæĿĥçĽĬ":11576,"æĳĨ":11577,"åĲįç§°åĴĮ":11578,"å°±ä¸ļæľºä¼ļ":11579,"åī¯èĳ£äºĭéķ¿":11580,"åĩºèµĦä¼ģä¸ļ":11581,"åŁºç¡ĢçłĶç©¶":11582,"èº«ä»½çļĦ":11583,"çĶŁæĪĲä»ĸä»¬ä¹ĭéĹ´çļĦ":11584,"å°½åĪ°":11585,"ç¤¾ä¼ļä¿ĿéĻ©è¡ĮæĶ¿éĥ¨éĹ¨":11586,"æķ°é¢ĿçļĦ":11587,"ä¿¡æīĺäºĭåĬ¡":11588,"Ġåľ¨ä¸Ńåįİäººæ°ĳåħ±åĴĮåĽ½":11589,"ä¸¤ä¸ªè§Ĵèī²ä¿¡æģ¯":11590,"çļĦåħ·ä½ĵåĬŀæ³ķçĶ±åĽ½åĬ¡éĻ¢":11591,"ility":11592,"åįĥåħĥä»¥ä¸ĭçļĦç½ļæ¬¾":11593,"çĸ«èĭĹä¸Ĭå¸Ĥè®¸åı¯æĮģæľīäºº":11594,"æŃ£å¸¸ä½¿çĶ¨":11595,"çĬ¯ç½ªå«ĮçĸĳäººçļĦ":11596,"ç«ŀäºīåĬĽ":11597,"åıĹæīĺäººçļĦ":11598,"è¯¦ç»Ĩä¸°å¯Į":11599,"æĬķåħ¥çĶŁäº§":11600,"2024":11601,"çī¹çĤ¹çļĦ":11602,"éģŃåıĹéĩįå¤§æįŁå¤±çļĦ":11603,"åĵģç§įçļĦ":11604,"åĨľæĿĳéĽĨä½ĵç»ıæµİç»Ħç»ĩæĪĲåĳĺ":11605,"ç®¡çĲĨåĴĮçĽĳçĿ£":11606,"äºĴèģĶç½ĳæľįåĬ¡æıĲä¾ĽèĢħ":11607,"æµªæ¼«":11608,"çĶµè§Ĩåī§":11609,"ç»ıéªĮåĴĮ":11610,"ĠåĲĦçº§äººæ°ĳæĶ¿åºľåıĬåħ¶æľīåħ³éĥ¨éĹ¨":11611,"æĳĦæ°ı":11612,"æİĴåºıç®Ĺæ³ķ":11613,"çģŃå¤±çļĦ":11614,"çıįæĥľ":11615,"æĢĢçĸĳ":11616,"æł¹æį®çĽ¸åħ³æ³ķè§Ħ":11617,"ç¤¾ä¼ļæķĳåĬ©ç®¡çĲĨéĥ¨éĹ¨":11618,"çľ¼çĿĽ":11619,"--------":11620,"åģıå¥½":11621,"äººä½ĵåģ¥åº·":11622,"éĢļçĶ¨èĪªç©º":11623,"åĴĮè§£åįıè®®":11624,"éĢĤéĩıçļĦ":11625,"éĶħä¸Ń":11626,"éĶħçĤī":11627,"ä»ªå¼ı":11628,"ä»ªåĻ¨":11629,"éĿŀçī©è´¨æĸĩåĮĸéģĹäº§ä»£è¡¨æĢ§":11630,"è®²è¿°äºĨ":11631,"å¿«éĢĴä¸ļåĬ¡":11632,"çĶ³è¯·è¡ĮæĶ¿å¤įè®®æĪĸèĢħ":11633,"åłĨæĶ¾":11634,"åĹ¯":11635,"ç»Ļä½łä¸¤ä¸ªè§Ĵèī²ä¿¡æģ¯":11636,"Ġshould":11637,"é©»å¤ĸå¤ĸäº¤äººåĳĺ":11638,"æ¯ķä¸ļçĶŁ":11639,"å»ºçŃĳæĸ½å·¥ä¼ģä¸ļ":11640,"æİ©é¥°":11641,"æľ¬åħ¬åı¸èĤ¡ä»½":11642,"é¡ºåĪ©è¿Ľè¡Į":11643,"çŁ¿ä¸ļæĿĥåĩºè®©":11644,"å®ļä½ľäºº":11645,"æĹłæľŁå¾ĴåĪĳæĪĸèĢħæŃ»åĪĳ":11646,"åħįçĸ«è§ĦåĪĴçĸ«èĭĹ":11647,"ä¼łæŁĵçĹħçĹħåİŁä½ĵ":11648,"éĻĦå¸¦æ°ĳäºĭè¯īè®¼":11649,"æĸĩçī©æĶ¶èĹıåįķä½į":11650,"GANæĬĢæľ¯":11651,"èĤĩäºĭ":11652,"è¦ģæ±Ĥå¯¹è¯ĿåĨħå®¹è¯¦ç»Ĩä¸°å¯Į":11653,"çĶŁæĪĲä»ĸä»¬ä¹ĭéĹ´çļĦä¸Ģæ®µå¯¹è¯Ŀ":11654,"ç»Ļä½łä¸¤ä¸ªè§Ĵèī²ä¿¡æģ¯å¦Ĥä¸ĭ":11655,"over":11656,"Ð°":11657,"ç¶":11658,"Ġä¸ª":11659,"Ġä¸ŃåĽ½":11660,"ĠâĢľ":11661,"Ġä¸Ńå¤®":11662,"ĠåĬłåħ¥":11663,"īåħ¬":11664,"çļĦç»ĦæĪĲ":11665,"çļĦåŃ¦çĶŁ":11666,"çļĦè¯Ńè¨Ģ":11667,"åı¹":11668,"äººäºĭ":11669,"åįľ":11670,"åĴĮäººåĳĺ":11671,"åĴĮä¸»æĮģ":11672,"åºĶä»¥":11673,"éĢĬ":11674,"çĲ´":11675,"æĪĸèĢħä¸º":11676,"æĪĸèĢħæĺ¯":11677,"æĪĸèĢħæĮīçħ§":11678,"æĪĸèĢħæľīåħ³éĥ¨éĹ¨":11679,"æĪĸèĢħæĴ¤èģĮ":11680,"åľ¨æŁĲ":11681,"ä¸įæī¿æĭħ":11682,"ä¸įåĲĪçĲĨ":11683,"åºĶå½ĵæī§è¡Į":11684,"çĶŁçĪ¶æ¯į":11685,"ä¸ºä½ł":11686,"è§Ħå®ļæľŁéĻĲåĨħ":11687,"ä¸Ńåıĳçİ°":11688,"ä¸ŃéĢĶ":11689,"æĺ¯å¦Ĥä½ķ":11690,"åı¯ä»¥åĩıå°ĳ":11691,"ç»ıæī¹åĩĨ":11692,"åıĳè´§":11693,"æµ¸":11694,"æµĨ":11695,"æıĲæ¡Ī":11696,"çŃīå¤ļç§į":11697,"åĬ¨çĶ¨":11698,"äºĶä¸ª":11699,"å¹¶ç¬¦åĲĪ":11700,"å¹¶å¤Ħç½ļæ¬¾":11701,"è¾Ĳ":11702,"çħ§æĬ¤":11703,"åĵģè¡Į":11704,"æľīåħ³ä¸ĵéĹ¨å§Ķåĳĺä¼ļ":11705,"ä½ĵéĩį":11706,"éĺ´":11707,"æ´Ľ":11708,"æ³ķå¾ĭé¡¾éĹ®":11709,"è¡ĮæĶ¿å¼ºåĪ¶æİªæĸ½":11710,"æł¹æį®åĽ½å®¶":11711,"å·¥ä½ľåľºæīĢ":11712,"å·¥ä½ľæľºåĪ¶":11713,"ä»¥ä¸ĬåĽŀçŃĶ":11714,"æĪĳåĴĮ":11715,"æľªå¯¹":11716,"æľªå°Ĩ":11717,"äº¤åıī":11718,"åıĹè¿ĩ":11719,"å¼ĢæĶ¯":11720,"æģ©":11721,"åĬłéĩį":11722,"åĬłå¯Ĩ":11723,"æĮīè§Ħå®ļ":11724,"è¢«å¹¿æ³Ľ":11725,"åĮĸè§£":11726,"åĮĸçŁ³":11727,"ä»¥ä¸ĭçļĦ":11728,"ä»¥ä¸ĭæĿ¡ä»¶":11729,"ä»¥ä¸ĭæĺ¯ä¸Ģä¸ª":11730,"ä»¥ä¸ĭåı¥åŃĲ":11731,"è®¡åħ¥":11732,"æķ°ä¸º":11733,"æıĲä¾ĽæĶ¯æĮģ":11734,"ä½¿çĶ¨èĢħ":11735,"æĮīçħ§ä¸ĭåĪĹ":11736,"é«ĺéĢŁ":11737,"æĿ¥ä¿ĿæĬ¤":11738,"æĿ¥è®¡ç®Ĺ":11739,"åŃĲåĴĮ":11740,"çĶµæ±ł":11741,"ä¸įå¾Ĺä½İäºİ":11742,"ç¬¬åĽĽæ¬¾":11743,"ï¼ŁâĢĿ":11744,"çĶ³è¯·æī§è¡Į":11745,"éĻ¤æľ¬æ³ķ":11746,"éĿŀèĲ¥åĪ©":11747,"éĢīç¥¨":11748,"å¤ļé¡¹":11749,"éĩĩåıĸè¡ĮåĬ¨":11750,"åĿĳ":11751,"ä½łæľīä»Ģä¹Ī":11752,"å¤±è´¥":11753,"ä»¥åıĬå¯¹":11754,"ä¹Łåı¯ä»¥åĲĳ":11755,"åŃĺåħ¥":11756,"åıĺè´¨":11757,"åıĺæļĸ":11758,"è½¬è´¦":11759,"æī¿æĭħè¿ŀå¸¦":11760,"ĠåĽ½å®¶ä¿Ŀéļľ":11761,"è´£ä»¤åģľä¸ļ":11762,"æİĴåĲį":11763,"åĽŀæĬ¥":11764,"åĽŀå½Ĵ":11765,"è®¸åı¯äºº":11766,"èĪªè¿Ĳ":11767,"å£®":11768,"å©Ĩ":11769,"çī¹åĪ«éĩįå¤§":11770,"ç¦»èĪ¹":11771,"èģĶåĬ¨":11772,"æľŁå¾ħ":11773,"æĥħå½¢ä¹ĭä¸ĢçļĦ":11774,"çĥ¦":11775,"èİ«":11776,"Ġsc":11777,"äºĪä»¥å¤ĦçĲĨ":11778,"æĪ¿éĹ´":11779,"æ¯ıåĳ¨":11780,"ä¹°æĸ¹":11781,"æ¸¸ä¹Ĳ":11782,"ä¸ļåĬ¡èĮĥåĽ´":11783,"èĩªçĦ¶äººçļĦ":11784,"äºĭæķħè°ĥæŁ¥":11785,"åħ±åĲĮçĶŁæ´»çļĦ":11786,"ory":11787,"anc":11788,"çłĶç©¶çĶŁ":11789,"éĿŀæ³ķä¹°åįĸ":11790,"éĻĦæĿ¡ä»¶":11791,"è¯ģæĺİçļĦ":11792,"Ġcl":11793,"èį¯åĵģç»ıèĲ¥ä¼ģä¸ļ":11794,"äºĴæĥł":11795,"aly":11796,"alcul":11797,"ä½İç¢³":11798,"çĽ´è¾ĸå¸ĤçļĦ":11799,"äºĶåįģä¸ĩåħĥçļĦ":11800,"ä¸»è¦ģçĶ¨äºİ":11801,"éĥ¨åĪĨæĪĸèĢħåħ¨éĥ¨":11802,"éĻĲåĪ¶èµĶåģ¿è´£ä»»":11803,"ç´łåħ»":11804,"éĽĨä½ĵæĪĲåĳĺ":11805,"è½»è½»":11806,"èĪªç©ºè¿Ĳè¾ĵ":11807,"æıĲèµ·åħ¬è¯ī":11808,"çļĦåħ¶ä»ĸè¡Įä¸º":11809,"çĲĥçļĦ":11810,"èµĶåģ¿è´£ä»»éĻĲé¢Ŀ":11811,"æľŁè´§å¸Ĥåľº":11812,"å½Ĵä¸ªäºº":11813,"è¯ģä¹¦çļĦ":11814,"åĴĮç¤¾ä¼ļä¿Ŀéļľ":11815,"æĿĳæ°ĳå°ıç»Ħ":11816,"æĿĳæ°ĳä»£è¡¨ä¼ļè®®":11817,"çī¹æ®ĬæĥħåĨµä¸ĭ":11818,"å·¥ä½ľçļĦé¢Ĩå¯¼":11819,"æī§æ³ķæ£ĢæŁ¥":11820,"åĩĨç¡®åľ°":11821,"èıľèĤ´":11822,"ä¸»ä½ĵå·¥ç¨ĭ":11823,"æ£Ģçĸ«æŁ¥éªĮ":11824,"ç¬¬ä¸ĢçĻ¾ä¸Ģåįģåħ«æĿ¡":11825,"åķĨæłĩå±Ģ":11826,"åºĶå¯¹å¤Ħç½®":11827,"å·¥ä¸ļåĴĮä¿¡æģ¯åĮĸ":11828,"ä¸įæĸŃæıĲé«ĺ":11829,"çĮ®è¡Ģ":11830,"éģĵè·¯äº¤éĢļäºĭæķħ":11831,"ç¬¬ä¸īçĻ¾ä¸Ģåįģ":11832,"æ¸Ķä¸ļæ°´åŁŁ":11833,"ç´§æĢ¥æĥħåĨµ":11834,"å®¡è®®æĦıè§ģ":11835,"çĭĹçĭĹ":11836,"ä¾ĽåºĶéĵ¾":11837,"æĭĸèĪª":11838,"çī©èµĦçļĦ":11839,"æ¸ħåģ¿åĢºåĬ¡":11840,"ample":11841,"èīºæľ¯ä½ľåĵģ":11842,"æĭĽæłĩæĬķæłĩ":11843,"çĶµè§Ĩåı°":11844,"æŀªæĶ¯çļĦ":11845,"åĻªå£°æ±¡æŁĵ":11846,"Ġäººæ°ĳæ³ķéĻ¢å®¡çĲĨ":11847,"æ°¸è¿ľ":11848,"ç¬¬äºĮæ¬¾çļĦè§Ħå®ļ":11849,"åŃ©åŃĲä»¬":11850,"åŃ£åº¦":11851,"ä¿ĿæĬ¤åĴĮæĶ¹åĸĦ":11852,"æĶ¶åħ»äºº":11853,"ä¼ļåĳĺä»£è¡¨å¤§ä¼ļ":11854,"å¤©æ°Ķé¢ĦæĬ¥":11855,"çº¢åįģåŃĹæłĩå¿Ĺ":11856,"æĳĦå½±":11857,"äººæ°ĳè°ĥè§£æ³ķ":11858,"çīĽæİĴ":11859,"æµ·å²Ľä¿ĿæĬ¤":11860,"æķ°åŃ¦é¢ĺ":11861,"éĺ²æ´ªè§ĦåĪĴ":11862,"åŁºéĩĳæīĺç®¡äººçļĦ":11863,"åıĤçħ§æľ¬æ³ķ":11864,"çĪ¶æ¯įæĪĸèĢħåħ¶ä»ĸçĽĳæĬ¤äººåºĶå½ĵ":11865,"è¿Ŀæ³ķçĬ¯ç½ªæ´»åĬ¨":11866,"éŃħ":11867,"èģļä¼ĹæĸĹæ®´":11868,"çĶµä¿¡ç½ĳç»ľè¯ĪéªĹæ´»åĬ¨":11869,"å·´é»İ":11870,"èĤ¡ä»½æľīéĻĲåħ¬åı¸çļĦ":11871,"åĩºè´¨äºº":11872,"æĬ¥ç»ıæľīæī¹åĩĨæĿĥçļĦ":11873,"èħĲèļĢ":11874,"å¸Ĥè¾ĸåĮºçļĦ":11875,"æıĴåħ¥":11876,"è¿Ŀè§Ħè¡Įä¸º":11877,"åı°æ¹¾åĲĮèĥŀ":11878,"æĹłåħ³çļĦ":11879,"åıĳè¡¨æĦıè§ģ":11880,"æĸĩåĮĸåĴĮæĹħæ¸¸":11881,"å¦Īå¦Ī":11882,"èģĮä¸ļæĬĢèĥ½åŁ¹è®Ń":11883,"ä¸ĵæ³¨äºİ":11884,"ä»¥ä¸ĭåĩłä¸ªæĸ¹éĿ¢":11885,"åĸĦæĦıç¬¬ä¸īäºº":11886,"è¿½ç´¢æĿĥ":11887,"ermine":11888,"ä¸ĩåħĥä»¥ä¸Ĭä¸īåįģä¸ĩåħĥä»¥ä¸ĭç½ļæ¬¾":11889,"æ²¡æľīçº¦å®ļæĪĸèĢħçº¦å®ļä¸įæĺİç¡®çļĦ":11890,"ä¸Ńåįİäººæ°ĳåħ±åĴĮåĽ½ç¼Ķç»ĵæĪĸèĢħåıĤåĬłçļĦåĽ½éĻħæĿ¡çº¦":11891,"èģĮä¸ļåģ¥åº·æ£ĢæŁ¥":11892,"çŃĽéĢī":11893,"å¹¶å¤Ħè¿Ŀæ³ķæīĢå¾Ĺä¸ĢåĢįä»¥ä¸ĬäºĶåĢįä»¥ä¸ĭç½ļæ¬¾":11894,"åįĹæŀģæ´²":11895,"åıĹéĢģè¾¾äºº":11896,"å½¼æŃ¤":11897,"æĹłéļľç¢įçİ¯å¢ĥå»ºè®¾":11898,"Ġtwo":11899,"æª¬":11900,"èĲĿåįľ":11901,"æŁłæª¬":11902,"ram":11903,"çį":11904,"ĠåĲĦ":11905,"Ġç¡®å®ļ":11906,"Ġä¿ĿæĮģ":11907,"Ġæ°ĳçĶ¨èĪªç©ºåĻ¨":11908,"ĠæĶ¿åºľéĩĩè´Ń":11909,"çļĦèģĮåĬ¡":11910,"çļĦåĪĳç½ļ":11911,"çļĦäºĭæĥħ":11912,"æ³ķæ¡Ī":11913,"åĴĮåľ¨":11914,"åĴĮä¸Ģä¸ª":11915,"åĴĮè´¨éĩı":11916,"åĴĮè¡¨åĨ³":11917,"è¡Įç¨ĭ":11918,"æľīä»·":11919,"åĨ¶":11920,"åºĶåĮħæĭ¬":11921,"å½ĵä»Ĭ":11922,"ä¼ļå¯¼èĩ´":11923,"æĪĸèĢħçĽĳå¯Łæľºåħ³":11924,"åľ¨è¿Ļ":11925,"åºĶå½ĵè´£ä»¤":11926,"åºĶå½ĵåĲ¬åıĸ":11927,"åħ¶å®ŀ":11928,"ä¸ºä¸»ä½ĵ":11929,"æĺ¯éĿŀå¸¸éĩįè¦ģçļĦ":11930,"æĿĥå¨ģ":11931,"ä¸īåĢįä»¥ä¸ĭçļĦç½ļæ¬¾":11932,"åı¯ä»¥å°Ŀè¯ķ":11933,"æľ¬äººæĪĸèĢħ":11934,"æľ¬éĽĨä½ĵç»ıæµİç»Ħç»ĩ":11935,"åıĳè¾¾":11936,"åĩºè¡Į":11937,"åħ¨æĹ¥åĪ¶":11938,"åĬ¨è¯į":11939,"äºĶçĻ¾åħĥ":11940,"åĲĮçº§äººæ°ĳæĶ¿åºľ":11941,"åĽ½å®¶åľ¨":11942,"æīĢä½ľ":11943,"æīĢè½½":11944,"çĶ±æµ·äºĭç®¡çĲĨæľºæŀĦ":11945,"å¾ĹåĪ©":11946,"åıĬæīĢéĻĦ":11947,"å¹´æĿ¥":11948,"è¡ĮæĶ¿è¡Įä¸ºçļĦ":11949,"ä»£æī£":11950,"æľºæŀĦçŃī":11951,"ä½¿åĳ½":11952,"è¿ĩæ¸¡":11953,"è¿Ŀç«ł":11954,"ä¾Ŀæ³ķæī§è¡ĮèģĮåĬ¡":11955,"ç»Ħç»ĩå¯¹":11956,"ç»Ħç»ĩåĪ¶å®ļ":11957,"è¢«æĭĴç»Ŀ":11958,"è¢«ä¾µæĿĥäºº":11959,"éľĢè¦ģæıĲä¾Ľ":11960,"æıĲä¾Ľæ³ķå¾ĭæı´åĬ©":11961,"æķĻæĿĲ":11962,"éĽķ":11963,"æµ·å¤ĸ":11964,"éĿ¢åĮħ":11965,"å¼ıèģĶè¿Ĳ":11966,"åĲįä¸ĭ":11967,"ä¸įå¾ĹåĽł":11968,"ä¹¦è®°":11969,"æĽ´é«ĺ":11970,"å¼ºçĥĪ":11971,"è®°å¿Ĩ":11972,"æĸ°æĹ¶ä»£":11973,"éķ¿æĹ¶éĹ´":11974,"éĿŀéĵ¶è¡Į":11975,"éĢīä»»":11976,"éĢīæĭĶ":11977,"å¤ļå¼ıèģĶè¿Ĳ":11978,"è´¢äº§å®īåħ¨çļĦ":11979,"ä¿ĿéĻ©éĩĳé¢Ŀ":11980,"å¯¼åĲĳ":11981,"è¦ģæ±ĤåĴĮ":11982,"æī§è¡ĮæĥħåĨµ":11983,"æī§è¡ĮåĪĳç½ļ":11984,"éģĵçļĦ":11985,"å¤±èģĮ":11986,"æľĢå°ı":11987,"ä¸Ńåįİäººæ°ĳåħ±åĴĮåĽ½ä¸»å¸Ń":11988,"éĢļè¿ĩå¯¹":11989,"è´§ä¸»":11990,"è½¬äº¤":11991,"éĵĢ":11992,"ĠåĽ½å®¶ä¿ĿæĬ¤":11993,"ĠåĽ½å®¶å®ĮåĸĦ":11994,"åı¯èĥ½åŃĺåľ¨":11995,"ä¼ļè®®ä¸Ĭ":11996,"æİĴéª¨":11997,"åĻ¨å®ĺ":11998,"åħ·ä½ĵæĿ¥è¯´":11999}